e </w>
s </w>
t h
, </w>
i n
t </w>
d </w>
a n
e r
的 </w>
o n
th e</w>
y </w>
. </w>
e n
o r
。 </w>
o </w>
t i
a r
a l
o u
g </w>
r e
f </w>
a </w>
in g</w>
e d</w>
o f</w>
an d</w>
on </w>
t o</w>
er </w>
s t
in </w>
e s</w>
c h
o m
i s</w>
l </w>
在 </w>
a t
a t</w>
l i
是 </w>
r o
or </w>
s i
al </w>
an </w>
a s</w>
r i
e c
e l
a ti
e s
a c
了 </w>
们 </w>
a s
w i
d i
en </w>
v e</w>
w h
o w
e m
y ou
s h
l y</w>
l e</w>
t s</w>
en t</w>
和 </w>
个 </w>
th </w>
u r
i c
th at</w>
a m
有 </w>
k </w>
我 </w>
i t</w>
u n
i </w>
u s
r </w>
h a
f or</w>
o p
o l
p ro
d e
l e
" </w>
人 </w>
g h
a b
you </w>
你 </w>
ati on</w>
i t
c on
他 </w>
a g
' s</w>
c om
a d
) </w>
为 </w>
b e
( </w>
s u
ch </w>
c e</w>
: </w>
l o
会 </w>
e x
v er
a i
p </w>
ar e</w>
t r
a y</w>
th e
到 </w>
国 </w>
? </w>
wi th</w>
n </w>
b u
n e
、 </w>
a p
s e
s p
v i
f or
一 </w>
m </w>
t er
n o
er e</w>
要 </w>
b e</w>
0 </w>
ti on</w>
一 个</w>
我 们</w>
l d</w>
f i
上 </w>
l l</w>
以 </w>
p o
ow </w>
f r
c i
s t</w>
能 </w>
来 </w>
这 </w>
th is</w>
ou n
中 </w>
s e</w>
om </w>
a k
m o
对 </w>
q u
u l
er s</w>
ar </w>
“ </w>
on s</w>
ha ve</w>
w or
于 </w>
w as</w>
” </w>
p l
用 </w>
b y</w>
o o
ou t</w>
al l</w>
f f
p er
at e</w>
些 </w>
s o</w>
m e
p re
on e</w>
h e</w>
m i
说 </w>
d u
他 们</w>
w </w>
t y</w>
th er</w>
w e</w>
p e
年 </w>
p ar
no t</w>
m e</w>
d s</w>
m ent</w>
ou ld</w>
t er</w>
不 </w>
h i
- </w>
fr om</w>
bu t</w>
c </w>
st r
i m
将 </w>
行 </w>
a y
g r
t ed</w>
c an</w>
家 </w>
e t</w>
the y</w>
t e
子 </w>
w e
gh t</w>
es s</w>
m an
v er</w>
wi ll</w>
h as</w>
时 </w>
ur e</w>
m or
g o
p or
里 </w>
c o
者 </w>
wh i
种 </w>
都 </w>
; </w>
多 </w>
生 </w>
与 </w>
a in
em </w>
in g
后 </w>
它 </w>
al ly</w>
d ing</w>
过 </w>
2 0
就 </w>
g i
c l
t ing</w>
b i
地 </w>
作 </w>
性 </w>
而 </w>
果 </w>
但 </w>
h e
出 </w>
s om
ch in
得 </w>
h is</w>
么 </w>
力 </w>
大 </w>
an g
it y</w>
间 </w>
y e
她 </w>
en ts</w>
1 </w>
an t</w>
b o
a f
com p
i r</w>
也 </w>
t o
可 以</w>
t u
业 </w>
2 </w>
mor e</w>
es t</w>
you r</w>
法 </w>
d e</w>
m ar
被 </w>
i s
定 </w>
着 </w>
a u
the ir</w>
' t</w>
5 </w>
动 </w>
ai d</w>
en t
gh </w>
ag e</w>
ak e</w>
a in</w>
on al</w>
ic </w>
on g</w>
a d</w>
度 </w>
u m
样 </w>
i f</w>
没 有</w>
前 </w>
es e</w>
ou r</w>
du c
whi ch</w>
in ter
n ow</w>
v el
us e</w>
m in
并 </w>
道 </w>
下 </w>
f e
s o
us t</w>
ti c
m y</w>
u s</w>
wh at</w>
' </w>
s c
e v
f in
en ce</w>
i l
ab le</w>
th ere</w>
s er
re c
去 </w>
理 </w>
i ts</w>
con t
中 国</w>
at ed</w>
k e</w>
p u
d o
面 </w>
好 </w>
ou r
o ther</w>
s aid</w>
wh en</w>
ab out</w>
3 </w>
u p</w>
as t</w>
d ay</w>
学 </w>
t e</w>
k s</w>
很 </w>
! </w>
c oun
从 </w>
p ri
pe op
d o</w>
司 </w>
an ce</w>
现 </w>
量 </w>
ay s</w>
si on</w>
化 </w>
al l
本 </w>
peop le</w>
d er</w>
题 </w>
v e
f u
d er
公 司</w>
想 </w>
1 9
ti me</w>
4 </w>
件 </w>
可 能</w>
f ac
成 </w>
w ere</w>
ha d</w>
该 </w>
ati ons</w>
ow n</w>
k ing</w>
g re
b ec
s el
这 个</w>
员 </w>
b </w>
ne w</w>
及 </w>
点 </w>
fi r
或 </w>
0 0</w>
wh o</w>
b l
ar d</w>
ver y</w>
d r
把 </w>
d ed</w>
m on
k e
b r
如 果</w>
天 </w>
务 </w>
c re
斯 </w>
am e</w>
美 国</w>
s y
ou s</w>
常 </w>
p r
经 </w>
这 些</w>
s ec
物 </w>
ou gh</w>
in e</w>
场 </w>
体 </w>
be en</w>
an y</w>
方 </w>
es s
w ould</w>
示 </w>
p h
som e</w>
el l</w>
as e</w>
li ke</w>
ar y</w>
g e</w>
ar s</w>
% </w>
ec t</w>
al so</w>
6 </w>
com m
pre s
式 </w>
当 </w>
问 题</w>
t ri
am </w>
g e
t w
a v
oo d</w>
什 么</w>
sh e</w>
oun d</w>
让 </w>
h er</w>
for m
th an</w>
所 </w>
li c
t en
心 </w>
然 </w>
chin a</w>
ti es</w>
f l
次 </w>
o c
8 </w>
长 </w>
统 </w>
月 </w>
ti ons</w>
分 </w>
机 </w>
c or
sh </w>
s ti
st u
己 </w>
入 </w>
n i
自 己</w>
做 </w>
同 </w>
工 作</w>
j o
w ay</w>
品 </w>
th ing</w>
给 </w>
n o</w>
因 为</w>
据 </w>
ol d</w>
ec i
g u
x </w>
新 </w>
al i
· </w>
此 </w>
em ent</w>
t ur
7 </w>
何 </w>
其 </w>
研 究
ac k</w>
ic e</w>
ing s</w>
in to</w>
si g
r e</w>
事 </w>
an d
向 </w>
期 </w>
ti ve</w>
位 </w>
p p
vel op
国 家</w>
m u
更 </w>
mo st</w>
g en
20 0
de velop
ol l
th em</w>
ad e</w>
起 </w>
u c
en g
lo o
— </w>
o ff
议 </w>
th o
部 </w>
h ow</w>
or s</w>
已 经</w>
制 </w>
c e
名 </w>
展 </w>
j ust</w>
b er</w>
be t
尔 </w>
el y</w>
t t
g et</w>
wor k</w>
使 </w>
st s</w>
还 </w>
进 行</w>
加 </w>
一 些</w>
a use</w>
研究 </w>
需 要</w>
c es</w>
or y</w>
程 </w>
s s</w>
af ter</w>
明 </w>
en ti
i es</w>
候 </w>
— —</w>
at es</w>
ati onal</w>
s ed</w>
o b
界 </w>
t ure</w>
ser v
c ar
c u
高 </w>
a ch
al s</w>
数 </w>
ac e</w>
经 济
en d</w>
tw o</w>
n ing</w>
man y</w>
on ly</w>
un i
求 </w>
cl u
不 是</w>
d y</w>
持 </w>
re d</w>
th ese</w>
利 </w>
论 </w>
an s</w>
意 </w>
k ed</w>
qu i
区 </w>
m a
o ver</w>
sh i
wor ld</w>
fir st</w>
l a
di ff
9 </w>
pro duc
外 </w>
术 </w>
时 间</w>
合 </w>
h </w>
on om
d on</w>
c ould</w>
像 </w>
吗 </w>
sy st
th en</w>
v es</w>
e a
h el
由 </w>
g y</w>
供 </w>
ol o
b le</w>
- -</w>
府 </w>
m ay</w>
/ </w>
e l</w>
计 </w>
ch ang
日 </w>
e i
sh ould</w>
认 为</w>
m ake</w>
时 候</w>
v ing</w>
政 府</w>
o f
最 </w>
器 </w>
ap p
话 </w>
bec ause</w>
使 用</w>
少 </w>
s ur
ye ar</w>
系 </w>
at ing</w>
等 </w>
re l
ec onom
元 </w>
知 道</w>
比 </w>
格 </w>
re e</w>
u e</w>
通 过</w>
i li
管 </w>
现 在</w>
m an</w>
所 有</w>
l ed</w>
那 </w>
p s</w>
始 </w>
提 供</w>
re s</w>
其 他</w>
受 </w>
望 </w>
go ver
i r
经济 </w>
ro w
th in
如 </w>
型 </w>
ti m
f e</w>
发 </w>
ye ars</w>
h o
世 界</w>
som e
发 展</w>
内 </w>
应 </w>
su ch</w>
st e
s ch
gover n
hi m</w>
关 </w>
s es</w>
情 </w>
n ational</w>
息 </w>
特 </w>
车 </w>
色 </w>
c ri
1 0</w>
at er</w>
th r
n ed</w>
球 </w>
ci al</w>
por t
w ell</w>
ex p
di s
活 </w>
全 </w>
c ur
v ed</w>
c er
fu l</w>
民 </w>
el l
om e</w>
开 始</w>
tr y</w>
di c
wh ere</w>
us ed</w>
亚 </w>
for e</w>
可 </w>
k now</w>
产 </w>
ar i
立 </w>
m at
lo c
g ood</w>
g o</w>
助 </w>
or i
看 </w>
》 </w>
《 </w>
克 </w>
ev en</w>
p le</w>
ic al</w>
tr an
义 </w>
f un
b an
率 </w>
e ver</w>
第 </w>
d ent</w>
e ff
por t</w>
这 样</w>
s on</w>
ic i
st ri
际 </w>
se e</w>
金 </w>
mi l
p i
西 </w>
en c
am er
syst em</w>
str uc
pu b
易 </w>
小 </w>
s ing</w>
b as
实 </w>
op er
r a
wi th
开 </w>
就 是</w>
这 种</w>
re sp
e ar
况 </w>
且 </w>
系 统</w>
diff er
th er
r u
重 要</w>
约 </w>
y ing</w>
ati ve</w>
chin ese</w>
项 </w>
com e</w>
表 示</w>
b us
su l
t ake</w>
市 </w>
ar t</w>
c ul
代 </w>
但 是</w>
ti c</w>
su b
构 </w>
目 </w>
户 </w>
li fe</w>
口 </w>
per i
h ere</w>
s ol
te ch
以 及</w>
se ar
表 </w>
mu ch</w>
ri ght</w>
c ap
c ol
gen er
因 </w>
h ou
近 </w>
响 </w>
thr ough</w>
别 </w>
c ess</w>
t or</w>
类 </w>
市 场</w>
e st
备 </w>
a st
t re
m em
续 </w>
c en
l ar
in v
' re</w>
进 </w>
信 </w>
it e</w>
任 何</w>
thin k</w>
部 分</w>
ai l
in ess</w>
d ec
f ri
pro vi
on g
it ed</w>
划 </w>
自 </w>
生 活</w>
bet we
见 </w>
告 </w>
m s</w>
betwe en</w>
ak ing</w>
tho se</w>
amer ic
须 </w>
达 </w>
ter s</w>
in clu
k et</w>
c an
方 法</w>
po li
sp eci
f ic
m ade</w>
em s</w>
tr a
whi le</w>
解 </w>
develop ment</w>
ac t</w>
b ri
l ast</w>
un der
ch ar
德 </w>
影 响</w>
两 </w>
洲 </w>
则 </w>
布 </w>
19 9
po in
k n
人 们</w>
师 </w>
s en
re ad
pub li
oo k</w>
be fore</w>
h u
b ack</w>
门 </w>
20 1
所 以</w>
括 </w>
至 </w>
不 同</w>
comp any</w>
govern ment</w>
man ag
v al
技 术</w>
ou t
ow er</w>
z e</w>
u m</w>
s in
em p
an i
d own</w>
料 </w>
vi e
g g
su p
应 该</w>
l l
w ant</w>
包 括</w>
必 须</w>
变 </w>
源 </w>
sel f</w>
op </w>
si de</w>
水 </w>
发 现</w>
士 </w>
情 况</w>
gr ou
正 </w>
0 00</w>
d em
气 </w>
查 </w>
r y</w>
织 </w>
e -
识 </w>
队 </w>
之 </w>
重 </w>
资 </w>
go ing</w>
象 </w>
t ly</w>
非 常</w>
ne ed</w>
手 </w>
图 </w>
po si
试 </w>
s si
够 </w>
tech n
v en
s ay</w>
ec tion</w>
美 元</w>
n or
b er
su m
平 </w>
您 </w>
hi gh
in d</w>
w ays</w>
三 </w>
s m
le t</w>
d es
文 </w>
s ays</w>
许 多</w>
l es</w>
头 </w>
值 </w>
服 务</w>
级 </w>
问 </w>
ar e
成 为</w>
请 </w>
as s</w>
form ation</w>
al ity</w>
ab ili
s ure</w>
f am
d at
它 们</w>
e p</w>
n um
步 </w>
l in
称 </w>
单 </w>
ec ted</w>
组 织</w>
院 </w>
险 </w>
t y
境 </w>
e f
线 </w>
j u
sti ll</w>
im port
f er
造 </w>
vi r
案 </w>
份 </w>
标 </w>
h ar
验 </w>
方 面</w>
we e
cont ro
社 会</w>
2 0</w>
权 </w>
f t</w>
取 </w>
ac ti
l ess</w>
pro bl
be ing</w>
in cre
a si
w ar
w om
s k
语 </w>
ha pp
ec ts</w>
s l
乎 </w>
le ar
re sear
ex t</w>
tic al</w>
e u
正 在</w>
for m</w>
主 要</w>
shi p</w>
计 划</w>
片 </w>
di d</w>
只 </w>
as s
管 理</w>
希 望</w>
st er
t al
c lo
z ed</w>
at t
al y
拉 </w>
d re
工 </w>
bus iness</w>
tt le</w>
st an
min i
' m</w>
p en
st or
m ents</w>
a ve</w>
se t</w>
di rec
de sig
l ine</w>
ea ch</w>
国 际</w>
作 为</w>
企 业</w>
on d</w>
不 会</w>
止 </w>
看 到</w>
o ver
ai r
un </w>
发 生</w>
$ </w>
或 者</w>
olo gy</w>
中 的</w>
t es</w>
d es</w>
oo l</w>
已 </w>
域 </w>
言 </w>
c our
re g
数 据</w>
m ain
分 析
ch i
pu t</w>
产 品</w>
ur ing</w>
ou s
ou ght</w>
那 些</w>
直 </w>
chang e</w>
ver si
然 后</w>
处 </w>
许 </w>
不 能</w>
mar ket</w>
信 息</w>
得 到</w>
l ong</w>
质 </w>
孩 子</w>
p t</w>
li on</w>
or g
to o</w>
素 </w>
th ree</w>
施 </w>
b re
诉 </w>
g row
s ame</w>
t ain</w>
in t
路 </w>
s ci
m r
c ent</w>
l and</w>
段 </w>
differ ent</w>
of f</w>
re sul
tim es</w>
ow s</w>
[ </w>
e d
an g</w>
任 </w>
欢 </w>
in du
m ust</w>
re gi
如 何</w>
关 系</w>
c all
项 目</w>
an aly
ve st
决 </w>
置 </w>
p le
e ver
in formation</w>
un der</w>
coun try</w>
商 </w>
s is</w>
列 </w>
起 来</w>
] </w>
pl an
书 </w>
p er</w>
ac cor
低 </w>
inter national</w>
喜 欢</w>
爱 </w>
bo th</w>
条 </w>
因 此</w>
字 </w>
很 多</w>
st re
v en</w>
an c
一 样</w>
万 </w>
ai r</w>
方 式</w>
接 </w>
t en</w>
款 </w>
resp on
再 </w>
hel p</w>
j ect</w>
致 </w>
hi gh</w>
育 </w>
abili ty</w>
n er</w>
p e</w>
par t</w>
友 </w>
e very</w>
ve l</w>
tri es</w>
i d
站 </w>
选 择
import ant</w>
ent ly</w>
b ro
又 </w>
帮 助</w>
价 </w>
me di
so ci
li ttle</w>
击 </w>
st er</w>
之 间</w>
in vest
费 </w>
w ater</w>
设 计</w>
儿 </w>
难 </w>
e y</w>
s our
w s</w>
护 </w>
t ting</w>
gre at</w>
大 学</w>
ex am
银 行</w>
w ri
一 次</w>
u p
选择 </w>
地 区</w>
' ll</w>
f re
快 </w>
d uring</w>
治 </w>
loo k</w>
in di
con si
z ation</w>
你 们</w>
s al
he al
切 </w>
sin ce</w>
算 </w>
grou p</w>
ac k
要 求</w>
另 </w>
coun tries</w>
东 西</w>
地 方</w>
ever y
ag es</w>
ch il
re ally</w>
pre si
si m
结 果</w>
s ou
sh ed</w>
an other</w>
publi c</w>
活 动</w>
f oll
分析 </w>
mi s
支 持</w>
th ings</w>
带 </w>
学 生</w>
i d</w>
bu il
dat a</w>
le ad
号 </w>
住 </w>
ak es</w>
断 </w>
人 员</w>
先 </w>
序 </w>
述 </w>
n s</w>
ar ound</w>
enc y</w>
cur r
par t
en d
节 </w>
e t
st ate</w>
ad v
流 </w>
非 </w>
装 </w>
d ents</w>
el ec
sh all</w>
更 多</w>
例 </w>
ap pro
econom ic</w>
th ough</w>
乐 </w>
准 </w>
cont in
获 得</w>
习 </w>
an n
c r
pr om
a w
病 </w>
pl ace</w>
pro gr
di sc
兰 </w>
sec u
为 了</w>
那 么</w>
安 全</w>
ti onal</w>
视 </w>
太 </w>
效 </w>
一 起</w>
告 诉</w>
it al</w>
态 </w>
an y
州 </w>
me tho
一 直</w>
关 于</w>
ic es</w>
英 国</w>
bas ed</w>
si ve</w>
速 </w>
策 </w>
c ity</w>
t ors</w>
ul ar</w>
comp le
v o
li m
num ber</w>
p ic
放 </w>
re qui
d eci
i l</w>
导 </w>
pro f
lo ve</w>
证 </w>
' ve</w>
st ar
来 说</w>
us ing</w>
应 用</w>
wh y</w>
边 </w>
而 且</w>
ec tive</w>
bo dy</w>
否 </w>
d n</w>
二 </w>
ati on
事 情</w>
an ts</w>
str y</w>
su c
d d
app lic
bet ter</w>
命 </w>
l ing</w>
be g
n ess</w>
环 境</w>
w in
这 里</w>
过 程</w>
新 的</w>
同 时</w>
感 </w>
gi ve</w>
n ext</w>
越 </w>
1 0
ne ver</w>
uni versi
控 制</w>
stu dy</w>
d ri
s .</w>
or der</w>
el e
室 </w>
g n</w>
u </w>
c a
do es</w>
钱 </w>
ex peri
t a
马 </w>
ow ing</w>
岁 </w>
v </w>
e ty</w>
al ways</w>
仅 </w>
resear ch</w>
be li
with out</w>
a ch</w>
走 </w>
fac e</w>
at ure</w>
对 于</w>
is su
争 </w>
光 </w>
m r</w>
g lo
accor ding</w>
s or
确 </w>
吧 </w>
b ar
组 </w>
i de
3 0</w>
增 加</w>
呢 </w>
h ow
决 定</w>
• </w>
5 0</w>
mr .</w>
p ower</w>
t ain
un ited</w>
ag ain
im pro
some thing</w>
chil dr
通 </w>
mi ght</w>
能 力</w>
身 </w>
c le
机 构</w>
sp e
fin d</w>
增 长</w>
解 决</w>
由 于</w>
f a
again st</w>
childr en</w>
台 </w>
ap er</w>
qu es
h ome</w>
p ur
eu ro
ai l</w>
根 据</w>
ent al</w>
h um
具 </w>
contro l</w>
f ound</w>
c ess
益 </w>
st ed</w>
能 够</w>
comm un
主 </w>
亿 </w>
h er
强 </w>
re as
p ing</w>
远 </w>
i ly</w>
目 标</w>
合 作</w>
1 2</w>
at e
尽 管</w>
an ds</w>
sch ool</w>
ri s
只 是</w>
tran s
st ing</w>
ap pe
lo t</w>
d ge</w>
出 现</w>
mon ey</w>
目 前</w>
li ght</w>
pro cess</w>
p op
之 前</w>
每 </w>
er i
夫 </w>
read y</w>
in i
vie w</w>
pr in
vel y</w>
b est</w>
朋 友</w>
presi dent</w>
a z
wh o
投 资</w>
测 </w>
sti tu
g l
之 一</w>
城 市</w>
律 </w>
how ever</w>
gh ts</w>
全 球</w>
赛 </w>
买 </w>
票 </w>
觉 </w>
li sh</w>
校 </w>
是 否</w>
势 </w>
secu ri
cen tr
周 </w>
v ari
au th
po ssi
疗 </w>
有 关</w>
u tion</w>
知 </w>
en vir
fin an
manag ement</w>
功 </w>
hou se</w>
报 告</w>
envir on
海 </w>
go t</w>
par ty</w>
张 </w>
si ons</w>
th ers</w>
却 </w>
虑 </w>
serv ice</w>
写 </w>
s w
b en
universi ty</w>
庭 </w>
tic s</w>
h op
然 而</w>
建 立</w>
两 个</w>
to day</w>
wom en</w>
ac tion</w>
顿 </w>
团 </w>
提 出</w>
st ory</w>
建 </w>
techn ology</w>
报 </w>
per s
st ates</w>
ay ing</w>
e ve</w>
ti on
m ul
il l
层 </w>
离 </w>
fe w</w>
call ed</w>
先 生</w>
emp lo
油 </w>
还 是</w>
fi l
inclu ding</w>
板 </w>
cu st
wh e
亲 </w>
总 统</w>
f ur
局 </w>
努 力</w>
ne e
bec ome</w>
过 去</w>
bi g</w>
al e</w>
其 中</w>
成 功</w>
t em
sh or
poin t</w>
me as
en ter
tu ally</w>
调 </w>
c oll
b or
脑 </w>
显 示</w>
w at
影 </w>
ag ain</w>
售 </w>
复 </w>
最 后</w>
e duc
m en</w>
继 续</w>
美 </w>
he ad</w>
d in
in de
as es</w>
glo b
中 心</w>
th s</w>
ti ci
d ays</w>
t om
st at
v ol
较 </w>
so cial</w>
ban k</w>
b ook</w>
org ani
处 理</w>
oper ation</w>
程 序</w>
政 策</w>
党 </w>
客 </w>
l ong
finan cial</w>
神 </w>
存 在</w>
行 为</w>
ro w</w>
tur n</w>
奥 </w>
容 </w>
学 习</w>
服 </w>
of ten</w>
x i
sm all</w>
提 高</w>
pro t
u res</w>
y es</w>
络 </w>
价 格</w>
围 </w>
花 </w>
来 自</w>
le g
每 个</w>
略 </w>
hum an</w>
会 议</w>
文 化</w>
接 受</w>
改 变</w>
康 </w>
se ver
e f</w>
1 .
原 因</w>
战 </w>
才 </w>
1 1</w>
实 现</w>
a way</w>
s ing
ma j
as h
众 </w>
除 </w>
为 什么</w>
ow ed</w>
en s</w>
gener al</w>
教 育</w>
re por
之 后</w>
今 天</w>
h y
空 </w>
vi si
en ds</w>
生 产</w>
stu dents</w>
t -
for ei
, 000</w>
en ing</w>
a ff
en er
吃 </w>
趣 </w>
b ur
as si
史 </w>
per son</w>
交 </w>
americ an</w>
女 </w>
h al
comp an
bi li
n ec
星 </w>
fi ed</w>
qu ality</w>
还 有</w>
d -
林 </w>
只 有</w>
j ap
基 础
具 有</w>
u .
fam ily</w>
便 </w>
那 里</w>
观 </w>
往 </w>
k ind</w>
sp o
t able</w>
b ab
ro om</w>
限 </w>
heal th</w>
基础 </w>
f ood</w>
sec ond</w>
wor k
n am
you n
作 用</w>
compan ies</w>
k i
te ach
待 </w>
变 化</w>
wor king</w>
网 络</w>
a th</w>
委 员
主 义</w>
le vel</w>
c ase</w>
sup port</w>
不 要</w>
ati c</w>
委员 会</w>
m ain</w>
cust om
g oo
in fl
wee k</w>
甚 至</w>
产 生</w>
日 本</w>
尼 </w>
off ici
desig n</w>
b ers</w>
de t
调 查</w>
念 </w>
音 </w>
g er
录 </w>
店 </w>
个 人</w>
米 </w>
找 </w>
京 </w>
securi ty</w>
p aper</w>
p tion</w>
an t
ar ly</w>
fi el
… </w>
d om
ke ep</w>
感 到</w>
on ce</w>
. .</w>
b oo
is m</w>
t ary</w>
fun c
el s</w>
也 是</w>
设 </w>
mar ke
on -
h ol
华 </w>
责 </w>
em ents</w>
四 </w>
re le
m aking</w>
最 大</w>
多 数</w>
st ance</w>
听 </w>
1 5</w>
0 %</w>
行 动</w>
欧 洲</w>
保 </w>
通 常</w>
gr ap
保 护</w>
集 </w>
st and
考 虑</w>
ac coun
b s</w>
席 </w>
汽 车</w>
en ces</w>
probl em</w>
comm it
w al
s a
indu stry</w>
健 康</w>
f ul
la w</w>
bi l
grow th</w>
er ing</w>
ul t</w>
ple ase</w>
导 致</w>
glob al</w>
政 </w>
极 </w>
害 </w>
t ation</w>
ul ation</w>
sh ow</w>
认 </w>
am ong</w>
建 议</w>
拥 有</w>
f ic</w>
a k</w>
_ _
an ti
完 成</w>
完 全</w>
tr ac
produc ts</w>
币 </w>
do c
c al
at ely</w>
受 到</w>
升 </w>
失 </w>
con cer
lar ge</w>
注 </w>
econom y</w>
付 </w>
科 </w>
w ard</w>
ro ss</w>
exam ple</w>
政 治</w>
s af
ne t</w>
com pe
ar ds</w>
to ge
军 </w>
ag re
表 明</w>
char ac
家 庭</w>
景 </w>
族 </w>
机 会</w>
y -
n al</w>
未 来</w>
jo b</w>
b el
e qu
保 持</w>
ch an
toge ther</w>
c ame</w>
金 融
forei gn</w>
ke y</w>
港 </w>
t al</w>
st and</w>
comp u
con di
on es</w>
客 户</w>
存 </w>
声 </w>
f ar</w>
换 </w>
sh ar
li k
几 </w>
at ten
用 户</w>
今 年</w>
终 </w>
rec ei
察 </w>
n ame</w>
ne t
纪 </w>
d ence</w>
没 </w>
incre as
一 位</w>
mat eri
as k</w>
cl ass</w>
u al</w>
h un
白 </w>
th ir
with in</w>
l ab
ous ly</w>
并 不</w>
开 发</w>
一 点</w>
选 </w>
at or</w>
al ready</w>
me ans</w>
足 </w>
th em
mil lion</w>
at ur
d ro
whe ther</w>
de l</w>
相 关</w>
2 .
共 </w>
最 近</w>
历 史</w>
利 用</w>
en ted</w>
t or
结 构</w>
官 </w>
ener gy</w>
无 法</w>
t old</w>
progr am
are a</w>
纳 </w>
束 </w>
po lic
fu ture</w>
possi ble</w>
y et</w>
th an
资 源</w>
par tic
en ed</w>
网 </w>
未 </w>
c ou
re port</w>
val ue</w>
t ar
es ti
con sum
pro ject</w>
sp or
卡 </w>
码 </w>
p at
fe el</w>
con struc
im p
ph one</w>
形 </w>
re ad</w>
metho d</w>
. ..</w>
章 </w>
or d</w>
ni ght</w>
t op</w>
er ed</w>
o thers</w>
c am
学 校</w>
cour se</w>
出 来</w>
j ing</w>
金融 </w>
re al</w>
即 </w>
b ed</w>
读 </w>
孩 </w>
ain ing</w>
超 过</w>
以 来</w>
w a
mem ber</w>
d ers</w>
serv ices</w>
满 </w>
文 件</w>
t on</w>
好 的</w>
似 乎</w>
le ft</w>
法 律</w>
re co
p ast</w>
相 </w>
ex pl
tu al</w>
无 </w>
如 此</w>
probl ems</w>
善 </w>
f our</w>
一 下</w>
me dic
re si
五 </w>
标 准</w>
水 平</w>
m ed</w>
令 人</w>
c k</w>
相 信</w>
索 </w>
减 少</w>
loc al</w>
posi tion</w>
了 解</w>
教 </w>
am a</w>
re sour
g ical</w>
照 </w>
r ang
馆 </w>
记 </w>
仍 然</w>
ti al</w>
est ab
一 定</w>
ter min
educ ation</w>
t ell</w>
per cent</w>
applic ation</w>
营 </w>
m er
di sp
h and</w>
pl ac
j i
w ent</w>
eng lish</w>
收 </w>
风 险</w>
u. s.</w>
t est</w>
人 类</w>
ag o</w>
di es</w>
一 切</w>
ph o
d am
mo del</w>
随 着</w>
mis sion</w>
lar g
youn g</w>
st art</w>
t ou
r ing</w>
du ce</w>
ac c
tr ade</w>
re pres
be i
电 影</w>
带 来</w>
sec re
h ard</w>
ch o
ang u
ab o
disc us
gr ad
讨 论</w>
业 务</w>
曾 </w>
ex i
诺 </w>
的 话</w>
in e
c al</w>
en ough</w>
at s</w>
回 </w>
准 备</w>
provi de</w>
t ook</w>
部 门</w>
领 域</w>
有 效</w>
一 步</w>
人 民</w>
进 入</w>
th ought</w>
找 到</w>
额 </w>
那 个</w>
容 易</w>
觉 得</w>
t ak
1 8
母 </w>
as h</w>
r ate</w>
u ally</w>
t ro
几 乎</w>
设 备</w>
fi ve</w>
a vi
or e
po sed</w>
世 纪</w>
sever al</w>
密 </w>
b al
americ a</w>
ac tually</w>
下 来</w>
变 得</w>
1 00</w>
pro per
e qui
z </w>
ef for
测 试</w>
off ice</w>
价 值</w>
p ed</w>
运 动</w>
mul ti
姆 </w>
ar tic
te am</w>
resul ts</w>
t ow
do ing</w>
园 </w>
历 </w>
experi ence</w>
op en</w>
虽 然</w>
牌 </w>
un ti
di stri
sp ace</w>
释 </w>
re li
并 且</w>
de li
in stitu
方 案</w>
gi ven</w>
pri ce</w>
kn own</w>
ter m</w>
tur al</w>
均 </w>
p ay</w>
d ate</w>
反 </w>
执 行</w>
志 </w>
久 </w>
兴 </w>
ex c
简 单</w>
似 </w>
m y
buil ding</w>
our s</w>
ear ly</w>
令 </w>
词 </w>
de part
l angu
le ast</w>
b it</w>
ci r
质 量</w>
传 统</w>
ur y</w>
f oc
ad mini
大 多数</w>
v al</w>
底 </w>
a h</w>
si te</w>
运 </w>
y s</w>
盟 </w>
最 好</w>
0 0
str ate
行 业</w>
ha ving</w>
f ree</w>
5 %</w>
ch ed</w>
unti l</w>
死 </w>
思 </w>
m ing</w>
真 正</w>
bei jing</w>
sou th</w>
produc tion</w>
闻 </w>
diff ic
ex ec
peri o
采 取</w>
代 表</w>
su pp
d en
us es</w>
r un
ex per
不 过</w>
需 求</w>
th re
c ed</w>
坏 </w>
m ental</w>
ni fic
th y</w>
artic le</w>
di tional</w>
叫 </w>
de f
整 </w>
struc ture</w>
polic y</w>
女 性</w>
刻 </w>
li ve</w>
maj or</w>
ach i
poli tical</w>
prom o
wor ds</w>
di dn</w>
电 子</w>
0 .
联 合
n a</w>
ex pres
contin u
speci al</w>
端 </w>
se e
gi r
d ou
consi der
es si
年 轻
mon th</w>
h and
十 </w>
b in
lik ely</w>
败 </w>
vi sion</w>
hal f</w>
v ity</w>
w ar</w>
t ory</w>
de fin
降 </w>
p ati
respon si
mo ve</w>
仍 </w>
bili ty</w>
f oo
v in
pl ay
t ter</w>
建 筑
谢 </w>
in te
自 由</w>
si tu
int ro
r ai
电 话</w>
香 港</w>
c all</w>
l ater</w>
s un
mi li
措 施</w>
ther e
d one</w>
严 重</w>
钟 </w>
' d</w>
误 </w>
注 意</w>
m ag
ce pt</w>
意 味
produc t</w>
ac y</w>
m akes</w>
电 </w>
持 续</w>
o il</w>
pl an</w>
no v
目 的</w>
l at
一 家</w>
kn ow
整 个</w>
p ly</w>
福 </w>
fac t</w>
d ar
座 </w>
beli eve</w>
最 终</w>
fiel d</w>
交 易</w>
who le</w>
co ver
m ic
invest ment</w>
h ong</w>
模 </w>
治 疗</w>
n ers</w>
cul ture</w>
参 加</w>
p as
养 </w>
事 件</w>
一 天</w>
admini str
im pl
curr ent</w>
安 </w>
架 </w>
j ects</w>
达 到</w>
te e</w>
analy sis</w>
stan ding</w>
me e
200 8</w>
fur ther</w>
enter pri
fi g
ne ws</w>
ic s</w>
per for
ec ti
贸 易</w>
sig nific
de b
eff ect</w>
gr ound</w>
fu ll</w>
ro ad</w>
4 0</w>
ain s</w>
小 时</w>
内 容</w>
f y</w>
com es</w>
pri v
ri ed</w>
当 然</w>
各 种</w>
食 </w>
c ent
mon ths</w>
总 是</w>
ch ing</w>
reg ul
亡 </w>
射 </w>
tr u
col le
键 </w>
英 语</w>
丽 </w>
罗 斯</w>
功 能</w>
bi r
模 式</w>
2 5</w>
北 京</w>
ce p
真 </w>
des cri
联合 国</w>
造 成</w>
commun ic
rec ent</w>
朗 </w>
利 亚</w>
有 些</w>
免 </w>
显 </w>
loo king</w>
fer ence</w>
perfor man
协 议</w>
富 </w>
去 年</w>
se en</w>
rel ation
i ght</w>
ic k
he art</w>
c are</w>
库 </w>
表 现</w>
r us
pl ay</w>
ci es</w>
几 个</w>
cap ital</w>
维 </w>
同 样</w>
模 型</w>
sp i
olo gical</w>
科 学</w>
s s
wor ks</w>
演 </w>
or ity</w>
c op
重 新</w>
真 的</w>
意味 着</w>
d ly</w>
状 </w>
例 如</w>
be au
群 </w>
ain ed</w>
sel ves</w>
g in
g ed</w>
w on</w>
’ </w>
笑 </w>
房 </w>
越 来
qu ar
越来 越</w>
tu res</w>
革 </w>
fri ends</w>
sci enti
山 </w>
environ ment</w>
grap h
语 言</w>
大 量</w>
ty pe</w>
k in
k ong</w>
inv ol
热 </w>
com par
网 站</w>
用 于</w>
r en
ati s
商 业</w>
n er
st oc
也 许</w>
谁 </w>
r un</w>
收 入</w>
伤 </w>
t aking</w>
resul t</w>
or din
n ations</w>
派 </w>
程 度</w>
str ong</w>
区 域</w>
ques tion</w>
特 别</w>
结 束</w>
即 使</w>
in ten
自 然</w>
ra ther</w>
f ar
c y
ent ation</w>
ph y
条 件</w>
m om
巨 大</w>
报 道</w>
d en</w>
意 识</w>
mo ther</w>
r ap
ris k</w>
go d</w>
空 间</w>
块 </w>
es p
he ad
ol s</w>
成 本</w>
愿 </w>
fr on
an sw
str eng
直 接</w>
w an
hop e</w>
怎 么</w>
con tr
故 事</w>
经 常</w>
foll owing</w>
mo der
know le
胞 </w>
nee ds</w>
19 8
al most</w>
官 员</w>
讲 </w>
fic ation</w>
更 好</w>
qu e</w>
6 0</w>
l s</w>
印 度</w>
ster n</w>
comm on</w>
配 </w>
co st</w>
cre di
em er
pl es</w>
压 力</w>
min d</w>
比 赛</w>
举 </w>
不 断</w>
因 素</w>
l u
戏 </w>
as ked</w>
exec u
g ar
规 定</w>
chang es</w>
tak en</w>
离 开</w>
f o
基 </w>
f oun
c li
mo d
enti al</w>
巴 马</w>
南 </w>
更 加</w>
hi story</w>
high er</w>
oun t</w>
员 工</w>
compe ti
b asi
= </w>
压 </w>
p ow
ide a</w>
临 </w>
确 定</w>
i a</w>
染 </w>
石 </w>
3 .
ma chin
wh ite</w>
m er</w>
jo h
奇 </w>
d on
ch ec
as soci
掉 </w>
wor d</w>
意 义</w>
tre at
解 释</w>
公 共</w>
n atur
am es</w>
fa ther</w>
performan ce</w>
基 本</w>
销 售</w>
mee ting</w>
me an
ne w
排 </w>
rus si
or e</w>
落 </w>
任 务</w>
g a
no thing</w>
r ul
for ce</w>
infl u
incre ase</w>
s wi
acti vi
知 识</w>
试 图</w>
半 </w>
酒 </w>
f -
指 </w>
ch e
联 系</w>
l ow</w>
专 业</w>
感 觉</w>
wom an</w>
st y
媒 体</w>
so f
h om
至 少</w>
gre ss</w>
com ing</w>
cl ai
画 </w>
can not</w>
inter est</w>
jap an</w>
sh ing</w>
怕 </w>
判 </w>
phy si
c ar</w>
do es
ch es</w>
s le
1 8</w>
w el
ri ghts</w>
h old</w>
vi du
centr al</w>
langu age</w>
m en
e as
indi vidu
打 </w>
sol ution</w>
考 </w>
动 物</w>
送 </w>
结 </w>
medi a</w>
这 么</w>
允 许</w>
id enti
理 论</w>
范 围</w>
tici p
介 绍
rel ated</w>
巴 </w>
东 </w>
控 </w>
de termin
剧 </w>
estab li
you r
depart ment</w>
危 机</w>
俄 罗斯</w>
署 </w>
细 胞</w>
y m
al ong</w>
construc tion</w>
引 </w>
su per
集 团</w>
indu stri
风 </w>
are as</w>
m ay
确 保</w>
me an</w>
症 </w>
罗 </w>
af ri
错 误</w>
an im
po se</w>
本 文</w>
学 家</w>
al though</w>
介绍 </w>
d y
does n</w>
购 </w>
e li
cre ate</w>
su ff
ro le</w>
森 </w>
v ic
材 料</w>
de al</w>
jo in
g s</w>
min u
perio d</w>
老 </w>
tal k</w>
cle ar</w>
ac ross</w>
生 命</w>
答 </w>
au di
跟 </w>
毒 </w>
包 </w>
烈 </w>
pre ci
经 验</w>
resour ces</w>
mem bers</w>
nor th</w>
晚 </w>
转 </w>
mu si
歌 </w>
1 4</w>
in ste
资 金</w>
h or
基 金</w>
今 </w>
励 </w>
厂 </w>
ob ama</w>
o s</w>
1 6</w>
abo ve</w>
d oll
esp eci
emplo y
z ing</w>
参 与</w>
we b</w>
h on
比 如</w>
val u
some one</w>
期 间</w>
s am
fri end</w>
bil lion</w>
eff ici
w r
举 行</w>
错 </w>
di tion</w>
li st</w>
op port
euro pe
li g
m ess
especi ally</w>
长 期</w>
竞 争</w>
理 解</w>
基 于</w>
b ad</w>
ge tting</w>
证 明</w>
mat ter</w>
prin ci
属 </w>
那 样</w>
坦 </w>
gg est</w>
chi ld</w>
n on-
各 </w>
ar ti
sal es</w>
班 </w>
到 了</w>
ll ing</w>
征 </w>
cer tain</w>
1 3</w>
de v
疑 </w>
销 </w>
创 造</w>
ell s</w>
建筑 </w>
露 </w>
b ack
thir d</w>
pres ent</w>
t un
成 员</w>
it ing</w>
pro cess
under stand</w>
床 </w>
迎 </w>
a th
恩 </w>
nec ess
采 用</w>
省 </w>
at ors</w>
新 闻</w>
k ore
cul tural</w>
p hi
ful ly</w>
关 注</w>
土 </w>
tur ned</w>
di se
练 </w>
so on</w>
pri ces</w>
every thing</w>
明 显</w>
si l
谈 </w>
进 一步</w>
si mil
q </w>
su g
游 戏</w>
投 资
con n
y u
me et</w>
速 度</w>
inter net</w>
食 物</w>
ing ly</w>
h en
intro duc
ch ri
ser i
li es</w>
g ni
man u
和 平</w>
身 体</w>
e sts</w>
欢 迎</w>
marke ts</w>
en ding</w>
s ex
du e</w>
nor m
亮 </w>
li ving</w>
人 士</w>
av ail
绝 </w>
比 较</w>
clo se</w>
5 00</w>
lear n</w>
situ ation</w>
消 息</w>
人 口</w>
c a</w>
移 </w>
sci ence</w>
关 键</w>
是 个</w>
c ro
soci ety</w>
初 </w>
游 </w>
童 </w>
co operation</w>
s li
win d
h ours</w>
am s</w>
br ing</w>
sa w</w>
sh o
ag ed</w>
up on</w>
计 算</w>
工 具</w>
happ y</w>
compu ter</w>
每 天</w>
inter est
剂 </w>
po ten
担 心</w>
ch all
载 </w>
bo ard</w>
ver s
细 </w>
inste ad</w>
any thing</w>
ou l
般 </w>
ser ve</w>
稳 定</w>
医 生</w>
精 神</w>
播 </w>
死 亡</w>
in dic
e p
r om
pres sure</w>
含 </w>
王 </w>
a ver
activi ties</w>
elec tri
200 9</w>
es sion</w>
cor por
留 </w>
数 字</w>
支 付</w>
esti g
盖 </w>
取 得</w>
多 少</w>
e vi
下 降</w>
k il
共 同</w>
法 国</w>
tr ying</w>
规 模</w>
一 部分</w>
l on
knowle dge</w>
syst ems</w>
am e
inv estig
me chan
tr aining</w>
软 件</w>
p ol
sh are</w>
ne i
in es</w>
想 法</w>
sen se</w>
europe an</w>
mili tary</w>
p ay
net work</w>
comm er
t op
mi dd
cen ter</w>
commit tee</w>
杀 </w>
c at
需 </w>
form er</w>
inte gr
f er</w>
se a</w>
f av
leg al</w>
松 </w>
re duc
第 三</w>
there fore</w>
par ents</w>
ar ing</w>
vari ous</w>
反 应</w>
ci vi
ex ten
tr ue</w>
负 责</w>
regi on</w>
指 出</w>
exp ected</w>
di ed</w>
ban ks</w>
j our
首 先</w>
苦 </w>
系 列</w>
改 革</w>
in st
复 杂
mic ro
progr am</w>
g ing</w>
有 人</w>
bu y</w>
impro ve</w>
ou gh
c t</w>
for ward</w>
re main
看 起来</w>
避 免</w>
形 式</w>
实 际
c o</w>
做 出</w>
实际 上</w>
vi ol
oc r
reas on</w>
hel d</w>
le ave</w>
德 国</w>
en jo
ad dre
c le</w>
manu fac
岛 </w>
suc cess
办 公
j e
af t</w>
s mo
领 导
货 </w>
star ted</w>
olo gi
大 约</w>
g n
d ow
操 作</w>
角 </w>
par ticip
父 亲</w>
泛 </w>
sc re
限 制</w>
ci l</w>
职 </w>
m a</w>
ail s</w>
ob j
natur al</w>
而 是</w>
形 成</w>
积 极</w>
促 进</w>
> </w>
b ly</w>
g ame</w>
手 机</w>
罪 </w>
le y</w>
迪 </w>
20 10</w>
e ful</w>
检 查</w>
au gh
船 </w>
经 历</w>
团 队</w>
电 脑</w>
ori gin
y or
弃 </w>
资 产</w>
to tal</w>
some times</w>
ch em
poli ce</w>
不 仅</w>
投资 者</w>
issu e</w>
勒 </w>
b all</w>
学 院</w>
券 </w>
4 .
re st</w>
dem ocr
relation ship</w>
s aying</w>
d a</w>
阿 </w>
总 </w>
2 1</w>
放 在</w>
re ali
offici als</w>
euro pe</w>
i ld</w>
vel s</w>
loc k</w>
很 大</w>
beg an</w>
ea si
数 量</w>
估 </w>
专 家</w>
ha i</w>
qu ite</w>
d el
atten tion</w>
eas y</w>
幅 </w>
记 录</w>
女 人</w>
第 一</w>
描 述</w>
购 买</w>
st op</w>
sing le</w>
别 人</w>
套 </w>
第 二</w>
diffic ult</w>
distri bu
m us
sh ows</w>
正 确</w>
责 任</w>
兴 趣</w>
鱼 </w>
c ause</w>
当 地</w>
有 限</w>
s us
父 母</w>
de ath</w>
pre par
洋 </w>
contin ue</w>
li er</w>
拿 </w>
根 </w>
2 4</w>
面 临</w>
priv ate</w>
se qu
on line</w>
be h
v ement</w>
辆 </w>
艺 术</w>
伦 </w>
战 争</w>
li ed</w>
不 可</w>
high -
b loo
t ele
sel f-
音 乐</w>
out side</w>
impl em
靠 </w>
永 远</w>
1 7</w>
j un
cu t</w>
生 物</w>
频 </w>
当 时</w>
ter ms</w>
火 </w>
电 视</w>
pr acti
us ually</w>
t an
制 度</w>
func tion</w>
分 钟</w>
cont ri
sof tw
建 设</w>
meas ures</w>
m it
p ment</w>
200 7</w>
fig ure</w>
异 </w>
塔 </w>
ty p
力 量</w>
cam p
斯 坦</w>
avail able</w>
tr ad
si x</w>
是 的</w>
儿 童</w>
bu ild</w>
加 强</w>
n ature</w>
am ount</w>
ra di
疾 病</w>
g er</w>
状 态</w>
cri sis</w>
li st
19 </w>
降 低</w>
mor ning</w>
coun cil</w>
纸 </w>
in s</w>
commun ity</w>
dem and</w>
dr u
charac ter
必 要</w>
支 </w>
除 了</w>
这 项</w>
hi m
sy m
every one</w>
一 般</w>
be ha
p al
n uc
si ze</w>
eng ine
con fi
them selves</w>
in ation</w>
sup por
ar ch
develop ed</w>
treat ment</w>
c ases</w>
pers onal</w>
softw are</w>
con duc
tra ditional</w>
le ad</w>
ear th</w>
contri bu
shor t</w>
fi ts</w>
w est</w>
访 问</w>
b a
l ate</w>
b an</w>
issu es</w>
sp ec
广 泛</w>
普 </w>
药 </w>
直 到</w>
工 程</w>
实 际</w>
消 费
f ai
your self</w>
c lim
pr ac
愿 意</w>
定 义</w>
condi tions</w>
pers on
th ous
波 </w>
同 意</w>
困 难</w>
sim ple</w>
婚 </w>
母 亲</w>
form s</w>
com bin
vi ous</w>
oun ds</w>
训 </w>
t on
av o
弱 </w>
肉 </w>
fam ili
beh ind</w>
em ber</w>
au tom
m ac
费 用</w>
e yes</w>
亚 洲</w>
p ain
pp ed</w>
fir m</w>
as ed</w>
s ent</w>
发 布</w>
es day</w>
pro ce
邦 </w>
lo st</w>
yor k</w>
develop ing</w>
effor ts</w>
+ </w>
g ri
良 好</w>
inclu de</w>
伯 </w>
par ts</w>
musi c</w>
运 行</w>
chi ef</w>
才 能</w>
p ul
re turn</w>
colle ge</w>
mini ster</w>
anc ed</w>
y e</w>
wan ted</w>
bab ly</w>
s qu
do or</w>
bl ack</w>
fir e</w>
sol u
requi re
贵 </w>
乱 </w>
观 点</w>
7 0</w>
bec om
发 表</w>
三 个</w>
w on
pro bably</w>
哥 </w>
托 </w>
弹 </w>
in f
li </w>
fron t</w>
i se</w>
co de</w>
飞 机</w>
s n
mar y</w>
仅 仅</w>
六 </w>
ach ed</w>
t ab
类 型</w>
b it
句 </w>
it self</w>
联 </w>
ne l</w>
ar -
necess ary</w>
at ures</w>
joh n</w>
年 代</w>
adv ant
国 内</w>
曼 </w>
衡 </w>
work ers</w>
beha vi
防 </w>
ge ts</w>
税 </w>
he av
货 币</w>
f all</w>
tt en</w>
纽 约</w>
pho to
l ord</w>
课 程</w>
唯 一</w>
pi ec
f f</w>
eff ective</w>
ac cess</w>
询 </w>
贷 款</w>
位 置</w>
ste p</w>
独 立</w>
o h</w>
餐 </w>
long er</w>
exp en
堂 </w>
挑 战</w>
此 外</w>
d ai
宣 布</w>
lear ning</w>
看 看</w>
suc cess</w>
微 </w>
o -
sh e
con clu
sty le</w>
犯 </w>
k er</w>
accoun t</w>
办 </w>
proper ty</w>
予 </w>
改 </w>
著 </w>
ta x</w>
sur ve
1 5
必 </w>
fe el
干 </w>
g as</w>
味 </w>
con f
poin ts</w>
年轻 </w>
复杂 </w>
ac i
授 </w>
1 6
差 </w>
牙 </w>
emplo ye
grou ps</w>
制 造</w>
s em
表 达</w>
stand ard</w>
st -
认 识</w>
鲜 </w>
wi l
声 音</w>
off er</w>
慢 </w>
metho ds</w>
pe ace</w>
nuc le
po or</w>
引 起</w>
basi c</w>
季 </w>
i or</w>
re member</w>
组 成</w>
移 动</w>
re fl
危 险</w>
se ts</w>
prof essi
伴 </w>
类 似</w>
ad op
ar ed</w>
版 </w>
gu e</w>
敦 </w>
l an
储 </w>
ann oun
fi le</w>
la un
名 字</w>
fil m</w>
ex change</w>
传 </w>
技 </w>
we stern</w>
dow n
stre et</w>
agre ement</w>
on ed</w>
他 人</w>
fin ally</w>
ri ch</w>
bec ame</w>
grow ing</w>
ti ce</w>
时 代</w>
回 答</w>
wi de</w>
ei ther</w>
materi al</w>
re qu
大 部分</w>
the ory</w>
t wi
f lo
cont ent</w>
c ally</w>
w ash
simil ar</w>
倍 </w>
him self</w>
g ave</w>
快 速</w>
per f
刚 </w>
aver age</w>
盘 </w>
sh ang
s we
保 证</w>
j an
qu ick
s av
核 </w>
se par
al -
享 </w>
moder n</w>
vi de
以 前</w>
失 去</w>
承 诺</w>
实 施</w>
form ed</w>
organi zation</w>
能 源</w>
ser ies</w>
pro vin
服 务
很 快</w>
共 和
ne y</w>
re p
se ems</w>
s m</w>
de p
权 利</w>
工 业</w>
ag ing</w>
tem per
c ru
藏 </w>
beau ti
足 够</w>
us ers</w>
er y</w>
we b
invest ors</w>
职 业</w>
典 </w>
indi a</w>
elec tr
阶 段</w>
speci fic</w>
丝 </w>
战 略</w>
意 思</w>
位 于</w>
credi t</w>
c s</w>
* </w>
合 同</w>
can c
sc ri
inde pen
es tim
e ast</w>
轮 </w>
石 油</w>
文 章</w>
medic al</w>
un ity</w>
rang e</w>
快 乐</w>
gre en</w>
practi ce</w>
ti sh</w>
de st
f el
寻 找</w>
l ower</w>
f ast</w>
实 验</w>
hu man
mom ent</w>
出 口</w>
ex er
di st
mar k</w>
辑 </w>
ec ting</w>
ap e</w>
献 </w>
男 人</w>
有 时</w>
体 系</w>
20 0</w>
dr in
不 到</w>
disp l
pop ulation</w>
早 </w>
湾 </w>
担 </w>
midd le</w>
现 代</w>
f all
ast e</w>
互 </w>
分 子</w>
食 品</w>
asi a</w>
妈 </w>
ad ded</w>
w all</w>
m ak
p an
消费 者</w>
sour ce</w>
城 </w>
ke e
achi ev
m al
vi s
deci sion</w>
1 7
村 </w>
reco gni
may be</w>
楚 </w>
儿 子</w>
展 示</w>
si des</w>
品 牌</w>
d ings</w>
equi pment</w>
输 </w>
大 家</w>
saf ety</w>
poten tial</w>
b on
stu dent</w>
custom ers</w>
in nov
0 s</w>
lin es</w>
ho sp
一 年</w>
拉 克</w>
jo bs</w>
thin king</w>
m it</w>
利 益</w>
满 足</w>
cour t</w>
le vels</w>
ques tions</w>
威 胁
1 2
教 授</w>
创 建</w>
de gre
ri se</w>
从 而</w>
pati ents</w>
stu dies</w>
li ves</w>
g es</w>
设 施</w>
改 善</w>
女 孩</w>
u ary</w>
f le
恢 复</w>
t ely</w>
积 </w>
auth ori
照 片</w>
sug ge
径 </w>
dr aw
这 位</w>
boo ks</w>
bi le</w>
de pen
fun d</w>
约 翰
一 条</w>
ar ri
非 洲</w>
partic ular</w>
高 兴</w>
a o</w>
rec ently</w>
ch oo
拒 绝</w>
af f</w>
th us</w>
资 料</w>
篇 </w>
威胁 </w>
mo di
ac ks</w>
广 告</w>
静 </w>
spi ri
resear ch
加 入</w>
um p</w>
all ow</w>
h ur
ter ri
ne ar</w>
跑 </w>
评 估</w>
rul es</w>
in sur
t a</w>
伦 敦</w>
资 本</w>
变 成</w>
shang hai</w>
患 者</w>
um ents</w>
m l</w>
st ay</w>
访 </w>
a -
nee ded</w>
守 </w>
星 期
bloo d</w>
dom es
苹 果</w>
n ation</w>
译 </w>
200 6</w>
m oun
app le</w>
provi ded</w>
l ow
世 </w>
wi fe</w>
时 期</w>
ac tions</w>
卫 </w>
抗 </w>
这 次</w>
某 些</w>
每 年</w>
read ing</w>
manufac tur
遍 </w>
beauti ful</w>
ac tive</w>
称 为</w>
on ic</w>
ben ef
character is
树 </w>
as p
规 则</w>
上 升</w>
8 0</w>
ver s</w>
结 合</w>
房 子</w>
事 实</w>
r an
l er</w>
年 前</w>
占 </w>
st aff</w>
ic k</w>
n u
foc us</w>
有 趣</w>
loo ked</w>
fin i
larg est</w>
佳 </w>
上 海</w>
sy n
创 新</w>
b and</w>
is n</w>
狗 </w>
answ er</w>
19 7
o k</w>
wri te</w>
st age</w>
散 </w>
清 楚</w>
c lear
nucle ar</w>
direc tor</w>
administr ation</w>
吸 引</w>
con ven
rele v
goo ds</w>
lead ers</w>
帝 </w>
who se</w>
办公 室</w>
碍 </w>
平 均</w>
mi ssi
str u
ati ves</w>
fe der
offici al</w>
comple te</w>
t akes</w>
事 实
con sul
申 请</w>
事实 上</w>
承 认</w>
k en</w>
计 算
per ha
地 球</w>
sch o
vie w
t ch</w>
联 网</w>
perha ps</w>
he ard</w>
stoc k</w>
prot ection</w>
t in
el se</w>
ri es</w>
领 导</w>
p oll
经 理</w>
im age</w>
很 难</w>
医 疗</w>
z h
1 3
fac ili
科 技</w>
全 国</w>
al u
bri tish</w>
最 高</w>
t own</w>
激 </w>
is ra
楼 </w>
visi t</w>
失 败</w>
dise ase</w>
预 测</w>
以 色
pop ular</w>
grad u
救 </w>
主 席</w>
an ese</w>
pl ans</w>
乏 </w>
以色 列</w>
20 00</w>
厅 </w>
p sy
st ers</w>
materi als</w>
ini ti
appro ach</w>
e at</w>
g ic</w>
run ning</w>
at ory</w>
卖 </w>
l am
air s</w>
内 部</w>
安 排</w>
bas is</w>
us er</w>
shi ps</w>
or ies</w>
塞 </w>
sor t</w>
回 到</w>
s mi
反 对</w>
stor e</w>
充 </w>
闭 </w>
signific ant</w>
啊 </w>
2 2</w>
妇 女</w>
develop </w>
imp act</w>
效 果</w>
machin e</w>
fr an
gir l</w>
领 </w>
按 </w>
ne arly</w>
太 阳
午 </w>
bi ggest</w>
o l</w>
e g
地 位</w>
requi red</w>
& </w>
re mo
200 5</w>
enc our
假 </w>
缩 </w>
sec on
o k
d ance</w>
杯 </w>
领导 人</w>
le av
环 </w>
听 到</w>
e di
fre qu
br ought</w>
mo vi
a w</w>
房 间</w>
角 色</w>
f ail
突 </w>
现 实</w>
pro jects</w>
lon don</w>
5 .
quick ly</w>
睛 </w>
映 </w>
se as
ch a
pl at
t ex
cent ury</w>
一 只</w>
fl ow</w>
repor ted</w>
we d
保 险</w>
特 殊
partic ul
minu tes</w>
supp ly</w>
in side</w>
液 </w>
ear lier</w>
des p
别 是</w>
organi z
domes tic</w>
穿 </w>
go es</w>
说 明</w>
b row
c y</w>
t v</w>
b lo
是 因为</w>
作 品</w>
la w
ill s</w>
spe ed</w>
坚 持</w>
笔 </w>
for d</w>
r ates</w>
特 别是</w>
fr u
cl es</w>
计算 机</w>
g le</w>
我 会</w>
ad dition</w>
兵 </w>
g ol
以 上</w>
di g
w ell
im medi
sur pri
土 地</w>
pro te
6 .
cer tain
co sts</w>
选 举</w>
酸 </w>
眼 睛</w>
曾 经</w>
li gh
互 联网</w>
提 </w>
x ed</w>
社 区</w>
contr act</w>
a p</w>
拟 </w>
f as
em o
exer ci
具 体</w>
te l</w>
ac cep
邮 件</w>
ti li
er al</w>
ye ar-
千 </w>
糕 </w>
老 师</w>
赖 </w>
beli ev
经 过</w>
environ mental</w>
org an
曲 </w>
relev ant</w>
in come</w>
pro gress</w>
晚 上</w>
预 计</w>
pres s</w>
g ames</w>
tran spor
respon se</w>
减 </w>
wr ong</w>
im ag
acti vity</w>
确 实</w>
不 再</w>
j </w>
思 想</w>
特殊 </w>
其 是</w>
以 下</w>
posi tive</w>
bu l
e th
ev alu
尤 其是</w>
mon it
re comm
cor rec
ad ver
ad d</w>
pur ch
对 象</w>
评 </w>
ecti vely</w>
s atis
wri ting</w>
方 向</w>
st an</w>
sc ale</w>
wi d
sc en
衣 服</w>
we ight</w>
适 </w>
ess es</w>
再 次</w>
连 接</w>
菜 </w>
制 造
t ai
norm al</w>
另 外</w>
long -
op s</w>
伊 </w>
ast er</w>
increas ed</w>
商 品</w>
物 质</w>
概 念</w>
余 </w>
communic ation</w>
jap anese</w>
li ter
co ver</w>
p a
comp on
作 者</w>
d ang
ing ton</w>
mi gr
军 事</w>
ci ties</w>
ter r
9 0</w>
挥 </w>
sig n</w>
都 会</w>
lead ing</w>
sear ch</w>
wee ks</w>
bo y</w>
recei ved</w>
股 </w>
cover ed</w>
退 </w>
en sure</w>
pre v
on i
涨 </w>
西 方</w>
lim ited</w>
奖 </w>
观 察</w>
s -
chec k</w>
manag er</w>
d p</w>
bu d
障 </w>
交 通</w>
肯 定</w>
201 1</w>
软 </w>
lo s
身 上</w>
末 </w>
相 同</w>
多 年</w>
cre ated</w>
sim ply</w>
相 比</w>
b a</w>
顾 </w>
is ed</w>
wi sh</w>
execu tive</w>
ther n</w>
副 </w>
pat ter
调 整</w>
1 4
individu al</w>
eff ects</w>
en h
re ly</w>
ou d</w>
buil t</w>
pre dic
vi ll
dai ly</w>
t ty</w>
d ation</w>
代 码</w>
妈 妈</w>
loo ks</w>
au </w>
科 学家</w>
gu ar
__ __
tr ou
afri ca</w>
techn ical</w>
h am
例 子</w>
处 于</w>
视 频</w>
特 征</w>
推 动</w>
裁 </w>
h ands</w>
rec ord</w>
武 器</w>
旦 </w>
冲 突</w>
h it</w>
怪 </w>
h ic
触 </w>
不 得
2 3</w>
皮 </w>
订 </w>
ab ly</w>
ch r
fr en
me t</w>
chang ed</w>
differ ence</w>
re duce</w>
药 物</w>
par ties</w>
sur face</w>
s un</w>
influ ence</w>
plan ning</w>
201 2</w>
l ess
wi se</w>
sub ject</w>
seri ous</w>
开 放</w>
p ass
rec or
高 级</w>
我 国</w>
空 气</w>
prof ess
in ning</w>
威 </w>
河 </w>
箱 </w>
z hou
股 票</w>
sh owed</w>
ex tr
sh u
s tic
m un
strate gy</w>
ea k</w>
醒 </w>
so li
谈 判</w>
hu ge</w>
ver sion</w>
ne g
针 对</w>
al one</w>
病 毒</w>
se tt
正 常</w>
d avi
警 察</w>
机 制</w>
bor n</w>
性 能</w>
enterpri se</w>
ro o
培 训</w>
spe e
than k</w>
deb t</w>
妻 子</w>
原 </w>
particul arly</w>
con ference</w>
及 其</w>
fac tors</w>
uni ties</w>
缺 乏</w>
附 近</w>
dou b
联 合</w>
teach ing</w>
c k
professi onal</w>
so ft</w>
he ar</w>
只 要</w>
bre ak</w>
kore a</w>
百 </w>
第 二
讨 </w>
相 对</w>
cap ac
repor ts</w>
research ers</w>
le gi
industri al</w>
yu an</w>
s end</w>
迅 速</w>
短 </w>
y ed</w>
双 方</w>
l ad
su st
gu i
russi a</w>
首 席</w>
ad em
记 者</w>
平 衡</w>
交 流</w>
债 务</w>
忆 </w>
l uc
fel t</w>
策 略</w>
ex tre
gi ving</w>
fin al</w>
goo gle</w>
w in</w>
自 动</w>
外 国</w>
规 </w>
气 候</w>
exp an
课 </w>
ci ti
包 含</w>
le -
e ur
fri end
无 论</w>
gre at
provi des</w>
旅 行</w>
联 邦</w>
深 </w>
坐 </w>
bi ll</w>
bre ak
自 我</w>
en ded</w>
gre ater</w>
ac adem
街 </w>
af ter
di vi
急 </w>
rel ations</w>
其 它</w>
sum mer</w>
原 则</w>
cal cul
compar ed</w>
mo bile</w>
册 </w>
establi shed</w>
under standing</w>
require ments</w>
卫 生</w>
礼 </w>
car e
sh own</w>
铁 </w>
ve hic
摘 要</w>
损 失</w>
or ing</w>
sec tion</w>
幕 </w>
斗 </w>
财 政</w>
addre ss</w>
动 力</w>
尼 亚</w>
基 因</w>
vide o</w>
ass em
desig ned</w>
regi onal</w>
sti c</w>
制 定</w>
c old</w>
医 院</w>
平 台</w>
最 新</w>
bro ad
tech ni
一 致</w>
停 止</w>
鼓 励</w>
go ti
m ou
deci ded</w>
阅 读</w>
p aid</w>
态 度</w>
旧 </w>
au str
zhou </w>
for ces</w>
充 满</w>
br ain</w>
uni on</w>
饭 </w>
不得 不</w>
st ant</w>
for tun
怎 样</w>
pub lic
g old</w>
f em
pri me</w>
s ound</w>
pow er
responsi ble</w>
b ac
se em</w>
direc tly</w>
相 当</w>
wor th</w>
i i</w>
de ep</w>
un it</w>
br an
physi cal</w>
a di
破 </w>
旅 游</w>
on y</w>
r ound</w>
尝 试</w>
cl assi
avo id</w>
ar gu
anc ing</w>
p age</w>
不 想</w>
al o
tow ards</w>
逊 </w>
m as
试 验</w>
st ly</w>
什 </w>
h our</w>
teach er</w>
austr ali
opport unity</w>
fl u
wat ch</w>
忙 </w>
pro sp
cl in
z z
consi der</w>
tra vel</w>
温 </w>
re form</w>
enterpri ses</w>
nei gh
ag ency</w>
b ase</w>
tal king</w>
菌 </w>
th ou
stat ement</w>
社 </w>
com mission</w>
工 厂</w>
冷 </w>
扩 大</w>
ev ent</w>
bo x</w>
bus in
l and
公 众</w>
习 惯
ca used</w>
雷 </w>
效 率</w>
m c
北 </w>
lo ad</w>
serv ed</w>
训 练</w>
com for
ne goti
desp ite</w>
ch ance</w>
伟 大</w>
清 </w>
davi d</w>
s sed</w>
约翰 </w>
首 </w>
居 </w>
痛 </w>
wri tten</w>
教 学</w>
跌 </w>
c au
航 空</w>
状 况</w>
invol ved</w>
se p
er ous</w>
sp eak</w>
强 调</w>
att emp
ab </w>
po st</w>
充 分</w>
全 面</w>
success ful</w>
声 明</w>
收 到</w>
玩 </w>
re f
fi sh</w>
ta x
a ther</w>
w ants</w>
安 装</w>
e e</w>
et c</w>
放 弃</w>
obj ective</w>
达 成</w>
direc t</w>
com pl
男 孩</w>
bel ow</w>
camp ai
正 式</w>
as n</w>
in si
使 得</w>
眼 </w>
草 </w>
no te</w>
201 5</w>
ri ver</w>
h us
si ty</w>
踪 </w>
choo se</w>
意 见</w>
e ts</w>
男 性</w>
相 互</w>
娜 </w>
typ es</w>
canc er</w>
mess age</w>
连 </w>
以 后</w>
temper ature</w>
sel y</w>
er r
工 人</w>
plac es</w>
设 置</w>
sp end</w>
应 当</w>
ho t</w>
用 来</w>
2 8</w>
re st
酒 店</w>
血 </w>
烟 </w>
攻 击</w>
fren ch</w>
g en</w>
优 势</w>
sk ills</w>
s er</w>
s .
痛 苦</w>
ag ri
润 </w>
2 6</w>
袭 击</w>
而 言</w>
督 </w>
repres ent
wor ked</w>
ur al</w>
ell ing</w>
龄 </w>
援 助</w>
突 然</w>
ati vely</w>
o x
上 帝</w>
insur ance</w>
le tter</w>
fin e</w>
custom er</w>
范 </w>
st ar</w>
j us
it able</w>
z es</w>
事 会</w>
c ele
origin al</w>
感 谢</w>
200 4</w>
欧 盟</w>
s mar
伙 伴</w>
employe es</w>
陆 </w>
lo ss</w>
丁 </w>
me t
char ge</w>
值 得</w>
大 型</w>
夜 </w>
破 坏</w>
w ood</w>
办 法</w>
bo tt
as tic</w>
赢 得</w>
单 位</w>
1 %</w>
她 们</w>
b b
大 脑</w>
ol ym
化 学</w>
按 照</w>
一 系列</w>
resp ect</w>
stre ss</w>
右 </w>
g on
consider ed</w>
d om</w>
we al
核 心</w>
岸 </w>
off ic
ad es</w>
appro pri
帮 </w>
不 管</w>
正 如</w>
植 物</w>
趋 势</w>
故 </w>
ver se</w>
涉 及</w>
幸 福</w>
道 路</w>
信 号</w>
n y</w>
实 践
capac ity</w>
de si
mar ch</w>
监 管</w>
2 7</w>
评 价</w>
dem on
哪 里</w>
结 论</w>
t in</w>
evi dence</w>
秀 </w>
ben e
7 .
p ack
fe atures</w>
喝 </w>
fac e
博 士</w>
碳 </w>
ho tel</w>
st ation</w>
绪 </w>
w an</w>
chall eng
pl ant</w>
民 族</w>
tar get</w>
c um
employ ment</w>
199 4</w>
lead er</w>
competi tion</w>
op ti
f our
americ ans</w>
govern ments</w>
g one</w>
人 民
ad s</w>
main ly</w>
equ al</w>
arch it
k new</w>
行 政</w>
stri c
tra ff
wash ington</w>
201 4</w>
主 题</w>
applic ations</w>
profess or</w>
蒂 </w>
作 出</w>
sle ep</w>
al ing</w>
stat us</w>
h an
tri ed</w>
重 大</w>
beg inning</w>
por ts</w>
commer cial</w>
制 作</w>
sel l</w>
韩 国</w>
污 染</w>
c row
br and</w>
有 点</w>
par k</w>
foll ow</w>
在 于</w>
数 据
ter ed</w>
寻 求</w>
m es</w>
demon str
em ed</w>
c ells</w>
col or</w>
ye ster
明 确</w>
di ag
int el
l un
黑 </w>
ali zed</w>
ti v
饰 </w>
fi f
ide as</w>
i p
尽 </w>
十 分</w>
补 充</w>
哈 </w>
re pe
合 理</w>
打 开</w>
页 </w>
c ard</w>
倒 </w>
私 人</w>
ch am
go al</w>
测 量</w>
胀 </w>
实践 </w>
se ven</w>
com </w>
fun ds</w>
面 对</w>
be y
估 计</w>
g ation</w>
clim ate</w>
hi stor
ju d
oper ations</w>
杂 志</w>
搜 索</w>
oc cur
遇 到</w>
tain ed</w>
著 名</w>
后 来</w>
证 据</w>
re ach</w>
sur vi
year- old</w>
bal ance</w>
sp ring</w>
co ordin
登 </w>
特 定</w>
cho ice</w>
augh ter</w>
fam ous</w>
雨 </w>
怒 </w>
ic ally</w>
lo se</w>
de ad</w>
大 利亚</w>
澳 大利亚</w>
yester day</w>
产 业</w>
exi sting</w>
颜 色</w>
意 大
any one</w>
博 </w>
pre tty</w>
恐 怖
li c</w>
只 能</w>
ann ual</w>
sk y</w>
z one</w>
provin ce</w>
my self</w>
公 开</w>
u es</w>
scho ols</w>
sol ve</w>
艺 </w>
习惯 </w>
re fer
poli cies</w>
各 国</w>
k o
tu de</w>
doll ars</w>
chri st
comple x</w>
伊 拉克</w>
一 旦</w>
良 </w>
p ass</w>
implem entation</w>
部 长</w>
ge or
想 象</w>
psy ch
tr ust</w>
lat est</w>
遇 </w>
指 导</w>
program me</w>
检 测</w>
dom in
au g
conf lic
表 面</w>
渐 </w>
pl us</w>
元 素</w>
经 营</w>
恐怖 </w>
sp ending</w>
背 景</w>
con stitu
pre vious</w>
sh es</w>
jun e</w>
ev en
re view</w>
feel ing</w>
ali zation</w>
警 告</w>
stand ards</w>
sm all
l y
sk in</w>
bri tain</w>
pro duce</w>
人民 币</w>
宫 </w>
屋 </w>
民 主</w>
尚 </w>
ap poin
effor t</w>
来 到</w>
ac qui
耶 和
耶和 华</w>
鼠 </w>
enjo y</w>
镜 </w>
l en
vie ws</w>
feder al</w>
19 6
degre e</w>
病 人</w>
农 业</w>
over all</w>
ev ents</w>
一 半</w>
gener ation</w>
依 赖</w>
坐 在</w>
sec tor</w>
维 持</w>
比 亚</w>
publi shed</w>
之 外</w>
in fr
reg ar
镇 </w>
en se</w>
st one</w>
engine ering</w>
强 大</w>
de e
指 数</w>
wal k</w>
a i</w>
发 挥</w>
助 于</w>
a head</w>
cont act</w>
i g
徒 </w>
丰 富</w>
ir a
condi tion</w>
sch em
意大 利</w>
ser ver</w>
真 实</w>
扰 </w>
3 1</w>
本 身</w>
服务 器</w>
to -
s ave</w>
明 白</w>
anc y</w>
默 </w>
a ur
集 中</w>
pur su
promo te</w>
n e</w>
回 来</w>
fe ar</w>
华 盛
sp ent</w>
wa it</w>
双 </w>
脏 </w>
月 份</w>
oul dn</w>
intel lig
li ber
pic ture</w>
反 映</w>
face book</w>
联 盟</w>
符 合</w>
糖 </w>
讯 </w>
发 出</w>
201 3</w>
咖 啡
gg er</w>
洁 </w>
< </w>
传 播</w>
pp ing</w>
li ons</w>
der ed</w>
宝 </w>
权 力</w>
红 </w>
朝 鲜</w>
wh at
最 佳</w>
3 %</w>
管 理
弟 </w>
bey ond</w>
en cies</w>
cor e</w>
l led</w>
er -
streng th</w>
l ack</w>
f ell</w>
happ ened</w>
m el
2 %</w>
预 算</w>
3 00</w>
car ry</w>
anti -
mi r
dy nam
探 讨</w>
adver ti
enc ed</w>
特 点</w>
n ar
re main</w>
sig ned</w>
d ele
经济 学</w>
pro posed</w>
surve y</w>
sen ior</w>
居 民</w>
g row</w>
就 业</w>
cou ple</w>
foo t
fin ance</w>
kil led</w>
or ed</w>
消 </w>
龙 </w>
消 费</w>
gi ves</w>
om s</w>
裂 </w>
authori ties</w>
pre hen
scienti sts</w>
适 用</w>
piec e</w>
收 集</w>
i st</w>
图 像</w>
美 丽</w>
pro po
o graph
冲 </w>
h ood</w>
国 会</w>
祝 </w>
适 合</w>
修 </w>
n on
pur pose</w>
鲁 </w>
mem ory</w>
t ext</w>
co -
材 </w>
n ation
dri ve</w>
怀 疑</w>
池 </w>
部 队</w>
停 </w>
3 5</w>
mi st
思 考</w>
distribu tion</w>
exp lo
bene fits</w>
op ini
糟 糕</w>
4 5</w>
伊 朗</w>
央 </w>
vo ice</w>
木 </w>
b at
全 部</w>
str ong
perf ect</w>
seas on</w>
脱 </w>
有 助于</w>
瓦 </w>
sor ry</w>
f ol
in sp
y i
easi ly</w>
vi ously</w>
节 目</w>
x im
wee k
往 往</w>
顶 </w>
各 地</w>
om e
ru le</w>
中 央</w>
c ell</w>
cer ti
忧 </w>
法 院</w>
l ay
华盛 顿</w>
sh op</w>
reas ons</w>
震 </w>
ro te</w>
么 样</w>
join t</w>
tur ns</w>
情 绪</w>
c as
characteris tics</w>
ha ir</w>
普 遍</w>
利 率</w>
理 由</w>
对 手</w>
mo ving</w>
cl ass
批 准</w>
re solution</w>
ur ban</w>
car b
一 张</w>
in ci
现 象</w>
ex ac
increas ing</w>
规 划</w>
mon day</w>
pl aying</w>
w ind</w>
谷 歌</w>
su dd
organiz ations</w>
档 </w>
大 会</w>
t t</w>
技 能</w>
qu ali
g dp</w>
相 反</w>
vol u
hosp ital</w>
ay ed</w>
199 3</w>
interest ing</w>
谢 谢</w>
t ask</w>
接 近</w>
ger many</w>
dat ab
saf e</w>
迫 </w>
当 前</w>
2 9</w>
civi l</w>
很 少</w>
葡 萄
tran sl
早 期</w>
care er</w>
achi eve</w>
难 以</w>
上 涨</w>
bl ue</w>
o ther
ap ri
普 通</w>
than ks</w>
w rote</w>
贷 </w>
thous ands</w>
某 种</w>
dre am</w>
绩 </w>
事 务</w>
valu es</w>
适 当</w>
heav y</w>
届 </w>
num bers</w>
贴 </w>
tic ally</w>
ell ow</w>
tra vel
marke ting</w>
t ent</w>
接 触</w>
汗 </w>
小 组</w>
we ap
妇 </w>
ob ject</w>
cle an</w>
ma ster</w>
di e</w>
att ack</w>
年轻 人</w>
军 队</w>
灵 </w>
pres sion</w>
introduc ed</w>
re ve
fas hi
l t
st ood</w>
- year-old</w>
fi gh
舞 </w>
从 来</w>
预 期</w>
差 异</w>
an tly</w>
i b
比 例</w>
mar ri
institu te</w>
scienti fic</w>
阻 止</w>
corpor ate</w>
he at</w>
sp ar
膜 </w>
ali st</w>
el ess</w>
协 调</w>
isra el</w>
happ en</w>
上 面</w>
announ ced</w>
sc op
al ter
数据 库</w>
ab or
老 板</w>
角 度</w>
a war
remain s</w>
独 </w>
请 求</w>
exp ect</w>
thr ough
sh ment</w>
坡 </w>
heal thy</w>
in c
年 龄</w>
说 话</w>
公 布</w>
获 </w>
彩 </w>
国 人</w>
ing -
莱 </w>
com prehen
s a</w>
al ism</w>
梦 想</w>
sig n
ju ly</w>
成 立</w>
享 受</w>
neg ative</w>
ste el</w>
b y
gon na</w>
洛 </w>
pas sed</w>
at trac
responsi bility</w>
k y</w>
衣 </w>
an ci
c amer
答 案</w>
分 享</w>
all owed</w>
har d
si tes</w>
loc ation</w>
oper ating</w>
inde x</w>
c ali
enti re</w>
quar ter</w>
as ses</w>
citi z
8 .
sep tem
he ar
m ol
process ing</w>
高 度</w>
dam age</w>
协 会</w>
app ly</w>
kin ds</w>
prev ent</w>
犯 罪</w>
流 行</w>
地 产</w>
k ers</w>
出 去</w>
septem ber</w>
迹 </w>
脚 </w>
curr ently</w>
c ash</w>
exerci se</w>
温 度</w>
fr ance</w>
movi e</w>
出 售</w>
统 计</w>
secre tary</w>
如 今</w>
m ent
距 离</w>
ac </w>
t ations</w>
prot ect</w>
咨 询</w>
批 评</w>
th ur
洗 </w>
考 试</w>
o d
agre ed</w>
ac ci
希 腊
ac cur
b att
ho li
汇 </w>
b es</w>
mechan ism</w>
ni a</w>
m ur
函 数</w>
供 应
女 儿</w>
困 </w>
能 量</w>
维 护</w>
inst all
exper im
b ing</w>
chem ical</w>
周 围</w>
an ces</w>
well -
ev ol
握 </w>
强 烈</w>
fir ms</w>
ch air
s al</w>
详 细</w>
参 数</w>
e ye</w>
ar ies</w>
inter ests</w>
curr ency</w>
现 有</w>
担 忧</w>
con trac
spiri t</w>
址 </w>
exper ts</w>
in a</w>
as sets</w>
迷 </w>
la ws</w>
ar rang
议 员</w>
el ection</w>
appe ar</w>
traff ic</w>
fail ure</w>
财 务</w>
re t
ei ght</w>
n ice</w>
t ree</w>
pre mi
宜 </w>
stru gg
200 3</w>
sex </w>
d ential</w>
appropri ate</w>
behavi or</w>
台 湾</w>
direc tion</w>
associ ation</w>
do g</w>
plat form</w>
ch en</w>
贝 </w>
institu tions</w>
inde ed</w>
t ori
fac tory</w>
手 术</w>
bab y</w>
进 展</w>
应 对</w>
紧 张</w>
guar an
li e</w>
雅 </w>
stan ces</w>
kee ping</w>
ple as
benef it</w>
star ting</w>
t le</w>
生 产
ri sing</w>
ste ps</w>
en s
分 别</w>
宗 教</w>
版 本</w>
pre ven
det ails</w>
u k</w>
certain ly</w>
面 前</w>
wor l
coun ter
mi ss</w>
绿 色</w>
利 润</w>
e th</w>
foun dation</w>
完 美</w>
apri l</w>
叶 </w>
伤 害</w>
dar k</w>
charac ter</w>
肤 </w>
effici ency</w>
刺 激</w>
e an</w>
electri c</w>
脸 </w>
记 得</w>
inter nal</w>
dev ice</w>
import ance</w>
属 于</w>
dec lar
sus p
a h
丈 夫</w>
8 %</w>
ef ul
ach es</w>
虫 </w>
st atis
anim als</w>
re ven
re ached</w>
meas u
gener ally</w>
假 设</w>
9 .
n or</w>
advant age</w>
到 达</w>
重 点</w>
太 多</w>
暴 力</w>
rest aur
教 师</w>
li br
doll ar</w>
mar i
ri ch
组 合</w>
提 到</w>
希腊 </w>
债 券</w>
幸 </w>
re -
in -
tele vision</w>
为 止</w>
毫 无</w>
u tili
收 购</w>
看 见</w>
ke pt</w>
c ing</w>
运 动
同 事</w>
beg in</w>
es is</w>
灯 </w>
teach ers</w>
qu e
ac ts</w>
佛 </w>
引 发</w>
reli gi
心 理</w>
sen si
家 人</w>
敢 </w>
潜 在</w>
dru g</w>
r ain
0 ,000</w>
is land</w>
6 %</w>
power ful</w>
tom or
转 移</w>
tr ain</w>
spe aking</w>
con centr
炸 </w>
indepen dent</w>
n an
trad ing</w>
mi d
滑 </w>
fa ult</w>
分 配</w>
公 民</w>
ow ned</w>
asi an</w>
ki ds</w>
high ly</w>
comple tely</w>
ad ditional</w>
qu anti
car ried</w>
fi ght</w>
hou se
princi ple</w>
7 %</w>
显 然</w>
暗 </w>
评 论</w>
a x
莉 </w>
哦 </w>
烦 </w>
决 议</w>
flo or</w>
哪 </w>
特 性</w>
inclu des</w>
str ang
hel ped</w>
fe et</w>
auth or</w>
adv anced</w>
几 年</w>
4 %</w>
外 交</w>
immedi ately</w>
对 话</w>
g an</w>
b un
happ iness</w>
于 是</w>
财 富</w>
s an
恶 </w>
律 师</w>
squ are</w>
consum ers</w>
防 止</w>
dec ember</w>
途 </w>
f air</w>
有 着</w>
制造 商</w>
can di
某 </w>
z er
ag ree</w>
innov ation</w>
ad ju
call s</w>
猫 </w>
有 所</w>
concer ned</w>
荣 </w>
消 失</w>
on e-
assem bly</w>
工 资</w>
app lied</w>
di </w>
op ening</w>
rai se</w>
bu s</w>
风 格</w>
doc tor</w>
what ever</w>
reas on
tran si
神 经</w>
理 学</w>
递 </w>
览 </w>
l ands</w>
z e
lo ts</w>
new sp
tomor row</w>
苏 </w>
campai gn</w>
额 外</w>
hus band</w>
s on
ber t</w>
智 能</w>
谓 </w>
tru th</w>
通 知</w>
添 加</w>
ass ess
in j
或 许</w>
随 </w>
西 班
tow ard</w>
vi a</w>
effici ent</w>
ap preci
最 初</w>
famili es</w>
it ation</w>
改 进</w>
移 民</w>
总 理</w>
机 器</w>
scre en</w>
carb on</w>
‘ </w>
ec ture</w>
lear ned</w>
en ly</w>
ex ce
exac tly</w>
圣 </w>
spee ch</w>
ac cept</w>
首 次</w>
里 面</w>
禁 止</w>
克 斯</w>
适 应</w>
ad a</w>
spor ts</w>
若 </w>
s old</w>
p ain</w>
多 个</w>
兹 </w>
sh op
毁 </w>
con cept</w>
we ar</w>
centr e</w>
不 起</w>
吸 </w>
西班 牙</w>
m ass</w>
严 格</w>
pri mary</w>
下 面</w>
好 处</w>
exc ell
提 升</w>
cou l
tu esday</w>
天 气</w>
uni que</w>
chang ing</w>
continu ed</w>
加 拿
欧 </w>
n it
mo vement</w>
dig ital</w>
x ml</w>
缘 </w>
c ement</w>
ro se</w>
批 </w>
st op
袋 </w>
指 定</w>
web site</w>
加拿 大</w>
t ari
堡 </w>
fri day</w>
jan uary</w>
fre ed
ch ap
ad ap
se emed</w>
oc cu
s ent
烧 </w>
工 作
str ai
plac ed</w>
civi li
rele ased</w>
金 属</w>
meas ure</w>
飞 </w>
回 家</w>
bud get</w>
an a</w>
萨 </w>
li qui
doc uments</w>
diffic ul
con serv
min e</w>
漂 亮</w>
弄 </w>
轻 </w>
multi ple</w>
po st
al g
p ath</w>
200 1</w>
ar my</w>
誉 </w>
固 </w>
c ars</w>
bri dge</w>
m ail</w>
rele ase</w>
诚 </w>
si a</w>
审 查</w>
贡 献</w>
el ements</w>
埃 </w>
明 天</w>
茨 </w>
公 园</w>
紧 </w>
奋 </w>
关 闭</w>
mean ing</w>
圣 诞
n ative</w>
becom es</w>
根 本</w>
打 击</w>
早 上</w>
田 </w>
更 新</w>
appe ared</w>
descri bed</w>
记 住</w>
进 口</w>
承 担</w>
al is
感 染</w>
官 方</w>
供 应</w>
事 业</w>
en ge</w>
障 碍</w>
j av
ologi es</w>
弗 </w>
云 </w>
商 店</w>
mi cha
ll s</w>
recei ve</w>
综 合</w>
medic ine</w>
细 节</w>
foll owed</w>
雪 </w>
al ed</w>
以 便</w>
人 数</w>
qu o
te sting</w>
寸 </w>
r ay</w>
g ate</w>
阿 拉
par ame
装 置</w>
推 出</w>
留 下</w>
悉 </w>
consum er</w>
for ced</w>
签 </w>
inclu ded</w>
下 午</w>
y o
提 交</w>
d ates</w>
russi an</w>
nam ed</w>
en ting</w>
广 </w>
dr aw</w>
cele br
we ather</w>
g or
gh t
opti mi
偿 </w>
fac tor</w>
净 </w>
through out</w>
datab ase</w>
sp here</w>
巧 </w>
来 源</w>
op ened</w>
clear ly</w>
人 物</w>
瑞 </w>
pay ment</w>
进 步</w>
interest ed</w>
即 将</w>
其 他人</w>
l in</w>
associ ated</w>
太阳 </w>
ch ur
女 士</w>
民 主
r am
t ment</w>
all s</w>
命 令</w>
投 票</w>
完 </w>
道 德</w>
con gress</w>
d ying</w>
confi dence</w>
anci ent</w>
这 家</w>
配 置</w>
func tions</w>
st ability</w>
封 </w>
在 线</w>
we ak
col um
manufactur ing</w>
eful ly</w>
th -
sel ling</w>
micha el</w>
reg ular</w>
w asn</w>
produc ed</w>
y er</w>
we i
睡 </w>
gr ade</w>
tu red</w>
wel come</w>
地 震</w>
熟 </w>
更 高</w>
mo ved</w>
marri age</w>
chair man</w>
ag ue</w>
u te</w>
暖 </w>
星 期</w>
chall enge</w>
姻 </w>
格 兰</w>
免 费</w>
1 ,
oc to
ap par
wind ow</w>
auth ority</w>
pe ac
e .
打 算</w>
gl ass</w>
共和 党</w>
gen cy</w>
fav or
g in</w>
to ols</w>
sp read</w>
abili ties</w>
牛 </w>
演 讲</w>
tal ks</w>
wed n
co ff
li fe
运 输</w>
gr and
信 心</w>
wind ows</w>
opport unities</w>
结 婚</w>
requ est</w>
百 万</w>
押 </w>
ok ay</w>
tai wan</w>
b ar</w>
busin esses</w>
癌 </w>
ar m</w>
199 5</w>
来 看</w>
plan e</w>
可 是</w>
l eng
输 入</w>
re serv
安 全
plan ts</w>
mod els</w>
se as</w>
ac comp
increas ingly</w>
r oun
扎 </w>
修 改</w>
inter view</w>
翻 译</w>
se tting</w>
sust ain
long- term</w>
f ying</w>
des er
家 里</w>
人 权</w>
sl ow
3 2</w>
bu sh</w>
octo ber</w>
ye ah</w>
play ed</w>
确 认</w>
s atur
en ter</w>
下 去</w>
legi sl
cle an
wedn esday</w>
能 性</w>
毛 </w>
小 说</w>
ex ter
框 架</w>
concer n</w>
do cu
戴 </w>
发 言
m as</w>
丹 </w>
t om</w>
姐 </w>
shar es</w>
日 子</w>
gir ls</w>
婚 姻</w>
立 即</w>
docu ment</w>
w aste</w>
实 验
hy dro
fre sh</w>
hou sing</w>
cri tical</w>
wi lling</w>
等 待</w>
su me</w>
采 访</w>
lo ad
奶 </w>
眠 </w>
consum ption</w>
担 任</w>
网 上</w>
mean while</w>
du le</w>
2 5
定 性</w>
sun day</w>
缓 </w>
mit ted</w>
fem ale</w>
re ment</w>
算 法</w>
ven ess</w>
上 述</w>
执 行
tre as
固 定</w>
桥 </w>
as ks</w>
am bi
沙 </w>
b om
part ner</w>
bl ed</w>
负 </w>
ati cally</w>
艺 术
骨 </w>
no tice</w>
dro p</w>
i ll</w>
main tain</w>
归 </w>
mar ried</w>
fi gu
进 程</w>
身 份</w>
投 入</w>
rai sed</w>
coul dn</w>
tu m
s en</w>
becom ing</w>
培 养</w>
c in
爸 </w>
prac tical</w>
捕 </w>
conn ection</w>
r ati
理 想</w>
fiel ds</w>
学 会</w>
r ural</w>
棒 </w>
公 平</w>
ex hi
program s</w>
p al</w>
tt on</w>
聪 明</w>
给 予</w>
谷 </w>
distri ct</w>
央 行</w>
cir cum
恋 </w>
尊 重</w>
prac tic
印 </w>
en g</w>
建 造</w>
mo de</w>
时 刻</w>
ai led</w>
关 心</w>
trans fer</w>
bi o
tur ning</w>
clo th
胜 </w>
z y</w>
con ver
au l</w>
歉 </w>
巴 西</w>
脉 </w>
it ems</w>
迟 </w>
出 生</w>
休 </w>
海 洋</w>
hol ding</w>
er ship</w>
ten d</w>
us eful</w>
英 </w>
洞 </w>
满 意</w>
玛 </w>
d aughter</w>
f ed</w>
f light</w>
完 整</w>
fai led</w>
注 册</w>
lt d</w>
ke ts</w>
ex </w>
g ain</w>
汉 </w>
go als</w>
演 员</w>
运 会</w>
regul ations</w>
mor t
古 </w>
c oo
eu </w>
at ti
exp ec
l a</w>
生 态</w>
ac tual</w>
won der
list en</w>
form ing</w>
狱 </w>
freed om</w>
社 交</w>
阿 富
阿富 汗</w>
正 是</w>
gh tly</w>
这 件</w>
枪 </w>
neigh b
蒙 </w>
cre ating</w>
geor ge</w>
邀 请</w>
nov ember</w>
房 地产</w>
tw o-
br u
cri min
pres ented</w>
链 </w>
out put</w>
形 象</w>
all ows</w>
expres sion</w>
rel atively</w>
m ers</w>
x i</w>
re ality</w>
in stance</w>
s ar
wh om</w>
- based</w>
requi re</w>
报 纸</w>
weal th</w>
机 械
腿 </w>
te sts</w>
p ic</w>
罚 </w>
c lic
从 事</w>
红 色</w>
lab or</w>
fac es</w>
显 著</w>
吁 </w>
gen e
左 右</w>
构 建</w>
pop ul
秘 密</w>
看 来</w>
le ts</w>
y ang</w>
provi ding</w>
主 管</w>
记 忆</w>
ger man</w>
dr y</w>
整 体</w>
j er
现 金</w>
海 外</w>
体 育</w>
st able</w>
存 储</w>
solu tions</w>
观 众</w>
cr aft</w>
assi stance</w>
mini stry</w>
10 %</w>
200 2</w>
di pl
植 </w>
常 见</w>
事 故</w>
要 性</w>
ar en</w>
app ed</w>
con fir
sho t</w>
am az
et ary</w>
菲 </w>
s ession</w>
s day</w>
9 %</w>
谈 论</w>
cri tici
f it</w>
游 客</w>
ri </w>
p it
害 怕</w>
民主 党</w>
dipl om
ev ening</w>
see ing</w>
ordin ary</w>
既 </w>
倾 向</w>
wa iting</w>
impro ved</w>
ab les</w>
bo ss</w>
tri bu
增 强</w>
am ent</w>
si r</w>
ac ked</w>
k es
prof it</w>
动 机</w>
en ty</w>
ph ase</w>
v ac
否 则</w>
bro ther</w>
australi a</w>
w ang</w>
释 放</w>
标 志</w>
所 谓</w>
v it
kn ows</w>
in struc
逐 渐</w>
ab str
par ti
智 </w>
营 销</w>
r ou
jo in</w>
comprehen sive</w>
s ad
大 小</w>
4 00</w>
vo te</w>
e k</w>
stu died</w>
gu id
drin k</w>
下 跌</w>
k en
陷 入</w>
br az
mil es</w>
名 称</w>
礼 物</w>
trou ble</w>
瘤 </w>
administr ative</w>
consi st
想 到</w>
con sequ
ach ing</w>
ne u
fi ll</w>
aug ust</w>
th i
种 族</w>
优 秀</w>
宾 </w>
当 局</w>
ak i
开 展</w>
re ference</w>
ti vity</w>
s an</w>
指 控</w>
ha ven</w>
债 </w>
转 变</w>
reali ze</w>
d red</w>
c ate
构 成</w>
惧 </w>
陷 </w>
ner ship</w>
昨 天</w>
discus sed</w>
infl ation</w>
手 段</w>
绕 </w>
r ying</w>
k er
临 床</w>
锁 </w>
本 周</w>
larg er</w>
loc ated</w>
劳 </w>
di stance</w>
推 </w>
thur sday</w>
奥 运会</w>
参 考</w>
clu b</w>
奇 怪</w>
201 6</w>
clai m</w>
机 场</w>
看 着</w>
日 常</w>
粉 </w>
c ast</w>
兄 弟</w>
dou ble</w>
呼 吁</w>
补 </w>
diag no
埃 及</w>
i phone</w>
ow ers</w>
ris ks</w>
ro c
坛 </w>
b loc
农 村</w>
sh ape</w>
wh er
累 </w>
等 于</w>
麦 </w>
保 留</w>
anim al</w>
~ </w>
dest ro
玻 璃
损 </w>
n ic
sol di
惊 </w>
con sci
estab lish</w>
ph en
g ent
ph </w>
识 别</w>
货 物</w>
支 出</w>
启 动</w>
pati ent</w>
独 特</w>
削 减</w>
democr atic</w>
妙 </w>
婴 儿</w>
wi t
199 6</w>
其 实</w>
证 券</w>
af gh
tr end</w>
patter n</w>
sti mul
圈 </w>
卷 </w>
mat ch</w>
cali for
no on</w>
bott om</w>
cloth es</w>
ex cept</w>
孔 </w>
d b
te a</w>
追 求</w>
s co
reco very</w>
秘 书
这 场</w>
investig ation</w>
顾 客</w>
十 年</w>
concer ns</w>
cli ent</w>
可 能性</w>
伊 斯
dri ving</w>
堆 </w>
tri p</w>
gu y</w>
dec ades</w>
监 督</w>
季 度</w>
b ought</w>
混 合</w>
jus tice</w>
克 尔</w>
ru p
f esti
19 5
… …</w>
信 任</w>
1 000</w>
tr ack</w>
beau ty</w>
以 为</w>
dec ade</w>
野 </w>
说 法</w>
ast ing</w>
ver i
上 周</w>
ar ms</w>
一 边</w>
be ar</w>
过 来</w>
分 布</w>
有 用</w>
代 表
w w
p ap
灭 </w>
b oun
prepar ed</w>
指 标</w>
e ating</w>
4 8</w>
c up</w>
infr a
共和 国</w>
e ar</w>
fun </w>
ac king</w>
small er</w>
ori th
消 除</w>
穷 </w>
alg orith
cor respon
bi ts</w>
w oo
us ual</w>
strate gic</w>
back ground</w>
techn ologies</w>
fu el</w>
皮 肤</w>
hun dred</w>
even tually</w>
体 验</w>
视 为</w>
a fr
ag gre
requi res</w>
li ghts</w>
happ ens</w>
从 未</w>
发言 人</w>
碎 </w>
工 程
spo kes
speci es</w>
un less</w>
ira q</w>
der i
qu es</w>
除 非</w>
周 一</w>
森 林</w>
eng land</w>
沟 通</w>
re public</w>
或 是</w>
做 到</w>
e ding</w>
form ul
issu ed</w>
赏 </w>
r an</w>
s ses</w>
自 身</w>
好 像</w>
ob serv
comp lic
3 0
衰 退</w>
上 市</w>
ph ones</w>
1 :
d an</w>
ent ary</w>
d ary</w>
w are</w>
expen sive</w>
no tes</w>
li ved</w>
vol un
顾 问</w>
ab road</w>
鸟 </w>
adop ted</w>
作 家</w>
gr an
扬 </w>
俱 乐
tain s</w>
垃 圾
俱乐 部</w>
成 就</w>
differ ences</w>
fun dam
for get</w>
预 </w>
hun dre
sal e</w>
t ool</w>
hu </w>
off ered</w>
年 度</w>
竟 </w>
con nec
b i</w>
resour ce</w>
刚 刚</w>
接 下来</w>
ess ential</w>
aff airs</w>
re stric
尺 </w>
famili ar</w>
论 文</w>
wor ry</w>
至 于</w>
墙 </w>
fil led</w>
v ali
清 单</w>
选 人</w>
期 望</w>
四 个</w>
lead ership</w>
一 方面</w>
交 易
di men
英 里</w>
pr ai
excell ent</w>
high est</w>
electr onic</w>
per sp
expl ain</w>
afr aid</w>
ex port</w>
op h
成 长</w>
j ac
gr y</w>
am ed</w>
leav ing</w>
编 辑</w>
challeng es</w>
数 学</w>
cate g
p in
sl ow</w>
n ur
christ mas</w>
t ol
妮 </w>
inter pre
看 法</w>
m ad
咖啡 </w>
爸 爸</w>
连 续</w>
并 非</w>
合 适</w>
adv ice</w>
布 什</w>
proper ties</w>
vill age</w>
争 议</w>
yi el
de posi
美 联
肯 </w>
fashi on</w>
lim it</w>
职 位</w>
easi er</w>
发 送</w>
pp er</w>
im ages</w>
maj ority</w>
brow n</w>
实验 室</w>
win ter</w>
v oc
play ers</w>
secre t</w>
针 </w>
rel ation</w>
por ary</w>
a g</w>
s ong</w>
唱 </w>
对 此</w>
bu re
ro ck</w>
ch ain</w>
印 象</w>
tre es</w>
蛋 </w>
凡 </w>
预 防</w>
平 等</w>
conclu sion</w>
sh oo
转 换</w>
displ ay</w>
b n</w>
七 </w>
多 么</w>
dis ci
跳 </w>
conven i
ca uses</w>
over seas</w>
3 3</w>
c ra
din ner</w>
谱 </w>
extr a</w>
n as
ad vis
appe ars</w>
off ers</w>
c c
hel ps</w>
si t</w>
p y
afri can</w>
前 景</w>
探 索</w>
获 取</w>
所 说</w>
coll ection</w>
p c</w>
mi ts</w>
si x
dev ices</w>
日 益</w>
est ate</w>
密 切</w>
ig nor
el ement</w>
posi te</w>
lo y
距 </w>
wid ely</w>
sub si
er a</w>
in ed</w>
那 种</w>
巴 基
保 障</w>
紧 急</w>
u t
un g</w>
i tion</w>
califor nia</w>
刺 </w>
炼 </w>
ear th
emer ging</w>
巴基 斯坦</w>
bo dies</w>
viol ence</w>
不 足</w>
大 陆</w>
cap it
eg y
之 中</w>
ar ity</w>
pl ate</w>
日 期</w>
aff ected</w>
怨 </w>
帕 </w>
minu te</w>
不 错</w>
al d</w>
希 </w>
等 等</w>
ab solu
替 </w>
ari ly</w>
low -
w ouldn</w>
fin ding</w>
候 选人</w>
基 地</w>
稣 </w>
car ri
co al</w>
f it
侧 </w>
thous and</w>
胜 利</w>
打 电话</w>
缺 </w>
pic k</w>
ther ap
毕 业</w>
con vers
fi les</w>
愤 怒</w>
infra structure</w>
deci sions</w>
南 部</w>
asp ects</w>
梦 </w>
spe ak
取 消</w>
vi su
dr .</w>
sou thern</w>
ir an</w>
er o
外 部</w>
耶 稣</w>
re turned</w>
k it
3 6</w>
eng ine</w>
该 国</w>
see k</w>
coff ee</w>
tou ch</w>
conflic t</w>
war m</w>
潮 </w>
intellig ence</w>
stre am</w>
gi es</w>
cl int
emer gency</w>
拍 </w>
k y
籍 </w>
周 末</w>
sustain able</w>
discus s</w>
骤 </w>
常 常</w>
person nel</w>
str ation</w>
情 感</w>
妹 </w>
航 </w>
士 兵</w>
th esis</w>
opini on</w>
股 市</w>
中 间</w>
hundre ds</w>
dynam ic</w>
可 怕</w>
individu als</w>
分析 师</w>
少 数</w>
农 民</w>
determin ed</w>
签 署</w>
p aki
ini tial</w>
爱 情</w>
lin k</w>
nam es</w>
做 法</w>
poll ution</w>
穿 着</w>
ve ge
d na</w>
sh oc
真 是</w>
en em
忘 记</w>
ex clu
聚 </w>
ber g</w>
correc t</w>
impro vement</w>
fr ame
compon ents</w>
供应 商</w>
. com</w>
矿 </w>
r ain</w>
新 兴</w>
other wise</w>
人 群</w>
狂 </w>
熟 悉</w>
期 待</w>
princi ples</w>
w ine</w>
gu ang
那 时</w>
机械 </w>
还 要</w>
ter y</w>
理 事会</w>
工 艺</w>
ag ent</w>
si ght</w>
k u
诊 断</w>
医 学</w>
part ners</w>
regi ons</w>
地 址</w>
验 证</w>
ma p</w>
sy ri
绝 对</w>
vari ety</w>
mil lions</w>
拜 </w>
不 仅仅</w>
加 州</w>
燃 料</w>
cli ents</w>
weap ons</w>
硬 </w>
旨 在</w>
杆 </w>
as sum
恐 惧</w>
ho st</w>
s at
声 称</w>
b order</w>
发 达</w>
球 员</w>
expres s</w>
clint on</w>
evalu ation</w>
ri ce</w>
ter i
庆 祝</w>
m s.</w>
ing ing</w>
believ ed</w>
re serve</w>
魂 </w>
a de
wor se</w>
appe ar
ad ding</w>
战 斗</w>
sour ces</w>
ol der</w>
大 规模</w>
ster ed</w>
ur ation</w>
sudd enly</w>
bu ying</w>
com man
av es</w>
f ing
ur </w>
fe ature</w>
p aci
comp ens
终 于</w>
生 存</w>
表 演</w>
fini shed</w>
s y</w>
属 性</w>
s sing</w>
ul tim
clin ical</w>
su ggest</w>
循 环</w>
bl ing</w>
运 用</w>
步 骤</w>
准 确</w>
阵 </w>
sh ap
re vol
jour nal</w>
extre m
p aul</w>
ji ang</w>
micro soft</w>
返 回</w>
人 才</w>
少 年</w>
优 化</w>
k a</w>
鞋 </w>
ban king</w>
kore an</w>
di ty</w>
ti ves</w>
re mar
em is
20 %</w>
l ou
总 部</w>
stu ff</w>
mo on</w>
determin e</w>
晨 </w>
organ is
m enti
飞 行</w>
econom ies</w>
证 实</w>
al le
购 物</w>
摄 </w>
通 信</w>
b lock</w>
separ ate</w>
g am
t ant</w>
发 行</w>
商 务</w>
在 内</w>
for ec
exter nal</w>
ing u
方 便</w>
后 面</w>
fle xi
si tting</w>
ti </w>
ver ed</w>
rap id</w>
头 发</w>
私 </w>
呆 </w>
el er
discus sion</w>
给 出</w>
ve -
透 </w>
libr ary</w>
e over</w>
r ace</w>
流 程</w>
volu me</w>
事 物</w>
ob jects</w>
c tion</w>
clo sed</w>
so il</w>
条 款</w>
monit oring</w>
abstr act</w>
黎 </w>
dru gs</w>
更 为</w>
aff ect</w>
phi los
夫 人</w>
com b
defin ed</w>
非 法</w>
生 长</w>
jav a</w>
法 案</w>
ter ia</w>
stor ies</w>
deli very</w>
国 王</w>
繁 荣</w>
sig nal</w>
pu sh</w>
war ds</w>
d ated</w>
n om
buil dings</w>
现 场</w>
su s</w>
in sul
ten ance</w>
损 害</w>
取 决
取决 于</w>
麻 烦</w>
d r</w>
el li
h an</w>
讶 </w>
加 工</w>
爆 炸</w>
惊 讶</w>
cri me</w>
所 需</w>
sh el
壤 </w>
墨 西
integr ation</w>
j es
min im
重 复</w>
sugge sts</w>
thre at
bi gger</w>
竞 选</w>
st on</w>
tou ri
茶 </w>
un to</w>
人 生</w>
电 视
com modi
olym pic</w>
suff ici
周 二</w>
att acks</w>
certi fic
n a
抓 住</w>
eff ectively</w>
jour n
执行 官</w>
年 人</w>
lin ed</w>
革 命</w>
mag az
疫 </w>
mus e
包 装</w>
p on
m ale</w>
fi xed</w>
驶 </w>
am m
法 庭</w>
u k
群 体</w>
gui de</w>
创 </w>
mou th</w>
长 的</w>
il ed</w>
撒 </w>
experi ment</w>
决 策</w>
un its</w>
spo t</w>
b ol
comple ted</w>
te ch</w>
pr en
克 里
貌 </w>
ang le</w>
ill u
井 </w>
ir on</w>
transpor t</w>
chap ter</w>
宣 传</w>
大 幅</w>
排 放</w>
laun ched</w>
hol ds</w>
这 部</w>
议 院</w>
bir th</w>
thre at</w>
w ave</w>
页 面</w>
or ders</w>
l o</w>
mo stly</w>
s ac
wat ching</w>
every body</w>
extrem ely</w>
统 一</w>
tre at</w>
k es</w>
慧 </w>
techni que</w>
leng th</w>
叙 利亚</w>
l -
议 会</w>
wil li
厚 </w>
combin ation</w>
友 好</w>
st ence</w>
阿拉 伯</w>
扩 展</w>
f ly</w>
li ance</w>
as king</w>
饮 食</w>
aw are</w>
增 </w>
ici al</w>
抱 怨</w>
电 力</w>
出 版</w>
典 型</w>
nei ther</w>
同 一</w>
securi ties</w>
f at</w>
f al
t ac
g al
y ers</w>
figu res</w>
完 善</w>
国 务
k -
l em
ro y
随 后</w>
胎 </w>
play er</w>
mak ers</w>
设 立</w>
符 </w>
al y</w>
胶 </w>
富 有</w>
引 力</w>
奏 </w>
analy sts</w>
6 00</w>
玻璃 </w>
炎 </w>
ec tor</w>
| </w>
le t
汇 率</w>
折 </w>
cont ext</w>
通 用</w>
ro b
覆 盖</w>
conduc ted</w>
figh ting</w>
ti red</w>
模 拟</w>
低 于</w>
st o
accoun ting</w>
shop ping</w>
j ames</w>
li sted</w>
朝 </w>
ty -
after noon</w>
惑 </w>
off ering</w>
be d
sig ns</w>
citiz ens</w>
impro ving</w>
deci de</w>
tor ies</w>
相 似</w>
facili ties</w>
pres sed</w>
回 应</w>
n ine</w>
地 点</w>
渴 望</w>
中 国人</w>
en ess</w>
sugge sted</w>
n ings</w>
伊斯 兰</w>
bro ken</w>
团 体</w>
运 营</w>
一 座</w>
轴 </w>
协 助</w>
def ense</w>
represent ative</w>
面 积</w>
clai ms</w>
vehic le</w>
scop e</w>
ul ts</w>
friend ly</w>
授 权</w>
academ ic</w>
北 部</w>
pu tting</w>
扮 演</w>
dis covered</w>
信 贷</w>
文 学</w>
ap s</w>
分 之</w>
规 范</w>
manag ers</w>
imag ine</w>
兴 奋</w>
leav es</w>
offic er</w>
advant ages</w>
巴 黎</w>
at mo
运动 员</w>
for est</w>
r y
schem e</w>
foo t</w>
ac ting</w>
ent ure</w>
嗯 </w>
年 来</w>
ari an</w>
侣 </w>
深 入</w>
成 了</w>
白 色</w>
stor age</w>
dre ss</w>
paci fic</w>
效 应</w>
深 刻</w>
moun tain</w>
equ ity</w>
pol y
公 里</w>
b right</w>
cy cle</w>
and a</w>
收 益</w>
industri es</w>
festi val</w>
dang erous</w>
mat ters</w>
跃 </w>
appro val</w>
武 装</w>
交 换</w>
微 笑</w>
上 去</w>
lay er</w>
承 </w>
sen s
d ad</w>
es cap
受 伤</w>
vir us</w>
commer ce</w>
主 任</w>
ris m</w>
be sides</w>
抗 议</w>
purch ase</w>
sp an</w>
sh owing</w>
颗 </w>
税 收</w>
重 要性</w>
gradu ate</w>
一 部</w>
four th</w>
sp on
main tenance</w>
专 门</w>
c ab
we ak</w>
f loo
幸 运</w>
图 书
n one</w>
combin ed</w>
义 务</w>
fe br
气 体</w>
et ings</w>
re sc
radi o</w>
eli min
acc eler
febr uary</w>
欧 元</w>
gre en
4 9</w>
计 师</w>
accor dance</w>
拍 摄</w>
f air
chri sti
at tribu
足 球</w>
holi day</w>
poli tics</w>
o v
is on</w>
动 态</w>
oper ate</w>
r in
多 种</w>
热 情</w>
5 0
监 测</w>
resi stance</w>
po ses</w>
compon ent</w>
on to</w>
comfor table</w>
u g
荡 </w>
i an</w>
conduc t</w>
这 本</w>
po ver
st ars</w>
3 7</w>
occu p
ke y
i sts</w>
健 </w>
tion ally</w>
7 5</w>
z en</w>
cir cul
营 养</w>
reduc ed</w>
indi an</w>
周 期</w>
浪 费</w>
it em</w>
雄 </w>
m ex
最 低</w>
虎 </w>
合 物</w>
时 尚</w>
mem ber
ki ll</w>
屏 幕</w>
耗 </w>
pass eng
ent re
男 子</w>
po ss
吉 </w>
doub t</w>
bus y</w>
v es
睡 眠</w>
hel ping</w>
streng then</w>
cl asses</w>
举 办</w>
文 档</w>
menti oned</w>
sam ple</w>
sch ol
不 好</w>
成 熟</w>
mex ic
花 费</w>
西 亚</w>
休 息</w>
垃圾 </w>
pic tures</w>
restaur ant</w>
frame work</w>
por tion</w>
tion ary</w>
义 者</w>
3 4</w>
tion ing</w>
仪 </w>
li f
峰 </w>
这 份</w>
图书 馆</w>
reason able</w>
du m
s in</w>
le e</w>
ec tions</w>
tab les</w>
夏 天</w>
袖 </w>
物 理</w>
不 够</w>
呼 吸</w>
主 义者</w>
p a</w>
sett l
相 应</w>
199 2</w>
大 卫</w>
警 方</w>
su gg
博 物
ag e
得 出</w>
美联 储</w>
h oll
说 道</w>
优 先</w>
加 上</w>
me tal</w>
p uni
ab sor
crimin al</w>
relation ships</w>
audi ence</w>
判 断</w>
di versi
遵 守</w>
contro lled</w>
ain t</w>
ea stern</w>
pe ter</w>
man age</w>
不 幸</w>
nor thern</w>
生 成</w>
or ation</w>
文 本</w>
周 五</w>
strai ght</w>
八 </w>
员 国</w>
app ing</w>
c ross</w>
流 动</w>
几 天</w>
小 心</w>
不 久</w>
ren e
癌 症</w>
om en
融 资</w>
p li
err or</w>
har mon
v ul
shar ed</w>
si ster</w>
这 儿</w>
cont ains</w>
超 </w>
秘书 长</w>
v enti
像 是</w>
sp ac
ag encies</w>
发 明</w>
s at</w>
nu tri
foc used</w>
form al</w>
thre e-
fac ing</w>
sugg es
成 果</w>
k ar
newsp aper</w>
tou rism</w>
f ro
f aster</w>
adv ance</w>
成 绩</w>
代 理</w>
3 8</w>
dr aft</w>
伙 </w>
multi -
sim ul
hand le</w>
微 软</w>
sur roun
盛 </w>
重 视</w>
signific antly</w>
ag s</w>
不 得</w>
汤 姆</w>
fru it</w>
suc ce
纹 </w>
as ing</w>
man i
放 松</w>
b ound</w>
sex ual</w>
b ond</w>
财 产</w>
assess ment</w>
per man
hou ses</w>
gar den</w>
ed ge</w>
em ail</w>
agri cultural</w>
process es</w>
ali sts</w>
laun ch</w>
d ness</w>
con ce
qu ick</w>
enh ance</w>
哪 些</w>
法 官</w>
per form</w>
荷 </w>
frequ ency</w>
bl es</w>
周 三</w>
传 递</w>
智 慧</w>
可 靠</w>
黑 暗</w>
美 好</w>
博物 馆</w>
ga ther
服 装</w>
te en</w>
抱 </w>
订 单</w>
部 署</w>
l ying</w>
pover ty</w>
房 屋</w>
th or
保 存</w>
hol ders</w>
cor ru
foot ball</w>
近 年</w>
week end</w>
arri ved</w>
smar t</w>
satur day</w>
有 权</w>
刀 </w>
lad y</w>
accoun ts</w>
2 4
har v
reg ard</w>
you th</w>
histor ical</w>
力 于</w>
phen omen
6 5</w>
写 道</w>
speci fic
chur ch</w>
re la
scen e</w>
rati o</w>
piec es</w>
l ay</w>
怎 么样</w>
qu ake</w>
shi ft</w>
提 醒</w>
江 </w>
伯 特</w>
t ate</w>
im migr
tu be</w>
coll ap
ap ar
ag ues</w>
gg ing</w>
过 度</w>
餐 厅</w>
attemp t</w>
援 </w>
致 力于</w>
x es</w>
ang el
deb ate</w>
广 播</w>
掌 握</w>
comm and</w>
1 50</w>
cau ght</w>
推 进</w>
recor ds</w>
到 来</w>
tain ing</w>
shor t
resi dents</w>
要 么</w>
钢 </w>
disci pl
愉 快</w>
工程 师</w>
机 器
酷 </w>
依 然</w>
great est</w>
j ack</w>
c ool</w>
ob vious</w>
m m</w>
proce d
sh ad
view ed</w>
ong s</w>
appear ance</w>
can ada</w>
exi st</w>
分 离</w>
mil k</w>
pre -
at eral</w>
stat e-
促 </w>
mo o
chan nel</w>
te en
公 路</w>
羊 </w>
及 时</w>
con cre
乔 治</w>
estim ated</w>
shi r
du res</w>
z i
ess ed</w>
夺 </w>
wal king</w>
马 上</w>
机器 人</w>
立 法</w>
图 片</w>
漫 </w>
组 件</w>
stop ped</w>
竞 争
b c</w>
clo sely</w>
encour age</w>
call ing</w>
球 队</w>
fi re
鸡 </w>
me ant</w>
jes us</w>
vehic les</w>
学 者</w>
朵 </w>
本 上</w>
entre pren
oc ean</w>
lu x
charac ters</w>
z o
wor st</w>
su it</w>
阳 光</w>
poli tici
smo o
彼 此</w>
ob tained</w>
ri c</w>
回 报</w>
灾 </w>
conn ected</w>
会 计</w>
w o
pro to
账 户</w>
每 次</w>
案 件</w>
高 速</w>
n t</w>
archit ecture</w>
膨 胀</w>
smi le</w>
par is</w>
行 车</w>
先 进</w>
何 人</w>
短 期</w>
违 反</w>
st am
lab our</w>
rel ative</w>
soli d</w>
tri al</w>
超 级</w>
mu tual</w>
黄 金</w>
expres sed</w>
见 到</w>
之 下</w>
刷 </w>
ro bo
di alo
明 星</w>
air port</w>
par ag
on ing</w>
r o</w>
incre ases</w>
宇 宙
r out
algorith m</w>
明 年</w>
5 0%</w>
莎 </w>
读 者</w>
国 外</w>
敬 </w>
h a</w>
di vision</w>
- up</w>
股 份</w>
bar ack</w>
艘 </w>
hur t</w>
liter ature</w>
可 持续</w>
f are</w>
照 顾</w>
t elling</w>
bir th
batt le</w>
fl owers</w>
叫 做</w>
氧 化
tin y</w>
cro ss
摩 </w>
场 景</w>
赫 </w>
敌 人</w>
盐 </w>
ju dge</w>
含 量</w>
persp ective</w>
zer o</w>
plan ned</w>
3 9</w>
炉 </w>
缺 陷</w>
练 习</w>
展 开</w>
逻 辑</w>
fini sh</w>
动 作</w>
tre ated</w>
割 </w>
pers ons</w>
争 论</w>
甲 </w>
区 别</w>
hop es</w>
appro ved</w>
糊 </w>
im possible</w>
任 何人</w>
sym bo
me at</w>
fall ing</w>
and -
no ted</w>
techni ques</w>
al ty</w>
自 从</w>
一 代</w>
h all</w>
bili ties</w>
x ing</w>
analy zed</w>
worl d
g ment</w>
跟 踪</w>
impl ement</w>
迹 象</w>
共 享</w>
隆 </w>
f ab
r ail
二 次</w>
statis tics</w>
grad ually</w>
proce dures</w>
技 巧</w>
变 量</w>
re vi
ro bert</w>
俗 </w>
ro ll</w>
sub stan
y a</w>
cu tting</w>
听 说</w>
某 个</w>
英 尺</w>
gu ard</w>
推 广</w>
蛋 白</w>
lo ved</w>
岩 </w>
注 意
注意 力</w>
驱 动</w>
our selves</w>
复 苏</w>
twi tter</w>
mo tiv
遭 受</w>
an xi
thou ghts</w>
b le
作 业</w>
暴 </w>
r are</w>
吸 收</w>
199 7</w>
cre ative</w>
车 辆</w>
program mes</w>
stan tly</w>
dr am
desi re</w>
mon etary</w>
两 年</w>
twi ce</w>
stu dying</w>
持 有</w>
reven ue</w>
强 度</w>
el led</w>
经济 体</w>
延 </w>
exam ination</w>
dise ases</w>
lab or
h ang
econom ics</w>
老 人</w>
豪 </w>
驻 </w>
cre ation</w>
ne ar
父 </w>
翼 </w>
分 类</w>
si </w>
par li
对 方</w>
娘 </w>
k ing
pres ence</w>
in c</w>
adverti sing</w>
脂 肪
pu ts</w>
蓝 色</w>
认 真</w>
t asks</w>
achiev ed</w>
divi ded</w>
新 加
新加 坡</w>
bo ys</w>
gi ant</w>
劲 </w>
ec </w>
clic k</w>
int ell
air craft</w>
磨 </w>
dri ven</w>
电 池</w>
各 个</w>
tro ops</w>
gre w</w>
lo ans</w>
no tic
粒 </w>
o li
劳 动</w>
4 7</w>
翻 </w>
高 于</w>
acci dent</w>
ann a</w>
影 响
op tions</w>
sel ect</w>
论 是</w>
identi fy</w>
slow ly</w>
her self</w>
一 块</w>
投 </w>
sever e</w>
全 世界</w>
pre fer
灵 魂</w>
苗 </w>
影响 力</w>
别 的</w>
j um
ac ted</w>
c n
ai m</w>
ob lig
诉 讼
re action</w>
冰 </w>
bo at</w>
ou ri
抑 制</w>
larg ely</w>
man ner</w>
小 姐</w>
sh en
ho le</w>
ch u
me etings</w>
乡 </w>
con stant</w>
po ol</w>
i zed</w>
wat er
streng th
establi shment</w>
phi li
cop y</w>
concre te</w>
ro oms</w>
香 </w>
ma xim
探 </w>
学 位</w>
慎 </w>
地 图</w>
卫 星</w>
grap h</w>
宇宙 </w>
s ounds</w>
typ ical</w>
精 </w>
激 烈</w>
integr ated</w>
性 质</w>
总 结</w>
gu ess</w>
h i</w>
promo tion</w>
专 注</w>
at tr
控 制
就 要</w>
ast y</w>
仔 细</w>
z er</w>
re fu
刑 </w>
第 四</w>
不 在</w>
话 题</w>
负 担</w>
自 行车</w>
cat ch</w>
提 议</w>
爆 发</w>
thou </w>
以 外</w>
领 袖</w>
面 试</w>
human s</w>
贫 困</w>
reg ulation</w>
inter face</w>
colle agues</w>
ac id</w>
op position</w>
th ro
199 9</w>
b ad
favor ite</w>
秒 </w>
cr y
途 径</w>
性 别</w>
cer em
首 都</w>
壁 </w>
柱 </w>
临 时</w>
乐 观</w>
y ellow</w>
id ly</w>
dd en</w>
sing ap
惠 </w>
取 代</w>
pro per</w>
muse um</w>
娱 乐</w>
op tion</w>
李 </w>
as set</w>
main land</w>
地 面</w>
competi tive</w>
wonder ful</w>
lo s</w>
梯 </w>
clai med</w>
tar y-
有 力</w>
ti s</w>
4 2</w>
福 利</w>
soldi ers</w>
is ing</w>
democr acy</w>
sh are
浪 </w>
stor es</w>
ous ness</w>
对 待</w>
输 出</w>
统 治</w>
braz il</w>
发 射</w>
ti tle</w>
聘 </w>
prin t</w>
c at</w>
insp ection</w>
se at</w>
c lock</w>
be t</w>
仰 </w>
耶 </w>
see king</w>
transpor tation</w>
l au
指 责</w>
manag ed</w>
head s</w>
compu ters</w>
荐 </w>
公 寓
的 确</w>
锻 炼</w>
宽 </w>
fi sc
艺术 家</w>
前 往</w>
股 东</w>
smi th</w>
sou l</w>
philos oph
pack age</w>
基 金
至 关</w>
周 四</w>
per si
du </w>
sc ar
swe et</w>
前 面</w>
豆 </w>
居 住</w>
资 格</w>
bon ds</w>
end a</w>
杰 </w>
di v
0. 0
pl astic</w>
dec line</w>
r at
退 休</w>
瓶 </w>
r m
feel ings</w>
li sting</w>
guaran tee</w>
主 人</w>
mag ne
克 林
wher e
commit ted</w>
coll abor
标 签</w>
con fig
th u
ib m</w>
it aly</w>
是 不是</w>
2 8
转 向</w>
支 持
sum mit</w>
confir med</w>
ba g</w>
代表 团</w>
ru b
姆 斯</w>
swi t
circum stances</w>
sol ar</w>
ec e</w>
k no
身 边</w>
quar ters</w>
火 车</w>
便 宜</w>
2 6
墨西 哥</w>
won der</w>
n ic</w>
到 底</w>
inter ven
罗 马</w>
未 能</w>
讲 话</w>
pl ays</w>
rec ru
体 现</w>
透 露</w>
做 好</w>
此 前</w>
basi cally</w>
挂 </w>
con vin
kn ess</w>
spor t</w>
撞 </w>
eur o</w>
g ro
司 法</w>
贝 尔</w>
】 </w>
黑 色</w>
h t
photo graph
原 理</w>
th om
sol ved</w>
定 位</w>
coun ter</w>
hy dr
sym p
de ad
am ing</w>
保 罗</w>
混 乱</w>
运 作</w>
基金 会</w>
失 望</w>
zh ang</w>
mor eover</w>
suppor ted</w>
b o</w>
no ise</w>
stic k</w>
铁 路</w>
这 座</w>
ap p</w>
practic es</w>
be at</w>
县 </w>
re gre
commit ment</w>
激 励</w>
f ast
in put</w>
s anc
mol ec
教 堂</w>
ar m
the tic</w>
afgh ani
游 泳
exp and</w>
症 状</w>
wri ter</w>
exam ples</w>
ali an</w>
背 </w>
doc tors</w>
p aying</w>
圆 </w>
ar med</w>
酬 </w>
no vel</w>
car efully</w>
enter ed</w>
ll er</w>
op en
conven tion</w>
ap pl
引 擎
grow n</w>
fortun ately</w>
bi tion</w>
隔 </w>
创 造
su itable</w>
博 客</w>
proced ure</w>
sel ection</w>
re pu
coun ty</w>
小 型</w>
d ency</w>
fac ed</w>
秘 </w>
清 洁</w>
fisc al</w>
atti tude</w>
司 机</w>
吸 引力</w>
tru ly</w>
偷 </w>
介 </w>
expan sion</w>
sh oul
au ght</w>
stoc ks</w>
los ses</w>
reduc tion</w>
stan ds</w>
shar ing</w>
s and
dri ver</w>
恨 </w>
afghani stan</w>
paki stan</w>
诗 </w>
draw ing</w>
bl ack
受 害
fundam ental</w>
mo tor</w>
pro fits</w>
几 十</w>
fr ag
sel ected</w>
鬼 </w>
d ay
fai th</w>
诉讼 </w>
per ce
rap idly</w>
避 </w>
4 4</w>
is o
exper t</w>
is lam
doc um
灾 难</w>
sch e
tr ump</w>
调 用</w>
人 力</w>
早 些</w>
不 用</w>
ap art</w>
h in
har ry</w>
great ly</w>
5 5</w>
储 备</w>
continu es</w>
for th</w>
experi enced</w>
plan et</w>
in her
列 表</w>
决 心</w>
单 独</w>
ow ner</w>
cham pi
论 坛</w>
吨 </w>
in ju
syst em
dis aster</w>
0 -
mess ages</w>
r and
琳 </w>
理 念</w>
立 场</w>
religi ous</w>
疑 问</w>
pe t</w>
p are</w>
川 </w>
排 名</w>
de vi
打 破</w>
推 荐</w>
te ams</w>
v ice</w>
万 人</w>
克林 顿</w>
sho es</w>
ex tent</w>
te dly</w>
外 面</w>
引擎 </w>
后 果</w>
查 询</w>
九 </w>
comm ents</w>
ough ly</w>
公寓 </w>
t aste</w>
盾 </w>
g un
experi ences</w>
d a
parag rap
bu ff
s ons</w>
氏 </w>
案 例</w>
爱 的</w>
亲 爱的</w>
hom es</w>
uni vers
ob viously</w>
艰 难</w>
产 量</w>
ri o
宗 </w>
ex ports</w>
齐 </w>
parame ters</w>
suffici ent</w>
玛 丽</w>
l or
琴 </w>
strate gies</w>
contr ast</w>
勃 </w>
universi ties</w>
mor al</w>
revol ution</w>
intell ec
本 质</w>
wi ld</w>
im f</w>
th ri
醇 </w>
boo st</w>
学 术</w>
不 安</w>
所 在</w>
in ner</w>
car rying</w>
a sts</w>
本 地</w>
spokes man</w>
8 00</w>
dr ag
极 端</w>
l ake</w>
car ds</w>
含 有</w>
wi s
4 6</w>
复 制</w>
零 </w>
4 1</w>
el ing</w>
名 为</w>
du ty</w>
lo sing</w>
ma them
睡 觉</w>
199 0</w>
纤 维</w>
国 有</w>
滩 </w>
far mers</w>
f ail</w>
convers ation</w>
recomm end
骗 </w>
sli ghtly</w>
引 用</w>
secre tary-
199 8</w>
k is
3 0%</w>
foll ows</w>
al co
厌 </w>
si zed</w>
i ous</w>
边 缘</w>
ce o</w>
此 次</w>
齿 </w>
lo an</w>
mis sing</w>
臂 </w>
尾 </w>
禁 </w>
intro duce</w>
脂 </w>
liqui d</w>
谐 </w>
协 定</w>
一 生</w>
西 部</w>
j ected</w>
pri ority</w>
pre viously</w>
det ailed</w>
pre pare</w>
dee ply</w>
gr av
m al</w>
研究 所</w>
干 预</w>
secretary- general</w>
fr ame</w>
物 品</w>
consider ation</w>
th ly</w>
生 日</w>
重 建</w>
em br
so -
ed ul
ch el
bir d</w>
d .
1 -
夫 妇</w>
cu ts</w>
克 兰</w>
大 楼</w>
i le</w>
val ent</w>
ag enda</w>
g ates</w>
sec ure</w>
ty pic
fe ed</w>
ac tor</w>
re in
pro ve</w>
no body</w>
resp ond</w>
r ac
educ ational</w>
名 单</w>
accep ted</w>
re move</w>
e pi
第二 个</w>
top ic</w>
ti s
defin ition</w>
electri city</w>
spo ke</w>
di et</w>
gol d
g a</w>
ak ed</w>
下 载</w>
ade qu
足 以</w>
cont ain</w>
可 用</w>
dro pped</w>
选 民</w>
辩 论</w>
银 </w>
we aring</w>
形 状</w>
clo ser</w>
is es</w>
rec ession</w>
coun t</w>
喜 </w>
prom ise</w>
maxim um</w>
cl oud</w>
mak er</w>
t ough</w>
m om</w>
ga p</w>
identi ty</w>
mas sive</w>
遭 到</w>
tu m</w>
a str
合 法</w>
typic ally</w>
家 族</w>
cir cu
atmo sphere</w>
样 子</w>
s now</w>
resp ectively</w>
w ing</w>
g y
多 样
patter ns</w>
me d
ti m</w>
土 耳
虚 拟</w>
标 记</w>
乘 </w>
c ket</w>
sch edul
p el
主 权</w>
思 维</w>
土耳 其</w>
冠 军</w>
sur ger
posi tions</w>
阶 级</w>
t ance</w>
it ely</w>
remo te</w>
mi d-
借 </w>
证 书</w>
更 改</w>
困 境</w>
agri culture</w>
dre ams</w>
定 期</w>
写 作</w>
ecti ves</w>
c ks</w>
r am</w>
壳 </w>
to t
桌 子</w>
promo ting</w>
一 本</w>
gu ys</w>
全 球
magaz ine</w>
青 少年</w>
粮 食</w>
p air</w>
de fault</w>
ho t
descri be</w>
um s</w>
corpor ation</w>
sche dule</w>
男 </w>
清 晰
an ni
bro ke</w>
高 管</w>
【 </w>
v ast</w>
run s</w>
pho to</w>
provi sions</w>
de al
总 裁</w>
忽 视</w>
对 不起</w>
net works</w>
cont ain
周 日</w>
war ning</w>
登 记</w>
de ar</w>
l as
异 常</w>
一 周</w>
expl ore</w>
疯 狂</w>
particip ants</w>
路 上</w>
协 商</w>
di sh</w>
f ans</w>
信 仰</w>
无 论是</w>
on e
同 学</w>
现 状</w>
bb c</w>
join ed</w>
pro p
装 饰</w>
sensi tive</w>
生 意</w>
sat elli
杰 克</w>
com mon
det ail</w>
st ro
贫 穷</w>
se l</w>
概 </w>
mort g
瑞 士</w>
土 壤</w>
or es</w>
tu s</w>
升 级</w>
引 入</w>
depart ments</w>
bi d</w>
ter ing</w>
古 老</w>
ha i
新 型</w>
信 用
伸 </w>
涯 </w>
栏 </w>
宅 </w>
t ells</w>
宁 </w>
struc tures</w>
tan e
possi bility</w>
桶 </w>
白 宫</w>
fun ding</w>
land sc
wed ding</w>
瓜 </w>
频 率</w>
sup posed</w>
ti ous</w>
曲 线</w>
bir ds</w>
singap ore</w>
pre gn
roo t</w>
ath le
斗 争</w>
a f</w>
es h</w>
心 理学</w>
reli ef</w>
lo gi
文 明</w>
bure au</w>
fin ancing</w>
tal ked</w>
te ach</w>
cour ses</w>
ide al</w>
公 约</w>
缝 </w>
约 会</w>
il ing</w>
gi ft</w>
体 重</w>
entrepren eur
泡 </w>
per formed</w>
is ol
signific ance</w>
presi dential</w>
w er</w>
im port</w>
he ight</w>
pro of</w>
deli ver</w>
medi um</w>
b ay</w>
employe e</w>
com ment</w>
tele phone</w>
reali zed</w>
宪 法</w>
腐 败</w>
lin ked</w>
慢 慢</w>
扩 张</w>
propo sal</w>
时 报</w>
de fic
an -
believ es</w>
代 价</w>
star ts</w>
bran ch</w>
视 觉</w>
volun te
il legal</w>
pre fer</w>
敏 感</w>
en tr
visu al</w>
领 土</w>
perman ent</w>
op hi
负 责
参 与
领 先</w>
边 界</w>
太 太</w>
天 空</w>
terri tory</w>
否 认</w>
h am</w>
采 购</w>
孕 </w>
str ing</w>
湿 </w>
bor row
原 始</w>
那 儿</w>
jo y</w>
总 体</w>
抱 歉</w>
jour ney</w>
j am
v ements</w>
今 晚</w>
4 3</w>
基 本上</w>
沃 </w>
肥 </w>
sav ing</w>
min ing</w>
ke t
彻 底</w>
pal est
ex po
sil ver</w>
wal ked</w>
受害 者</w>
identi fied</w>
surpri se</w>
寄 </w>
rai sing</w>
emp ha
arti cles</w>
for e
暗 示</w>
preven tion</w>
患 </w>
the ore
渡 </w>
治 理</w>
华 尔
re publi
difficul ties</w>
设 计师</w>
c el
年 内</w>
穿 过</w>
负责 人</w>
br ings</w>
履 行</w>
cont em
利 于</w>
some body</w>
g ent</w>
谨 慎</w>
主 导</w>
p un
佩 </w>
f on
camer a</w>
呼 </w>
char ges</w>
complic ated</w>
valu able</w>
成 分</w>
as is</w>
her e
expl ained</w>
re min
美 洲</w>
cul tiv
communic ations</w>
巴 勒
振 </w>
自 信</w>
ti me
co ol
品 质</w>
sh an</w>
li t</w>
活 性</w>
天 然
me ters</w>
海 岸</w>
加 速</w>
argu ment</w>
draw n</w>
环 保</w>
d or
r a</w>
depen ds</w>
or al</w>
导 弹</w>
反 对
ain ts</w>
是 从</w>
birth day</w>
exi stence</w>
appoin ted</w>
strong er</w>
all -
不 良</w>
物 种</w>
2 7
脂肪 </w>
n asty</w>
赢 </w>
谊 </w>
免 疫</w>
响 应</w>
ow ners</w>
庄 </w>
der ing</w>
南 非</w>
world wide</w>
捷 </w>
gh ten
ou </w>
轨 道</w>
监 狱</w>
con cep
emo tional</w>
roy al</w>
x in
foo ds</w>
certific ate</w>
visi tors</w>
hu a</w>
观 看</w>
en try</w>
简 </w>
cap able</w>
扣 </w>
di spo
cor ner</w>
u pper</w>
瑟 </w>
威 廉
remain ed</w>
for ever</w>
mathem ati
autom atic</w>
意 外</w>
突 出</w>
pu ll</w>
跨 </w>
stor m</w>
de als</w>
许 可</w>
em bar
ail ing</w>
伍 </w>
egy pt</w>
检 验</w>
c asi
各 样</w>
min us</w>
湖 </w>
英 雄</w>
republi can</w>
ach e</w>
度 过</w>
sup pl
hom e
de pression</w>
付 款</w>
创 作</w>
清晰 </w>
难 民</w>
regi stration</w>
欧 元
天然 气</w>
g all
嘴 </w>
欧元 区</w>
introduc tion</w>
ph ar
fac ts</w>
thin ks</w>
旋 转</w>
链 接</w>
an e</w>
pre ce
hi ll</w>
ton ight</w>
血 液</w>
串 </w>
爬 </w>
monit or</w>
尽 可能</w>
alter native</w>
仪 式</w>
tion ed</w>
将 来</w>
生 涯</w>
bi a</w>
v als</w>
世 界
雇 主</w>
替 代</w>
consider ing</w>
earth quake</w>
中 华</w>
扔 </w>
co ast</w>
象 征</w>
te sted</w>
qui et</w>
pain ting</w>
re ci
so ver
mar ine</w>
措 </w>
dem ands</w>
公 </w>
哭 </w>
胖 </w>
lead s</w>
乙 方</w>
al leg
d ged</w>
dep th</w>
精 力</w>
pro ved</w>
镑 </w>
氧 </w>
阅 </w>
t led</w>
年 后</w>
沫 </w>
耀 </w>
sover ei
匹 配</w>
regar ding</w>
bar ri
surger y</w>
乌 克兰</w>
reduc ing</w>
ju di
o es</w>
seri ously</w>
he avi
stre ets</w>
list ening</w>
ani sh</w>
酶 </w>
ash ed</w>
谈 话</w>
t emp
冒 </w>
an gry</w>
线 性</w>
to x
refl ect</w>
猪 </w>
艾 滋
strang e</w>
reve aled</w>
裔 </w>
刊 </w>
negoti ations</w>
a .
ch ick
活 力</w>
prote in</w>
w ai
参 观</w>
p ages</w>
裕 </w>
讲 述</w>
emis sions</w>
car eful</w>
gol den</w>
friend ship</w>
su e</w>
minim um</w>
4 0%</w>
concer ning</w>
q i</w>
惩 罚</w>
泥 </w>
h ori
suppor ting</w>
每 周</w>
一 片</w>
甲 方</w>
水 果</w>
a o
客 人</w>
住 房</w>
bl an
hosp it
inten ded</w>
心 脏</w>
bro ad</w>
po st-
华尔 街</w>
出 版
mexic o</w>
专 利</w>
命 运</w>
shor t-
se es</w>
肿 瘤</w>
点 击</w>
fac tion</w>
sc o</w>
婚 礼</w>
感 情</w>
trans formation</w>
un d
聚 集</w>
丧 </w>
2 -
删 除</w>
破 产</w>
过 于</w>
昂 贵</w>
pri or</w>
机 关</w>
接 着</w>
joh n
enem y</w>
th in</w>
太 空</w>
en able</w>
关 联</w>
rich ard</w>
英 文</w>
懂 </w>
基 督
terr ori
bro thers</w>
produc ing</w>
mist ake</w>
all owing</w>
swi tch</w>
ang er</w>
ar ts</w>
3 d</w>
3 -
b ow
rene w
vir tual</w>
最 多</w>
ki m</w>
ti ally</w>
燃 烧</w>
海 军</w>
ex tra
un employment</w>
泰 国</w>
旋 </w>
驾 驶</w>
bl u
伴 侣</w>
per cent
fif th</w>
it es</w>
offic ers</w>
b one</w>
部 件</w>
le ague</w>
do gs</w>
visi ble</w>
consist ent</w>
是 说</w>
场 所</w>
fre e
oun ded</w>
保 健</w>
迈 克尔</w>
har der</w>
音 乐
in duc
it arian</w>
oc casi
repres ents</w>
可 爱</w>
物 体</w>
pri son</w>
殖 </w>
衫 </w>
草 案</w>
撑 </w>
sug ar</w>
br inging</w>
尤 其</w>
re turns</w>
acc um
a .</w>
饮 料</w>
hori z
hor se</w>
摆 脱</w>
血 管</w>
提 前</w>
舍 </w>
invest ments</w>
compens ation</w>
始 人</w>
布 斯</w>
pri ze</w>
lik es</w>
mr s.</w>
in spi
原 来</w>
显 得</w>
糟 </w>
擦 </w>
he aring</w>
or dered</w>
mo tion</w>
c .</w>
let ters</w>
fil ms</w>
pow ers</w>
que en</w>
巴勒 斯坦</w>
photo s</w>
h ate</w>
躺 </w>
乘 客</w>
本 书</w>
um in
ob tain</w>
ingu i
蓄 </w>
晶 </w>
比 尔</w>
pro file</w>
experim ental</w>
ti an</w>
organi zed</w>
mor gan</w>
纪 录</w>
现 代
合 并</w>
尔 兰</w>
提 取</w>
旗 </w>
ra w</w>
de -
success fully</w>
荷 兰</w>
dang er</w>
格 式</w>
f an</w>
互 相</w>
suff ering</w>
si ck</w>
设 定</w>
d ong</w>
9 9</w>
两 次</w>
黑 人</w>
蠢 </w>
震 惊</w>
ea p</w>
th row
f ts</w>
imp lic
correspon ding</w>
fl at</w>
and re
op posite</w>
require ment</w>
ad vi
蔬 菜</w>
衡 量</w>
和 谐</w>
q i
z a</w>
动 性</w>
企 业
单 元</w>
gre ece</w>
箭 </w>
vic tory</w>
un able</w>
爱 尔兰</w>
langu ages</w>
repres ent</w>
尺 寸</w>
aw ard</w>
n av
资 助</w>
e ds</w>
劳 动力</w>
回 忆</w>
讨 厌</w>
ch air</w>
呈 现</w>
t s
sim ulation</w>
ag er</w>
est er</w>
prin ce</w>
chil d
创 始人</w>
租 </w>
tal ent</w>
ex plan
当 中</w>
es sions</w>
drin king</w>
immedi ate</w>
lin ear</w>
疫 苗</w>
de aling</w>
理 性</w>
依 靠</w>
挤 </w>
su </w>
continu ous</w>
中 文</w>
execu tives</w>
o xi
off ices</w>
目 录</w>
am oun
雾 </w>
r on</w>
comm uni
依 据</w>
settl ement</w>
youn ger</w>
gener ated</w>
expec tations</w>
轻 松</w>
吻 </w>
cerem ony</w>
lun ch</w>
ch eap</w>
cross -
machin es</w>
o be
模 糊</w>
c m</w>
an tic</w>
吹 </w>
不 多</w>
对 比</w>
sal ary</w>
adju st
饿 </w>
s wee
警 </w>
梁 </w>
she et</w>
techn ological</w>
gr and</w>
oper ative</w>
管 道</w>
thu si
pe tro
corru ption</w>
frequ ently</w>
流 感</w>
蛋 白
实 例</w>
sp ain</w>
den i
青 年</w>
m ass
compar ison</w>
stor ed</w>
fin dings</w>
in str
uk rain
那 天</w>
会 谈</w>
抵 押</w>
拯 救</w>
prepar ation</w>
wi ll
p ace</w>
ograph y</w>
桌 </w>
t ons</w>
gen e</w>
wor ried</w>
郁 </w>
g -
圣诞 </w>
transi tion</w>
win ning</w>
norm ally</w>
bri ef
smo king</w>
regi stered</w>
re ti
degre es</w>
泡 沫</w>
h oo
li u</w>
ac le</w>
放 缓</w>
k o</w>
v enture</w>
en thusi
acqui si
不 必</w>
感 受</w>
an o</w>
su res</w>
emp ty</w>
re d
ab and
shar p</w>
recogni tion</w>
董 事会</w>
indepen dence</w>
泽 </w>
留 在</w>
会 儿</w>
旁 边</w>
溃 </w>
节 日</w>
p -
gg ed</w>
中 东</w>
肌 肉</w>
ri d</w>
s q
tax es</w>
s la
prom p
br ands</w>
英 镑</w>
o s
h em
sus pen
故 障</w>
ret ail</w>
wh en
appe al</w>
ar re
条 例</w>
alco ho
tran spar
defin e</w>
willi am</w>
腺 </w>
represent atives</w>
n avi
尚 未</w>
政 党</w>
vul ner
th row</w>
im mun
空 中</w>
细 菌</w>
gu il
实 体</w>
查 看</w>
哈 利</w>
模 块</w>
part nership</w>
fi sh
val ley</w>
剩 下</w>
enter tain
bu tton</w>
前 进</w>
foun ded</w>
失 业</w>
形 态</w>
阐 述</w>
新 鲜</w>
大 众</w>
in qui
y u</w>
sub jects</w>
修 复</w>
zh en</w>
尔 斯</w>
un k</w>
对 抗</w>
har dly</w>
hy po
选 项</w>
cont ents</w>
199 1</w>
bu b
speci fied</w>
法 规</w>
仿 </w>
candi date</w>
延 长</w>
em pi
年 底</w>
pleas ure</w>
r or</w>
custom s</w>
纪 念</w>
ori ented</w>
5 2</w>
eth nic</w>
particip ate</w>
旁 </w>
mar ks</w>
超 越</w>
扫 描
条 约</w>
舒 适</w>
su m</w>
them e</w>
therap y</w>
开 发
vic tim
ai med</w>
友 谊</w>
struc tural</w>
整 合</w>
poin ted</w>
t our</w>
v an</w>
k id
钮 </w>
憾 </w>
hard ware</w>
lin ks</w>
很 高</w>
t elec
pan el</w>
层 次</w>
生 气</w>
认 知</w>
enc ing</w>
manag ing</w>
in al</w>
pl enty</w>
有 时候</w>
di r
resc ue</w>
死 了</w>
quanti ty</w>
极 大</w>
金 钱</w>
he y</w>
潜 力</w>
cry st
pic s</w>
克 服</w>
特 色</w>
汁 </w>
辐 射</w>
役 </w>
开 心</w>
adv oc
斯 林</w>
go tten</w>
inv est</w>
enti ally</w>
矛 盾</w>
der ly</w>
trans mission</w>
人 道</w>
mechan ical</w>
gener ate</w>
supp lies</w>
开 支</w>
organ ic</w>
样 本</w>
长 大</w>
hy per
高 中</w>
si onal</w>
fe wer</w>
命 名</w>
sam ples</w>
de fe
strugg le</w>
什 么样</w>
循 </w>
pe ak</w>
w ol
spec tr
ar bit
answ ered</w>
研 发</w>
develop ers</w>
accur ate</w>
fall s</w>
饼 </w>
1 st</w>
de struc
v acc
l li
re place</w>
期 限</w>
任 命</w>
ei gh
f ellow</w>
u ri
引 导</w>
付 出</w>
国务 院</w>
be l</w>
proper ly</w>
q ing</w>
movi es</w>
pl ing</w>
paragrap h</w>
sel s</w>
长 度</w>
comm unities</w>
bre aking</w>
r ent</w>
enti rely</w>
legisl ation</w>
dialo gue</w>
elec tro
枚 </w>
eng aged</w>
ro id</w>
参与 者</w>
person ality</w>
illu str
粹 </w>
me al</w>
deli vered</w>
con venti
my ster
单 词</w>
远 远</w>
哪 个</w>
evi l</w>
tori al</w>
迫 使</w>
atten d</w>
馈 </w>
don ald</w>
bil ateral</w>
l aid</w>
ssi ve</w>
victim s</w>
fi es</w>
exhi bition</w>
带 有</w>
contro ls</w>
聊 </w>
politici ans</w>
war ned</w>
哲 学</w>
me ter</w>
mis sed</w>
ce -
func tional</w>
去 世</w>
govern mental</w>
冒 险</w>
i e</w>
missi ons</w>
situ ations</w>
峰 会</w>
招 聘</w>
determin ation</w>
2 ,
pas sing</w>
r ational</w>
ad ults</w>
a side</w>
通 胀</w>
ha z
出 于</w>
崩 溃</w>
pro b
阻 碍</w>
闲 </w>
suff ered</w>
de dic
config uration</w>
autom o
有 的</w>
后 者</w>
j ack
c ry</w>
源 于</w>
话 说</w>
gene tic</w>
con stantly</w>
平 静</w>
杀 死</w>
on er</w>
马 克</w>
any way</w>
尼 斯</w>
ali ties</w>
遗 憾</w>
cru cial</w>
斯 特</w>
号 码</w>
att ached</w>
说 服</w>
tar ge
possi bly</w>
影 片</w>
7 00</w>
医 </w>
occur </w>
股 价</w>
uc k</w>
民 众</w>
contribu tion</w>
tol er
议 程</w>
穆 斯林</w>
首 相</w>
ox y
职 责</w>
史 密
ologi st</w>
厨 房</w>
销 售
attrac tive</w>
ul es</w>
诚 实</w>
街 道</w>
花 园</w>
camp us</w>
竞争 力</w>
p ure</w>
f at
t n
帝 国</w>
人 工</w>
申 请
is lands</w>
老 鼠</w>
al es</w>
ser vers</w>
集 成</w>
wei gh
recei ving</w>
fl ying</w>
un like</w>
要 是</w>
文 字</w>
far m</w>
consequ ences</w>
ali ve</w>
regi me</w>
布 朗</w>
elec tions</w>
津 </w>
5 1</w>
en e</w>
produc tive</w>
defin itely</w>
怀 </w>
stri ct</w>
characteris tic</w>
c ell
面 包</w>
被 迫</w>
史 蒂
沮 丧</w>
univers al</w>
传 输</w>
蚀 </w>
聚 会</w>
academ y</w>
we i</w>
intellec tual</w>
fi x</w>
d .</w>
塑 料</w>
secon ds</w>
initi ative</w>
背 后</w>
英 格兰</w>
exten ded</w>
谈 到</w>
pl u
t aught</w>
for um</w>
phenomen on</w>
employ ed</w>
廷 </w>
smo ke</w>
percent age</w>
地 理</w>
acti v
彼 得</w>
促 使</w>
有 没有</w>
particip ation</w>
c d</w>
foun der</w>
swi m
sal t</w>
repu tation</w>
trans action</w>
淡 </w>
kn owing</w>
h tt
性 格</w>
ar di
house hold</w>
交 谈</w>
赤 字</w>
fall en</w>
ali ze</w>
descri ption</w>
t an</w>
de pu
alis tic</w>
御 </w>
生 素</w>
se ven
sc ore</w>
luc ky</w>
electri cal</w>
serv ing</w>
形 势</w>
cap tain</w>
实 行</w>
ste ad
其 次</w>
or m
理 会</w>
表 格</w>
局 势</w>
transl ation</w>
大 学生</w>
candi dates</w>
vi br
份 额</w>
d ol
g m
crow d</w>
众 多</w>
moun tains</w>
欣 赏</w>
landsc ape</w>
较 高</w>
纷 </w>
sp r
s ad</w>
加 快</w>
equi valent</w>
内 外</w>
fe ed
进 来</w>
contribu te</w>
教 练</w>
conn ect</w>
编 </w>
转 化</w>
此 类</w>
缓 慢</w>
合 成</w>
w er
recogni ze</w>
ri min
autom atically</w>
cir cle</w>
支持 者</w>
搬 </w>
fe els</w>
arbit r
主 意</w>
餐 馆</w>
摸 </w>
stri ke</w>
lo g</w>
kit chen</w>
under stood</w>
4 0
every where</w>
kee ps</w>
沃 尔
体 制</w>
im por
to ky
h it
ri de</w>
fu sion</w>
大 概</w>
认 可</w>
玩 具</w>
palest ini
减 轻</w>
don e
ti ll</w>
恒 </w>
两 者</w>
t el
2 :
言 论</w>
refu ge
syri a</w>
wis dom</w>
团 结</w>
质 疑</w>
when ever</w>
sp l
satis faction</w>
经 典</w>
斯 科</w>
同 性
同性 恋</w>
e e
常 规</w>
通 讯</w>
通 货</w>
assi stant</w>
i p</w>
密 度</w>
measu rement</w>
in ev
多 次</w>
pro secu
neigh bor
力 学</w>
ste ve</w>
ch oc
w alls</w>
发 言</w>
au t
i m</w>
消 耗</w>
estim ates</w>
el ed</w>
就 是说</w>
如 下</w>
out standing</w>
悲 伤</w>
冲 击</w>
shor e</w>
f li
vo ted</w>
ph r
mus li
地 上</w>
自 杀</w>
肠 </w>
色 彩</w>
看 上去</w>
ch ic
treas ury</w>
coordin ation</w>
tar gets</w>
mar tin</w>
fal se</w>
大 大</w>
awar eness</w>
拉 里</w>
guid ance</w>
互 动</w>
内 心</w>
创 业</w>
有 机</w>
始 终</w>
游泳 </w>
con str
ha bit
太 平
本 人</w>
harv ard</w>
展 览</w>
parli ament</w>
mi xed</w>
召 开</w>
进 化</w>
温 暖</w>
stu di
radi ation</w>
d ating</w>
be aring</w>
出 席</w>
estim ate</w>
尖 </w>
告 知</w>
神 秘</w>
克 力</w>
bu t
si vely</w>
观 念</w>
史密 斯</w>
af ford</w>
漏 </w>
pur poses</w>
节 点</w>
less on</w>
conventi onal</w>
研 </w>
recogni zed</w>
happ ening</w>
开 车</w>
按 钮</w>
sav ings</w>
do ors</w>
薪 </w>
bo y
conveni ent</w>
peac eful</w>
即 便</w>
假 期</w>
生 物
手 中</w>
comfor t</w>
矶 </w>
it alian</w>
接 口</w>
tri c</w>
干 扰</w>
absolu tely</w>
econom ist</w>
布 鲁
fortun e</w>
马 斯</w>
en orm
蓝 </w>
到 处</w>
gg s</w>
随 机</w>
in done
fl av
i .
施 工</w>
制 裁</w>
欲 </w>
芬 </w>
泵 </w>
巧 克力</w>
毕 业
会 上</w>
东 部</w>
方 程</w>
acti vely</w>
toky o</w>
li a</w>
te ars</w>
政 治
kil ling</w>
d le</w>
蛋白 质</w>
更 快</w>
fl ower</w>
住 宅</w>
慈 善</w>
shu t</w>
symp tom
贸 </w>
mo ves</w>
价 值
昂 </w>
愚 蠢</w>
govern ance</w>
pri son
luc k</w>
谋 </w>
傲 </w>
sle e
分 为</w>
entertain ment</w>
el se
lux ury</w>
pr oud</w>
wat ers</w>
逐 </w>
心 里</w>
surpri sed</w>
re plac
通 道</w>
顺 利</w>
为 此</w>
莫 </w>
sh i</w>
secon dary</w>
不 见</w>
hel p
种 植</w>
r ar
活 跃</w>
hel lo</w>
ai ds</w>
监 控</w>
接 收</w>
re u
ch er</w>
8 0%</w>
colum n</w>
des k</w>
感 器</w>
concentr ation</w>
5 -
铜 </w>
fe es</w>
再 也</w>
麽 </w>
exc use</w>
牛 奶</w>
六 个</w>
艇 </w>
visi ted</w>
远 离</w>
ro ads</w>
beg ins</w>
super vision</w>
噢 </w>
v an
f icial</w>
ob served</w>
at a</w>
漠 </w>
洛 杉
reli able</w>
诸 如</w>
梅 </w>
骑 </w>
太平 洋</w>
回 顾</w>
li ft</w>
mi x</w>
det ection</w>
敏 </w>
10 .
情 报</w>
味 道</w>
三 年</w>
su peri
pu tin</w>
窗 户</w>
采 </w>
舒 服</w>
gen der</w>
hand ling</w>
tem porary</w>
石 头</w>
mist akes</w>
disc rimin
悦 </w>
慰 </w>
各 方</w>
pi d</w>
东 京</w>
9 5</w>
escap e</w>
成 员国</w>
硬 件</w>
编 写</w>
st ations</w>
inf ection</w>
dec reas
inter action</w>
heav en</w>
the e</w>
tur ing</w>
philosoph y</w>
remar k
acc used</w>
extre me</w>
廊 </w>
declar ed</w>
beli ef</w>
en for
communic ate</w>
del ay</w>
审 判</w>
每 月</w>
负 面</w>
measu red</w>
suff er</w>
v a</w>
洛杉 矶</w>
暴 露</w>
vari able</w>
信 用</w>
w .
地 板</w>
occur red</w>
labor atory</w>
t oo
c able</w>
ag ents</w>
退 出</w>
indic ated</w>
sk ill</w>
psych ological</w>
黄 </w>
work er</w>
安 静</w>
ti le</w>
s p</w>
广 场</w>
l augh
城 镇</w>
cont ained</w>
早 晨</w>
邻 居</w>
8 5</w>
支 撑</w>
p il
d ani
el ev
circu it</w>
un fortunately</w>
ultim ately</w>
浪 漫</w>
expo sure</w>
析 </w>
mat ure</w>
g un</w>
sen ding</w>
敦 促</w>
寻 </w>
集 体</w>
disp u
ear nings</w>
歧 </w>
家 伙</w>
毕业 生</w>
sub sequ
指 示</w>
疼 痛</w>
胆 </w>
inv ited</w>
差 距</w>
re forms</w>
institu tion</w>
膀 </w>
gl ad</w>
moo d</w>
sh ops</w>
c ked</w>
尽 快</w>
炭 </w>
优 点</w>
阿 尔
king dom</w>
prom ised</w>
补 偿</w>
un t</w>
遵 循</w>
appoin tment</w>
隐 藏</w>
difficul ty</w>
d ul
cover ing</w>
econom ists</w>
护 理</w>
fer tili
最 小</w>
dep lo
妻 </w>
cl ou
越 南</w>
l ers</w>
詹 姆斯</w>
第二 天</w>
electr on
初 步</w>
remo ved</w>
struc k</w>
架 构</w>
tur key</w>
愈 </w>
hol der</w>
最 有</w>
clo thing</w>
appreci ate</w>
su rely</w>
乘 以</w>
p se</w>
干 净</w>
暂 </w>
布 莱
魅 力</w>
____ ____
熊 </w>
mar ked</w>
repor ting</w>
传 感器</w>
y l
制 品</w>
围 绕</w>
s and</w>
阀 </w>
高 效</w>
dele gation</w>
d ust</w>
5 3</w>
bri ef</w>
sent ence</w>
regul atory</w>
人 和</w>
燥 </w>
上 万</w>
纯 </w>
ang e</w>
critici sm</w>
1 ,000</w>
c ast
酒 吧</w>
dy nasty</w>
implem ented</w>
ab e
ol ate</w>
program ming</w>
be an</w>
notic ed</w>
inj ury</w>
有 利于</w>
岗 位</w>
es sive</w>
cho sen</w>
exten d</w>
ar ab
p .
周 六</w>
出 发</w>
bre a
australi an</w>
l ap
tra dition</w>
scen ari
govern or</w>
申 </w>
词 汇</w>
歧 视</w>
char ged</w>
扫 </w>
evol ution</w>
进 去</w>
港 口</w>
6 4</w>
ou red</w>
dist inc
农 场</w>
惊 人</w>
the ast</w>
li mits</w>
焦 虑</w>
发 起</w>
pic ked</w>
ent -
亦 </w>
communi st</w>
行 星</w>
yiel d</w>
ca using</w>
加 剧</w>
inv ent
c and
ban k
ex changes</w>
formul a</w>
g ul
尼 尔</w>
外 汇</w>
g ers</w>
isra eli
路 线</w>
阔 </w>
附 件</w>
olym pics</w>
创 意</w>
忍 </w>
asp ect</w>
confi dent</w>
t ower</w>
偶 </w>
s tics</w>
ful l-
wat ched</w>
w ake</w>
地 下</w>
利 比亚</w>
theore tical</w>
两 人</w>
夹 </w>
d less</w>
o t</w>
5 6</w>
ac ed</w>
具 备</w>
里 克</w>
苏 格兰</w>
分 裂</w>
1 20</w>
adequ ate</w>
g ained</w>
fe e</w>
tic ket</w>
rou te</w>
董 事</w>
necess arily</w>
accomp li
书 面</w>
暂 时</w>
in o</w>
fe ars</w>
渠 道</w>
反 馈</w>
uni verse</w>
绘 </w>
忽 略</w>
ex por
diagno sis</w>
精 确</w>
ch i</w>
人 体</w>
div or
融 合</w>
喊 </w>
f ant
相 当
相当 于</w>
愿 望</w>
c ook</w>
成 千</w>
可 以
一 会儿</w>
r ab
pres ents</w>
lo gic</w>
om a</w>
cul ar</w>
可以 说</w>
优 </w>
甸 </w>
勇 气</w>
补 贴</w>
produc tivity</w>
4 -
install ation</w>
袭 </w>
re di
助 理</w>
ar gue</w>
mat ri
aut onom
学 科</w>
blo g</w>
事 项</w>
j ump</w>
b in</w>
耳 </w>
y n
坚 定</w>
浏 览
tran sm
symptom s</w>
vir tu
分 歧</w>
tan k</w>
. the</w>
w u
左 </w>
scri p
缓 解</w>
管 制</w>
产 权</w>
appro xim
损 伤</w>
j i</w>
tot ally</w>
带 到</w>
guid el
else where</w>
responsi bilities</w>
n on</w>
requ ests</w>
ess entially</w>
bre ad</w>
舞 台</w>
辱 </w>
薄 </w>
赶 </w>
沿 着</w>
boo k
t ted</w>
s sion</w>
寿 命</w>
摘 </w>
ri gh
沉 默</w>
mer ely</w>
强 劲</w>
form at</w>
ch ann
analy ze</w>
princi pal</w>
透 明</w>
fir st-
v y</w>
路 径</w>
密 码</w>
浆 </w>
vo ters</w>
哈 佛</w>
寻 常</w>
2. 5</w>
pro gre
fair ly</w>
黄 色</w>
j in</w>
业 化</w>
5 4</w>
agre ements</w>
so- called</w>
扫描 </w>
s als</w>
refer red</w>
南 方</w>
2 9
波 动</w>
恶 化</w>
t te</w>
num erous</w>
太阳 能</w>
hon or</w>
cho ices</w>
chin a-
浓 度</w>
柜 </w>
推 迟</w>
remain ing</w>
co gni
安 德
b en</w>
裤 </w>
调 节</w>
灵 活</w>
存 款</w>
歌 曲</w>
圣诞 节</w>
零 售
flexi ble</w>
迄 今</w>
p m</w>
satelli te</w>
头 脑</w>
cur ve</w>
wh it
near by</w>
manufactur ers</w>
牺 牲
cam p</w>
富 裕</w>
商 人</w>
un likely</w>
雇 </w>
w u</w>
equ ation</w>
inci dent</w>
sugges tions</w>
上 个
上个 月</w>
侵 犯</w>
t age</w>
能 否</w>
摇 </w>
脸 上</w>
m .</w>
单 一</w>
占 据</w>
al i</w>
叉 </w>
n ow
泰 </w>
fo li
ak ers</w>
investig ate</w>
ir ation</w>
mi ke</w>
categ ory</w>
级 别</w>
be ach</w>
室 内</w>
上 午</w>
def ence</w>
dom ain</w>
怎 么
gu ests</w>
adverti s
感 激</w>
1 5%</w>
啤 酒</w>
1. 5</w>
回 归</w>
现代 化</w>
read ers</w>
爵 </w>
in stru
救 援</w>
_ </w>
得 以</w>
认 证</w>
pap ers</w>
requ est
事 处</w>
v ital</w>
谴 责</w>
新 年</w>
dem an
gre ek</w>
tra di
制造 业</w>
sac ri
stat ements</w>
re public
某 人</w>
in ing</w>
lic en
instru ment</w>
d c</w>
alcoho l</w>
2 3
ani a</w>
indic ate</w>
规 律</w>
adop t</w>
王 子</w>
up date</w>
terr or
安 理会</w>
j en
约 束</w>
视 图</w>
reserv es</w>
k el
su red</w>
h at
ac cess
高 等</w>
n is</w>
掘 </w>
走 向</w>
continu ing</w>
pi pe</w>
terri ble</w>
dec lined</w>
国 民</w>
s ophi
h o</w>
股 权</w>
experim ents</w>
ge -
逮 捕</w>
葡萄 酒</w>
en ab
深 度</w>
coll ected</w>
外 交
错 过</w>
家 具</w>
n ai
avo i
e ase</w>
recomm ended</w>
航 班</w>
pul led</w>
k ne
bi ological</w>
i -
strong ly</w>
排 除</w>
contrac ts</w>
suppor ts</w>
卢 </w>
gr as
apar tment</w>
ic a</w>
平 面</w>
par tly</w>
w age</w>
resul ting</w>
腔 </w>
一 面</w>
smoo th</w>
chick en</w>
秩 序</w>
passeng ers</w>
教 训</w>
苏 联</w>
distribu ted</w>
佣 </w>
satis fied</w>
企业 家</w>
d v
涂 </w>
ha bit</w>
no ti
e ties</w>
阳 </w>
毕 竟</w>
以 往</w>
哥 伦
e ded</w>
and roid</w>
ast ed</w>
guaran te
扩 散</w>
per su
hi v</w>
昨 日</w>
屿 </w>
储 存</w>
depu ty</w>
g as
ar k</w>
w aves</w>
手 指</w>
sh ell</w>
in ated</w>
今 日</w>
assi st</w>
m ly</w>
sen ate</w>
2 50</w>
har m</w>
hon est</w>
k i</w>
2 5%</w>
touri sts</w>
岩 石</w>
neu ro
appar ently</w>
d d</w>
dist ingui
姓 </w>
疾 </w>
见 面</w>
紧 密</w>
ch art</w>
po t
professi on
as sume</w>
r ad
fr ac
立 刻</w>
滚 </w>
wi re</w>
n d</w>
beg un</w>
主 动</w>
用 途</w>
rep lied</w>
有 利</w>
主 张</w>
human itarian</w>
春 </w>
expen ses</w>
sol ving</w>
搞 </w>
descri bes</w>
deposi t</w>
col ors</w>
i al</w>
collap se</w>
cor p</w>
p ump</w>
all ed</w>
ip ad</w>
heavi ly</w>
系 数</w>
各 自</w>
tre m
gold man</w>
20 20</w>
赚 </w>
教 会</w>
走 进</w>
交易 所</w>
dre w</w>
t all</w>
recor ded</w>
oxi de</w>
节 省</w>
constitu tion</w>
pay ments</w>
审 计</w>
j in
一 方</w>
五 个</w>
break fast</w>
纵 </w>
ten sion</w>
缺 点</w>
rep air</w>
te eth</w>
is ms</w>
普 京</w>
prin ting</w>
ha u
val ve</w>
amaz ing</w>
吸 烟</w>
au to</w>
编 程</w>
g ains</w>
st atic</w>
l ending</w>
edi tor</w>
g az
ar ab</w>
bu dd
怜 </w>
ner v
pl ed</w>
cap ability</w>
sav ed</w>
物 流</w>
边 境</w>
answ ers</w>
less ons</w>
乔 </w>
b ai
e .</w>
复 合</w>
框 </w>
sh ouldn</w>
d est</w>
致 命</w>
char les</w>
日 报</w>
同 步</w>
wh ol
勤 </w>
实 用</w>
勇 敢</w>
惜 </w>
一 支</w>
load ing</w>
t ants</w>
泪 </w>
政 权</w>
read s</w>
中 方</w>
achiev ements</w>
改 造</w>
h ang</w>
拉 斯</w>
declar ation</w>
amoun ts</w>
load ed</w>
es -
scri pt</w>
lat in</w>
披 露</w>
terror ism</w>
零 售</w>
dis co
r oughly</w>
这 时</w>
em ph
pro portion</w>
d ges</w>
smar t
spo ken</w>
cont aining</w>
sk y
涉 </w>
冬 天</w>
浏览 器</w>
5 000</w>
analy st</w>
金 额</w>
hen ry</w>
inv o
作 物</w>
ad ds</w>
办 事处</w>
深 圳
un usual</w>
a x</w>
携 带</w>
thom as</w>
瑞 典</w>
失 业
ra dic
lab </w>
e ye
种 子</w>
列 出</w>
奖 励</w>
窗 </w>
fo x</w>
dic tion</w>
tw enty</w>
磁 </w>
忍 受</w>
su pre
随 时</w>
reu ters</w>
succe ed</w>
r on
dec or
赛 季</w>
家 长</w>
对 外</w>
导 演</w>
cover s</w>
sp anish</w>
invol ving</w>
innov ative</w>
ad ult</w>
arti st</w>
课 堂</w>
液 体</w>
invol ves</w>
pu ri
some where</w>
ef s</w>
书 籍</w>
ji m</w>
ke ys</w>
p ath
perf ec
全球 化</w>
par ent</w>
大 声</w>
chu an</w>
rail way</w>
nec k</w>
ht ml</w>
hi ll
不 满</w>
pe di
脆 弱</w>
li by
k ni
纪 念
想 想</w>
- to-
激 进</w>
shoc k</w>
赋 予</w>
g ence</w>
冠 </w>
mon thly</w>
at om
any where</w>
pursu e</w>
shi pping</w>
col or
符 号</w>
本 月</w>
离 子</w>
过 滤
ag ement</w>
bu yers</w>
bl ind</w>
provi sion</w>
- year</w>
su ici
容 器</w>
化 合物</w>
y wood</w>
想 起</w>
regul arly</w>
jus ti
古 代</w>
ed ly</w>
re fer</w>
出 色</w>
gen es</w>
不 知</w>
stead y</w>
leg s</w>
询 问</w>
填 </w>
men tion</w>
y an</w>
忘 </w>
p ounds</w>
coll ect</w>
disp ute</w>
bel t</w>
dist ur
bac ked</w>
sanc tions</w>
远 程</w>
incre di
温 和</w>
叠 </w>
济 </w>
hop ing</w>
con sen
卡 尔</w>
law yer</w>
fur nit
才 是</w>
fl ows</w>
测 定</w>
多 大</w>
种 类</w>
auth ors</w>
百 分
ti er</w>
交 付</w>
公 正</w>
ref ers</w>
in k</w>
bl ame</w>
层 面</w>
ha bits</w>
ref used</w>
价值 观</w>
郎 </w>
ap i</w>
x x</w>
rec k
po or
ac knowle
diplom atic</w>
trans fer
alter n
电 站</w>
数 百万</w>
p ill
ar c
提 名</w>
ec ological</w>
chic ago</w>
逐 步</w>
ad ed</w>
芝 加
hi dden</w>
p um
斥 </w>
commodi ty</w>
拔 </w>
发 动机</w>
ex posed</w>
样 品</w>
tim ate</w>
st ated</w>
bur den</w>
很 小</w>
界 面</w>
呀 </w>
treat y</w>
com position</w>
feed back</w>
fil ter</w>
盗 </w>
de ep
盒 </w>
从 不</w>
p es</w>
病 例</w>
奥 斯
christi an</w>
严 </w>
7 2</w>
5 8</w>
坞 </w>
可 行</w>
原 子</w>
观 察
ex am</w>
参 议员</w>
刑 事</w>
conserv ative</w>
lic ate</w>
exten sion</w>
arri ve</w>
y an
t ail</w>
糖 尿
艾滋 病</w>
ch ol
无 线</w>
gi ble</w>
6 6</w>
re aching</w>
磅 </w>
furnit ure</w>
attr act</w>
忘 了</w>
on a</w>
vi et</w>
st ake</w>
冻 </w>
of -
y a
logi stics</w>
分 开</w>
co l</w>
busin ess
秘 书</w>
gradu ates</w>
g ross</w>
disco very</w>
con firm</w>
shen zhen</w>
ow nership</w>
野 生</w>
保 守</w>
di c</w>
糖尿 病</w>
赔 偿</w>
罗 伯特</w>
ologi sts</w>
e ggs</w>
sq l</w>
r he
cra zy</w>
quali fied</w>
ver ing</w>
specific ally</w>
承 受</w>
magne tic</w>
am id</w>
mun ici
out come</w>
相 机</w>
基 督</w>
返 </w>
吃 饭</w>
工 会</w>
sec tors</w>
fran k</w>
s ought</w>
芝加 哥</w>
窗 口</w>
pres entation</w>
宠 物</w>
el ected</w>
defic it</w>
设 法</w>
队 伍</w>
志 愿
a ths</w>
no se</w>
拖 </w>
以 至于</w>
l es
碑 </w>
重 量</w>
ori gin</w>
fur ther
辞 </w>
survi val</w>
俩 </w>
li ke
乳 </w>
国 际
a es
ch at</w>
t .</w>
术 语</w>
mag ic</w>
sch ar
certain ty</w>
neu tr
intellig ent</w>
f i</w>
电 路</w>
every day</w>
7 0%</w>
万 亿</w>
se y</w>
名 叫</w>
di am
标 题</w>
phar mac
哪 儿</w>
煤 </w>
e ing</w>
den sity</w>
烤 </w>
检 </w>
mechan isms</w>
co at</w>
不 可
leg es</w>
gr ain</w>
积 累</w>
孤 独</w>
evalu ate</w>
盈 利</w>
exec ution</w>
help ful</w>
s or</w>
dec re
伐 </w>
骄 傲</w>
enorm ous</w>
粉 丝</w>
depen ding</w>
b ic
bur n</w>
塞 尔</w>
over come</w>
ti e</w>
visi ting</w>
classi c</w>
ti ght</w>
di an</w>
牺牲 </w>
为 期</w>
钢 铁</w>
持 久</w>
追 踪</w>
cal m</w>
已 有</w>
高 达</w>
t z</w>
er ies</w>
db 2</w>
bur ning</w>
尽 量</w>
编 码</w>
consci ous</w>
p op</w>
disc lo
comp are</w>
im pres
tem ple</w>
so a</w>
s quar
度 假</w>
accur acy</w>
lic ense</w>
菲 律
new ly</w>
child hood</w>
secon d-
找 出</w>
菲律 宾</w>
cri tics</w>
将 军</w>
adjust ment</w>
conclu ded</w>
m ad</w>
calcul ation</w>
清 理</w>
sub mitted</w>
吓 </w>
5 7</w>
内 存</w>
亲 密</w>
女 子</w>
文 献</w>
伯 格</w>
皇 家</w>
j ones</w>
phili pp
ai ms</w>
ne ver
re al-
d f</w>
com missi
举 措</w>
exi sts</w>
pu shed</w>
. i</w>
ear n</w>
志愿 者</w>
构 造</w>
鉴 于</w>
离 婚</w>
凝 土</w>
混 凝土</w>
下 滑</w>
instr uments</w>
匙 </w>
cover age</w>
islam ic</w>
协 </w>
可 怜</w>
repres ented</w>
comb at</w>
y i</w>
审 议</w>
争 取</w>
雇 佣</w>
无 关</w>
短 暂</w>
各 项</w>
tr ends</w>
炸 弹</w>
校 园</w>
怀 孕</w>
bre ast</w>
9 0%</w>
ke l</w>
sub -
st om
expan ding</w>
可 见</w>
en a</w>
desig ner</w>
survi ve</w>
cust om</w>
re ply</w>
一 杯</w>
较 大</w>
座 位</w>
ca p</w>
马 里</w>
摧 毁</w>
壮 </w>
患 有</w>
di schar
二 氧化
麻 </w>
电视 台</w>
cre ates</w>
t ings</w>
fin ds</w>
im ports</w>
ori ties</w>
妹 妹</w>
diversi ty</w>
nas a</w>
car di
肌 </w>
天 然</w>
t ative</w>
am i</w>
sum mari
每 日</w>
终 止</w>
electron ics</w>
却 是</w>
ati vity</w>
pi lot</w>
h asn</w>
n esses</w>
示 例</w>
当 代</w>
6 0%</w>
li on
遗 传</w>
fi lling</w>
d un
储 蓄</w>
庆 </w>
ar g
di abe
威廉 </w>
附 </w>
核 武器</w>
b ang
遭 遇</w>
contem porary</w>
珠 </w>
你 好</w>
信用 卡</w>
mou se</w>
b ell</w>
效 益</w>
p y</w>
ukrain e</w>
实 力</w>
药 品</w>
st y</w>
sign als</w>
head quarters</w>
t one</w>
strength ening</w>
con ci
poten tially</w>
p i</w>
as m</w>
1 1
a e
i ii</w>
舰 </w>
propo sals</w>
appl ying</w>
参 议院</w>
appro aches</w>
oper ational</w>
槽 </w>
mal ay
vers ary</w>
等 级</w>
gr ass</w>
wel fare</w>
电 机</w>
psych ology</w>
u x</w>
ci an</w>
con gre
委 </w>
it er
cap abilities</w>
00 :
mr s</w>
mar ry</w>
199 0s</w>
contribu tions</w>
ci sco</w>
庞 大</w>
季 节</w>
scho ol
ac com
share holders</w>
sub mit</w>
john son</w>
cre am</w>
sudd en</w>
享 有</w>
燃 </w>
le g</w>
sequ ence</w>
em entary</w>
使 用
sun g</w>
舱 </w>
摆 </w>
里 斯</w>
cour age</w>
u .</w>
前 提</w>
destro yed</w>
st ages</w>
攻 </w>
k in</w>
bo b</w>
m in</w>
国 防</w>
业 绩</w>
deri v
guidel ines</w>
install ed</w>
ir ri
th ick</w>
ul ate</w>
誓 </w>
st em</w>
乐 队</w>
in ser
shad ow</w>
激 情</w>
稿 </w>
ww w.
mi x
绿 </w>
d ur
fic ations</w>
海 上</w>
jan e</w>
so viet</w>
expl ains</w>
有 害</w>
序 列</w>
玩 家</w>
an ticip
下 列</w>
ob st
d am</w>
si an</w>
fu </w>
au tum
过 渡</w>
上 学</w>
be half</w>
厉 </w>
natur ally</w>
the ories</w>
forec ast</w>
第 五</w>
str ain</w>
prosp er
jo e</w>
explan ation</w>
sl op
ci g
sh ine</w>
sh ak
recomm end</w>
重 组</w>
再 生</w>
天 堂</w>
cop e</w>
实 在</w>
电 信</w>
au d</w>
醉 </w>
ma th</w>
雇 员</w>
缅 甸</w>
蛇 </w>
明 智</w>
灰 </w>
histor ic</w>
clean ing</w>
re ver
ast ro
prom in
cho se</w>
占 领</w>
a ws</w>
pal ace</w>
番 </w>
ing redi
sn ow
vege tables</w>
遗 产</w>
啦 </w>
democr ats</w>
republic ans</w>
蜜 </w>
仿 真</w>
tis sue</w>
送 到</w>
eff ecti
s ongs</w>
shap ed</w>
面 向</w>
rul ing</w>
浮 </w>
sup er</w>
chann els</w>
靠 近</w>
ad mitted</w>
春 天</w>
fi ve-
mr .
殿 </w>
ti vely</w>
obj ectives</w>
公 式</w>
arre sted</w>
车 站</w>
exten sive</w>
sc and
discipl ine</w>
indic ates</w>
祷 </w>
gran ted</w>
装 备</w>
6 8</w>
i ds</w>
subsi di
类 别</w>
启 </w>
pu shing</w>
ho ly</w>
农 </w>
bl ow</w>
vi l
银 行
gri d</w>
时 光</w>
ro lling</w>
数 百</w>
regar ded</w>
b al</w>
introduc es</w>
fav or</w>
opini ons</w>
bo ttle</w>
成 年人</w>
晚 餐</w>
tr y
极 其</w>
stre ssed</w>
exc iting</w>
烂 </w>
ther mal</w>
dep end</w>
ne ed
engine er</w>
销 量</w>
co ach</w>
angel es</w>
f s</w>
so le</w>
fe at
con ve
re solve</w>
弹 性</w>
巴 巴</w>
准 则</w>
recommend ations</w>
滴 </w>
lat ter</w>
信 念</w>
伏 </w>
perce i
毒 品</w>
pain t</w>
辞 职</w>
较 小</w>
w en</w>
今 后</w>
代 替</w>
po sted</w>
鈥 </w>
con soli
sur ing</w>
活 着</w>
mo dule</w>
chan ces</w>
综 合
飞 行
ter -
tre ss</w>
英 寸</w>
choc olate</w>
rm b</w>
fi red</w>
tn am</w>
ti an
ap ers</w>
jud gment</w>
ak s</w>
fi li
gl u
宣 称</w>
schedul ed</w>
ro les</w>
encour aged</w>
侵 </w>
假 如</w>
交 给</w>
swim ming</w>
流 量</w>
equ ally</w>
facili ty</w>
coo king</w>
fin ite</w>
隔 离</w>
n -
religi on</w>
prosper ity</w>
ar ray</w>
字 母</w>
ed -
arti ficial</w>
午 餐</w>
surroun ding</w>
li ked</w>
罩 </w>
symbo l</w>
p en</w>
c asting</w>
m i</w>
um -
achiev ement</w>
失业 率</w>
sil k</w>
评 级</w>
肃 </w>
6 0
两 位</w>
trans form</w>
discus sions</w>
菲 尔</w>
depen dent</w>
塑 </w>
ant a</w>
cen ters</w>
自 由
稳 定性</w>
卡 车</w>
arrang ement</w>
初 始</w>
7 7</w>
inv en
据 说</w>
t ack
希 拉里</w>
无 疑</w>
trans actions</w>
bac teria</w>
兼 </w>
m ic</w>
c c</w>
周 年</w>
shir t</w>
分 散</w>
mar gin
6 2</w>
l ec
看 待</w>
ograph ic</w>
恼 </w>
per forming</w>
autum n</w>
sim pli
ten s</w>
priv acy</w>
村 庄</w>
stimul us</w>
enjo yed</w>
独 自</w>
翁 </w>
fi shing</w>
al ised</w>
par alle
铺 </w>
b ow</w>
玉 米</w>
dri vers</w>
accep table</w>
z u
之 际</w>
p .</w>
v ar
锋 </w>
enfor cement</w>
some what</w>
han ded</w>
ell a</w>
bas ket
concep ts</w>
sco t
第 三
古 巴</w>
cap ture</w>
comp rom
oxy gen</w>
生物 学</w>
耐 心</w>
枝 </w>
mini sters</w>
refl ects</w>
g al</w>
sup pose</w>
内 地</w>
y ard</w>
bal anced</w>
al lo
us age</w>
invest or</w>
pri mar
顺 序</w>
ligh ting</w>
犹 太
一 小</w>
9 8</w>
pas sion</w>
fun ny</w>
pow der</w>
whe el</w>
8 8</w>
大 选</w>
因 子</w>
chr on
th ail
h at</w>
真 诚</w>
ste ph
p r</w>
会 员</w>
6 3</w>
cri teria</w>
场 合</w>
prot ected</w>
ag ers</w>
arti sts</w>
attemp ts</w>
斜 </w>
定 制</w>
li ers</w>
m p</w>
stre t
谅 </w>
saf e
acquisi tion</w>
听 见</w>
d enti
马 来
岛 屿</w>
wh el
不 利</w>
不 敢</w>
e- mail</w>
ill ness</w>
in no
de par
israeli </w>
帽 子</w>
vie tnam</w>
目 的
our ing</w>
知 名</w>
pre scri
不 少</w>
w ash</w>
fe asi
pleas ant</w>
num er
耐 </w>
捐 赠
尸 体</w>
n es</w>
hu ang</w>
中 期</w>
这 笔</w>
r en</w>
h s</w>
em per
nar row</w>
事 务
prepar ing</w>
col our</w>
审 </w>
he ating</w>
be er</w>
at en</w>
嫩 </w>
forei g
stu ck</w>
viol ent</w>
cr ash</w>
exc ited</w>
ri val</w>
d ently</w>
维 亚</w>
当 作</w>
vol tage</w>
蛋 糕</w>
图 形</w>
全 新</w>
thail and</w>
ad just</w>
严 厉</w>
稳 </w>
买 家</w>
哥 哥</w>
p ack</w>
bre ath</w>
个 体</w>
道 歉</w>
re placed</w>
where as</w>
浏 览</w>
dani el</w>
紧 缩</w>
b ath
further more</w>
lin ing</w>
起 诉</w>
con vic
ur a</w>
port foli
ci a</w>
尊 敬</w>
平 民</w>
发 动</w>
bat tery</w>
泉 </w>
sp lit</w>
en i
一 对</w>
囊 </w>
一 批</w>
动 脉</w>
五 年</w>
k m</w>
j or
剪 </w>
mo sc
5 9</w>
祝 福</w>
meas uring</w>
z ens</w>
pl as
突 破</w>
ac tors</w>
揭 示</w>
奥 运</w>
这 会</w>
焦 点</w>
al ex
premi er</w>
interven tion</w>
近 期</w>
3 :
祈 祷</w>
end ers</w>
辅 助</w>
外 国人</w>
ple ased</w>
权 威</w>
chri st</w>
dis cover</w>
玫 瑰
薪 酬</w>
conserv ation</w>
回 收</w>
sor ts</w>
签 证</w>
n an</w>
歌 手</w>
ob serve</w>
6 7</w>
当 今</w>
eng age</w>
contain er</w>
atten ded</w>
common ly</w>
tr ained</w>
sci ences</w>
景 观</w>
contro lling</w>
重 申</w>
am bas
gather ed</w>
effecti veness</w>
pat ent</w>
j et</w>
consen sus</w>
emo tions</w>
de aths</w>
ti ps</w>
阻 </w>
mortg age</w>
高 层</w>
origin ally</w>
p c
amaz on</w>
巴 拉克</w>
简 化</w>
阶 </w>
hop ed</w>
最 为</w>
为 何</w>
维 修</w>
sil ence</w>
om ing</w>
3 000</w>
胺 </w>
interpre tation</w>
ho o</w>
lat eral</w>
vulner able</w>
jo se
ul ated</w>
in ary</w>
main taining</w>
cou ples</w>
多样 性</w>
fi ber</w>
ag u
her o</w>
一 台</w>
有 效
down load</w>
其 余</w>
哥伦 比亚</w>
pu </w>
莱 坞</w>
好 莱坞</w>
喜 爱</w>
ab use</w>
ti p</w>
干 燥</w>
basket ball</w>
难 道</w>
restaur ants</w>
refl ected</w>
巨 头</w>
engine ers</w>
平 方</w>
许 可
奢 侈
cop y
政 部</w>
ri ses</w>
state- owned</w>
consci ousness</w>
ji ang
白 人</w>
po t</w>
emph asis</w>
筒 </w>
暂 停</w>
蹈 </w>
ambas sad
announ cement</w>
an no
supre me</w>
lo gical</w>
私 营</w>
风 暴</w>
10 0%</w>
g m</w>
enter ing</w>
carri er</w>
un known</w>
dest ination</w>
裹 </w>
u ps</w>
世界 杯</w>
vit am
peop les</w>
b ags</w>
198 9</w>
vac ation</w>
遣 </w>
慌 </w>
锐 </w>
ber ry</w>
shoo ting</w>
si lic
audi </w>
5 ,000</w>
尔 夫</w>
cor n</w>
尼 亚
早 餐</w>
k id</w>
库 存</w>
玩 笑</w>
gr ant</w>
肥 胖</w>
谈 谈</w>
是 以</w>
indone sia</w>
x -
大 使</w>
荣 誉</w>
有 益</w>
热 量</w>
wor thy</w>
kil ome
ch rom
mosc ow</w>
identi fication</w>
cl er
大 战</w>
emer ged</w>
matri x</w>
网 页</w>
oblig ations</w>
mir ror</w>
behavi our</w>
short- term</w>
la sting</w>
乡 村</w>
上 班</w>
之 所以</w>
报 价</w>
pl ain</w>
k ings</w>
inspi red</w>
compu ting</w>
国 内外</w>
超 出</w>
rar ely</w>
回 复</w>
re fin
意 志</w>
rel ess</w>
holl ywood</w>
s au
德 里</w>
dimen sional</w>
bo om</w>
conflic ts</w>
tex as</w>
回 去</w>
优 质</w>
anni versary</w>
乌 </w>
wi shes</w>
st al
印 刷</w>
移 植</w>
ab s
小 孩</w>
ri ck</w>
sp are</w>
违 约</w>
el derly</w>
韦 </w>
ol a</w>
欠 </w>
rout ine</w>
双 边</w>
substan tial</w>
shi f
an ce
礼 貌</w>
employ ers</w>
韩 </w>
10 0
河 流</w>
proto col</w>
粒 子</w>
ali a</w>
中 学</w>
g ay</w>
low est</w>
sub scri
汤 </w>
class room</w>
沙 特</w>
cul tures</w>
pe ar
pro j
expan ded</w>
cri mes</w>
对 冲</w>
in formed</w>
个 性</w>
perfec tly</w>
em an</w>
转 让</w>
re member
cl as
speci alized</w>
air lines</w>
guang zhou</w>
ex cep
自 动
没 什么</w>
inju red</w>
洪 水</w>
op pon
arrang ements</w>
激 素</w>
酱 </w>
roo ts</w>
in hi
st abili
插 入</w>
马来 西亚</w>
a e</w>
大 气</w>
rom antic</w>
do zen</w>
汽 </w>
machin ery</w>
consi sts</w>
北 方</w>
名 人</w>
b .</w>
re volu
i zation</w>
苏 丹</w>
安 娜</w>
po e
fac tories</w>
ici ous</w>
注 入</w>
sm ell</w>
第 十
激 动</w>
des per
expl oration</w>
t am
mi r</w>
维 尔</w>
7 -
椅 子</w>
不 如</w>
菜 单</w>
提 示</w>
paralle l</w>
流 动性</w>
生 育</w>
ex act</w>
困 惑</w>
di str
向 前</w>
句 子</w>
m ate</w>
war ming</w>
开 关</w>
未 经</w>
毫 不</w>
正 义</w>
ari a</w>
develop ments</w>
s lo
概 率</w>
hi de</w>
ou ts</w>
regul ators</w>
re l</w>
t es
击 败</w>
enti tled</w>
青 </w>
至 今</w>
immun e</w>
slee ping</w>
dam aged</w>
i ze</w>
mac </w>
sub stitu
播 放</w>
li ver</w>
火 箭</w>
view ing</w>
wi des
延 伸</w>
品 种</w>
ad mi
兽 </w>
commodi ties</w>
船 只</w>
永 久</w>
偶 尔</w>
direc tors</w>
preci ous</w>
rand om</w>
v ector</w>
资 讯</w>
se ats</w>
cop per</w>
莫 斯科</w>
ess ing</w>
inte gri
奴 隶
gr ounds</w>
柔 </w>
the -
initi ally</w>
一 道</w>
tt a</w>
引 人</w>
许可 证</w>
6 1</w>
目的 地</w>
sett led</w>
危 害</w>
尘 </w>
究 </w>
脏 病</w>
自动 化</w>
min ds</w>
z ab
absolu te</w>
脚 本</w>
沉 </w>
in ations</w>
gu est</w>
ques tion
压 缩</w>
耳 朵</w>
destruc tion</w>
跳 舞</w>
锡 </w>
邪 恶</w>
remark able</w>
sc ru
desig n
幻 </w>
al er
ar chi
li sts</w>
困 扰</w>
desig ns</w>
一 把</w>
anxi ety</w>
7 6</w>
实 时</w>
r as
d an
保 险
can adi
二 十</w>
observ ation</w>
sing ing</w>
all ow
awar ds</w>
las er</w>
b p</w>
dep loy
contro ller</w>
处 理
老 年人</w>
chem ic
establi shing</w>
氢 </w>
le gen
gre e
意 愿</w>
体 内</w>
restric tions</w>
年 级</w>
穷 人</w>
当 选</w>
ret ail
gent lem
分 支</w>
st airs</w>
氧 化</w>
廉 价</w>
办公 </w>
区 分</w>
ge ar</w>
bab a</w>
chem i
qu ery</w>
extra ordinary</w>
st ayed</w>
any body</w>
漆 </w>
du ties</w>
动 荡</w>
ash es</w>
疗 法</w>
ro of</w>
integri ty</w>
演 出</w>
se ed</w>
shoul der</w>
touri st</w>
宏 观</w>
fl ash</w>
威 尔</w>
lau gh</w>
电 流</w>
wides pre
nerv ous</w>
av en
w ages</w>
cham ber</w>
regi ster</w>
connec tions</w>
at ri
hal f-
应 力</w>
hospit als</w>
ti ed</w>
有 者</w>
隙 </w>
市 长</w>
狼 </w>
in ct</w>
亨 利</w>
由 此</w>
繁 </w>
categ ories</w>
4 8
削 弱</w>
attrac ted</w>
au to
心 脏病</w>
内 在</w>
h ence</w>
消 极</w>
军 方</w>
a qu
widespre ad</w>
occur s</w>
# </w>
确 定性</w>
大 国</w>
celebr ate</w>
foc using</w>
心 灵</w>
sh a</w>
ip o</w>
f ate</w>
窄 </w>
addre ssed</w>
剑 </w>
多 人</w>
loc ked</w>
exce ption</w>
保 护
功 率</w>
member ship</w>
parame ter</w>
p ir
多 久</w>
198 0</w>
巾 </w>
over whel
mem ories</w>
po sing</w>
out look</w>
深圳 </w>
6 -
境 内</w>
1 /
聊 天</w>
speak er</w>
deli ber
研究 生</w>
immigr ation</w>
repor ters</w>
inten se</w>
ur gent</w>
gr at
劣 </w>
默 认</w>
t less</w>
dre ssed</w>
扇 </w>
w et</w>
robo t</w>
re sume</w>
主 体</w>
马 丁</w>
姑 娘</w>
ti sm</w>
head ed</w>
亚 太</w>
dedic ated</w>
gir l
机 遇</w>
decre ase</w>
sing er</w>
尬 </w>
ir s</w>
terrori st</w>
看 出</w>
东 方</w>
missi le</w>
尴 尬</w>
乐 趣</w>
安全 性</w>
落 后</w>
con fron
激 光</w>
监 </w>
咬 </w>
h k</w>
compe te</w>
而 已</w>
激 发</w>
mo thers</w>
防 御</w>
服 用</w>
指 南</w>
studi o</w>
tri l
sc ores</w>
break s</w>
处 在</w>
担 保</w>
organis ation</w>
pro hi
财 </w>
h ob
00 ,000</w>
us a</w>
封 信</w>
牙 齿</w>
u t</w>
真 相</w>
清 除</w>
oper ator</w>
银行 家</w>
bloc ks</w>
旅 馆</w>
th eless</w>
entr ance</w>
ch e</w>
co tton</w>
心 情</w>
匀 </w>
提 供
门 口</w>
抵 达</w>
abs ence</w>
二氧化 碳</w>
newsp apers</w>
supp liers</w>
佛 罗
inter ior</w>
用 品</w>
对 应</w>
your s</w>
本 来</w>
女 王</w>
physi cs</w>
无 限</w>
绩 效</w>
领导 者</w>
夜 晚</w>
称 之
never theless</w>
palestini an</w>
称之 为</w>
sp her
原 谅</w>
mean ing
呈 </w>
con tra
modi fied</w>
es c
ex trac
z he
w ars</w>
四 年</w>
百 分之</w>
关 键
欺 骗</w>
pres sing</w>
保 守
repe ated</w>
商 学院</w>
prosp ects</w>
皇 </w>
f old</w>
expen di
跑 步</w>
向 量</w>
嘿 </w>
旅 行
li ty</w>
transm it
prai se</w>
mom ents</w>
增 长
al lies</w>
superi or</w>
refuge es</w>
sh rin
诈 </w>
accep tance</w>
h ell</w>
与 其</w>
sp ir
ep iso
缺 少</w>
calcul ated</w>
管理 局</w>
很 久</w>
鼻 子</w>
har m
sli de</w>
ec o
read er</w>
销 商</w>
ba i</w>
好 好</w>
谎 </w>
牧 师</w>
共 产
真 理</w>
共产 党</w>
applic able</w>
签 名</w>
签 订</w>
aw n</w>
基督 教</w>
facili tate</w>
9 00</w>
oc curr
加 以</w>
fre sh
cor relation</w>
截 至</w>
sh ow
福 特</w>
宿 </w>
砖 </w>
印 尼</w>
严 肃</w>
mus cle</w>
gi a</w>
精 度</w>
事 长</w>
l an</w>
nam ely</w>
b our
模 仿</w>
记 本</w>
y cl
coll ective</w>
destro y</w>
w to</w>
co ast
维 生素</w>
p ac
supp lier</w>
表 情</w>
y l</w>
mo tor
hi re</w>
悔 </w>
sophi stic
海 滩</w>
prof ound</w>
矩 阵</w>
屋 顶</w>
制 成</w>
d al</w>
serv es</w>
无 数</w>
ck y</w>
琼 斯</w>
strugg ling</w>
滞 </w>
produc es</w>
request ed</w>
8 0
invol ve</w>
spiri tual</w>
att le</w>
分 解</w>
regar dless</w>
i er</w>
statis tical</w>
鸡 蛋</w>
罕 见</w>
o il
chemic als</w>
9 6</w>
ing er</w>
热 爱</w>
al liance</w>
高 盛</w>
prosp ect</w>
c ake</w>
刚 才</w>
同 情</w>
仪 器</w>
inter n
comp ound</w>
阿 里
co ali
ear ned</w>
并 未</w>
e able</w>
心 中</w>
脱 离</w>
4 :
n in
suici de</w>
西 藏</w>
appreci ation</w>
row s</w>
s ke
chemi stry</w>
不 变</w>
振 动</w>
底 部</w>
hear ts</w>
缆 </w>
tim ely</w>
j on
under ground</w>
监 视</w>
南 亚</w>
成 年</w>
ele g
i rel
l y-
cele bri
deser t</w>
俄 </w>
et te</w>
ster ing</w>
ultim ate</w>
audi t</w>
一 轮</w>
acqui red</w>
flu id</w>
阿 尔</w>
fran k
min ority</w>
那 位</w>
lo ves</w>
g 20</w>
入 侵</w>
酒 精</w>
ver tical</w>
primar ily</w>
im pression</w>
bor ne</w>
吵 </w>
d ingly</w>
猜 </w>
pri de</w>
广 州</w>
e y
配 合</w>
人 为</w>
be ings</w>
例 外</w>
年 中</w>
优 雅</w>
scienti st</w>
m ice</w>
变 革</w>
er n
op posed</w>
ci ous</w>
cen tu
ch -
ya hoo</w>
dram atic</w>
圣 经</w>
bin ding</w>
vis a</w>
倦 </w>
vali d</w>
收 费</w>
舞 蹈</w>
in et</w>
变 形</w>
数 千</w>
dr ama</w>
chr onic</w>
ad di
既 然</w>
you t</w>
her it
direc ted</w>
涛 </w>
trac king</w>
般 的</w>
本 国</w>
1. 2</w>
笔 记本</w>
desig ning</w>
po sts</w>
主 教</w>
整 天</w>
ze al
不 停</w>
拍 卖</w>
爵 士</w>
一 刻</w>
end or
斯 特
preci sion</w>
sty les</w>
ou l</w>
受 益</w>
g li
repe at
ri ous</w>
im posed</w>
检 察
ess ence</w>
fl ori
ligh t
termin al</w>
exam ine</w>
州 长</w>
um es</w>
pro li
ad d
he dge</w>
摄 影</w>
bab ies</w>
加 大</w>
反 应
sel ler</w>
恐 怕</w>
re verse</w>
亚 马
st ones</w>
办 理</w>
图 表</w>
err ors</w>
co s
芯 片</w>
护 士</w>
沿 </w>
8 6</w>
consul ting</w>
汀 </w>
oc ity</w>
bi lls</w>
eg g</w>
跨 国</w>
s d
映 射</w>
cre w</w>
w anna</w>
sig ning</w>
chr is</w>
展 现</w>
vari ables</w>
irel and</w>
意 图</w>
慨 </w>
强 化</w>
乔 布斯</w>
le ver
argu ed</w>
集 合</w>
wi reless</w>
之 上</w>
何 时</w>
欲 望</w>
长 达</w>
bu yer</w>
出 租
super vis
bad ly</w>
campai g
描 绘</w>
he i
b ited</w>
主 流</w>
语 法</w>
威 尔
毯 </w>
旅 游
踢 </w>
绝 望</w>
下 周</w>
s enti
g ab
猜 测</w>
教 徒</w>
bub ble</w>
椅 </w>
ve ter
简 直</w>
油 价</w>
rom an</w>
gi fts</w>
救 助</w>
ti t
tri gg
wid th</w>
rel ating</w>
十 二
生 效</w>
必 然</w>
ent ally</w>
tic kets</w>
夏 </w>
vol ati
主 持</w>
so ap</w>
高 校</w>
反 复</w>
授 予</w>
than k
看 作</w>
floo d</w>
instruc tions</w>
血 压</w>
to b
素 质</w>
董 事长</w>
昨 晚</w>
垂 直</w>
br on
ak er</w>
短 缺</w>
n i</w>
re jected</w>
浅 </w>
海 关</w>
奇 迹</w>
cig are
胃 </w>
frequ ent</w>
y cle</w>
some how</w>
沙 漠</w>
prote sts</w>
fi x
dee per</w>
将 要</w>
此 时</w>
as ser
repe at</w>
gr ace</w>
丑 闻</w>
clo sing</w>
强 制</w>
原 料</w>
men u</w>
戏 剧</w>
versi ons</w>
r ating</w>
北 美</w>
elimin ate</w>
en tic
is tic</w>
parti cles</w>
旅 </w>
亚马 逊</w>
印 度
hot els</w>
prot ecting</w>
共 识</w>
寒 冷</w>
戈 </w>
和 国际</w>
频 繁</w>
万 元</w>
man ual</w>
安 慰</w>
热 带</w>
to i
k le</w>
夏 季</w>
ap h
闻 名</w>
main tained</w>
loc ations</w>
broad er</w>
under lying</w>
大 胆</w>
拿 到</w>
成 人</w>
el abor
a j
collabor ation</w>
自 主</w>
aggre ssive</w>
捉 </w>
8 7</w>
帐 户</w>
liber al</w>
bom b</w>
闪 </w>
par tial</w>
min or</w>
兑 </w>
阿里 巴巴</w>
thre ats</w>
走 出</w>
延 迟</w>
迁 </w>
r d</w>
合 格</w>
differ enti
f a</w>
andre w</w>
天 使</w>
pr on
ul tr
lin ux</w>
now ad
打 印</w>
m ba</w>
ce l</w>
赞 </w>
犹太 人</w>
discrimin ation</w>
划 署</w>
arrang ed</w>
盯 </w>
ani an</w>
eli zab
碗 </w>
col leges</w>
simul tane
c s
al a</w>
赋 </w>
sil ent</w>
器 官</w>
re b
fi er
ni ght
m g</w>
发 育</w>
冷 却</w>
偿 还</w>
拥 抱</w>
零售 商</w>
ent y-
l ac
s ach
e tr
re alistic</w>
伟 </w>
将 近</w>
灾 害</w>
衬 衫</w>
gen u
掌 </w>
之 内</w>
篮 球</w>
cro ps</w>
travel ing</w>
gener ations</w>
宣 言</w>
关 节</w>
一 人</w>
豪 华</w>
exp lic
ro lled</w>
小 学</w>
外 科</w>
自 豪</w>
选 手</w>
d or</w>
u red</w>
娃 </w>
inten sity</w>
丰 </w>
tor al</w>
政 客</w>
米 尔</w>
一 大</w>
convin ced</w>
擅 长</w>
ali baba</w>
m ount</w>
化 妆
disc our
7 3</w>
1 2.
怎么 办</w>
elizab eth</w>
查 德</w>
chi p</w>
ur ged</w>
宝 贵</w>
大 宗</w>
enh anced</w>
继 承</w>
gl asses</w>
地 铁</w>
implem enting</w>
encour aging</w>
web sites</w>
代 理
un certainty</w>
舶 </w>
p lic
bran ches</w>
fl u</w>
al arm</w>
神 圣</w>
挖 掘</w>
brow ser</w>
nowad ays</w>
coun try
房 价</w>
帮 忙</w>
男 女</w>
邻 </w>
自 愿</w>
烯 </w>
diabe tes</w>
变 换</w>
解 雇</w>
升 值</w>
el and</w>
西 兰</w>
n .</w>
coali tion</w>
ad mit</w>
艾 </w>
起 到</w>
m atic</w>
ac les</w>
幻 想</w>
arri val</w>
恐 </w>
船 舶</w>
musli m</w>
any more</w>
电 压</w>
consider able</w>
k ill
情 人</w>
注 重</w>
3 ,
隐 私</w>
re tri
生产 商</w>
c it
inst all</w>
suc c
dispu tes</w>
s am</w>
sk i</w>
ru sh</w>
第三 方</w>
simil arly</w>
fran cisco</w>
archit ec
deploy ment</w>
emper or</w>
f eng</w>
树 木</w>
ru pt</w>
un cle</w>
demonstr ate</w>
tal ents</w>
top ics</w>
球 场</w>
盒 子</w>
浴 </w>
墓 </w>
produc er</w>
conclu sions</w>
in sec
mac ro
stro ke</w>
authori zed</w>
政治 家</w>
or ange</w>
consul tation</w>
行 李</w>
perio ds</w>
煤 炭</w>
i z
e ars</w>
en sive</w>
com posite</w>
神 奇</w>
仆 人</w>
on going</w>
损 坏</w>
wri ters</w>
判 决</w>
as signed</w>
popul arity</w>
sen ator</w>
u de</w>
th west</w>
一 度</w>
钉 </w>
加 热</w>
qui e
i de</w>
半 年</w>
ves sel</w>
manufactur er</w>
轨 </w>
hun gry</w>
鼓 舞</w>
wer en</w>
论 述</w>
weal thy</w>
z ha
li ability</w>
op tim
理 论
敌 </w>
营 商</w>
guil ty</w>
注 射</w>
provin cial</w>
精 英</w>
jack son</w>
invest ing</w>
fing er</w>
t ating</w>
sem in
wri tes</w>
targe ted</w>
may or</w>
prop ag
建筑 物</w>
re turning</w>
wi der</w>
comple tion</w>
ambassad or</w>
电 影
中 美</w>
civili zation</w>
comp ati
1 1.
ate ful</w>
相 关
produc ers</w>
帽 </w>
十 亿</w>
墙 上</w>
prob ability</w>
fr anc
控制 器</w>
predic t</w>
schol ars</w>
jose ph</w>
resi dential</w>
he si
bo s
home work</w>
ec li
lar ge-
6 9</w>
employ er</w>
e quality</w>
0.0 5</w>
地 带</w>
普 通
奖 金</w>
shoo t</w>
st aying</w>
北 约</w>
org ans</w>
b acks</w>
情 形</w>
传 达</w>
se ttle</w>
放 置</w>
纳 入</w>
di um</w>
reve al</w>
hill ary</w>
st ag
graph ic</w>
标 准
cab inet</w>
tril lion</w>
wit ness</w>
cl am
ken ne
pol l</w>
mod eling</w>
市 民</w>
whe at</w>
经 费</w>
appar ent</w>
mur der</w>
suppor ters</w>
nutri tion</w>
si on-
exc essive</w>
ira qi</w>
ann e</w>
b all
局 面</w>
支 票</w>
benef icial</w>
camer on</w>
姐 妹</w>
optimi zation</w>
客 观</w>
contro versi
j uni
电 器</w>
统 计
从 中</w>
inter nation
nec essi
故 意</w>
qu it</w>
眼 镜</w>
ai red</w>
demonstr ated</w>
新 西兰</w>
ow ns</w>
薪 水</w>
修 订</w>
k an
cn n</w>
as sign
最 早</w>
操 纵</w>
c d
head ing</w>
电 动</w>
无 聊</w>
整 理</w>
che aper</w>
手 里</w>
mem ori
drin ks</w>
secre tari
简 历</w>
0 1</w>
herit age</w>
car go</w>
任 期</w>
vel ocity</w>
reven ues</w>
总 额</w>
灰 色</w>
analy zing</w>
7 8</w>
温 室</w>
comp liance</w>
198 0s</w>
同 一个</w>
inter medi
两 天</w>
共 有</w>
ton y</w>
无 人</w>
w are
nar r
盟 友</w>
m ation</w>
cop ies</w>
tw el
prot est</w>
p p</w>
确 信</w>
尼 日
r hy
weap on</w>
divor ce</w>
5 :
教 室</w>
tum or</w>
st ure</w>
盖 茨</w>
bri lli
fing ers</w>
le f
no de</w>
expen se</w>
谋 杀</w>
equi pped</w>
threat ened</w>
焦 </w>
stan ley</w>
in cen
con dem
domin ant</w>
忠 诚</w>
canadi an</w>
ex it</w>
invest ed</w>
human ity</w>
10 ,000</w>
ban kers</w>
d ancing</w>
模 板</w>
occu pi
abo li
oper ators</w>
千 万</w>
ch eng</w>
on ally</w>
ar range</w>
策 划</w>
boun dary</w>
utili ty</w>
silic on</w>
po cket</w>
越 多</w>
at lan
pass age</w>
2 ,000</w>
贯 </w>
死 去</w>
ti se</w>
星期 五</w>
u. s.
li min
反 射</w>
指 令</w>
嫁 </w>
8 -
诸 </w>
铝 </w>
be side</w>
empi re</w>
passeng er</w>
chec king</w>
募 </w>
收 益
9 2</w>
k g</w>
覆 </w>
r um
髓 </w>
dv d</w>
no .
又 是</w>
y en</w>
尝 </w>
船 长</w>
hol dings</w>
le h
德 尔</w>
遥 远</w>
感 觉
灵 感</w>
唇 </w>
电 气</w>
桑 </w>
7 1</w>
bur st</w>
感觉 到</w>
tu des</w>
deni ed</w>
al ties</w>
d ding</w>
会 见</w>
arti stic</w>
数 值</w>
访 者</w>
shar ply</w>
mo vements</w>
ves sels</w>
bur g</w>
separ ation</w>
journ alists</w>
har b
ri o</w>
阴 影</w>
bo ston</w>
动 画</w>
0 1:
r ail</w>
stoc k
含 义</w>
op tical</w>
档 案</w>
逃 </w>
犬 </w>
sec tions</w>
z i</w>
soci alist</w>
ac ute</w>
饪 </w>
积 分</w>
am pli
捐赠 </w>
民 间</w>
烹 饪</w>
accomp ani
migr ation</w>
年 间</w>
鞋 子</w>
交 互</w>
cur ri
an der</w>
众 议院</w>
impor ted</w>
com posed</w>
家 乡</w>
hydro gen</w>
promo ted</w>
law yers</w>
rel atives</w>
游 行</w>
ev a</w>
锅 </w>
增长 率</w>
中 产</w>
sc an
墨 </w>
cri ed</w>
滥 用</w>
rub ber</w>
alis ation</w>
平 板</w>
dis k</w>
puni shment</w>
ou ter</w>
w en
promin ent</w>
ex cess</w>
jum ped</w>
金 山</w>
el f</w>
作 战</w>
en tum</w>
disc ount</w>
inj ection</w>
猎 </w>
por tu
激 活</w>
麦 克
clou ds</w>
ha w
ma x</w>
over -
se -
tem por
uni form</w>
tab ly</w>
决 赛</w>
si zes</w>
g ently</w>
街 上</w>
gal ax
罐 </w>
sk ir
al em</w>
弯 </w>
life time</w>
如 同</w>
in form</w>
o t
acc o</w>
g au
珊 </w>
g ang</w>
flexi bility</w>
clo th</w>
宽 松</w>
旱 </w>
拘 留</w>
organi ze</w>
shi el
sum mary</w>
以 此</w>
臣 </w>
究 竟</w>
肝 </w>
在 乎</w>
und ant</w>
罪 行</w>
t ang
be i</w>
in spec
大 多</w>
反对 派</w>
spectr um</w>
ea th</w>
th ful</w>
per mission</w>
guang dong</w>
演 示</w>
av ing</w>
win ner</w>
发 光</w>
jer us
差 不多</w>
thir d-
h k
en suring</w>
赚 钱</w>
du al</w>
pri vi
cryst al</w>
部 落</w>
收益 率</w>
sh ou
portfoli o</w>
星 球</w>
n ba</w>
re viewed</w>
entrepreneur s</w>
provi der</w>
发 电</w>
advis ory</w>
强 迫</w>
艾 伦</w>
家 中</w>
方 米</w>
il led</w>
在 家</w>
ti veness</w>
le af</w>
总 经理</w>
合 资</w>
aff ects</w>
profession als</w>
l or</w>
st ent</w>
rec all</w>
耶 路
耶路 撒
ff s</w>
因 而</w>
s audi</w>
卧 室</w>
耶路撒 冷</w>
过 多</w>
drag on</w>
财 政部</w>
挑 选</w>
vo ting</w>
op o
pi pel
epi dem
horiz on
争 端</w>
挡 </w>
jerus alem</w>
公 主</w>
ev </w>
surpri sing</w>
tow ns</w>
bi ology</w>
点 儿</w>
剩 </w>
she ep</w>
定 价</w>
月 球</w>
口 袋</w>
lab el</w>
均 匀</w>
体 化</w>
mom entum</w>
生 病</w>
pursu it</w>
顺 </w>
邻 国</w>
分 数</w>
抓 </w>
choo sing</w>
scenari o</w>
仑 </w>
gi l
high way</w>
moder ni
酪 </w>
幅 度</w>
打 造</w>
崛 起</w>
目 光</w>
t .
7 4</w>
bo xes</w>
gather ing</w>
之 类</w>
purch asing</w>
do zens</w>
th at
bed room</w>
斤 </w>
角 落</w>
8 2</w>
approxim ately</w>
氛 </w>
拓 </w>
ren min
饥 饿</w>
好 几</w>
lion ai
achiev ing</w>
划 分</w>
inten tion</w>
爱 德
c ow
tob acco</w>
明 亮</w>
导 航</w>
ti l
proli fer
喜 剧</w>
r ough</w>
绝 大</w>
sear ching</w>
develop er</w>
al an</w>
8 1</w>
hol es</w>
解 放</w>
总 值</w>
investig ated</w>
mo i
预 订</w>
克 萨
an k</w>
contr ary</w>
租 赁
玫瑰 </w>
pa ul
西 洋</w>
prin ted</w>
国 债</w>
fun ded</w>
手 表</w>
委 托</w>
纳 米</w>
雅 虎</w>
专 员</w>
一 封</w>
t ability</w>
na to</w>
塑 造</w>
t ancy</w>
gh o
ment -
出租 车</w>
如 图</w>
摄 像
lo vely</w>
al bu
l oud</w>
classi fication</w>
马 克
解 除</w>
subsequ ent</w>
弦 </w>
competi tors</w>
凭 </w>
创造 力</w>
classi cal</w>
大 于</w>
sam sung</w>
魔 </w>
相 处</w>
l ecture</w>
说 出</w>
pregn ant</w>
reti rement</w>
cap tured</w>
on es
stom ach</w>
调 查
fail ing</w>
repeat edly</w>
rel uc
辩 护</w>
t esti
ga ther</w>
col li
refl ection</w>
请 问</w>
bru sh</w>
爱 好</w>
0 8</w>
pre limin
反 弹</w>
莓 </w>
ten nis</w>
cogni tive</w>
bo ards</w>
街 头</w>
航 天</w>
编 制</w>
阁 </w>
vil le</w>
切 尔
the at
感 知</w>
im peri
r is</w>
误 差</w>
h s
ad ing</w>
a ult</w>
acc essi
气 氛</w>
athle tes</w>
优 惠</w>
fi er</w>
wor n</w>
克里 斯</w>
re ward</w>
discus ses</w>
conveni ence</w>
厦 </w>
葡萄 牙</w>
defe at</w>
predic ted</w>
flori da</w>
风 景</w>
foreig ners</w>
8 9</w>
you tube</w>
foc uses</w>
智 力</w>
institu tional</w>
malay sia</w>
挖 </w>
年 初</w>
当 天</w>
sc at
永 恒</w>
美 味</w>
收 获</w>
mini mi
简 称</w>
civili an</w>
垫 </w>
交 往</w>
体 积</w>
ash ing</w>
x ity</w>
变 更</w>
关 税</w>
研究 者</w>
ni e</w>
atlan tic</w>
b ag
筹 集</w>
波 特</w>
运 营商</w>
occupi ed</w>
节 奏</w>
stu pid</w>
讽 刺</w>
甜 </w>
地 质</w>
r ation
诗 人</w>
杂 </w>
x y</w>
judi cial</w>
resul ted</w>
cal end
gul f</w>
fru its</w>
be am</w>
si chuan</w>
ox id
^ </w>
吉 姆</w>
se al</w>
fl ag</w>
ad o</w>
cool ing</w>
灭 绝</w>
银 行业</w>
p ec
midd le-
抑 郁</w>
deri ved</w>
bi ke</w>
手 臂</w>
resp ective</w>
斯 坦
prefer red</w>
re store</w>
s ake</w>
thir ty</w>
correc tly</w>
清 洗</w>
更 换</w>
文 摘</w>
op her</w>
a a</w>
sh er</w>
sophistic ated</w>
cat aly
hydr au
cour ts</w>
m on</w>
mi ser
销售 额</w>
群 岛</w>
最 快</w>
各 类</w>
蜂 </w>
劳 工</w>
dar kness</w>
an ch
t ful</w>
bel ong</w>
对 面</w>
仓 库</w>
ax is</w>
阿 根
阿根 廷</w>
泣 </w>
sens or</w>
steph en</w>
di a</w>
ste am</w>
plat forms</w>
bel ong
g eri
argu es</w>
佛罗 里
re sort</w>
vic tim</w>
辛 </w>
煮 </w>
regre t</w>
desig ners</w>
ter ly</w>
6 :
确 切</w>
no tion</w>
tr age
initi atives</w>
gr am</w>
t ang</w>
gr ay</w>
醒 来</w>
理 工</w>
旗 下</w>
倡 议</w>
ch est</w>
tou ched</w>
imag ination</w>
站 点</w>
loo se</w>
tr uck</w>
gen ous</w>
y un
r aci
合 金</w>
派 对</w>
迁 移</w>
tre ating</w>
e a</w>
vide os</w>
卿 </w>
研 讨
a er
shor tly</w>
th read</w>
kis s</w>
非 政府</w>
wor e</w>
leg ally</w>
膏 </w>
c ure</w>
arg uments</w>
波 兰</w>
sach s</w>
fol k</w>
ac u
su its</w>
9 3</w>
生 人</w>
gr oun
inst ant</w>
don t</w>
绘 画</w>
棵 </w>
cont am
酯 </w>
ta g</w>
sub stance</w>
数 目</w>
沉 重</w>
钥 匙</w>
a us
con grat
accor dingly</w>
旧 金山</w>
ti de</w>
stand ardi
收 取</w>
zeal and</w>
0 5</w>
拉 丁</w>
赔 </w>
下 次</w>
租赁 </w>
contribu ted</w>
缩 小</w>
此 举</w>
噪 音</w>
ris en</w>
放 到</w>
ou se</w>
man n</w>
soverei gn</w>
m ere</w>
ke en</w>
q ing
7 9</w>
ghten ed</w>
士 顿</w>
局 部</w>
b ath</w>
澳 门</w>
person ally</w>
renmin bi</w>
比 率</w>
chec ked</w>
pain ful</w>
lo ving</w>
星期 一</w>
b by</w>
pack aging</w>
app s</w>
influ enced</w>
enthusi asm</w>
nav y</w>
comb ine</w>
富 翁</w>
教 育
ignor e</w>
auth entic
dis order</w>
repor ter</w>
ste in</w>
h ong
建 模</w>
委 会</w>
fe eding</w>
腾 </w>
克 逊</w>
ton gue</w>
8 4</w>
egy p
理 查德</w>
旅 程</w>
恒 星</w>
波 士顿</w>
behavi ors</w>
valu ed</w>
construc ted</w>
pi le</w>
容 量</w>
好 事</w>
丢 </w>
疯 </w>
有效 性</w>
鹅 </w>
罚 款</w>
发 放</w>
鹰 </w>
伊 丽
hi l
direc tory</w>
p acking</w>
a sion</w>
rela x</w>
susp ect</w>
裙 </w>
伊丽 莎
b ones</w>
syn dr
pen etr
为 主</w>
198 8</w>
volunte ers</w>
动 物
disc re
ra p</w>
肺 </w>
m -
clu ster</w>
转 型</w>
闹 </w>
杰 夫</w>
sus an</w>
optim al</w>
visi ts</w>
repres entation</w>
慷 慨</w>
桩 </w>
feder ation</w>
join ing</w>
透 过</w>
诊 </w>
大 厅</w>
时 间
gr ave</w>
plan es</w>
u h</w>
mar gin</w>
e ption</w>
re sem
reli ability</w>
t ape</w>
指 挥
研讨 会</w>
拿 出</w>
子 女</w>
utili zation</w>
vo tes</w>
坝 </w>
光 明</w>
displ ayed</w>
冷 静</w>
演 奏</w>
迈 克</w>
co operative</w>
im pe
镜 头</w>
散 步</w>
寨 </w>
局 长</w>
悲 剧</w>
cre ativity</w>
doub le-
af for
行 性</w>
holi days</w>
20 th</w>
校 长</w>
liter ary</w>
adap t</w>
执 法</w>
z ar
spo ts</w>
fr aud</w>
迷 人</w>
卫 生
纯 粹</w>
一 无
budd hi
纱 </w>
斯 蒂
in y</w>
气 味</w>
权 益</w>
0 9</w>
b ars</w>
sc ul
务 员</w>
ri vals</w>
ten dency</w>
赞 扬</w>
com e
置 信</w>
短 信</w>
挪 威</w>
分 辨
continu ously</w>
. it</w>
鹿 </w>
半 岛</w>
shi pment</w>
legisl ative</w>
如 说</w>
201 7</w>
高 尔夫</w>
sin cer
f ails</w>
和 解</w>
ta i</w>
temper atures</w>
li ps</w>
publi shing</w>
implic ations</w>
阶 层</w>
inten si
cont est</w>
@ </w>
bu ried</w>
wash ing</w>
bil lions</w>
陌 生人</w>
漫 长</w>
抽 象</w>
premi um</w>
b ou
d augh
原 油</w>
v i</w>
大 师</w>
du m</w>
修 正</w>
附 加</w>
标 识</w>
超 市</w>
un ic
offici ally</w>
enti ty</w>
要 素</w>
邮 政</w>
ha ir
8 3</w>
跟 着</w>
大 厦</w>
图 案</w>
tu p</w>
kilome ters</w>
at -
牛 仔
休 闲</w>
en der</w>
automo bile</w>
叔 </w>
民 意</w>
查 尔斯</w>
p lot</w>
he lic
bar ely</w>
grav ity</w>
en z
accompani ed</w>
en de
dir ty</w>
h as
exp ects</w>
蔓 延</w>
ation -
construc t</w>
克 莱</w>
girl friend</w>
weak ness</w>
er ic</w>
ca sion</w>
eng agement</w>
富 人</w>
仁 </w>
manufac ture</w>
易 斯</w>
日 志</w>
lun g</w>
三 维</w>
ch er
gr ati
追 溯
oc casion</w>
brief ly</w>
challeng ing</w>
di ly</w>
执 </w>
18 0</w>
布 局</w>
f ice</w>
munici pal</w>
tw enty-
direc tions</w>
ai g</w>
m es
l ing
穴 </w>
coordin ate</w>
g ated</w>
生 理</w>
叹 </w>
ar gent
c us</w>
fru str
divi de</w>
火 星</w>
9 4</w>
ge l</w>
商 标</w>
代 谢</w>
syri an</w>
susp ected</w>
analy zes</w>
ten der</w>
d ented</w>
lim it
pl ates</w>
停 留</w>
pin k</w>
t ated</w>
exper tise</w>
埋 </w>
shi re</w>
异 性</w>
comple xity</w>
汽 油</w>
贺 </w>
l v
航 行</w>
ed ward</w>
inf ected</w>
ca tho
hy bri
satis fy</w>
剂 量</w>
n est</w>
弯 曲</w>
sig nature</w>
phr ase</w>
pro por
ur ban
li est</w>
sur ge</w>
ter ies</w>
heal th
avi ation</w>
compl aints</w>
提 起</w>
希 尔</w>
摄 影
di verse</w>
impro vements</w>
首 要</w>
centu ries</w>
philipp ines</w>
det ect</w>
pr ay
foll ow
减 肥</w>
la yout</w>
mi chel
swi ss</w>
爆 </w>
gu ards</w>
生产 力</w>
弥 补</w>
ci ans</w>
e dition</w>
考 验</w>
del ta</w>
喻 </w>
re construction</w>
trem end
hang ing</w>
道 理</w>
associ ate</w>
ac tress</w>
维 斯</w>
grow s</w>
t ail
oper ated</w>
rul ed</w>
珀 </w>
harmon y</w>
交 叉</w>
ali zing</w>
l u</w>
inven tion</w>
巨 </w>
p ical</w>
lon ely</w>
provin ces</w>
p o</w>
ly n
不 住</w>
mon go
任 意</w>
索 马里</w>
榜 </w>
ul ous</w>
三 星</w>
anc ement</w>
只 需</w>
处理 器</w>
颗 粒</w>
join tly</w>
融 入</w>
知 情</w>
contin ent</w>
飞行 员</w>
char ity</w>
能 为</w>
i v
画 面</w>
微 生物</w>
navi gation</w>
保 密</w>
可 靠
ch ester</w>
引 进</w>
一 句</w>
申请 人</w>
car ol
graph y</w>
speci fy</w>
可靠 性</w>
prin cess</w>
inev itable</w>
诗 歌</w>
bl in
adop tion</w>
zz y</w>
citiz en</w>
ho sti
c af
带 领</w>
sco tt</w>
丧 失</w>
ast ers</w>
马 拉
拉 夫</w>
ass ess</w>
9 1</w>
时 机</w>
杰 克逊</w>
secretari at</w>
on ym
钻 石</w>
善 良</w>
ge o
纠 正</w>
reserv o
ec tors</w>
i di
wor ries</w>
火 灾</w>
予 以</w>
mod est</w>
house holds</w>
integr al</w>
cer e
飙 升</w>
充 足</w>
迟 到</w>
there by</w>
cro p</w>
prom ises</w>
roc ks</w>
屏 </w>
方 针</w>
g ary</w>
hon ey</w>
雷 达</w>
实 习</w>
沟 </w>
liter ally</w>
物 理学</w>
小 镇</w>
wel com
ma ster
glo be</w>
虐 待</w>
' clock</w>
单 身</w>
hu i</w>
若 干</w>
je an</w>
废 物</w>
life style</w>
ap ologi
controversi al</w>
sp ati
sh ake</w>
分 区</w>
l aughter</w>
educ ated</w>
spon sor
sing le-
vi gor
am end
电 源</w>
lin col
compe tent</w>
此 事</w>
squ ee
ran k</w>
赐 </w>
fir stly</w>
en ables</w>
ma xi
关 切</w>
r aft</w>
od d</w>
thre w</w>
curr encies</w>
pi one
domin ated</w>
账 </w>
fi led</w>
学 期</w>
ell er</w>
很 棒</w>
emo tion</w>
所 有权</w>
百 姓</w>
net working</w>
栋 </w>
秋 天</w>
recor ding</w>
aff ecting</w>
bun ch</w>
汉 语</w>
y ang
curri cul
vac u
职 员</w>
总 监</w>
b ach
p ers</w>
ai ts</w>
olo g
s qui
拉 德</w>
cru de</w>
st in</w>
关键 词</w>
丹 麦</w>
爱 上</w>
顶 级</w>
lam p</w>
co operate</w>
surve ill
af fili
精 心</w>
reco ver</w>
org an</w>
prom ising</w>
管理 者</w>
m ar</w>
外 界</w>
嘛 </w>
re solved</w>
cy lin
国务 卿</w>
破 裂</w>
总 会</w>
ju ice</w>
杀 害</w>
st a</w>
克 莱
线 路</w>
brilli ant</w>
invent ory</w>
enem ies</w>
le ather</w>
sc al
re mind</w>
rec ep
in tu
常 用</w>
偏 见</w>
public ation</w>
radic al</w>
队 员</w>
间 接</w>
exerci ses</w>
s k</w>
per mit</w>
部 位</w>
ones elf</w>
停 下来</w>
tr ace</w>
ti ble</w>
匹 </w>
ti ger</w>
0 7</w>
p in</w>
pharmac eu
appe ti
人 心</w>
gover ning</w>
w ay
后 续</w>
注 目</w>
wa it
awar ded</w>
wil d
频 道</w>
d ong
eng ines</w>
精 彩</w>
全 体</w>
as le
week ly</w>
娅 </w>
拜 访</w>
开 设</w>
诺 贝尔</w>
约翰 逊</w>
autonom ous</w>
diam ond</w>
外 观</w>
impres sive</w>
鉴 </w>
遭 </w>
电 台</w>
surveill ance</w>
1 3.
不 大</w>
soverei gn
罪 犯</w>
broad cast</w>
每 当</w>
请 你</w>
嘲 笑</w>
stam p</w>
加 载</w>
v ent</w>
挣 扎</w>
ingredi ents</w>
9 :
spac es</w>
dev ast
出 口
s oun
上 次</w>
ori entation</w>
scen es</w>
p df</w>
杰 出</w>
u i</w>
姓 名</w>
stri p</w>
circul ation</w>
negoti ation</w>
尼日 利亚</w>
稍 微</w>
拥 挤</w>
stric tly</w>
尔 德</w>
welcom ed</w>
pri cing</w>
诞 生</w>
prelimin ary</w>
v o</w>
会 员国</w>
议 者</w>
巩 固</w>
calcul ate</w>
ang el</w>
0 6</w>
du tch</w>
痕 </w>
一 级</w>
neighb ors</w>
mi le</w>
环 节</w>
工 作者</w>
捕 捉</w>
def end</w>
replac ement</w>
ste pped</w>
fav our</w>
attribu tes</w>
mis m</w>
童 年</w>
邮 票</w>
淋 </w>
woo ds</w>
雄 心</w>
copy right</w>
史蒂 夫</w>
ten ds</w>
名 义</w>
本 土</w>
中 部</w>
for gotten</w>
剥 夺</w>
好 消息</w>
字 符
体 育
eli te</w>
ele ph
c av
fro zen</w>
exclu sive</w>
f c</w>
cr af
忌 </w>
幽 默</w>
大 力</w>
design ated</w>
创造 性</w>
更 是</w>
quali ties</w>
bo ar
respon ses</w>
inv ite</w>
mer ch
腰 </w>
巢 </w>
pu zz
in form
un expected</w>
le tting</w>
ch ang</w>
复 兴</w>
fon t</w>
p acked</w>
三 角
clas sm
p an</w>
st even</w>
凯 特</w>
legi timate</w>
an n</w>
al ong
public ly</w>
up grad
削 </w>
兄 </w>
mani pul
remar ks</w>
mu m</w>
e z</w>
fab ric</w>
回 事</w>
bor ders</w>
cl ari
指 挥</w>
la di
e ager</w>
终 端</w>
comm it</w>
扭 曲</w>
pro -
recru it
la dies</w>
t ay
hydrau lic</w>
索 引</w>
典 礼</w>
des cen
sugges tion</w>
v s</w>
di shes</w>
克 利</w>
凉 </w>
球 迷</w>
to yo
职 能</w>
e- commerce</w>
中 断</w>
dischar ge</w>
al ice</w>
instruc tion</w>
tox ic</w>
窃 </w>
four -
pl un
combin ing</w>
e o
hor ri
奥斯 卡</w>
vill ages</w>
serv ant</w>
差 别</w>
liby a</w>
cin em
m p
柏 林</w>
倾 听</w>
帐 </w>
结 构
dro ve</w>
inten sive</w>
ti bet</w>
折 扣</w>
vic tori
字 符</w>
w as
二 大</w>
垒 </w>
战 胜</w>
可 乐</w>
kni fe</w>
认 同</w>
gr ateful</w>
产 物</w>
神 经
说 是</w>
包 裹</w>
lincol n</w>
e ter
explo sion</w>
伊丽莎 白</w>
脉 冲</w>
电 缆</w>
矩 </w>
telec om
人 际</w>
re al
塔 利
塔利 班</w>
ari ties</w>
quie tly</w>
l am</w>
acqui re</w>
for cing</w>
1 30</w>
musi cal</w>
prote sters</w>
ne gl
asle ep</w>
cr ack</w>
concer t</w>
ad mir
sust ained</w>
bure au
卡 梅
a ther
同 期</w>
虚 </w>
gre y</w>
lan ding</w>
fir mly</w>
sch e</w>
葡萄 </w>
抵 抗</w>
deposi ts</w>
gradu ation</w>
ni geri
向 上</w>
separ ated</w>
po is
污 </w>
auth or
ben eath</w>
ini a</w>
aband oned</w>
purch ases</w>
hon est
设 想</w>
pho sp
ha dn</w>
送 给</w>
天 才</w>
d able</w>
大 门</w>
协 作</w>
不 论</w>
et t</w>
依 </w>
moder ate</w>
孙 </w>
施 加</w>
particip ated</w>
exam ined</w>
sett ings</w>
裁 决</w>
填 写</w>
pen sion</w>
产 出</w>
僚 </w>
sou theast</w>
am y</w>
sh -
食 用</w>
利 息</w>
hi red</w>
r ome</w>
仲 裁</w>
筋 </w>
ab e</w>
答 应</w>
c .
alleg ed</w>
m o</w>
恐 慌</w>
quanti tative</w>
serv ants</w>
g aining</w>
c -
thre sh
蔽 </w>
{ </w>
火 山</w>
竞 赛</w>
oper a</w>
expres sions</w>
奴隶 </w>
k ic
b li
犹 豫
pass word</w>
贬 值</w>
syndr ome</w>
颈 </w>
se em
抗 议者</w>
失 踪</w>
啸 </w>
折 磨</w>
尤 </w>
剩 余</w>
看 过</w>
使 馆</w>
2. 0</w>
妥 协</w>
inv itation</w>
涵 盖</w>
up dated</w>
谍 </w>
特 里</w>
un prece
联 赛</w>
借 口</w>
chel sea</w>
preci se</w>
ur l</w>
speci fication</w>
顶 部</w>
sugge sting</w>
极 限</w>
influ ences</w>
混 </w>
molec ular</w>
l um
在 下</w>
穆 </w>
th um
公 斤</w>
trad ers</w>
只 不过</w>
tri als</w>
高 端</w>
stri kes</w>
i ri
re stor
抽 </w>
: (</w>
optimi stic</w>
焊 接</w>
月 亮</w>
gar d
rad ar</w>
瓷 </w>
me als</w>
垄 断</w>
sur plus</w>
限 于</w>
版 权</w>
liqui dity</w>
经 销商</w>
赞 成</w>
b age</w>
bu g</w>
she ets</w>
fur </w>
隧 道</w>
fo ssi
att or
o tic</w>
开 玩笑</w>
z hen
n ap
十 字</w>
att acked</w>
secon dly</w>
suspen ded</w>
慢 性</w>
em bas
diag ram</w>
en do
stre tch</w>
语 音</w>
单 个</w>
胡 </w>
钩 </w>
狮 子</w>
再 见</w>
motiv ation</w>
tax i</w>
rec ycl
ef f</w>
cor ro
spec tac
process ed</w>
堪 </w>
min es</w>
tr ain
推 翻</w>
m ai
钢 琴</w>
托 马斯</w>
肯 尼亚</w>
col on
vacc ine</w>
invol vement</w>
ten tion</w>
使 命</w>
all ing</w>
一 体化</w>
焰 </w>
dist ant</w>
au ction</w>
acci dents</w>
宴 </w>
b ent</w>
youn g
ecli pse</w>
tru sted</w>
up set</w>
j as
情 节</w>
切尔 西</w>
分 发</w>
isol ated</w>
晚 饭</w>
数 十</w>
sou p</w>
之 地</w>
学 到</w>
ec tion
想 你</w>
双 重</w>
f ake</w>
较 为</w>
li an</w>
di stor
周 边</w>
消 化</w>
d av
唐 </w>
b -
丰 田</w>
得 知</w>
lou is</w>
ref use</w>
王 国</w>
遇 见</w>
s word</w>
7 :
t ali
上 网</w>
碎 片</w>
v c</w>
yiel ds</w>
ro ll
resi stant</w>
w ings</w>
急 剧</w>
e ag
xin hua</w>
而 易
ber n
col oni
辉 </w>
lo ads</w>
唱 歌</w>
jud ges</w>
helic op
indic ators</w>
poe try</w>
跟 随</w>
仿 佛</w>
six th</w>
ar rest</w>
gr ams</w>
transpar ent</w>
analy ses</w>
举 动</w>
bor row</w>
time -
hi er
兰 克</w>
执 政</w>
respon ded</w>
dic tionary</w>
gl ory</w>
泊 </w>
化 石</w>
soldi er</w>
di ver
less ly</w>
f ought</w>
头 上</w>
ambi tious</w>
逃 离</w>
car ries</w>
gr u
oc e
黑 客</w>
各 位</w>
原 子
her o
饮 </w>
席 位</w>
没 错</w>
干 旱</w>
a to</w>
缸 </w>
environ ments</w>
pi er
. .
待 遇</w>
vari ation</w>
线 程</w>
as cular</w>
毁 灭</w>
man date</w>
favor able</w>
小 小
juni or</w>
小小 的</w>
integr ate</w>
dimen sion</w>
ast es</w>
lif ted</w>
attribu te</w>
p assi
ri vers</w>
horizon tal</w>
see ds</w>
ach ment</w>
郡 </w>
re ha
企 图</w>
induc ed</w>
ed a</w>
vi vi
外 表</w>
de fl
lo op</w>
ph p</w>
cat alo
bel ongs</w>
e. g</w>
ro gen</w>
u a</w>
流 入</w>
买 方</w>
过滤 </w>
app lies</w>
烟 草</w>
萧 条</w>
ag on</w>
光 线</w>
tou gh
m our
婆 </w>
sc rat
h p</w>
灯 光</w>
transpar ency</w>
管理 员</w>
flo ating</w>
户 外</w>
mathemati cal</w>
di oxide</w>
hom o
屠 杀</w>
马克 思</w>
迫 切</w>
二 十
mat ching</w>
ab c</w>
收 缩</w>
负 载</w>
far mer</w>
mix ture</w>
perce ption</w>
fab ri
br ains</w>
en coun
欢 乐</w>
trad em
calend ar</w>
抵 制</w>
rec ur
禁 令</w>
coast al</w>
便 利</w>
fic tion</w>
稍 </w>
计 划署</w>
空 军</w>
sal es
vir tually</w>
che ese</w>
强 有力</w>
比 如说</w>
in tr
le is
9 7</w>
剧 院</w>
decreas ed</w>
冬 季</w>
一 百
唤 </w>
吐 </w>
d ging</w>
m apping</w>
restric ted</w>
尼亚 州</w>
林 肯</w>
twel ve</w>
unprece dented</w>
ner ve</w>
逆 </w>
tro pical</w>
woo den</w>
肩 </w>
桥 梁</w>
cast le</w>
b am
0 2</w>
分 割</w>
行 走</w>
投 诉</w>
well- known</w>
反应 堆</w>
泄 漏</w>
tu </w>
节 能</w>
bow l</w>
atom ic</w>
提 案</w>
老 年</w>
炮 </w>
1. 1</w>
新 闻
del ayed</w>
读 书</w>
prolifer ation</w>
编 译</w>
似 的</w>
do se</w>
neighbor hood</w>
short age</w>
总 的</w>
por tr
op ens</w>
应 付</w>
柄 </w>
bank rup
ha th</w>
花 旗</w>
歇 尔</w>
slop e</w>
organiz ational</w>
选 票</w>
stri king</w>
尊 </w>
vitam in</w>
强 硬</w>
供 给</w>
p tions</w>
大 西洋</w>
research er</w>
re struc
1 10</w>
b .
罢 工</w>
瘾 </w>
brea thing</w>
钙 </w>
郊 区</w>
迎 接</w>
comp ani
revi sed</w>
人 均</w>
ar sen
preven ting</w>
barri ers</w>
mee ts</w>
transfer red</w>
no bel</w>
lay ers</w>
人 格</w>
min eral</w>
de duc
宁 愿</w>
2 1st</w>
ta p</w>
等 到</w>
手 册</w>
涌 </w>
死 亡
re m
镜 子</w>
9 -
dr a</w>
奈 </w>
remember ed</w>
受 访者</w>
字 段</w>
字符 串</w>
尼 克</w>
神 话</w>
con qu
b ail
rob ust</w>
k .</w>
large- scale</w>
法 语</w>
硕 士</w>
纽 </w>
wel ding</w>
橄 榄
囚 犯</w>
声 誉</w>
along side</w>
ch eng
so cc
cu b
bor ing</w>
康 复</w>
波 斯
deci sion-
星期 六</w>
伞 </w>
哭 泣</w>
leis ure</w>
meaning ful</w>
inci dence</w>
问 道</w>
sc or
氮 </w>
f ati
依 法</w>
char ter</w>
loc ate</w>
co efficient</w>
chec ks</w>
harmon ious</w>
terr or</w>
v ary</w>
单 击</w>
avail ability</w>
spati al</w>
f lights</w>
ch at
harm ful</w>
coll ecting</w>
古 典</w>
烦 恼</w>
htt p
达 州</w>
抹 </w>
弟 弟</w>
de voted</w>
基 准</w>
p and
高 科技</w>
def ici
月 底</w>
r ats</w>
好 奇</w>
socc er</w>
间 谍</w>
mari time</w>
pen alty</w>
in corpor
serv ic
疗 效</w>
摩 擦</w>
1 4.
sc ar</w>
dr ag</w>
社 会
vir g
s ai
al t</w>
旨 </w>
mathemati cs</w>
pas ses</w>
疲 劳</w>
篷 </w>
昆 虫</w>
st adi
笑 话</w>
sing ly</w>
抛 弃</w>
视 角</w>
公 务员</w>
borrow ing</w>
新 华
审 核</w>
differ ently</w>
as y</w>
tri ck</w>
fas cin
mor s</w>
创 立</w>
leh man</w>
沿 海</w>
军 人</w>
de grad
gh ted</w>
船 上</w>
al um
tex t
信 息
f ers</w>
for ests</w>
格 林</w>
加 利
株 </w>
hier arch
me tric</w>
mem bran
inter -
g ad
b old</w>
rang ing</w>
h r</w>
鸣 </w>
魔 法</w>
殖 民
inter views</w>
浸 </w>
throw n</w>
爷 </w>
纳 税
198 6</w>
见 证</w>
ob li
夫 妻</w>
sh im
st ol
st ori
ben ch
kin s</w>
w ed</w>
纷 纷</w>
加利 福
早 就</w>
ir anian</w>
inju ries</w>
inter active</w>
boy friend</w>
ch lor
ul ty</w>
谨 </w>
视 野</w>
伸 出</w>
con sent</w>
architec tural</w>
巨 额</w>
al location</w>
- and-
乐 意</w>
de pic
mer kel</w>
eleg ant</w>
丹 尼尔</w>
secre ts</w>
提 及</w>
科 研</w>
fav ouri
碰 </w>
抖 </w>
得 分</w>
月 内</w>
func tion
daugh ters</w>
热 门</w>
sp reading</w>
同 行</w>
芽 </w>
信 托</w>
前 任</w>
fa thers</w>
浦 </w>
穿 上</w>
competi tiveness</w>
所 未
丢 失</w>
aw a</w>
accom mod
el a</w>
祭 </w>
insi sted</w>
负 债</w>
scot land</w>
索 赔</w>
comman der</w>
det ected</w>
circul ar</w>
确 性</w>
指 望</w>
小 麦</w>
se t
橡 胶</w>
immigr ants</w>
ye ar
v ladi
对 称</w>
sh er
tri gger</w>
r ings</w>
c ats</w>
图 书</w>
p ha
re conci
fit ness</w>
s essions</w>
恰 当</w>
roc ket</w>
ghten ing</w>
lo on</w>
r ant</w>
displ ays</w>
彻 </w>
popul ations</w>
hi ring</w>
mun ic
sk illed</w>
shi p
中 小</w>
百分 点</w>
上 诉</w>
st un
冈 </w>
lo ver</w>
4 ,
ment ally</w>
c i</w>
甚 </w>
par king</w>
p es
an o
vic e-
gl y
正 面</w>
sp ite</w>
宇 航
姐 姐</w>
护 照</w>
nur sing</w>
掩 盖</w>
把 握</w>
ce iling</w>
clim b</w>
in ch</w>
p ound</w>
灵 活性</w>
po le</w>
th y
用 作</w>
意 料</w>
sem i-
合 约</w>
竭 </w>
de teri
假 装</w>
prot ective</w>
m ates</w>
对 付</w>
极 为</w>
ji an</w>
n 1</w>
con version</w>
eth ics</w>
坑 </w>
mar s</w>
当 事
进 攻</w>
exc it
解 析</w>
surroun ded</w>
tali ban</w>
qu an
多 边</w>
le an</w>
ende av
熟 练</w>
线 索</w>
运 转</w>
em en</w>
疆 </w>
cont acts</w>
pain ted</w>
定 量</w>
摩 根</w>
偶 然</w>
st le</w>
de emed</w>
inno cent</w>
替 换</w>
实 质
葬 </w>
metho d
bankrup t
宇 </w>
be ar
re tro
sim pl
bur y</w>
aff air</w>
形 容</w>
ab ra
dist inct</w>
衍 生</w>
rec re
clu bs</w>
197 0s</w>
弊 </w>
and y</w>
戚 </w>
preci sely</w>
职 务</w>
空 调</w>
星期 天</w>
con fer
an th
畏 </w>
non- governmental</w>
考 察</w>
audi o</w>
up grade</w>
运 送</w>
rhy th
副 本</w>
多样 化</w>
sim on</w>
残 酷</w>
短 语</w>
em bed
逃 避</w>
ur s</w>
fast -
奥 林
mi gh
t ments</w>
节 约</w>
k at
推 移</w>
长 远</w>
g ps</w>
几 种</w>
197 9</w>
glob alization</w>
迈 </w>
印 第
fre ely</w>
crow ded</w>
fe ver</w>
swit zer
1. 3</w>
c ad
支 助</w>
塌 </w>
subsi dies</w>
群 众</w>
总 数</w>
toyo ta</w>
mi d</w>
j eff</w>
t ap
to ys</w>
译 文</w>
indic ator</w>
pre serve</w>
vibr ation</w>
accomp lish</w>
es ome</w>
金 正
si ble</w>
较 少</w>
死亡 率</w>
adju sted</w>
学 金</w>
ri ding</w>
有 毒</w>
k h
涵 </w>
hear t
接 到</w>
ran king</w>
ro ad
obe sity</w>
走 过</w>
le ban
hun g</w>
cle ver</w>
corpor ations</w>
嫌 </w>
jor dan</w>
dimen sions</w>
对 策</w>
牛 津</w>
健 身</w>
mat ches</w>
pi ano</w>
particip ating</w>
上 下</w>
票 房</w>
telecom munic
市 中心</w>
白 天</w>
中 等</w>
听 众</w>
指 向</w>
穿 越</w>
研究 员</w>
0 4</w>
采 集</w>
旬 </w>
绸 </w>
登 录</w>
介 意</w>
ki a</w>
1 500</w>
discus sing</w>
滨 </w>
bul k</w>
用 水</w>
worl d-
l ag
p ast
dis ney</w>
enjo ying</w>
tun nel</w>
ex emp
依 照</w>
re tired</w>
cent res</w>
su dan</w>
误 解</w>
函 </w>
一 头</w>
过 分</w>
斯 顿</w>
列 车</w>
hun ger</w>
原 本</w>
供应 链</w>
克 里</w>
on ate</w>
尔 顿</w>
一 流</w>
制 备</w>
pit ch</w>
鸟 类</w>
列 入</w>
smart phone</w>
难 题</w>
天 赋</w>
super vi
东 南亚</w>
d ao</w>
sovereign ty</w>
xi a
ven tures</w>
不 了</w>
un ve
吉 尔</w>
in i</w>
理论 上</w>
be ars</w>
198 5</w>
问 卷</w>
受 过</w>
ing ness</w>
hun ting</w>
珠 宝</w>
mo tors</w>
sti pul
imp ul
第 四
gol f</w>
性 化</w>
z ones</w>
ab ul
fif ty</w>
k ev
渗 透</w>
in fer
scul p
救 济</w>
无 需</w>
复杂 性</w>
尿 </w>
har d-
extr act</w>
逝 </w>
人 文</w>
d in</w>
下 雨</w>
ge ome
ban ned</w>
工作 组</w>
p ent
top -
y n</w>
被 捕</w>
petro le
ten sions</w>
ber lin</w>
应 急</w>
菲 利
mus cles</w>
lan e</w>
re solutions</w>
switzer land</w>
a ero
几 率</w>
卜 </w>
挺 </w>
狂 热</w>
约 定</w>
到 期</w>
sh a
mo ther
低 估</w>
be ef</w>
system atic</w>
for give</w>
k ur
截 </w>
refer ences</w>
手 工</w>
8 :
荣 耀</w>
扮 </w>
compl ain</w>
deman ding</w>
双 手</w>
ri gi
desi red</w>
负 荷</w>
mani fe
m aps</w>
arc tic</w>
账 单</w>
sacri fice</w>
pregn ancy</w>
桃 </w>
经 纪
wal ks</w>
molec ules</w>
speak ers</w>
constitu tional</w>
n .
br ave</w>
di ame
ran ks</w>
检察 官</w>
ox ford</w>
肩 膀</w>
afgh an</w>
} </w>
figh ters</w>
肿 </w>
wol f</w>
fr action</w>
纳税 人</w>
乘 坐</w>
文 件
升 高</w>
霍 </w>
可 行性</w>
gen i
sp er
售 价</w>
平 方米</w>
窝 </w>
ad ol
tremend ous</w>
巴 嫩</w>
黎 巴嫩</w>
commit ments</w>
cr ying</w>
n at
simultane ously</w>
ven e
gui ded</w>
repres enting</w>
共 同
sh y</w>
treas ure</w>
execu ted</w>
祝 贺</w>
绳 </w>
uc tu
ch ong
virg inia</w>
assum ed</w>
198 7</w>
2. 2</w>
上 课</w>
亏 损</w>
at oes</w>
sent ences</w>
2. 1</w>
s ony</w>
l end</w>
凯 恩</w>
2 nd</w>
sli p</w>
r ach
hor ses</w>
养 老
通 往</w>
10 -
亲 自</w>
控 股</w>
tex </w>
ma o</w>
curricul um</w>
效 力</w>
docum entation</w>
雷 斯</w>
旅 客</w>
astr onom
t at
sensi tivity</w>
电 厂</w>
aler t</w>
正 好</w>
得 了</w>
gener ating</w>
4 000</w>
veri fication</w>
an i</w>
话 语</w>
德 拉</w>
lif ting</w>
bi an</w>
vacu um</w>
d are</w>
pic king</w>
ob servers</w>
defin i
ch o</w>
inc enti
main stream</w>
swe den</w>
cal ories</w>
透 明
pe p
星 星</w>
共 产</w>
ligh ted</w>
bac teri
珍 贵</w>
tax pay
照 明</w>
胸 </w>
bit ter</w>
留 给</w>
左 边</w>
re fri
楼 梯</w>
bat ch</w>
r s</w>
绑 </w>
jo ke</w>
scand al</w>
音 译</w>
圆 形</w>
动物 园</w>
fl uctu
tradi tionally</w>
asp ir
眼 泪</w>
syn thesis</w>
会 面</w>
demonstr ation</w>
峡 </w>
sho ts</w>
co ck
场 地</w>
goo d
or -
accessi ble</w>
充 电</w>
他 用</w>
所 有者</w>
温 柔</w>
探 测</w>
occasi onally</w>
火 焰</w>
o le</w>
re sum
继 </w>
tal e</w>
air line</w>
x u</w>
y .
s ab
par ks</w>
arbitr ation</w>
resi dent</w>
c ain</w>
dri lling</w>
ju ris
奸 </w>
man kind</w>
deb ts</w>
grap her</w>
射 线</w>
refri ger
p ays</w>
vladi mir</w>
期 货</w>
叛 </w>
静 态</w>
inv ented</w>
m ess</w>
di e
砂 </w>
深 化</w>
耍 </w>
i sh</w>
av ed</w>
on ia</w>
dic t</w>
秋 </w>
pear l</w>
碰 撞</w>
braz ili
陈 述</w>
二 战</w>
enab led</w>
除 以</w>
a than</w>
黛 </w>
sal v
孤 立</w>
met als</w>
k ick</w>
开发 商</w>
six -
ome ter</w>
后 代</w>
it ably</w>
r ated</w>
冰 箱</w>
work place</w>
reha bili
resi dence</w>
钠 </w>
incredi ble</w>
enh ancing</w>
dis appeared</w>
gen ic</w>
三 天</w>
: /
立 法
sym pa
geor gia</w>
percei ved</w>
sk i
祖 先</w>
influ ential</w>
af fir
green house</w>
限 度</w>
schem es</w>
合 伙
tra it</w>
行 使</w>
管 辖
squar ed</w>
genu ine</w>
numer ical</w>
car to
cre atures</w>
观 测</w>
斑 </w>
k ate</w>
myster y</w>
演 变</w>
已 知</w>
me te
desi r
sin c
po d</w>
recommend ation</w>
g i</w>
gr amm
喂 </w>
sec </w>
迦 </w>
法 定</w>
at e-
ag e-
直 线</w>
re aches</w>
营 业</w>
前 所未
3 ,000</w>
停 滞</w>
密 封</w>
坚 强</w>
亲 戚</w>
organi zing</w>
一 类</w>
deplo yed</w>
祸 </w>
id en
蒸 汽</w>
re views</w>
税 务</w>
finan ci
country side</w>
大 海</w>
fa x</w>
be ans</w>
随 意</w>
冲 动</w>
报 表</w>
mort ality</w>
gor don</w>
k it</w>
电 梯</w>
服务 员</w>
an alo
tack le</w>
pri orities</w>
- time</w>
写 信</w>
时间 表</w>
dis ab
un clear</w>
ing e</w>
大 街</w>
课 题</w>
f ool</w>
expl or
hi lls</w>
发 票</w>
depar ture</w>
不 一定</w>
atti tudes</w>
ignor ed</w>
ug ly</w>
相关 性</w>
先 前</w>
热 烈</w>
d ental</w>
码 头</w>
外交 部</w>
肢 </w>
re y</w>
欺 诈</w>
妒 </w>
i v</w>
concentr ate</w>
报 酬</w>
我 方</w>
kenne dy</w>
1 40</w>
compar ing</w>
recei pt</w>
无 效</w>
on ary</w>
ab undant</w>
顺 便</w>
ak e
ordin ance</w>
sar ah</w>
升 机</w>
fu tures</w>
wher ever</w>
work shop</w>
g ments</w>
vol can
il er</w>
el -
高 温</w>
水 泥</w>
直 升机</w>
脖 子</w>
inter ference</w>
sinc ere</w>
名 声</w>
面 部</w>
v in</w>
view er</w>
e g</w>
ti bet
thresh old</w>
al umin
污 染
dram atically</w>
测 器</w>
皇 帝</w>
偏 </w>
indepen dently</w>
键 盘</w>
pe ts</w>
f lies</w>
党 派</w>
期 刊</w>
comprom ise</w>
修 理</w>
petrole um</w>
in er
l as</w>
消 防</w>
首 脑</w>
匠 </w>
revolu tionary</w>
aes thetic</w>
embr ace</w>
char ging</w>
硅 </w>
当事 人</w>
im aging</w>
骂 </w>
dynam ics</w>
pipel ine</w>
pe as
撰 写</w>
西 斯</w>
w ound</w>
for es
ti gh
pain tings</w>
bur ned</w>
身 材</w>
me tro
mag nit
quo ted</w>
ban ds</w>
mo bili
烷 </w>
br ac
星期 二</w>
海 湾</w>
insi ght</w>
比 利
ki sh</w>
新 娘</w>
sin s</w>
c p</w>
can e</w>
partic le</w>
lad en</w>
threat ening</w>
ess ay</w>
ap prai
纽 约
er ly</w>
surpri singly</w>
木 材</w>
:/ /
规 格</w>
rep lic
hel en</w>
barri er</w>
classi fied</w>
ex ha
deli cious</w>
exp ecting</w>
th ic
u li
en counter</w>
fac ial</w>
1 60</w>
certi fication</w>
容 忍</w>
i on</w>
索 尼</w>
toler ance</w>
广 阔</w>
fier ce</w>
poin ting</w>
r w
正 当</w>
突 变</w>
reduc es</w>
conduc ting</w>
不 对</w>
j an</w>
u ph
f t
眼 前</w>
噪 声</w>
fl esh</w>
扎 菲</w>
卡 扎菲</w>
bas in</w>
d op
诱 惑</w>
st .</w>
种 种</w>
all er
re str
简 要</w>
大 城市</w>
感 受到</w>
incen tive</w>
mem or
de an</w>
euro zone</w>
专 辑</w>
战 士</w>
accur ately</w>
necessi ty</w>
奥林 匹
gun s</w>
00 0
承 包
租 金</w>
被 告</w>
熊 猫</w>
矿 石</w>
insp iration</w>
少 量</w>
wa ited</w>
麦 克</w>
一 番</w>
传 说</w>
近 平</w>
习 近平</w>
量 化</w>
vo ices</w>
disp er
volun tary</w>
p it</w>
il s</w>
德 克萨
acknowle dged</w>
检 索</w>
从 前</w>
综 述</w>
下 文</w>
a unt</w>
wi </w>
合伙 人</w>
to y</w>
s mu
thir ds</w>
d uration</w>
喝 酒</w>
harv est</w>
in ity</w>
次 数</w>
叔 叔</w>
日 元</w>
pi g</w>
军 官</w>
疼 </w>
separ ately</w>
ver sus</w>
右 边</w>
soci eties</w>
助 手</w>
后 悔</w>
漫 画</w>
fl owing</w>
le an
遏 制</w>
es .
胡 锦
hu a
gr in
房 产</w>
mon d</w>
after wards</w>
gi e</w>
photograph s</w>
cu ba</w>
那 边</w>
provi ders</w>
劫 </w>
bi e</w>
彩 色</w>
内 阁</w>
con fu
m um
promp ted</w>
放 下</w>
gener ous</w>
获 胜</w>
胡锦 涛</w>
hi p</w>
s mil
ren der</w>
麦 当
al ex</w>
inqui ry</w>
open -
commissi oner</w>
卖 方</w>
煌 </w>
横 </w>
mil li
min ded</w>
ack ers</w>
virtu e</w>
hop efully</w>
nur se</w>
x on</w>
out door</w>
行 驶</w>
civili ans</w>
搭 配</w>
包 围</w>
follow -up</w>
d ge
stan ford</w>
核 电站</w>
水 中</w>
sun shine</w>
添 </w>
bankrupt cy</w>
清 醒</w>
tim ing</w>
内 战</w>
奖 项</w>
198 4</w>
非 凡</w>
下 调</w>
硬 币</w>
非 正式</w>
pro ven</w>
7 5%</w>
medi um-
联 想</w>
盆 </w>
d b</w>
chec k
anxi ous</w>
概 述</w>
3 50</w>
d ant</w>
di es
kev in</w>
r ally</w>
网 球</w>
腺 癌</w>
sp rin
插 件</w>
b y-
connec ting</w>
pow ered</w>
兔 子</w>
camer as</w>
性 感</w>
mar t</w>
cal ci
dead ly</w>
很 强</w>
10 0,000</w>
排 列</w>
争 吵</w>
addre ssing</w>
起 源</w>
地 毯</w>
喷 </w>
粘 </w>
厨 师</w>
cy cl
深 处</w>
flu or
obst acles</w>
主 角</w>
s d</w>
war m
奋 斗</w>
speak s</w>
ac qu
ol ds</w>
ad o
pati ence</w>
gh am</w>
resi st</w>
新 生</w>
一 日</w>
willi ams</w>
episo de</w>
拒 </w>
off shore</w>
sub j
吃 惊</w>
开 启</w>
embar ras
氛 围</w>
g ar</w>
y ao</w>
绝 不</w>
上 映</w>
ul tra
t ar</w>
di lig
i gn</w>
en -
寿 </w>
br a
presi dency</w>
腐 </w>
上 来</w>
expendi ture</w>
ur ge</w>
地 人</w>
en velop
派 遣</w>
坚 决</w>
摩 西</w>
voc abul
ann y</w>
or a</w>
r at</w>
champi on</w>
哇 </w>
introduc ing</w>
tr au
模 特</w>
wonder ing</w>
er ings</w>
藉 </w>
小 于</w>
尽 力</w>
with draw
gl ori
朝 着</w>
起 初</w>
赞 美</w>
spec ulation</w>
事务 所</w>
oblig ation</w>
延 续</w>
co ding</w>
repor tedly</w>
违 法</w>
恰 </w>
缓 存</w>
pul se</w>
prison ers</w>
夜 间</w>
swi m</w>
民 事</w>
客 户
ti a</w>
j eff
评 论
confir mation</w>
指挥 官</w>
el ine</w>
bu tt
photo graph</w>
htt p</w>
volunte er</w>
remo val</w>
ol dest</w>
ti les</w>
veri fy</w>
resear ches</w>
克 林</w>
gent le</w>
年 期</w>
st ops</w>
封 闭</w>
fle w</w>
decision- making</w>
to dd</w>
插 </w>
sh ame</w>
terri torial</w>
卸 </w>
运 气</w>
工 业化</w>
16 .
off -
li hood</w>
pursu ing</w>
厕 所</w>
时 说</w>
家 园</w>
fo ster</w>
sh an
ne ther
applic ant</w>
行 政
c kets</w>
陆 地</w>
maxi mi
b ite</w>
力 度</w>
i um</w>
开 采</w>
te es</w>
订 购</w>
dec l
爱德 华</w>
for got</w>
新华 社</w>
加 沙</w>
b and
虚 假</w>
bureau cr
disp at
mo ses</w>
embas sy</w>
cam bridge</w>
pro cu
泰 勒</w>
污 水</w>
女 朋友</w>
捐 款</w>
trou bled</w>
bi ble</w>
诸 多</w>
t our
椒 </w>
嫉 妒</w>
全 力</w>
弗 兰克</w>
se gment</w>
g ang
rup ted</w>
便 是</w>
带 给</w>
蒙 古</w>
上 月</w>
一 体</w>
fi g</w>
restruc turing</w>
起 飞</w>
3 5
hybri d</w>
hs bc</w>
操 </w>
电 子
d al
夷 </w>
cro ssing</w>
联 络</w>
斯 州</w>
霜 </w>
导 向</w>
oc k</w>
辈 </w>
but ter
传 奇</w>
所 得</w>
骨 头</w>
hun t</w>
sc ored</w>
加 密</w>
galax y</w>
中 国
赞 同</w>
不 止</w>
o dy</w>
neighb or</w>
far ming</w>
incenti ves</w>
步 行</w>
tran spl
purch ased</w>
tr ains</w>
adv ances</w>
善 于</w>
im pose</w>
注 定</w>
g ur
applic ants</w>
树 林</w>
ali gn
un happy</w>
lo g
15 .
党 的</w>
几 百</w>
di sh
occup ation</w>
大 臣</w>
di gn
tri bun
海 水</w>
人 人</w>
top s</w>
老 虎</w>
传 染
必 需</w>
dri ves</w>
干 涉</w>
acceler ate</w>
under take</w>
leg acy</w>
s anta</w>
pr ay</w>
续 性</w>
f ancy</w>
deser ve</w>
wat ch
so oner</w>
磁 盘</w>
g .</w>
pl c</w>
工 商</w>
iden tical</w>
an onym
per pe
并 购</w>
l ingu
仅 有</w>
卡 罗
摄影 师</w>
view ers</w>
vir uses</w>
constr aints</w>
心 态</w>
伽 </w>
ad am</w>
a thy</w>
征 收</w>
bath room</w>
势 力</w>
奖 学金</w>
奶 酪</w>
prof ession</w>
fortun ate</w>
cu rious</w>
mi ll</w>
拾 </w>
ev es</w>
high- tech</w>
favouri te</w>
compe ting</w>
loc ks</w>
一 同</w>
数 十亿</w>
庙 </w>
奉 </w>
li ances</w>
张 照</w>
一 眼</w>
头 部</w>
19 th</w>
bu m
懂 得</w>
家 宝</w>
奢侈 品</w>
比利 时</w>
多 元
绘 制</w>
0 3</w>
诊 所</w>
terri tories</w>
ch op
real- time</w>
即 时</w>
- in</w>
轻 易</w>
guarante ed</w>
收 藏</w>
zhe jiang</w>
pan ic</w>
ch ase</w>
possi bilities</w>
th es
prote ins</w>
着 手</w>
管理 层</w>
标准 化</w>
extr action</w>
refer ring</w>
strength ened</w>
分 成</w>
沙 发</w>
鲍 勃</w>
大 自然</w>
辩 </w>
j im
前所未 有</w>
一 月</w>
w ow</w>
con c
广 大</w>
主 机</w>
trans formed</w>
微 妙</w>
or tho
bri an</w>
修 建</w>
pres sures</w>
无 线
口 气</w>
c ited</w>
静 脉</w>
满 意
wit n
难 过</w>
indic ating</w>
slow down</w>
碌 </w>
z hu</w>
http ://
ch an</w>
接 待</w>
样 式</w>
ge ograph
se ized</w>
装 箱</w>
de licate</w>
ev ed</w>
猴 子</w>
in formal</w>
phili p</w>
o b</w>
宝 宝</w>
will ingness</w>
chi ps</w>
k al
废 </w>
r ays</w>
predic tion</w>
pul ling</w>
j .
祖 国</w>
radi o
半 个</w>
事 先</w>
consul tant</w>
fin ed</w>
j o</w>
arab ia</w>
sar ko
缩 短</w>
hur ry</w>
狭 窄</w>
ex -
appeti te</w>
poll u
3. 5</w>
简 短</w>
预 先</w>
落 实</w>
s ni
st ea
d awn</w>
schol ar
gras p</w>
eth ical</w>
空 白</w>
集 群</w>
子 公司</w>
分 泌
推 行</w>
嘉 </w>
nar row
r na</w>
洛 克</w>
卓 越</w>
question nai
盘 子</w>
众 人</w>
丧 生</w>
c ents</w>
脑 海</w>
瓣 </w>
pro pri
崇 拜</w>
satis factory</w>
苯 </w>
处 罚</w>
be ver
es cal
on au
过 时</w>
人 机</w>
厌 恶</w>
福 德</w>
酮 </w>
d ney</w>
蕾 </w>
med al</w>
w ounded</w>
入 口</w>
栓 </w>
未 知</w>
se is
这 点</w>
惊 喜</w>
he ter
ani um</w>
woo d
dis asters</w>
out comes</w>
exi sted</w>
监 禁</w>
带 走</w>
业 主</w>
几 何</w>
原 材料</w>
win ds</w>
al together</w>
g b</w>
赌 </w>
谎 言</w>
ware house</w>
no -
棕 色</w>
toi let</w>
ran ked</w>
放 大</w>
end less</w>
研 制</w>
低 迷</w>
机 理</w>
agre es</w>
je wish</w>
tri um
犹 太</w>
peac e-
pro be</w>
sarko zy</w>
th ough
分 手</w>
周 知</w>
sel ls</w>
accompli shed</w>
pre sum
出 生
无线 电</w>
colle ague</w>
ma sters</w>
创 伤</w>
f red</w>
结 局</w>
cy ber
n ick</w>
min er
voc ational</w>
急 性</w>
retail ers</w>
去 过</w>
科 特</w>
pr o</w>
aci ous</w>
望 远
望远 镜</w>
使用 者</w>
水 面</w>
ch en
specific ations</w>
es e-
拖 延</w>
blo om
真 空</w>
责 任
fa ults</w>
rai ses</w>
纪 律</w>
翅 膀</w>
巴 克</w>
reb els</w>
des k
re actions</w>
an der
tem plate</w>
现 任</w>
死 刑</w>
晓 </w>
特 权</w>
crow n</w>
bas ket</w>
fol ks</w>
quo te</w>
配 备</w>
j .</w>
裁 员</w>
杠 杆</w>
me tr
来 临</w>
治 愈</w>
金 牌</w>
维 多
the ater</w>
tay lor</w>
stic ks</w>
exce ed</w>
e aten</w>
固 体</w>
挑 战
reci pi
口 语</w>
pl um
集 会</w>
高 出</w>
se oul</w>
ro d</w>
es cent</w>
compl aint</w>
conclu de</w>
br a</w>
ben jam
colum bia</w>
zha o</w>
光 学</w>
v .</w>
smil ing</w>
ju ven
pro pose</w>
n ine
花 钱</w>
bloc ked</w>
暴 风
plan ted</w>
美 妙</w>
stol en</w>
总 共</w>
茎 </w>
diame ter</w>
莱 斯</w>
e ste
搭 </w>
cri pt</w>
f ame</w>
no des</w>
p ad</w>
import antly</w>
gr ab
viol ation</w>
模 具</w>
fl ag
组 织
斯坦 福</w>
有 史
有史 以来</w>
bas e
emer ge</w>
ack er</w>
n y
dro ps</w>
ultr as
st aff
s light</w>
pe ers</w>
bel gi
def ects</w>
key words</w>
modi fy</w>
or ph
伤 心</w>
multi lateral</w>
survi v
调 试</w>
reservo ir</w>
成 像</w>
in cur
journ alist</w>
什 麽</w>
u pri
lever age</w>
citi group</w>
登 上</w>
embed ded</w>
in tri
自 行</w>
sho e</w>
委 员</w>
to ol
migh ty</w>
kee per</w>
假 日</w>
magnit ude</w>
有 意</w>
po tter</w>
co ating</w>
speci alist</w>
asi ve</w>
i o
广 东</w>
日 前</w>
出 台</w>
go s</w>
f bi</w>
clin ic</w>
教 科
electr on</w>
emis sion</w>
ar a</w>
im per
消 灭</w>
瘦 </w>
mon o
ag an</w>
所 周知</w>
众 所周知</w>
ec b</w>
strang er</w>
prof itable</w>
imp acts</w>
air -
m s
beli efs</w>
uni fied</w>
避 开</w>
liber ty</w>
buff ett</w>
198 2</w>
alumin um</w>
填 充</w>
19 70</w>
加 拉
海 盗</w>
fl at
o y
consequ ence</w>
ce as
atten ding</w>
导 师</w>
teen th</w>
绑 定</w>
慕 </w>
放 入</w>
好 者</w>
咒 </w>
自 治
预 定</w>
纠 纷</w>
ch eri
je ws</w>
进 而</w>
零 件</w>
咐 </w>
温 家宝</w>
be hold</w>
赞 赏</w>
concentr ated</w>
虽 </w>
dis appointed</w>
阴 谋</w>
上 限</w>
城 堡</w>
xi a</w>
瞬 间</w>
粗 </w>
恶 劣</w>
trage dy</w>
邮 报</w>
看 不到</w>
资 深</w>
champi on
process or</w>
h ec
er n</w>
desper ate</w>
更 具</w>
表 达
d dy</w>
tr uc
jon athan</w>
表达 式</w>
high- level</w>
comp ly</w>
古 怪</w>
s ne
poll s</w>
恋 爱</w>
health care</w>
high light</w>
libr aries</w>
多元 化</w>
sw ing</w>
一 行</w>
战 场</w>
no vels</w>
思 路</w>
丝 绸</w>
受 损</w>
不 必要</w>
si sters</w>
寺 </w>
ev acu
celebr ation</w>
din ing</w>
gaz a</w>
cer am
k ir
albu m</w>
亨 </w>
开 来</w>
whi sp
配 偶</w>
t ence</w>
im pressed</w>
爱 好者</w>
历 史
at us</w>
凯 </w>
conf used</w>
wat er-
character ized</w>
买 卖</w>
advi sed</w>
ni ghts</w>
re served</w>
逾 </w>
reali zation</w>
val ent
rel ate</w>
起 床</w>
特 纳</w>
jac ket</w>
前 后</w>
潮 流</w>
valu ation</w>
动 力学</w>
bre eding</w>
秒 钟</w>
hi stori
physi cally</w>
raci al</w>
建 设
decl are</w>
bas es</w>
点 点</w>
捕 获</w>
钱 包</w>
点 燃</w>
alleg ations</w>
wi ves</w>
大 象</w>
dr ought</w>
que ue</w>
戒 指</w>
u bs</w>
论 点</w>
轻 微</w>
dead line</w>
re son
pharmaceu tical</w>
卡 路
卡路 里</w>
pol ar</w>
走 上</w>
敲 </w>
耻 </w>
默 克尔</w>
根 源</w>
divi d
罕 </w>
ad mission</w>
放 射
佛 教</w>
下 一步</w>
合 法
c king</w>
pro vo
po em</w>
拓 展</w>
飞 船</w>
ab u
activi sts</w>
牛 肉</w>
试 试</w>
9 /
advertis ement</w>
两 只</w>
appro ve</w>
普 尔</w>
angel a</w>
execu te</w>
颇 </w>
hand led</w>
走 廊</w>
姿 态</w>
ed ings</w>
大 地</w>
驱 逐</w>
笑 声</w>
一 阵</w>
强 壮</w>
天 生</w>
原 型</w>
犹豫 </w>
五 十</w>
ne ur
托 尼</w>
enti ties</w>
海 啸</w>
速 率</w>
lo tus</w>
shoul ders</w>
废 除</w>
fl ed</w>
n es
腐 蚀</w>
chong qing</w>
晤 </w>
透明 度</w>
邮 </w>
eri al</w>
倾 斜</w>
程 序
纳 德</w>
制 订</w>
睡 着</w>
四 川</w>
点 钟</w>
no ble</w>
拨 </w>
nan jing</w>
剑 桥</w>
东 盟</w>
horiz on</w>
li bri
zo o</w>
dee pen
down turn</w>
celebr ated</w>
c em
susp ici
sc ared</w>
fl ame</w>
直 觉</w>
om er
scre ening</w>
gradu ated</w>
rach el</w>
敏 捷</w>
经纪 人</w>
无 可</w>
y ar
paki stan
spiri ts</w>
righ te
显 而易
称 赞</w>
re tain</w>
ro b</w>
显而易 见</w>
尼 迪</w>
肯 尼迪</w>
5 00
tt es</w>
山 脉</w>
cir cles</w>
arm ament</w>
飓 风</w>
定 者</w>
photograph y</w>
伦 理</w>
bon us</w>
漏 洞</w>
地 利</w>
兆 </w>
vocabul ary</w>
步 伐</w>
尼 古
四 处</w>
ari se</w>
发 给</w>
筛 选</w>
syn thetic</w>
医 药</w>
e j
蚁 </w>
扭 转</w>
succe eded</w>
robo ts</w>
笔 记</w>
除 此</w>
气 象</w>
媒 </w>
n az
ill a</w>
insi st</w>
后 期</w>
bl amed</w>
bri gh
羞 </w>
生 动</w>
会 晤</w>
proce edings</w>
都 市</w>
blan k</w>
w ells</w>
rec eption</w>
trac ks</w>
ri al</w>
it a</w>
切 割</w>
椎 </w>
em bo
tian jin</w>
业 余</w>
安 妮</w>
危 </w>
benjam in</w>
驰 </w>
enjo y
嫌 疑
sub way</w>
× </w>
uni ons</w>
bl ast</w>
thor oughly</w>
st ation
differ ential</w>
n aked</w>
12 %</w>
bo ats</w>
养老 金</w>
co des</w>
aw a
commer ci
off set</w>
hand some</w>
g an
中 介</w>
displ ac
j ail</w>
saf ely</w>
reve als</w>
equ als</w>
躁 </w>
qu al
stadi um</w>
rat ings</w>
片 段</w>
奶 奶</w>
音 机</w>
菲 特</w>
b ay
mul tin
言 语</w>
支 配</w>
anim ation</w>
effici ently</w>
爽 </w>
抵 消</w>
glob ally</w>
喘 </w>
dr unk</w>
pen insul
疲 软</w>
can cel</w>
we st
fu els</w>
自 然
rand om
叙 述</w>
sp an
丸 </w>
argent ina</w>
星期 四</w>
audi ences</w>
scop ic</w>
met res</w>
液 压</w>
糖 果</w>
m all</w>
treat ments</w>
pr u
证 人</w>
伍 德</w>
pri est</w>
disab led</w>
组 装</w>
co in</w>
ak a</w>
go ds</w>
光 谱</w>
建 成</w>
处 境</w>
advis er</w>
d ors</w>
雷 曼</w>
in k
奥林匹 克</w>
裤 子</w>
zz a</w>
ban g</w>
evol ved</w>
dies el</w>
卡 片</w>
life -
直 径</w>
苏 珊</w>
bo o</w>
fail ures</w>
地 下
棘 手</w>
pen n
under stand
ak i</w>
虾 </w>
隐 </w>
一 季度</w>
千 年</w>
棉 </w>
stea dily</w>
wan ting</w>
dis gu
is is</w>
enc lo
counter parts</w>
mu d</w>
ger man
占 有</w>
客 厅</w>
reco vered</w>
certific ates</w>
本 次</w>
感 性</w>
建筑 师</w>
20 ,000</w>
传 真</w>
j ing
mo ham
bri de</w>
poss ess</w>
dr af
钻 </w>
塘 </w>
sp ell</w>
芒 </w>
hur ri
star t-
dispo sal</w>
197 8</w>
cl ay</w>
ch anc
myster ious</w>
q a
青 春</w>
vege table</w>
ligh ten
均 衡</w>
姿 势</w>
峻 </w>
大 使馆</w>
jun ction</w>
科 尔</w>
mer ri
cha os</w>
pack ages</w>
赞 助</w>
屋 子</w>
te ar</w>
蓬 勃</w>
clai ming</w>
柔 软</w>
鲜 明</w>
否 定</w>
特 尔</w>
be ating</w>
bi dding</w>
high- speed</w>
je wel
ki e</w>
ma h
气 温</w>
sub stances</w>
齿 轮</w>
工作 室</w>
adver se</w>
影 子</w>
年 纪</w>
17 .
ar ch</w>
bic ycle</w>
d row
esc ence</w>
头 痛</w>
ener y</w>
打 败</w>
克里 斯
le on
cro ssed</w>
ful fill</w>
expl oring</w>
ag ne
撤 销</w>
inter act</w>
we ir
易 于</w>
thro at</w>
东 亚</w>
so dium</w>
uri ty</w>
偶 像</w>
mic ro</w>
猛 </w>
h att
trad ed</w>
u. n.</w>
荣 幸</w>
shor ter</w>
n pr</w>
m .
外 资</w>
avoi ded</w>
c r</w>
高 压</w>
sl owing</w>
搜 寻</w>
comp ul
鼓 </w>
travel ling</w>
取 出</w>
ro pe</w>
performan ces</w>
poli tically</w>
au stri
limit ations</w>
neutr al</w>
fant astic</w>
喜 悦</w>
争 夺</w>
pur ple</w>
塔 尔</w>
scre w</w>
ti tude</w>
mon key</w>
bl ade</w>
contribu ting</w>
最 大
戴 维</w>
星期 三</w>
翔 </w>
stri ve</w>
de pressed</w>
st um
美 食</w>
一 首</w>
tri ps</w>
繁 殖</w>
要 说</w>
无 情</w>
coun sel
or bit</w>
十 五</w>
介 入</w>
exp i
oppon ents</w>
deman ded</w>
fre ight</w>
示 器</w>
b au
nor theast</w>
pron oun
制 定者</w>
量 子</w>
努 </w>
3 6
客户 机</w>
si ts</w>
s r</w>
冻 结</w>
录 音</w>
attemp ted</w>
卡梅 伦</w>
茄 </w>
嗨 </w>
示 威</w>
权 人</w>
媒 介</w>
硫 </w>
学 费</w>
alex ander</w>
行 长</w>
多 达</w>
尊 严</w>
poss ession</w>
assign ment</w>
nu ts</w>
mid night</w>
变 动</w>
术 后</w>
泄 露</w>
长 久</w>
巴 菲特</w>
辉 煌</w>
mi ld</w>
箱 子</w>
懈 </w>
rom ance</w>
rm b
grand father</w>
function ality</w>
mc cain</w>
vir al</w>
官 僚</w>
南 海</w>
反 而</w>
培 育</w>
搅 拌
bl air</w>
展 望</w>
恶 性</w>
眼 中</w>
ge on</w>
t sun
报 复</w>
b m
i .</w>
dis orders</w>
卡 拉</w>
appe aring</w>
伤 口</w>
驳 </w>
rehabili tation</w>
东 北</w>
nation wide</w>
over night</w>
br us
it ance</w>
置 于</w>
干 什么</w>
b alls</w>
enc ry
一 次
senti ment</w>
tra p</w>
exp o</w>
se di
as sur
悲 观</w>
ast oni
archit ect</w>
行 事</w>
ex ag
丘 </w>
chanc ell
估 值</w>
不 时</w>
foun ding</w>
shel ter</w>
bu tter</w>
che er
向 下</w>
s can</w>
ear liest</w>
sh ower</w>
溶 液</w>
gr a
m ask</w>
expec tation</w>
间 隔</w>
裂 缝</w>
斯 塔</w>
im m
走 路</w>
赶 上</w>
brazili an</w>
身 后</w>
sun light</w>
行 的</w>
开 会</w>
专 用</w>
法 则</w>
s ors</w>
9 9
机 密</w>
坎 </w>
dec om
10 :
consist ently</w>
破 碎</w>
水 资源</w>
happ ily</w>
dec k</w>
cos me
bach el
classm ates</w>
hum or</w>
堵 </w>
lo go</w>
汉 堡</w>
tol l</w>
布 尔</w>
队 列</w>
nether lands</w>
pre dec
dam ages</w>
热 点</w>
出 国</w>
other ap
goo d-
cl ause</w>
讲 座</w>
面 板</w>
po et</w>
午 饭</w>
out break</w>
投 标</w>
collap sed</w>
即 可</w>
sen ds</w>
该 项</w>
戒 </w>
rela xed</w>
弱 点</w>
大 批</w>
祖 </w>
b iting</w>
为 人</w>
f da</w>
determin ing</w>
路 透</w>
十 几</w>
eff ic
e en</w>
必 要性</w>
libri um</w>
约 合</w>
requi ring</w>
in door</w>
descri bing</w>
col ored</w>
parli am
min d
第 六</w>
情 景</w>
惨 </w>
可 口</w>
mo des</w>
desir able</w>
re actor</w>
龟 </w>
allo y</w>
裙 子</w>
卢 旺
eng li
卢旺 达</w>
驱 </w>
地 狱</w>
adv enture</w>
公 告</w>
pat ri
ag o
cat astro
gall ery</w>
收 回</w>
disclo sure</w>
it ting</w>
固 醇</w>
procu rement</w>
st ors</w>
篮 </w>
一 句
饭 店</w>
基 因
主 持
答 复</w>
gr ab</w>
东 省</w>
南 京</w>
inte st
predec ess
r ho
inter actions</w>
数 码</w>
ali ke</w>
thur </w>
c ts</w>
imperi al</w>
attor ney</w>
tit les</w>
diplom acy</w>
x u
久 性</w>
le tt</w>
inv asion</w>
hon our</w>
代理 人</w>
re j
一句 话</w>
融 化</w>
gener ator</w>
借 鉴</w>
ques tioned</w>
排 队</w>
xi ao</w>
too th</w>
进 度</w>
si de
tel es
追 </w>
音乐 会</w>
as ean</w>
cra w
维 度</w>
脾 气</w>
极 度</w>
motiv ated</w>
win ners</w>
本 法</w>
不 当</w>
depen dence</w>
打 扰</w>
addre sses</w>
t ness</w>
sh am
it y-
征 服</w>
预 言</w>
no kia</w>
大 道</w>
ri cal</w>
珍 妮</w>
feat ured</w>
0 2:
fit ting</w>
澡 </w>
陶 瓷</w>
不 行</w>
5 ,
淹 没</w>
mar king</w>
始 于</w>
deci des</w>
con sume</w>
ste al</w>
外交 官</w>
ho sts</w>
c pu</w>
duc k</w>
卡 特</w>
晒 </w>
你 的
组 建</w>
assum ing</w>
劳 动
主持 人</w>
你的 心</w>
想 出</w>
sur gical</w>
bri ck</w>
there of</w>
权 限</w>
村 民</w>
想 象
企 </w>
persi stent</w>
浴 室</w>
化 工</w>
3 60</w>
dri ll</w>
坐 标</w>
absor ption</w>
ne il</w>
p aste</w>
char lie</w>
增 大</w>
publi sh</w>
基 亚</w>
grad es</w>
ni um</w>
constitu te</w>
transi t</w>
sh and
peninsul a</w>
ar o
均 值</w>
习 俗</w>
配 件</w>
想象 力</w>
sti r
绑 架</w>
早 已</w>
破 坏
挣 </w>
表 单</w>
语 句</w>
爱 人</w>
x in</w>
wor rying</w>
紧 紧</w>
hand ful</w>
psy chi
shiel d</w>
乳 腺癌</w>
结 算</w>
cler k</w>
免 受</w>
弗 吉
k l
人 造</w>
conver t</w>
各 级</w>
quali fication</w>
tur n
无 辜
追溯 到</w>
dis armament</w>
艰 苦</w>
上 周五</w>
shap es</w>
接 管</w>
大 致</w>
水 分</w>
画 家</w>
集 装箱</w>
轮 胎</w>
rab bit</w>
v ic</w>
en za</w>
招 </w>
la p</w>
colum ns</w>
产 能</w>
isol ation</w>
geni us</w>
厘 米</w>
福 音</w>
分 校</w>
kin dness</w>
flav or</w>
withdraw al</w>
过 后</w>
j az
dou bled</w>
停 车
dign ity</w>
平 安</w>
develop s</w>
c t
deal t</w>
fast est</w>
残 </w>
di mini
奥 地利</w>
boun dar
pat rio
总 量</w>
nigeri a</w>
手 续</w>
quan tum</w>
18 .
廓 </w>
mil len
resp ected</w>
批 评
涉 嫌</w>
proce ed</w>
bre e
l ens</w>
凭 借</w>
sh aft</w>
安 置</w>
magaz ines</w>
pi x
土 豆</w>
tane ous</w>
畜 </w>
defin ing</w>
dec ent</w>
con fusion</w>
咱 们</w>
导 体</w>
萎 缩</w>
d ad
sau ce</w>
tradem ark</w>
矿 业</w>
高 峰</w>
qu est</w>
扑 </w>
hom et
k un
ken ya</w>
蝶 </w>
一 路</w>
城 里</w>
per mitted</w>
ac knowledge</w>
co stly</w>
inten d</w>
猩 </w>
现 行</w>
mit ting</w>
a xi
re war
pas sport</w>
lo t
跨 越</w>
杜 </w>
付 费</w>
portu gal</w>
本 科</w>
form ity</w>
协 同</w>
terrori sts</w>
aff ection</w>
初 级</w>
特 区</w>
fati gue</w>
里 程
局 限</w>
内 涵</w>
surve ys</w>
hu mili
supp lied</w>
lo vers</w>
承包 商</w>
viol ations</w>
remo ving</w>
indi genous</w>
un necessary</w>
par aly
恕 </w>
米 歇尔</w>
奉 献</w>
compe tence</w>
出版 社</w>
pe ti
轴 承</w>
tun e</w>
l d
up dates</w>
米 兰</w>
egyp tian</w>
残 疾</w>
ic on</w>
维多 利亚</w>
树 脂</w>
comp ounds</w>
tibet an</w>
seem ingly</w>
convers ations</w>
calci um</w>
绒 </w>
诱 导</w>
seven th</w>
ain e</w>
wei gh</w>
accep ting</w>
membran e</w>
bel o
algorith ms</w>
制 药</w>
干 细胞</w>
尾 巴</w>
尸 </w>
假 定</w>
伴 随着</w>
ex hau
先 知</w>
ch ains</w>
去 除</w>
口 味</w>
respon dents</w>
就 职</w>
tur b
investig ations</w>
宝 石</w>
融 </w>
非 线性</w>
theat re</w>
devi l</w>
蛮 </w>
鼻 </w>
嘴 唇</w>
nam ent</w>
swi ft</w>
马 车</w>
放射 性</w>
培 </w>
kne e</w>
investig ating</w>
e bay</w>
终 结</w>
电 网</w>
截 止</w>
基督 徒</w>
fu zzy</w>
bl essed</w>
convin ce</w>
tor ture</w>
mor ph
negoti ate</w>
拉 斯
psy cho
evi dent</w>
reluc tant</w>
recruit ment</w>
碰 到</w>
防 治</w>
发 誓</w>
mili tants</w>
fri ction</w>
tempor arily</w>
f an
wil son</w>
议 题</w>
国 防
郁 症</w>
感 冒</w>
feasi ble</w>
bl ess</w>
high- quality</w>
同 伴</w>
t ong</w>
机 组</w>
幼 </w>
laun ching</w>
一 百</w>
cor ri
交 货</w>
波斯 尼亚</w>
contrac tor</w>
9 5%</w>
- in-
ar thur</w>
不 管
ten ded</w>
no te
化 剂</w>
survi ved</w>
den y</w>
ri sky</w>
惊 奇</w>
od ds</w>
陪 </w>
sh in
le w
pl ug
侵 蚀</w>
不管 是</w>
t all
实质 性</w>
mi ti
syn chr
forei gn
f ell
天 上</w>
trigg ered</w>
far ms</w>
柬 埔
柬埔 寨</w>
凝 </w>
ag a</w>
mete or
anti </w>
frac ture</w>
stimul ate</w>
bu cks</w>
lan ded</w>
s lic
micro -
路 易斯</w>
s as</w>
hi ts</w>
regul ated</w>
cre ature</w>
调 控</w>
av </w>
un certain</w>
逆 转</w>
w .</w>
public ity</w>
renew ed</w>
cam bo
posi tioning</w>
out -
信 件</w>
equi librium</w>
be st-
br ain
administr ator</w>
获 益</w>
备 份</w>
throw ing</w>
芬 兰</w>
美 军</w>
踏 </w>
服 从</w>
饼 干</w>
微 小</w>
bu ll</w>
6 000</w>
同 比</w>
春 节</w>
入 境</w>
pres ti
厌 倦</w>
tab let</w>
renew able</w>
万 个</w>
船 员</w>
专 </w>
al right</w>
pre ference</w>
叛 军</w>
it ly</w>
个 别</w>
mean time</w>
豹 </w>
纤 </w>
u sion</w>
海 底</w>
thic kness</w>
reserv ation</w>
mon opo
裁 军</w>
wi ki
筹 备</w>
qu ad
击 中</w>
teen agers</w>
boundar ies</w>
autom ation</w>
造 型</w>
ster eo
认 定</w>
恶 意</w>
坪 </w>
泼 </w>
附 属</w>
十 二</w>
衔 </w>
满意 度</w>
re act</w>
fur n
鲸 </w>
excit ement</w>
ev al</w>
援 引</w>
4 7
1. 4</w>
初 期</w>
list ened</w>
grand mother</w>
legen d</w>
艺术 品</w>
clim bing</w>
chancell or</w>
v m</w>
深 深
resc u
recei ves</w>
__ </w>
ol e
sub tle</w>
触 发</w>
streng ths</w>
my an
四 周</w>
ach us
fac ulty</w>
教 导</w>
en qui
cultiv ation</w>
外 套</w>
port al</w>
另 有</w>
capit alism</w>
保守 党</w>
elec toral</w>
pal m</w>
bench mark</w>
accum ulation</w>
in comes</w>
螺 旋</w>
v able</w>
advi se</w>
migr ants</w>
under taken</w>
日 记</w>
sam pling</w>
st ack</w>
填 补</w>
挫 折</w>
att achment</w>
laugh ing</w>
迭 代</w>
memori al</w>
persu ade</w>
当 年</w>
mil ler</w>
切 断</w>
tari an</w>
旅游 业</w>
完 了</w>
谷 物</w>
ass ault</w>
gu es</w>
mass achus
现 年</w>
inci dents</w>
prescri bed</w>
michel le</w>
do or
击 者</w>
ber nan
厚 度</w>
重 力</w>
委 内
瑞 拉</w>
委内 瑞拉</w>
摄 入</w>
plu g</w>
本 能</w>
提供 者</w>
righ t-
li t
祭 司</w>
st ap
oper ates</w>
对 照
ph y</w>
thi er</w>
d g
ham as</w>
网 格</w>
no where</w>
coordin ated</w>
tion -
bloc k
inf ections</w>
烛 </w>
p m
alle vi
做 成</w>
spec ul
字 典</w>
consum ing</w>
identi fying</w>
长 官</w>
bu ll
shoc ked</w>
紫 色</w>
es pe
inev itably</w>
y ale</w>
有 望</w>
戏 剧
hang zhou</w>
moun ted</w>
加 勒
骑 士</w>
西 北</w>
fi res</w>
ge ological</w>
小 鼠</w>
refl ecting</w>
分泌 </w>
bernan ke</w>
hypo thesis</w>
荒 </w>
势 头</w>
贵 族</w>
抛 </w>
law makers</w>
乐 器</w>
安 东
起 草</w>
不 但</w>
lun ar</w>
珍 惜</w>
排 序</w>
sens ors</w>
信用 证</w>
预 见</w>
机 票</w>
碱 </w>
违 背</w>
猩 猩</w>
mi st</w>
被 动</w>
trou bles</w>
dri ed</w>
接 种</w>
谬 </w>
avoi ding</w>
尔 文</w>
麦 凯恩</w>
负 债
in ely</w>
r al
克 斯坦</w>
衷 </w>
accoun ted</w>
sl ower</w>
ber y</w>
sp y</w>
蛛 </w>
o sa
时 装</w>
be have</w>
prom pt</w>
sacri fic
shir ts</w>
me i</w>
heter o
一 致
shif ting</w>
宪 章</w>
款 人</w>
g ations</w>
一致 性</w>
compati ble</w>
n ing
out line</w>
j p
19 60</w>
佐 </w>
in stances</w>
事 宜</w>
麦当 劳</w>
睹 </w>
man hatt
严 峻</w>
congre ssi
p ale</w>
in ches</w>
切 实</w>
膝 盖</w>
pen ding</w>
总 之</w>
modi fication</w>
门 户</w>
fri ed</w>
2 2
b bed</w>
一 双</w>
刮 </w>
c attle</w>
让 步</w>
do t</w>
拿 走</w>
波 罗</w>
met aboli
莲 </w>
举 起</w>
et ts</w>
compar ative</w>
under graduate</w>
国际 法</w>
工 党</w>
hit ting</w>
foun d
myan mar</w>
cau tion</w>
ar c</w>
召 </w>
发 展
confi dential</w>
sincer ely</w>
correc tion</w>
encoun tered</w>
distinc tion</w>
乙 </w>
阿 里</w>
统计 学</w>
fi ling</w>
o hi
un comfortable</w>
frag ile</w>
py ong
g em
wr apped</w>
巴 斯</w>
尔 特</w>
u le</w>
播 出</w>
行政 区</w>
audi ble</w>
nit rogen</w>
峰 值</w>
指 引</w>
秘书 处</w>
evol u
hor m
em ails</w>
amend ment</w>
d ow</w>
mi chi
此 后</w>
missi les</w>
bar rel</w>
鉴 定</w>
base ball</w>
远 处</w>
全球 性</w>
no ting</w>
那 条</w>
celebri ty</w>
反 抗</w>
incredi bly</w>
brea the</w>
连 锁</w>
参 见</w>
i si
belo ved</w>
br e</w>
m 2</w>
山 上</w>
moderni zation</w>
外 语</w>
iri sh</w>
p son</w>
laugh ed</w>
transl ated</w>
deriv ative</w>
dro pping</w>
massachus etts</w>
成 效</w>
lar ry</w>
mc donald</w>
水 域</w>
experi encing</w>
比 特</w>
we ster
jiang su</w>
cli ff</w>
who ever</w>
lionai re</w>
℃ </w>
山 谷</w>
哪 种</w>
subsidi ary</w>
w a</w>
k ow
seas ons</w>
asi a-
sh ri
pol and</w>
cand y</w>
qa eda</w>
compl ained</w>
no od
投 票
枪 支</w>
smi led</w>
玉 </w>
tr apped</w>
fre e-
xi ao
feasi bility</w>
juris diction</w>
过 敏</w>
重 庆</w>
func tioning</w>
chr y
gh ua</w>
ful ness</w>
不 用
广 告
不用 说</w>
at er
color ful</w>
无辜 </w>
me tal
晕 </w>
教 皇</w>
摩 托
off erings</w>
loy alty</w>
share holder</w>
锁 定</w>
解 读</w>
唱 片</w>
bac king</w>
equ ations</w>
k az
s ers</w>
congressi onal</w>
对照 组</w>
\ </w>
污染 物</w>
感 动</w>
how ard</w>
sp ic
过 剩</w>
祖 父</w>
数 额</w>
enab ling</w>
inste in</w>
冷 战</w>
pre serv
墙 壁</w>
prin ts</w>
wash ed</w>
sou th-
激 增</w>
bre ach</w>
p ants</w>
absor b</w>
electr om
爱 丽
ch y</w>
坟 墓</w>
鼠 标</w>
三 十</w>
妨 碍</w>
推 销</w>
attr action</w>
ar i</w>
ro ber
cri ses</w>
suspen sion</w>
里程 碑</w>
注 释</w>
forec asts</w>
尼 奥</w>
un fair</w>
thank s
gar bage</w>
侠 </w>
mi le
mal es</w>
scre ens</w>
fran chi
氯 </w>
occurr ence</w>
纲 </w>
口 头</w>
dre ssing</w>
寒 </w>
ru shed</w>
bott les</w>
el ementary</w>
4 5
om ed</w>
st en</w>
债 权人</w>
ann ually</w>
on able</w>
bat teries</w>
查 理</w>
宝 贝</w>
深 远</w>
happ ier</w>
打 断</w>
文件 夹</w>
mod ules</w>
it ative</w>
铅 </w>
tex ture</w>
阱 </w>
晚 会</w>
会 话</w>
he ated</w>
tr act</w>
tr um
desk top</w>
旅行 者</w>
peri ph
配 方</w>
enjo ys</w>
reason ably</w>
首 尔</w>
sc rap
疟 疾</w>
渐 渐</w>
逃 跑</w>
pyong yang</w>
cas ual</w>
氧 气</w>
珊 瑚
自 治</w>
char m</w>
tal ented</w>
schem a</w>
曼 哈
migr ant</w>
pro ph
v ani
gentlem an</w>
ri sk
垂 </w>
香 烟</w>
inte l</w>
普 及</w>
fini shing</w>
借 贷</w>
tradi tions</w>
h ook</w>
por k</w>
manhatt an</w>
sand wi
天 线</w>
comman ds</w>
ho sted</w>
mat the
tur kish</w>
dest iny</w>
har sh</w>
fertili ty</w>
full- time</w>
homet own</w>
x xx</w>
名 词</w>
尔 森</w>
推 测</w>
基因 组</w>
有 钱</w>
dele te</w>
hi ding</w>
报 导</w>
organis ations</w>
ri dic
印 机</w>
impro ves</w>
ent ations</w>
胳 膊
3 7
coo ked</w>
all en</w>
rel s</w>
shak espe
f ang</w>
ar d
摩 尔</w>
consul tations</w>
wild life</w>
li sa</w>
蛙 </w>
announ ce</w>
regul ator</w>
form ally</w>
come dy</w>
订 阅</w>
cy cles</w>
effic acy</w>
丛 </w>
子 弹</w>
critici zed</w>
la h</w>
gau ge</w>
for ty</w>
v am
减 弱</w>
refer en
appro aching</w>
0. 5</w>
le ase</w>
sal aries</w>
fl ouri
信 誉</w>
卖 出</w>
cr un
启 发</w>
pop e</w>
色 情</w>
prai sed</w>
1 1:
忙 碌</w>
adop ting</w>
金 斯</w>
男 朋友</w>
题 目</w>
景 点</w>
殖民 地</w>
赴 </w>
campaig ns</w>
上 方</w>
dis appear</w>
r &
cl ays</w>
ry an</w>
eas ing</w>
s c</w>
民 营</w>
sy dney</w>
就 算</w>
最 长</w>
执 照</w>
开 枪</w>
业 者</w>
moi sture</w>
草 地</w>
bb ing</w>
safe guard</w>
思 议</w>
北 极</w>
g ases</w>
卵 </w>
don ors</w>
ful fi
co sm
绳 子</w>
ad her
as cen
躲 </w>
归 咎
e o</w>
mag nific
ab normal</w>
pr ag
198 3</w>
ple dged</w>
19 .
lu bri
算 是</w>
ex tin
de ut
2. 3</w>
bam boo</w>
亚 历
兴 起</w>
affor dable</w>
high lights</w>
契 约</w>
t l
尼 西亚</w>
脑 袋</w>
精 致</w>
ar ising</w>
美 分</w>
cylin der</w>
金 色</w>
rhe tor
胞 胎</w>
吩 咐</w>
grati tude</w>
菲利 普</w>
e- up</w>
无 知</w>
geograph ical</w>
畅 </w>
进 出口</w>
foreign -
d well
euro s</w>
du ke</w>
comp as
loc k
海 伦</w>
不 足以</w>
bo ther</w>
lic ence</w>
in t</w>
sn ake</w>
ai ming</w>
支 援</w>
otherap y</w>
vene zu
predic table</w>
淇 淋</w>
defin es</w>
忠 实</w>
medic ines</w>
sel lers</w>
fossi l</w>
禽 </w>
夏 威
宏 </w>
冰 淇淋</w>
洒 </w>
税 率</w>
dec oration</w>
consum ed</w>
发 作</w>
p ity</w>
wi z
筹 </w>
3. 2</w>
智 利</w>
粗 糙
gho st</w>
诺 基亚</w>
synchr oni
high- end</w>
indi sp
distingui shed</w>
c ave</w>
输 送</w>
天 津</w>
sy lv
sc u
凯 瑟
华 为</w>
曼哈 顿</w>
备 受</w>
强 奸</w>
国 家
海 域</w>
en ri
cigare tte</w>
瓦 尔</w>
deriv atives</w>
人 性</w>
偏 好</w>
缔 约
thanks giving</w>
down town</w>
两 边</w>
百 度</w>
联合 会</w>
196 0s</w>
conver ted</w>
ker ry</w>
创 下</w>
stop ping</w>
不 堪</w>
al ter</w>
e up</w>
shel f</w>
sever ely</w>
exag ger
务 部</w>
塞 尔
稍 后</w>
fe ared</w>
凯瑟 琳</w>
h all
fe i</w>
transl ate</w>
pe i</w>
亩 </w>
en ters</w>
r .</w>
sc enery</w>
丑 </w>
diff er</w>
玩 耍</w>
wor ship</w>
m l
奠 定</w>
tr aits</w>
el le</w>
off ensive</w>
驾 驶
谜 </w>
e cho
芭 </w>
won dered</w>
credi bility</w>
brus sels</w>
酵 </w>
杯 子</w>
rec alled</w>
并 发
并发 症</w>
dre am
流 体</w>
loy al</w>
哈 里</w>
pa ths</w>
struc tured</w>
inter val</w>
war ri
巡 逻
je al
格 鲁
肮 脏</w>
放 进</w>
contin ental</w>
巧 妙</w>
ap ples</w>
well- being</w>
环 球</w>
行 程</w>
len e</w>
查 找</w>
hua wei</w>
sex u
shand ong</w>
strong est</w>
consul tancy</w>
ne um
匿 名</w>
coun ting</w>
华 丽</w>
it -
腹 </w>
按 摩</w>
两 条</w>
陋 </w>
日 内
w art</w>
fem ales</w>
str ings</w>
弟 兄</w>
平 行</w>
那 次</w>
辛 格</w>
construc tive</w>
j un</w>
数 以</w>
p our</w>
ch ess</w>
标 志
strugg led</w>
appro ached</w>
propo ses</w>
catho lic</w>
see ks</w>
encour ages</w>
sent enced</w>
不 然</w>
罗 斯
蜜 蜂</w>
选 出</w>
epidem ic</w>
存 活</w>
ambi tion</w>
aband on</w>
gramm ar</w>
occasi ons</w>
棒 球</w>
assum ption</w>
国防 部</w>
勤 奋</w>
多 余</w>
pas sive</w>
condi tioning</w>
传 送</w>
dai ry</w>
s est</w>
k ri
exten ding</w>
as sured</w>
no t
二 零
雕 像</w>
分辨 率</w>
股 本</w>
telecommunic ations</w>
曼 联</w>
re vel
l ym
leban on</w>
星 系</w>
罗 姆</w>
触 摸</w>
招 募</w>
mat urity</w>
问 问</w>
negoti ating</w>
venti l
sub ur
indic ation</w>
观察 员</w>
经 营
w ong</w>
de formation</w>
克 拉</w>
ex t
看 似</w>
宽 容</w>
给 定</w>
宴 会</w>
主 办</w>
m am
宽 度</w>
pray er</w>
摩托 车</w>
regul ate</w>
fl ow
vol umes</w>
是 非</w>
荒 谬</w>
好 运</w>
car ib
专 栏</w>
sin k</w>
it or</w>
empha size</w>
figh ter</w>
narr ative</w>
获 利</w>
for war
peace- keeping</w>
闷 </w>
man chester</w>
硅 谷</w>
consi ders</w>
wr ong
ari zation</w>
distingui sh</w>
tom y</w>
20 30</w>
musli ms</w>
dd le</w>
宇航 员</w>
ell en</w>
外 出</w>
难 度</w>
gy m</w>
尖 叫</w>
反 过来</w>
organis ms</w>
mar ia</w>
近 日</w>
有 意思</w>
reg ards</w>
莎 士
莎士 比亚</w>
永 </w>
飞 往</w>
mon ica</w>
diagno sed</w>
influ enza</w>
form ers</w>
高 潮</w>
travel ed</w>
3 5%</w>
s ar</w>
deli vering</w>
院 校</w>
来 讲</w>
上 下文</w>
lef t-
est er
christ opher</w>
clim bed</w>
读 取</w>
贵 方</w>
负债 表</w>
哈 马斯</w>
goo db
sh ments</w>
like wise</w>
19 45</w>
维 基</w>
维 奇</w>
tex tile</w>
巴 布
当 地人</w>
i gn
反 思</w>
aven ue</w>
人 中</w>
透 社</w>
路 透社</w>
quanti ties</w>
警 报</w>
克 隆</w>
198 1</w>
阻 力</w>
bar clays</w>
super market</w>
speci ally</w>
fle et</w>
displac ement</w>
日内 瓦</w>
b are</w>
pi gs</w>
第二 十
存 者</w>
ol d-
ine quality</w>
忧 虑</w>
光 滑</w>
柠 檬
多 长</w>
aw k
夏威 夷</w>
发 生
一次 性</w>
stu ff
nic ol
car pet</w>
du ll</w>
旺 </w>
hau l</w>
贪 婪
发 音</w>
入 学</w>
无 力</w>
resi li
pa tho
蜡 烛</w>
终 身</w>
悠 久</w>
悉 尼</w>
不 懈</w>
initi ated</w>
出版 商</w>
wor th
stam ps</w>
weak er</w>
ple dge</w>
写 下</w>
交 道</w>
摊 </w>
dis missed</w>
界 限</w>
ann ex</w>
竟 然</w>
著 作</w>
t down</w>
ha wai
c ow</w>
农 产品</w>
no tably</w>
沉 积</w>
葱 </w>
排 放
for bi
停 火</w>
prosp erous</w>
sil ly</w>
two- thirds</w>
int ent</w>
col om
ul a</w>
宿 舍</w>
whol es
哲 学家</w>
ag en</w>
spokes woman</w>
z im
cau tious</w>
empha sized</w>
sel dom</w>
澄 清</w>
电视 剧</w>
' an</w>
贪婪 </w>
更 长</w>
it ted</w>
牢 </w>
zh ong
govern ment-
19 49</w>
rel ay</w>
杖 </w>
n g</w>
磁 场</w>
doub ts</w>
presi dents</w>
狸 </w>
k ok</w>
定 律</w>
investig ators</w>
michi gan</w>
nu t</w>
jac ob</w>
accor d</w>
了 不起</w>
valent ine</w>
carri ers</w>
ca us
程序 员</w>
agne tic</w>
with draw</w>
m t</w>
周 前</w>
r ay
hai ti</w>
glu co
win s</w>
3 8
anticip ated</w>
re wards</w>
互 利</w>
victori a</w>
hu b</w>
萝 卜</w>
景 象</w>
冬 </w>
口 号</w>
d t</w>
泄 </w>
pi e</w>
measu re
bro o
far -
con den
mon y</w>
opti mism</w>
clear ance</w>
杭 州</w>
blu e
demonstr ates</w>
疹 </w>
congrat ul
恐 龙</w>
ear ning</w>
som alia</w>
款 项</w>
c ation</w>
拍 照</w>
拉 登</w>
p lo
pri ced</w>
f o</w>
traff ic
in stantly</w>
contra dic
归咎 于</w>
bal ancing</w>
q in</w>
ro om
一 夜</w>
披 </w>
亿 万</w>
加 深</w>
伪 </w>
者 说</w>
截 然</w>
emer gence</w>
key board</w>
sponsor ed</w>
argu ing</w>
wi shed</w>
苦 难</w>
progre ssive</w>
sk el
三 角</w>
dec lining</w>
de v</w>
ch in</w>
化妆 品</w>
th a</w>
手 动</w>
从 没</w>
位 数</w>
w all
targe ting</w>
或 者说</w>
sp in
distri cts</w>
叶 子</w>
书 店</w>
ib o</w>
树 立</w>
s f</w>
me tri
emplo y</w>
br ad
con secu
j a</w>
z o</w>
胡 子</w>
介 质</w>
幸 存者</w>
in visible</w>
物 资</w>
欢 呼</w>
in take</w>
champi ons</w>
fil tr
犹 大</w>
gen eva</w>
p neum
w sd
en lighten
eter nal</w>
住 院</w>
astr onau
切 换</w>
e ous</w>
bi es</w>
tac tics</w>
th ai</w>
州 市</w>
ro tation</w>
cas u
groun d
p airs</w>
印度 尼西亚</w>
减 缓</w>
铃 </w>
意味 </w>
c n</w>
li ver
op ec</w>
字 体</w>
3 0s</w>
distinc tive</w>
expl aining</w>
neighb ours</w>
ac tu
subsequ ently</w>
3 rd</w>
jo se</w>
疲 惫
cat ching</w>
substitu te</w>
鱼 类</w>
外 包</w>
潮 湿</w>
嵌 </w>
过 高</w>
go ssi
e i</w>
叶 片</w>
颁 奖</w>
can al</w>
hand -
艳 </w>
缚 </w>
d entally</w>
国际 化</w>
分 布
them es</w>
院 长</w>
sh ers</w>
cu te</w>
intermedi ate</w>
伤 亡</w>
carol ina</w>
sor row</w>
帅 </w>
建设 性</w>
plac ing</w>
el ess
5 0,000</w>
sem ester</w>
瓶 子</w>
um b
figu red</w>
tsun ami</w>
wa vel
up coming</w>
observ ations</w>
兼 职</w>
魔 鬼</w>
com bus
comp li
dr um</w>
ji a</w>
us -
197 6</w>
in finite</w>
liber ation</w>
br al</w>
比 起</w>
reco gn
consequ ently</w>
安德 鲁</w>
疲惫 </w>
上 传</w>
常 数</w>
ch im
里 兰
anti bio
nor way</w>
瑜 伽</w>
提 问</w>
inde xes</w>
witn essed</w>
tr ail</w>
战 术</w>
rout es</w>
ni sh</w>
mas ses</w>
dang ers</w>
问 及</w>
cinem a</w>
开发 者</w>
诚 信</w>
expres sing</w>
internation ally</w>
qu et</w>
功 于</w>
归 功于</w>
殖 民</w>
m ing
hy gi
健 全</w>
in- depth</w>
托 德</w>
创 纪录</w>
封 面</w>
愿 景</w>
爱丽 丝</w>
profess ors</w>
comp act</w>
att ach</w>
饰 演</w>
polic ym
displ aced</w>
曝 光</w>
贿 赂
安全 和</w>
手 套</w>
血 清</w>
帐 篷</w>
jo y
院 子</w>
spher ic</w>
确 立</w>
sh u</w>
防 护</w>
贼 </w>
赌 博</w>
北 京
签 字</w>
无 人机</w>
an ism</w>
docum entary</w>
ad dic
acqu ain
溪 </w>
er up
4 50</w>
tim acy</w>
in sufficient</w>
耶 鲁</w>
tr ag
礁 </w>
or ate</w>
guarante es</w>
幢 </w>
coun ts</w>
断 裂</w>
kno cked</w>
ch un
de bu
back up</w>
li ation</w>
sylv ania</w>
经 合</w>
shakespe are</w>
陷 阱</w>
发 性</w>
re ar</w>
甜 蜜</w>
war ren</w>
锌 </w>
cheng du</w>
叛 乱</w>
del hi</w>
vali dity</w>
war ran
动 词</w>
kill er</w>
swit ching</w>
油 田</w>
plan ting</w>
weir d</w>
植 入</w>
integr ating</w>
s son</w>
am or
escap ed</w>
射 击</w>
inser t</w>
tribun al</w>
0 3:
tw in</w>
ac es</w>
es tion</w>
警 惕
00 1</w>
fif teen</w>
shi pped</w>
同 等</w>
变 为</w>
轿 车</w>
pan els</w>
全 身</w>
activ ated</w>
录 片</w>
分 化</w>
抑 郁症</w>
coll ar</w>
appar atus</w>
mat ched</w>
多 元</w>
学 历</w>
summari zed</w>
蕉 </w>
j ay</w>
h r
k an</w>
降 落</w>
a ar
个 性化</w>
sel ecting</w>
jas on</w>
ide ology</w>
si e
lap top</w>
f lic
mal aria</w>
yo ga</w>
公 爵</w>
忠 </w>
露 出</w>
摩 根
mu tually</w>
s &
毫 米</w>
剧 本</w>
pakistan i</w>
相 连</w>
margin s</w>
极 了</w>
耦 合</w>
伙 计</w>
strang ers</w>
3. 1</w>
vari eties</w>
resp ec
feat uring</w>
吉 亚</w>
her oes</w>
岛 上</w>
巴 士</w>
陪 审
h en</w>
l ately</w>
break through</w>
抗 体</w>
感 恩
marke t
evalu ated</w>
peac e
五 月</w>
迪 拜</w>
high lighted</w>
ro g
gu o</w>
issu ing</w>
dis on</w>
骚 扰</w>
j ar</w>
bri dges</w>
抨 击</w>
前 途</w>
玛 丽
大 豆</w>
尺 度</w>
inher itance</w>
a dic
consist ency</w>
eng aging</w>
祖 母</w>
牛仔 裤</w>
ac ies</w>
invo ice</w>
insp ir
lim itation</w>
accum ulated</w>
anni e</w>
pat rick</w>
o scar</w>
队 长</w>
东 欧</w>
树 枝</w>
颁 发</w>
爱 国</w>
职 工</w>
lic it</w>
克 鲁
b n
散 发</w>
te st
op ing</w>
大 笔</w>
打 交道</w>
sust ain</w>
p ine</w>
不 及</w>
nav al</w>
unve iled</w>
dat ory</w>
天 主教</w>
髦 </w>
up ward</w>
密 集</w>
4 ,000</w>
第 一位</w>
je ans</w>
贿赂 </w>
gen esis</w>
sp in</w>
secu red</w>
tai wan
respon ding</w>
砸 </w>
tou ching</w>
毒 性</w>
cont ing
probl em
sou thwest</w>
勇 </w>
岁 月</w>
defic its</w>
bachel or</w>
一 点点</w>
don or</w>
pl ain
mer ger</w>
bi as</w>
doc tr
co- operation</w>
jewel ry</w>
时 髦</w>
ne ural</w>
li ve
explo itation</w>
普 拉</w>
edi t</w>
缺 失</w>
goodb ye</w>
屈 服</w>
中 午</w>
el ect</w>
惠 普</w>
is lam</w>
里 亚</w>
一 贯</w>
poli te</w>
编 号</w>
格 雷</w>
swe at</w>
礼 服</w>
r ental</w>
有 化</w>
graph ics</w>
vers y</w>
wa ste
worl ds</w>
津 贴</w>
可 供</w>
布鲁 塞尔</w>
dr aws</w>
def ect</w>
do s</w>
导 入</w>
繁 忙</w>
营 地</w>
clo sest</w>
kid ney</w>
闪 烁
di al</w>
布 置</w>
约 瑟
o sis</w>
y land</w>
shu ttle</w>
assi sted</w>
探 测器</w>
carib bean</w>
b t</w>
ang les</w>
stor ms</w>
高 血压</w>
contro versy</w>
感恩 节</w>
游 说</w>
sp ray</w>
commit tees</w>
confer ences</w>
du ci
bloom berg</w>
di al
ro l</w>
腕 </w>
养 老</w>
通 风</w>
珍 </w>
off s</w>
胳膊 </w>
骨 折</w>
for t</w>
反 恐</w>
净 化</w>
tur mo
appreci ated</w>
be tr
z hu
access ories</w>
r age</w>
克 罗
览 会</w>
航 天
一 口</w>
wit nesses</w>
笼 </w>
ob sc
少 于</w>
傲 慢</w>
减 去</w>
pr one</w>
cru el</w>
贾 </w>
厂 商</w>
te -
an ten
broad casting</w>
稻 </w>
过 早</w>
愧 </w>
u re
雕 刻</w>
l acking</w>
gui ding</w>
in dul
conce i
b ols</w>
推 理</w>
lew is</w>
care ers</w>
哀 </w>
蜘 蛛</w>
bai du</w>
4 th</w>
抗 生素</w>
infr ared</w>
轮 廓</w>
结构 性</w>
long est</w>
ad he
s aint</w>
st en
bro ok
b ell
爷 爷</w>
这 块</w>
缓 和</w>
亏 </w>
6 ,
面 的</w>
yun nan</w>
无 意</w>
op oli
mo z
furn ace</w>
骨 骼
197 2</w>
支 架</w>
re iter
要 好</w>
transmit ted</w>
斯 托</w>
am ine</w>
ap o
chin ese-
re bel
铁 矿石</w>
bron ze</w>
conce ption</w>
le ap</w>
analy tical</w>
umb rel
crimin als</w>
汇 丰</w>
受 体</w>
水 下</w>
2. 4</w>
tox ic
把 手</w>
傻 </w>
遗 忘</w>
甘 </w>
ph a</w>
eco system</w>
inf ant</w>
陌 生</w>
pun c
advoc ate</w>
沃尔 玛</w>
g lim
co st-
o ta</w>
萨 德</w>
turmo il</w>
penn sylvania</w>
l aying</w>
work force</w>
tan ks</w>
fun eral</w>
st ain
面 孔</w>
therap eu
af i</w>
不 该</w>
本 性</w>
d m</w>
port able</w>
审 批</w>
ro tary</w>
七 个</w>
apprai sal</w>
coo k
ad or
化 学
斯 科特</w>
柴 油</w>
skel et
颁 布</w>
ic on
涅 </w>
美 德</w>
脆 </w>
预 示</w>
迪 士
肌 肤</w>
fe t
st or</w>
好 多</w>
棉 花</w>
w ool</w>
cou pled</w>
文 书</w>
com pression</w>
10 1</w>
迪士 尼</w>
it ability</w>
ob s
la zy</w>
policym akers</w>
波 音</w>
cu rio
referen dum</w>
饱 和</w>
seis mic</w>
南 省</w>
swe pt</w>
审 视</w>
t ag
car ing</w>
im men
视 力</w>
helicop ter</w>
n el
r av
树 上</w>
ass ment</w>
增 多</w>
晶 体</w>
le o</w>
urban ization</w>
服务 业</w>
s oo
° </w>
symbo li
volati le</w>
br is</w>
实 地</w>
m entation</w>
embr y
轨 迹</w>
全 职</w>
pro c
物 业</w>
制 性</w>
phr ases</w>
bo eing</w>
坦 克</w>
vill agers</w>
纲 领</w>
absor bed</w>
remin ded</w>
stan ts</w>
等 候</w>
廉 </w>
辣 </w>
co st
促 销</w>
恶 心</w>
r ounds</w>
b es
ai ss
small -
堵 塞</w>
摔 </w>
cultiv ate</w>
e ter</w>
公 立</w>
finan ces</w>
mid st</w>
ang ered</w>
转 动</w>
si on
di g</w>
才 华</w>
g y-
前 者</w>
li ly</w>
警惕 </w>
co her
刊 登</w>
朴 </w>
崖 </w>
大 通</w>
扶 轮</w>
园 区</w>
ra w
mi xing</w>
情 愿</w>
病 率</w>
photo grapher</w>
闪烁 </w>
副 作用</w>
cru ise</w>
艾 米</w>
无 能</w>
格鲁 吉亚</w>
木 头</w>
ben ch</w>
ad jac
ec d</w>
puni shed</w>
仇 恨</w>
电 阻</w>
称 作</w>
in clin
def end
e ti
un dp</w>
过滤 器</w>
smu gg
co ven
insec ts</w>
ol ine</w>
v ap
method ology</w>
雕 塑</w>
el der</w>
雀 </w>
榜 样</w>
置 评</w>
o id</w>
肉 类</w>
里 约
k ai
撤 出</w>
p he
皱 </w>
el e</w>
de tention</w>
升 起</w>
城 市
bl essing</w>
明 治</w>
煤 矿</w>
xi ang</w>
皂 </w>
购 买
特 兰
aggre ssion</w>
葬 礼</w>
日 程</w>
ak en</w>
里约 热
里约热 内
hal t</w>
five- year</w>
毕 </w>
k am
resp ir
永 不</w>
edi ting</w>
visi tor</w>
f ty</w>
奇 妙</w>
olog ically</w>
measure ments</w>
elabor ate</w>
kno ck</w>
亚 当</w>
jer sey</w>
适 度</w>
sym bols</w>
sle ep
gard ens</w>
激 起</w>
亚历 山
难 性</w>
陆 军</w>
继 承
e es</w>
travel ers</w>
clear ing</w>
bo sses</w>
d ants</w>
音 频</w>
preven ted</w>
不 适</w>
dum ping</w>
午 夜</w>
排放 量</w>
雇 用</w>
勘 探</w>
唐 纳德</w>
女 友</w>
平 稳</w>
民 党</w>
guar dian</w>
o is</w>
gentlem en</w>
zhen g</w>
鲨 鱼</w>
p ar</w>
s ms</w>
pill ar</w>
po se
来 源于</w>
confu ci
lic s</w>
里约热内 卢</w>
bal ances</w>
corro sion</w>
sour cing</w>
外 线</w>
ide ological</w>
暴 跌</w>
num ber
supervis or</w>
仓 </w>
香 蕉</w>
jud ah</w>
mer cy</w>
启 用</w>
thor ough</w>
发 电机</w>
whe els</w>
摄像 机</w>
前 来</w>
authori zation</w>
世 上</w>
miner als</w>
评 分</w>
arri ving</w>
一 书</w>
ro lls</w>
园 里</w>
inter im</w>
3 00
rigi d</w>
co s</w>
der ness</w>
rich est</w>
4 /
增 进</w>
j ury</w>
floo ding</w>
缀 </w>
scenari os</w>
增 速</w>
制 服</w>
le ak
摇 滚</w>
sh ade</w>
埃 德</w>
蝇 </w>
le i
oppon ent</w>
be st
ass ad</w>
as sure</w>
催 化剂</w>
mu </w>
帘 </w>
fe ar
图 标</w>
追 逐</w>
着 陆</w>
住 宿</w>
听 力</w>
mess aging</w>
en na</w>
determin es</w>
备 忘
备忘 录</w>
也 门</w>
politici an</w>
聚 合</w>
europe ans</w>
藤 </w>
束 缚</w>
cy ber</w>
el astic</w>
buil ds</w>
沙 滩</w>
air ing</w>
sla ve</w>
fat al</w>
可 信</w>
s ory</w>
k or
plan ets</w>
转 基因</w>
阀 门</w>
预 料</w>
c ache</w>
审 美</w>
以 免</w>
出 血</w>
不 在乎</w>
计 量</w>
不 定</w>
详 情</w>
eleph ant</w>
stret ched</w>
war n</w>
公 认</w>
mechan ics</w>
or che
g no
越 大</w>
empi rical</w>
saf er</w>
笑 容</w>
灾 难性</w>
只 想</w>
heal ing</w>
perio dic
滚 动</w>
学 习
no tation</w>
恤 </w>
其 后</w>
quali fications</w>
提供 商</w>
re posi
la ur
t astes</w>
overwhel ming</w>
an thro
哺 乳</w>
钥 </w>
开 放
wsd l</w>
pat ents</w>
公 投</w>
phenomen a</w>
deli ghted</w>
肾 </w>
西 南</w>
co 2</w>
contain ers</w>
依 旧</w>
肚 子</w>
交易 员</w>
part -time</w>
残 疾
val ence</w>
asia- pacific</w>
public ations</w>
bus es</w>
evolu tionary</w>
reali zing</w>
累 积</w>
生产 率</w>
长 城</w>
舌 头</w>
datab ases</w>
米 勒</w>
ca ther
ob server</w>
consecu tive</w>
smart phones</w>
em i
坚 固</w>
sh eng</w>
赛 事</w>
决 策
threat en</w>
list en
minimi ze</w>
o sci
红 外</w>
c ans</w>
clear ed</w>
减 小</w>
要 点</w>
打 扫</w>
passi onate</w>
茜 </w>
马 拉</w>
reli ance</w>
演 习</w>
中 风</w>
娶 </w>
at ar</w>
身 高</w>
贸 易
13 %</w>
lear nt</w>
deplo y</w>
准 确性</w>
chron ous</w>
matthe w</w>
双 胞胎</w>
cali br
疫 情</w>
宰 </w>
in habit
元 件</w>
收 音机</w>
at l
纳 粹</w>
associ ations</w>
pi zza</w>
脑 子</w>
装 满</w>
坚 信</w>
exam s</w>
两 岸</w>
reg im
宗 旨</w>
美 学</w>
n ity</w>
p d</w>
wu han</w>
踩 </w>
altern atives</w>
撒 谎</w>
dele gations</w>
祷 告</w>
n ate</w>
non eth
士 丹
士丹 利</w>
t b</w>
摩根 士丹利</w>
substan tially</w>
ske p
韦 斯</w>
ha gen</w>
cor d</w>
m h
light ning</w>
cent ri
桌 面</w>
gl aci
天 花
坚 </w>
sac red</w>
棋 </w>
书 写</w>
du bai</w>
u. s</w>
娃 娃</w>
医 学院</w>
free ze</w>
scat tered</w>
敌 对</w>
buff er</w>
su es</w>
省 份</w>
装 配</w>
sh aking</w>
m c</w>
斯 拉夫</w>
文 斯</w>
倡 导</w>
scan ning</w>
条 目</w>
进 球</w>
神经 元</w>
jen ni
se aled</w>
noneth eless</w>
拉 姆</w>
巨 人</w>
几 千</w>
mongo lia</w>
bro ker</w>
下 令</w>
低 点</w>
de light</w>
文 中</w>
按 时</w>
eth i
汉 姆</w>
in tru
有 线</w>
好 转</w>
残疾 人</w>
lu gg
保守 派</w>
整 整</w>
开 口</w>
底 层</w>
所 得
comm em
t z
成 都</w>
磨 损</w>
着 重</w>
197 5</w>
盲 </w>
电视 机</w>
厉 害</w>
份 证</w>
身 份证</w>
deut sche</w>
deci ding</w>
authentic ation</w>
consul t</w>
plic ity</w>
1. 6</w>
决 定性</w>
bud ge
corru pt</w>
recycl ing</w>
eigh th</w>
嘴 里</w>
夕 </w>
ge ographic</w>
hosti le</w>
布莱 尔</w>
ph er
制 约</w>
加利福 尼亚</w>
y in</w>
car cin
mic row
kid n
商 界</w>
特 勒</w>
臭 </w>
信 赖</w>
d ell</w>
cor n
受 益
野 心</w>
caf e</w>
g age</w>
切 除</w>
re bel</w>
au c
简 洁</w>
起 点</w>
藻 </w>
insi sts</w>
man -
smoo thly</w>
we ibo</w>
软 弱</w>
大 火</w>
墨西 哥
t wee
7 0
mexic an</w>
暴风 雨</w>
ow e</w>
scholar ship</w>
z ations</w>
p on</w>
deci sive</w>
intu i
宁 静</w>
jim my</w>
gu an</w>
i pod</w>
掷 </w>
long ed</w>
纪 录片</w>
切 尔</w>
挑 </w>
统 治
tex ts</w>
稳 步</w>
生 殖</w>
重 返</w>
区 的</w>
psych ologist</w>
in audible</w>
街 区</w>
单 纯</w>
super -
c ant</w>
cather ine</w>
铀 </w>
超 声</w>
automo tive</w>
用 性</w>
aiss ance</w>
stat u
4. 5</w>
expl ored</w>
ster ity</w>
显 现</w>
or acle</w>
me th
何 种</w>
在 意</w>
海 报</w>
子 宫</w>
truc ks</w>
ro ller</w>
同 胞</w>
kin dly</w>
autom ated</w>
羽 毛</w>
源 自</w>
eli gible</w>
平 壤</w>
舟 </w>
aw ful</w>
草 原</w>
trad es</w>
roo se
衰 老</w>
197 3</w>
丙 </w>
inter faces</w>
ong -
nation ality</w>
inf ecti
应 有</w>
sle pt</w>
电 报</w>
dy s
boo t</w>
新 疆</w>
三 大</w>
陈 </w>
仇 </w>
印第 安</w>
bang lad
deal ers</w>
下 班</w>
rein forced</w>
ohi o</w>
人 家</w>
d der</w>
surve yed</w>
er adic
长 江</w>
ter ran
hun an</w>
un doub
as er</w>
d son</w>
te am
容 纳</w>
猛 烈</w>
adjac ent</w>
流 失</w>
约瑟 夫</w>
子 孙</w>
皆 </w>
梭 </w>
镇 压</w>
mor ality</w>
6 6
v ine
jenni fer</w>
py th
罪 恶</w>
音乐 家</w>
dir t</w>
ti ghtly</w>
com pres
涌 入</w>
din osa
闪 闪</w>
s ement</w>
匈 牙
尼 克
武 </w>
adap tation</w>
volati lity</w>
man dar
l .
avo id
fascin ating</w>
acceler ated</w>
d nt</w>
歌 唱</w>
ch airs</w>
for ty-
奶 油</w>
必 不可
壶 </w>
这 边</w>
cam ps</w>
充 斥</w>
全 年</w>
monopo ly</w>
fant asy</w>
行 人</w>
20 -
1 70</w>
挑战 性</w>
主 观</w>
mil an</w>
细 胞
o ecd</w>
boo ts</w>
l enders</w>
物 价</w>
撤 离</w>
中 海</w>
语 义</w>
compar able</w>
马 尔
引 领</w>
h d</w>
tab lets</w>
dis c</w>
滑 雪</w>
一 时</w>
moun ting</w>
百分 比</w>
rel ates</w>
manufac tured</w>
complic ations</w>
论 证</w>
part ner
s ail
mac ao</w>
cor p.</w>
日 历</w>
syn the
出 名</w>
方 位</w>
匈牙 利</w>
der gar
c ely</w>
vari ed</w>
p s
血 糖</w>
有 序</w>
怪 物</w>
挽 救</w>
adju sting</w>
载 体</w>
hoo ds</w>
19 50</w>
召 回</w>
abra ham</w>
蒂 姆</w>
far m
1 200</w>
想 念</w>
stre ss
gl ance</w>
外 来</w>
acceler ation</w>
tour nament</w>
bre ath
o v</w>
18 %</w>
este em</w>
借 款</w>
理 智</w>
演 说</w>
ker nel</w>
ob struc
re ject</w>
芳 </w>
l us
大 笑</w>
r& d</w>
gro cer
st ake
- free</w>
autonom y</w>
晃 </w>
研究 院</w>
坚 实</w>
us eless</w>
le aks</w>
be aten</w>
su ite</w>
微 型</w>
diagno stic</w>
幼 儿
op tional</w>
幼儿 园</w>
ati </w>
cou pling</w>
re stored</w>
人 事</w>
addi tionally</w>
de pri
凑 </w>
em ic</w>
自 闭
自闭 症</w>
curio sity</w>
in fin
豚 </w>
休 假</w>
亚历山 大</w>
counter -
loc king</w>
rac ing</w>
申 报</w>
有 待</w>
parliam entary</w>
pe l</w>
破坏 性</w>
ambi tions</w>
14 %</w>
stat ue</w>
冥 想</w>
po ems</w>
多 媒体</w>
ener gy-
sh at
olo gic</w>
抚 </w>
hor ror</w>
吸 取</w>
gri ef</w>
烟 雾</w>
m amm
n is
coun tless</w>
变 异</w>
艾滋 </w>
per me
roose vel
万 吨</w>
流 通</w>
ham mer</w>
水 晶</w>
再 说</w>
簧 </w>
杀 手</w>
attemp ting</w>
改 编</w>
天花 板</w>
disclo sed</w>
文 物</w>
全 都</w>
不 锈
出版 物</w>
核 能</w>
et c.</w>
swe dish</w>
rele ases</w>
利 物
捡 </w>
ab s</w>
pe t
必不可 少</w>
屑 </w>
exce l</w>
傻 瓜</w>
一 整天</w>
喊 道</w>
ste ep</w>
17 %</w>
ch and
turb ine</w>
jav as
提 琴</w>
威尔 士</w>
洞 穴</w>
col a</w>
鸭 </w>
1 1%</w>
m ri</w>
over head</w>
lab els</w>
tr en
nor thwest</w>
adap ted</w>
不锈 钢</w>
夸 大</w>
杆 菌</w>
ton nes</w>
以 防</w>
co inci
市 值</w>
离 职</w>
拨 款</w>
肝 脏</w>
pp ers</w>
晋 升</w>
佛罗里 达</w>
sh ook</w>
st ays</w>
ex pedi
悯 </w>
发 酵</w>
织 物</w>
gl omer
mo on
refuge e</w>
lugg age</w>
imag ined</w>
零 部件</w>
砍 </w>
pre served</w>
se ize</w>
lim iting</w>
打 扮</w>
entrepreneur </w>
than e</w>
洁 净</w>
arsen al</w>
惯 例</w>
车 型</w>
源 代码</w>
vo y
粗糙 </w>
宾 夕
ver bal</w>
宾夕 法
ge i
民 用</w>
li abilities</w>
l av
俄 亥
封 锁</w>
饱 </w>
首 选</w>
炎 症</w>
crow ds</w>
偏 远</w>
ay a</w>
随 便</w>
阐 明</w>
沙 拉</w>
传 媒</w>
列 为</w>
dis si
选择 性</w>
ous in</w>
戴 尔</w>
coordin ates</w>
任 职</w>
deep en</w>
尤 为</w>
数 组</w>
schol ar</w>
乳 房</w>
奢侈 </w>
缩 减</w>
简 介</w>
型 号</w>
irri gation</w>
mar ath
陪 伴</w>
jum ping</w>
不 上</w>
1 25</w>
平 原</w>
展 出</w>
篮 子</w>
怀 特</w>
main tains</w>
in adequate</w>
strate gi
渣 </w>
v or
坦 率</w>
fu ku
minim al</w>
戈 登</w>
ren dered</w>
accommod ation</w>
shou ted</w>
la wr
闪 电</w>
disc oun
questionnai re</w>
坊 </w>
支 柱</w>
horm one</w>
g ate
coun ted</w>
骨骼 </w>
ethi op
代表 性</w>
us s</w>
defe ated</w>
悄 悄
女 生</w>
抢 劫</w>
go tta</w>
抽 烟</w>
染 色
辈 子</w>
富 含</w>
2 500</w>
20 .
fir ing</w>
mon ster</w>
胆 固醇</w>
走 去</w>
三 明治</w>
特 质</w>
立法 会</w>
影 像</w>
sur faces</w>
gr ac
胚 胎</w>
中 间
塞尔 维亚</w>
马拉 松</w>
猪 肉</w>
sol ely</w>
嫌疑 人</w>
sli ce</w>
做 事</w>
琼 </w>
凌 晨</w>
ens able</w>
奔 </w>
calcul ating</w>
posi tively</w>
e instein</w>
抢 </w>
12 -
re fr
世 贸</w>
scrip ts</w>
war nings</w>
马 尔</w>
foll owers</w>
期 权</w>
益 于</w>
den mark</w>
土 著</w>
sl owed</w>
br un
explo sive</w>
inv ali
ru ption</w>
弗 里</w>
ar t
proto type</w>
poor ly</w>
hu mi
ne ar-
慈 </w>
急 于</w>
瞧 </w>
俄 国</w>
绅 士</w>
chi ll</w>
ev ap
二零 零
新 增</w>
亚 特兰
elev ator</w>
st ell
aggre gate</w>
c ousin</w>
地 形</w>
pat ch</w>
roosevel t</w>
餐 桌</w>
lawr ence</w>
resp ects</w>
缓 冲</w>
dr ain
大 片</w>
plas ma</w>
组织 者</w>
at om</w>
pro ves</w>
长 途</w>
嚼 </w>
fai thful</w>
econom ically</w>
z hi
sli pped</w>
lt d.</w>
历史 性</w>
bloc king</w>
经 贸</w>
acc us
cur b</w>
desp air</w>
当 成</w>
多 尔</w>
challeng ed</w>
运 算</w>
9 0
搅拌 </w>
dam aging</w>
泊 尔</w>
统治 者</w>
掌 控</w>
ro ger</w>
开 幕</w>
assur ance</w>
min orities</w>
法 令</w>
aw ake</w>
爱 因
爱因 斯坦</w>
ga o</w>
premi ses</w>
参 阅</w>
u el</w>
sensi ble</w>
鲜 花</w>
sti ll
僵 局</w>
clean er</w>
君 </w>
prosecu tors</w>
b ble</w>
舌 </w>
配 套</w>
得 不到</w>
mir acle</w>
buddhi st</w>
indi ans</w>
nicol as</w>
s b</w>
foo lish</w>
palestini ans</w>
观 者</w>
原子 能</w>
平 时</w>
注 视</w>
虹 </w>
re adi
semin ar</w>
ing .
雅 典</w>
mad rid</w>
恰 恰</w>
in timate</w>
独 家</w>
c air
capit a</w>
六 年</w>
戏剧 性</w>
de tained</w>
柠檬 </w>
尼 泊尔</w>
据 称</w>
抑 </w>
悲 惨</w>
核 查</w>
explic it</w>
kin dergar
弗 雷</w>
压 制</w>
武 力</w>
幻 灯
per cep
distribu te</w>
forbi dden</w>
poli sh</w>
tow n
gr ants</w>
al bert</w>
哈 拉</w>
il a</w>
棍 </w>
mu st
裁 定</w>
in ver
loc ally</w>
里 奇</w>
rel ying</w>
预 警</w>
rom ney</w>
反对 党</w>
rap e</w>
乐 于</w>
advoc ates</w>
停 车</w>
品 味</w>
兔 </w>
fl our</w>
与 众
与众 不同</w>
16 %</w>
terran ean</w>
ser ge
侮 辱</w>
分布 式</w>
borrow ed</w>
vi al</w>
ne ys</w>
控 件</w>
疡 </w>
地 中海</w>
swe ar</w>
c iting</w>
第 七</w>
定 书</w>
shif ted</w>
promo tes</w>
冰 岛</w>
frustr ated</w>
放 心</w>
cl au
设 有</w>
澳 洲</w>
某 事</w>
la sted</w>
回 避</w>
同 志</w>
问 候</w>
infecti ous</w>
缔约 国</w>
celebri ties</w>
剧 烈</w>
布 鲁</w>
ori de</w>
coun sel</w>
admi re</w>
ch u</w>
wi cked</w>
dis rup
char ming</w>
he els</w>
need le</w>
prepar ations</w>
ge dly</w>
越 过</w>
nor th-
回 想</w>
责 备</w>
near est</w>
设 计
roc kets</w>
vo ic
vi able</w>
c enti
利物 浦</w>
门 徒</w>
ste pping</w>
bud gets</w>
termin ation</w>
传 来</w>
sp ends</w>
hor n</w>
乙 烯</w>
too th
p se
convic ted</w>
精 密</w>
恩 斯</w>
拼 写</w>
薯 </w>
in coming</w>
st akes</w>
de vo
bub bles</w>
anch or</w>
微 观</w>
停车 场</w>
colli sion</w>
无 处</w>
12 :
pri mi
parti ally</w>
矿 物</w>
sub ordin
o de</w>
爆 炸
orche str
州 立</w>
雄 性</w>
ar row</w>
advertis ements</w>
multi ply</w>
hierarch y</w>
锚 </w>
pro stitu
pu pil
规 章</w>
花 朵</w>
ri m</w>
目 睹</w>
十 字
spo tted</w>
羊 毛</w>
修 正
cr um
cigare ttes</w>
lyn ch</w>
赎 </w>
aj ax</w>
h -
应 变</w>
坚 称</w>
bl own</w>
thr one</w>
修正 案</w>
cop en
cu ps</w>
pent agon</w>
灌 溉
spectac ular</w>
gam bling</w>
sun ny</w>
匆 忙</w>
lan ter
冷 冻</w>
adap tive</w>
近 来</w>
mat t</w>
than ol</w>
bom bs</w>
mar gar
merri ll</w>
佣 金</w>
re treat</w>
没 关系</w>
propag anda</w>
保 安</w>
sh r
javas cript</w>
stre sses</w>
fru stration</w>
am en</w>
li fel
p ag
时 钟</w>
i so</w>
背 叛</w>
app liances</w>
vari ations</w>
欣 </w>
地 亚</w>
pre judi
就 此</w>
persp ectives</w>
ti ghtening</w>
幻灯 片</w>
俊 </w>
进 口
溢 </w>
家 务</w>
蝴 蝶</w>
什 么
telec om</w>
deser ves</w>
spec im
创 办</w>
残 忍</w>
lo gging</w>
bec k
傅 </w>
天 后</w>
at oms</w>
acquisi tions</w>
pen ny</w>
teach es</w>
最大 化</w>
缴 纳</w>
o on</w>
ad ul
nur ses</w>
si tion</w>
chol ester
参 </w>
m ented</w>
ro ses</w>
折 叠</w>
dis advantages</w>
ki lo
ho sting</w>
判 处</w>
移 除</w>
厄 </w>
4 5%</w>
gre g
p oured</w>
en di
k u</w>
benef ici
ath ens</w>
surviv ors</w>
尖 锐</w>
夹 克</w>
optimi ze</w>
li p</w>
prof ici
身 心</w>
196 7</w>
mortg ages</w>
提 倡
my th</w>
痕 迹</w>
deliber ately</w>
e h</w>
特 斯</w>
自 私</w>
四 月</w>
contro ll
ven dors</w>
diversi fied</w>
sh ining</w>
suppl ement</w>
精 神
什么 的</w>
缠 </w>
gu it
v is</w>
海 峡</w>
激 怒</w>
装 修</w>
苍 白</w>
medic ation</w>
m aid</w>
端 口</w>
西 蒙</w>
贝 克</w>
有 名</w>
词 典</w>
li ti
芯 </w>
像 素</w>
多 样</w>
kel ly</w>
所得 税</w>
德克萨 斯州</w>
侵 略</w>
l acks</w>
liver pool</w>
ca the
上 校</w>
rw anda</w>
promp tly</w>
inc .</w>
occup ational</w>
交 际</w>
per -
雨 水</w>
tax ation</w>
pupil s</w>
au tism</w>
incorpor ated</w>
broad ly</w>
xin jiang</w>
tur bul
py ram
医 师</w>
gluco se</w>
lin king</w>
sp li
二 级</w>
j ong</w>
会 计师</w>
蝙 蝠
cu is
accom mo
独 一无
tis sues</w>
construc ting</w>
独一无 二</w>
卡 斯</w>
初 创</w>
s ation</w>
树 叶</w>
否 决</w>
前 沿</w>
strai ght
m old</w>
倒 闭</w>
六 月</w>
首 位</w>
益 处</w>
kne es</w>
生产 线</w>
设 在</w>
free zing</w>
hom eland</w>
in ate</w>
脚 步</w>
喂 养</w>
禽 流感</w>
scrat ch</w>
in aug
重 叠</w>
5 th</w>
晚 间</w>
docum ented</w>
pes tici
chi le</w>
undoub tedly</w>
相 遇</w>
swee ping</w>
ren ov
调查 局</w>
上 空</w>
therapeu tic</w>
under stands</w>
下 属</w>
加 斯</w>
罗斯 福</w>
restor ation</w>
睐 </w>
ali g
3 g</w>
gi an</w>
大 米</w>
op er</w>
interpre t</w>
低 收入</w>
c age</w>
r af
el iness</w>
inspi re</w>
失 所</w>
regi stry</w>
certi fied</w>
pec uli
di gi
gas oline</w>
ch al
prot ection
del ays</w>
dow ns</w>
assem bled</w>
底 下</w>
preserv ation</w>
car l</w>
fe u
jer ry</w>
ste ering</w>
excell ence</w>
ever -
innov ations</w>
这 起</w>
战 斗
甲 板</w>
bur ger</w>
reconci liation</w>
respir atory</w>
veter an</w>
desi res</w>
饲 料</w>
ble eding</w>
磋 商</w>
al li
jud ged</w>
ap ec</w>
shi fts</w>
荧 光</w>
卷 入</w>
accommo date</w>
adv ancement</w>
平 常</w>
城市 化</w>
inher ent</w>
该 行</w>
i. e.</w>
预 报</w>
ch ir
197 4</w>
别 墅
制 片
收 紧</w>
哈 根</w>
渔 业</w>
本 哈根</w>
哥 本哈根</w>
re sin</w>
逛 </w>
该 市</w>
s r
逼 </w>
纺 织
business man</w>
inter viewed</w>
over sight</w>
sh allow</w>
aci ds</w>
electrom agnetic</w>
eng er</w>
al pha</w>
偏 离</w>
readi ly</w>
颊 </w>
盲 目</w>
替 代
tr a</w>
sl er</w>
吞 </w>
var ying</w>
c er</w>
战 后</w>
聚 焦</w>
此 刻</w>
den se</w>
哪 怕</w>
stre am
夸 张</w>
增 添</w>
honest y</w>
bur gh</w>
z z</w>
ber ries</w>
di lem
情 侣</w>
混 合物</w>
数 字
纳 税</w>
replac ing</w>
car ter</w>
r ag
辟 </w>
sl u
li qu
sad ness</w>
chr ome</w>
su ited</w>
li able</w>
噬 </w>
只 好</w>
南 斯拉夫</w>
di stress</w>
ir re
斯 加</w>
山 区</w>
inst ability</w>
skir t</w>
br y
pro jected</w>
lo bby</w>
ji e</w>
prohi bited</w>
[...]
