#version: 0.2
e s</w>
e n
t i
o n
d e</w>
o u
a n
q u
a i
o n</w>
l e</w>
r e</w>
l a</w>
p a
e r
e s
l es</w>
p r
e t</w>
i n
en t</w>
e m
e u
o r
i s
a ti
l ’
e r</w>
d es</w>
t r
n e</w>
o m
qu e</w>
a u
e n</w>
i t
c on
e l
c e</w>
d ’
c h
s u
a r
t e</w>
l i
s i
o i
a v
c om
on s</w>
d é
p ou
m e</w>
em ent</w>
ati on</w>
d u</w>
r é
d i
u n</w>
es t</w>
a l
ou s</w>
t s</w>
r a
t re</w>
d an
i l</w>
é t
pr o
c i
r e
u ne</w>
p l
r i
pou r</w>
j e</w>
an t</w>
ai t</w>
ti on</w>
pa r
a u</w>
dan s</w>
i l
a c
ai s</w>
p o
s e</w>
pa s</w>
on t</w>
r es</w>
我 们</w>
a m
eu r
n i
e x
v i
é s</w>
a t
au x</w>
f i
o p
e t
qu i</w>
s s
eu r</w>
a b
a g
e c
com m
su r</w>
it é</w>
qu ’
0 0
c u
pr é
pa r</w>
v ous</w>
a p
o l
el le</w>
en t
p or
on n
一 个</w>
é e</w>
ai re</w>
é r
t u
c es</w>
t ou
’ est</w>
f or
ou v
2 00
t er
u s</w>
m o
t u</w>
m es</w>
d u
i s</w>
ou r
ati ons</w>
eu x</w>
1 9
t es</w>
é g
av e
c o
p u
t en
è re</w>
ai n
c a
d e
n ous</w>
p er
eur s</w>
con s
i m
é es</w>
si on</w>
a l</w>
pl us</w>
g r
f f
c ’est</w>
s er
em b
qu es</w>
他 们</w>
a i</w>
n o
j ’
s i</w>
s t
ti ons</w>
ave c</w>
d r
u ni
en ts</w>
oi r</w>
t é</w>
es s
b i
e z</w>
oi s</w>
l u
g i
n ’
é n
m ais</w>
par ti
ra p
è s</w>
j u
o u</w>
v en
é ri
s ont</w>
o i</w>
ê tre</w>
c r
没 有</w>
s on</w>
ét é</w>
m on
e l</w>
m in
b u
a d
d re</w>
国 家</w>
委 员
委员 会</w>
o b
et te</w>
a le</w>
d is
oi t</w>
m ent</w>
p en
s es</w>
v o
什 么</w>
c er
ai res</w>
in ter
en ce</w>
问 题</w>
a s
an ce</w>
for m
s ’
g u
por t
l ement</w>
ati on
c ette</w>
m ar
é l
tr i
c e
ç a</w>
a t</w>
u n
ti v
n ation
r es
il s</w>
知 道</w>
p eu
s ou
19 9
el les</w>
tou t</w>
a n</w>
en s</w>
c l
pa y
tr av
工 作</w>
f ait</w>
eur op
po s
v er
com me</w>
这 些</w>
pou r
f in
e u</w>
en tr
a s</w>
c ou
is sion</w>
al l
a ts</w>
an ts</w>
an d
欧 洲</w>
j’ ai</w>
au t
pré s
f on
s o
i e</w>
it és</w>
c or
ag e</w>
e au</w>
è me</w>
is e</w>
pay s</w>
可 以</w>
tr es</w>
g n
an g
如 果</w>
de v
ai ent</w>
is s
it s</w>
a ss
o c
n u
r en
bi en</w>
ap p
d em
l’ in
f aire</w>
an s</w>
l eur</w>
t e
t er</w>
our s</w>
or g
qu’ il</w>
pr en
这 个</w>
m i
ch e</w>
it e</w>
p e</w>
s e
an is
per s
trav ai
c ation</w>
em p
关 于</w>
不 是</w>
comm ission</w>
i r</w>
t -
po li
ét ait</w>
需 要</w>
r el
v is
europ é
il l
c i</w>
m an
en tre</w>
v e</w>
d’ un</w>
可 能</w>
m ê
b li
po si
com p
ouv er
e il</w>
s a</w>
提 供</w>
发 展</w>
pr i
s ec
v el
d’ une</w>
b l
u e</w>
g ra
s ti
re c
d onn
en ti
é ra
会 议</w>
vel op
a les</w>
g ar
m on</w>
er s</w>
s é
g én
n on</w>
mo i</w>
dé velop
em ents</w>
报 告</w>
s ol
por t</w>
tr u
f r
en ne</w>
dévelop p
所 有</w>
必 须</w>
因 为</w>
or s</w>
au tres</w>
an d</w>
é c
p on
in s</w>
org anis
d s</w>
f fi
g e</w>
s p
dé c
mê me</w>
cons eil</w>
qu el
su is</w>
m emb
n ouv
l eurs</w>
si d
情 况</w>
先 生</w>
b le</w>
已 经</w>
方 面</w>
poli ti
进 行</w>
m et
s y
j ou
al is
al ement</w>
l’ é
社 会</w>
so ci
r ai
认 为</w>
m es
tr an
an n
in t
is t
pu bli
h u
gra m
其 他</w>
av oir</w>
t ous</w>
ré gi
现 在</w>
su r
comm un
qu es
组 织</w>
m ’
p i
r ait</w>
an de</w>
国 际</w>
con cer
con tr
h om
pro gram
om b
c tion</w>
通 过</w>
v oir</w>
l e
prés ent
cu r
inter nation
in e</w>
it u
di t</w>
es ti
ss i</w>
以 及</w>
développ ement</w>
i t</w>
i que</w>
ab le</w>
o y
t ant</w>
l is
ai n</w>
pro du
è res</w>
f s</w>
dr o
pr ès</w>
i n</w>
d eux</w>
t ’
政 府</w>
f ai
f em
lu i</w>
rap port</w>
au ssi</w>
m ain
an c
o t
qu oi</w>
ai ne</w>
j et</w>
il le</w>
u ti
fi n</w>
con om
gén éra
1 0</w>
mes u
on ne</w>
v re</w>
经 济</w>
memb res</w>
m ati
con n
im port
19 8
ch o
包 括</w>
tran s
一 些</w>
v ent</w>
ai ss
travai l</w>
m a</w>
peu t</w>
pers onn
d er
机 构</w>
op ér
v ou
pré sid
l’ ex
联 合
c ré
gr ou
f a
s -
应 该</w>
di rec
a li
ser vi
f ois</w>
ét ats</w>
l t
c ol
o ù</w>
l’ en
p e
行 动</w>
ju s
p h
is i
ac cor
m ent
é v
cer t
pro c
联合 国</w>
方 案</w>
v a</w>
时 候</w>
s eu
em i
g ouver
t h
gouver n
em pl
t emp
form ation</w>
l o
tr o
ac tiv
dan t</w>
ar ti
m é
e ts</w>
is es</w>
é conom
0 0</w>
任 何</w>
v es</w>
con tre</w>
pr emi
dro its</w>
tr ai
e ff
ain si</w>
su i
app li
qu i
l à</w>
告 诉</w>
d o
ch er
f u
r u
ég alement</w>
oi re</w>
au t</w>
t eur</w>
m a
uni on</w>
tr ouv
政 策</w>
ar i
in t</w>
el s</w>
有 关</w>
d’ in
规 定</w>
é li
这 里</w>
d er</w>
i ci</w>
不 能</w>
ti onn
c ar
建 议</w>
重 要</w>
u tion</w>
事 会</w>
n omb
vo tre</w>
in ci
tri bu
m il
temp s</w>
entr e
c ri
l er</w>
sé cur
t ement</w>
员 国</w>
al ité</w>
sy st
d on
n ’est</w>
决 定</w>
s ans</w>
d om
pro t
— —</w>
tr ès</w>
pa ss
dr oit</w>
au tre</w>
or i
理 事会</w>
a ff
m e
di re</w>
n es</w>
安 全</w>
sécur ité</w>
c le</w>
é ci
时 间</w>
合 作</w>
项 目</w>
p éri
li b
1 2</w>
j ours</w>
en te</w>
提 出</w>
an te</w>
自 己</w>
sp éci
l ég
支 持</w>
pr is</w>
s ais</w>
执 行</w>
ti tu
pu is</w>
qu and</w>
活 动</w>
t on</w>
av ait</w>
这 样</w>
m u
cu l
europé enne</w>
ar d</w>
ar g
得 到</w>
uti lis
a près</w>
tu re</w>
b il
m .</w>
politi que</w>
è g
hom me</w>
不 会</w>
mar ch
d oit</w>
no tre</w>
com ité</w>
v eux</w>
ave z</w>
z -
f ér
只 是</w>
concer n
an ti
pr inci
m en
t oi</w>
vi e</w>
v oi
技 术</w>
s emb
al ors</w>
di ff
f er
posi tion</w>
pl u
te ch
co re</w>
par t</w>
p ec
根 据</w>
présid ent</w>
计 划</w>
a y
ain es</w>
n ations</w>
ét at</w>
ch ang
en core</w>
d ont</w>
oi n</w>
因 此</w>
r a</w>
en ces</w>
ab or
这 种</w>
之 间</w>
fem mes</w>
s or
pa ra
s oit</w>
研 究</w>
ec ti
措 施</w>
法 律</w>
es sion</w>
pro bl
program me</w>
v e
m or
b es
r èg
ô le</w>
uni es</w>
区 域</w>
ca s</w>
使 用</w>
影 响</w>
su lt
b a
要 求</w>
cu li
min is
si ons</w>
采 取</w>
mesu res</w>
人 员</w>
an ci
r ement</w>
为 什么</w>
mo ins</w>
pren dre</w>
rel ati
c ours</w>
en f
at ten
目 标</w>
开 始</w>
parti culi
欧 盟</w>
就 是</w>
ven tion</w>
r ess
met tre</w>
s tru
don c</w>
j am
vi r
grou pe</w>
ol o
c el
av ant</w>
der ni
s se</w>
1 .
世 界</w>
mo y
n éc
s itu
部 分</w>
ce p
一 起</w>
ob j
néc ess
服 务</w>
1 1</w>
b les</w>
ten ant</w>
am ment</w>
su s</w>
ain s</w>
信 息</w>
v ol
ré sol
ar r
pr ises</w>
déc isi
ad op
cr o
li g
con ti
an t
d’ autres</w>
社 区</w>
v ais</w>
er ci
sti tu
po int</w>
au té</w>
p es</w>
v al
f l
保 护</w>
地 区</w>
正 在</w>
s tr
rap h
pour quoi</w>
主 要</w>
b e
2 0</w>
at u
pos si
决 议</w>
系 统</w>
所 以</w>
ac tion</w>
arti cle</w>
pen dant</w>
ai l
地 方</w>
ca dre</w>
pe ti
ê te</w>
r o
g raph
m ise</w>
妇 女</w>
c et</w>
j o
n or
ab il
看 到</w>
el lement</w>
e v
代 表</w>
g l
s an
œ u
j our
è mes</w>
g ag
ec tion</w>
i ti
servi ces</w>
pr om
建 立</w>
是 的</w>
res pon
in di
公 司</w>
ét ab
作 为</w>
a ce</w>
tiv e</w>
ques tion</w>
m is</w>
olo gi
f aut</w>
2 0
semb le</w>
t eurs</w>
ar ri
v eau</w>
re présent
opér ation</w>
es t-
parti e</w>
jou r</w>
ré t
东 西</w>
vou l
or is
diff ér
comp te</w>
pro jet</w>
部 门</w>
de puis</w>
emb re</w>
tou tes</w>
ri en</w>
parti ci
希 望</w>
ab les</w>
m er
l on
继 续</w>
travai l
accor d</w>
ver s
d es
管 理</w>
特 别</w>
起 来</w>
c it
1 5</w>
généra l</w>
发 生</w>
no t
obj ecti
l’ union</w>
m ents</w>
personn es</w>
d ou
r is
qu’ un</w>
a ch
a î
ce la</w>
ét u
d’ ex
mon de</w>
commun auté</w>
市 场</w>
em ent
activ ités</w>
p ai
tou jours</w>
jus te</w>
an ces</w>
ser a</w>
av ons</w>
p eu</w>
qu’ elle</w>
c lu
关 系</w>
cho se</w>
él é
议 会</w>
for c
s ’est</w>
ac c
t és</w>
qu’ on</w>
l ation</w>
mil li
ni veau</w>
ter r
领 域</w>
syst ème</w>
权 利</w>
pen s
考 虑</w>
p eux</w>
200 5</w>
主 席</w>
i gn
nomb re</w>
s om
r em
m al
eu re</w>
sui v
v ue</w>
sec rét
3 0</w>
jam ais</w>
b ou
环 境</w>
00 0</w>
dé j
s al
gu e</w>
公 约</w>
col l
su p
o ci
tou te</w>
économ ique</w>
ré e</w>
教 育</w>
p li
援 助</w>
e -
f our
ch er</w>
cou p</w>
n’ a</w>
concern ant</w>
人 权</w>
o s</w>
mati ère</w>
l ée</w>
ap pro
i ques</w>
孩 子</w>
ac tu
c ’
l a
cons titu
v u</w>
tr a
主 义</w>
at eurs</w>
pa c
posi tions</w>
at ég
dé cl
t a</w>
man i
l’ homme</w>
our ces</w>
é du
r er</w>
vo y
ch a
200 4</w>
非 常</w>
ven ir</w>
努 力</w>
19 7
它 们</w>
解 决</w>
确 保</w>
not amment</w>
oc cu
gouvern ement</w>
dé pen
résol ution</w>
main tenant</w>
co opération</w>
r ou
pro f
es si
a f
an tes</w>
那 个</w>
enf ants</w>
organis ation</w>
200 3</w>
b on</w>
b o
200 2</w>
一 次</w>
pa u
为 了</w>
增 加</w>
ê tes</w>
ou i</w>
200 6</w>
培 训</w>
秘 书
s ous</w>
l ar
l’ h
生 活</w>
déj à</w>
e f
但 是</w>
si dé
au c
commun aut
ver s</w>
es se</w>
dem and
comm ent</w>
bes oin</w>
h i
a fin</w>
mé di
ai de</w>
h o
喜 欢</w>
p ère</w>
fin anci
ques tions</w>
f av
成 员</w>
in stitu
ch i
er a</w>
一 样</w>
最 后</w>
l’ ass
d g
qu er</w>
l’ article</w>
qu’ ils</w>
in form
fi cation</w>
par ce</w>
然 后</w>
不 同</w>
situ ation</w>
europé en</w>
politi ques</w>
ré pon
ré alis
d in
促 进</w>
那 些</w>
ten ir</w>
re cher
su ite</w>
pr ise</w>
ent es</w>
v eu
fér ence</w>
int ér
v rai
as sur
i on</w>
con sidé
régi on
f am
ser v
c entr
成 为</w>
资 源</w>
能 力</w>
ren forc
基 础</w>
no s</w>
at t
200 7</w>
publi que</w>
in v
conti nu
获 得</w>
am éli
s tri
li eu</w>
联 盟</w>
那 里</w>
会 员国</w>
décl ar
con tribu
en n
dem ande</w>
美 国</w>
respon s
方 式</w>
por te</w>
ad minis
r ais</w>
方 法</w>
com pl
和 平</w>
con di
tr ois</w>
appli cation</w>
儿 童</w>
march é</w>
par lement</w>
améli or
政 治</w>
quel que</w>
adminis tr
peu t-
d é</w>
se ign
si eur</w>
x i
z- vous</w>
parti es</w>
fon c
res pec
mon di
mon sieur</w>
美 元</w>
1 0
d oi
200 1</w>
机 会</w>
europ e</w>
i d
ag es</w>
donn ées</w>
ba se</w>
c’ était</w>
一 直</w>
bu dg
g es
s oi
est- ce</w>
c in
r ation</w>
加 强</w>
2 .
qu el</w>
con t
c ap
fon ds</w>
目 前</w>
re comm
怎 么</w>
é ti
c am
i re</w>
si gn
讨 论</w>
internation ale</w>
之 前</w>
décisi on</w>
ti en</w>
pl ace</w>
帮 助</w>
行 为</w>
然 而</w>
qu elle</w>
ress ources</w>
特 别
ffi ci
it es</w>
特别 是</w>
is te</w>
stru c
数 据</w>
d ent</w>
r é</w>
事 情</w>
ra i</w>
abil ité</w>
qu’ à</w>
参 与</w>
l aiss
程 序</w>
200 0</w>
con vention</w>
pré c
ap pu
entre prises</w>
ç on</w>
注 意</w>
onn ement</w>
r aient</w>
pou v
g ne</w>
ê t</w>
vi ent</w>
而 且</w>
é cu
généra le</w>
5 0</w>
今 天</w>
是 否</w>
program mes</w>
for me</w>
pers onne</w>
bu re
处 理</w>
ex am
prot ection</w>
œu vre</w>
t y
由 于</w>
许 多</w>
cert ains</w>
pai x</w>
预 算</w>
i r
l or
pl an</w>
be au
peu vent</w>
ch ar
tech ni
empl oi</w>
g er</w>
文 件</w>
s au
b r
peut- être</w>
qu é</w>
su b
你 们</w>
200 8</w>
c our
vi ol
大 会</w>
新 的</w>
el on</w>
li m
si eurs</w>
co le</w>
s û
成 员国</w>
j ets</w>
真 的</w>
él ec
par t
基 金</w>
comm uni
ann ées</w>
家 庭</w>
po pu
l es
j eu
emb lée</w>
ré du
pen se</w>
du stri
共 同</w>
para graph
一 切</w>
ré sult
朋 友</w>
str atég
é ment</w>
doi vent</w>
sec teur</w>
dé b
cha que</w>
dev rait</w>
fin anc
beau coup</w>
ges tion</w>
相 信</w>
no m</w>
péri o
on e</w>
internation al</w>
ent en
确 定</w>
m at
il les</w>
总 统</w>
其 中</w>
por ts</w>
实 现</w>
es t
produ its</w>
ter min
s avoir</w>
vrai ment</w>
ann ée</w>
作 用</w>
conn aiss
ef for
ch es</w>
premi er</w>
接 受</w>
也 许</w>
2 5</w>
do cu
两 个</w>
ar m
条 约</w>
1 3</w>
c ations</w>
举 行</w>
那 么</w>
aut or
dé fin
it er</w>
找 到</w>
proc édu
电 话</w>
l’ état</w>
企 业</w>
能 够</w>
作 出</w>
d’ en
l’ organisation</w>
par l
e aux</w>
qu a
d a
dom aine</w>
贸 易</w>
af ri
pr ati
o ff
in f
e ffi
fem me</w>
ô t</w>
t ent</w>
d’ hu
战 略</w>
premi ère</w>
av ais</w>
s elon</w>
ten u</w>
eu res</w>
d am
ag ri
ati ves</w>
发 现</w>
u s
règ lement</w>
1 4</w>
如 何</w>
ati ve</w>
公 共</w>
提 交</w>
缔 约
ch e
ai son</w>
particuli er</w>
s’ il</w>
协 调</w>
pr im
必 要</w>
n i</w>
一 步</w>
r s</w>
离 开</w>
来 说</w>
结 果</w>
par ten
or din
u r
m er</w>
app el
po se</w>
proc es
ri r</w>
l oi</w>
1 8</w>
产 品</w>
nouv eau</w>
期 间</w>
ser ait</w>
re gar
concer ne</w>
条 件</w>
t ot
标 准</w>
è rement</w>
ch ez</w>
l ors</w>
m ission</w>
proces sus</w>
at eur</w>
n ég
调 查</w>
m is
自 由</w>
iss ement</w>
san té</w>
tro p</w>
就 业</w>
pro gr
di s</w>
意 见</w>
ex emp
减 少</w>
au jour
c au
一 点</w>
dé e</w>
1 8
é qu
d i</w>
étab l
recher che</w>
lor s
d’hu i</w>
secrét aire</w>
probl èmes</w>
b an
mi eux</w>
审 查</w>
aujour d’hui</w>
ét aient</w>
r ant</w>
possi ble</w>
dé t
尽 管</w>
1 6</w>
bil ité</w>
s ex
pour rait</w>
c an
au g
或 者</w>
é qui
n er</w>
有 效</w>
ca r</w>
ven u</w>
还 有</w>
m om
ve ill
d ois</w>
中 心</w>
ari at</w>
paragraph e</w>
u es</w>
pro jets</w>
all er</w>
s ession</w>
eu se</w>
mani ère</w>
milli ons</w>
en nes</w>
cel u
m ois</w>
con férence</w>
持 续</w>
recomm and
én er
aff aires</w>
ob lig
rap p
每 个</w>
rai son</w>
gi e</w>
ju sti
完 全</w>
tech n
s h
d ol
更 多</w>
评 估</w>
dé mo
s’ ag
probl ème</w>
contr ôle</w>
r ôle</w>
ri di
范 围</w>
condi tions</w>
l’ass emblée</w>
é ch
共 和
只 有</w>
con fi
g en
指 出</w>
m et</w>
lég is
pa tion</w>
法 国</w>
per met
m’ a</w>
vir onnement</w>
ti tre</w>
i i</w>
v er</w>
伙 伴</w>
in st
al u
objecti fs</w>
提 高</w>
gr ande</w>
生 产</w>
techn ologi
协 议</w>
ati f</w>
éri eur</w>
fa çon</w>
c eux</w>
ti n
seu lement</w>
plu sieurs</w>
b onne</w>
g e
中 的</w>
i es</w>
人 们</w>
int ég
en gag
lu t
草 案</w>
个 人</w>
共和 国</w>
人 口</w>
partici p
r ent</w>
pri x</w>
3 .
essi onn
ré s</w>
re g
t aux</w>
organis ations</w>
框 架</w>
原 因</w>
s si
存 在</w>
ch arg
no v
cri min
ét ais</w>
d’ être</w>
选 择</w>
l’in t
mesu re</w>
bure au</w>
秘书 长</w>
l’ ég
1 7</w>
é tr
es p
ca pac
pl o
par ler</w>
准 备</w>
com pris</w>
实 施</w>
pu is
联 合</w>
仍 然</w>
qu ement</w>
se p
in g
u l
aug ment
m ét
om m
出 来</w>
nation al</w>
dé ci
am éri
fi er</w>
is ation</w>
ju ridi
import ant</w>
规 则</w>
gr and</w>
eu ses</w>
personn el</w>
pri v
év alu
进 一步</w>
an al
n e
som mes</w>
dis positions</w>
女 士</w>
pério de</w>
pro position</w>
表 示</w>
n atu
quel qu’un</w>
dé f
参 加</w>
con form
同 时</w>
ch am
3 1</w>
produ ction</w>
取 得</w>
es pa
mom ent</w>
t o
原 则</w>
具 体</w>
con sult
理 会</w>
résult ats</w>
法 院</w>
donn er</w>
任 务</w>
fa ci
mo di
n’ y</w>
c al
xi ème</w>
eff et</w>
安 理会</w>
nomb r
责 任</w>
非 洲</w>
tiv es</w>
强 调</w>
fr an
g ens</w>
ré publique</w>
d eu
régi on</w>
来 自</w>
c s</w>
投 资</w>
人 民</w>
it aire</w>
小 组</w>
cons t
veu t</w>
effor ts</w>
or dre</w>
quel ques</w>
b at
m al</w>
trouv er</w>
例 如</w>
这 么</w>
全 球</w>
res te</w>
on es</w>
武 器</w>
1 5
b én
控 制</w>
ai r</w>
soci été</w>
nouv elles</w>
av i
1 9</w>
2 1</w>
h ab
cr ois</w>
p s</w>
fonc tionn
comp ét
nouv elle</w>
pl e
ou tre</w>
… …</w>
é fi
donn é</w>
fai s
很 多</w>
l’ im
lar s</w>
cons tru
制 度</w>
tou r
princi pa
农 业</w>
exemp le</w>
受 到</w>
整 个</w>
相 关</w>
产 生</w>
occu p
eff ec
c a</w>
hom mes</w>
甚 至</w>
目 的</w>
适 用</w>
in iti
dol lars</w>
一 下</w>
t ée</w>
资 金</w>
f é
2 4</w>
结 束</w>
él abor
cou ra
ti f</w>
f ais</w>
此 外</w>
tu r
gar anti
trav aux</w>
trai té</w>
mor t</w>
变 化</w>
过 去</w>
200 9</w>
prés ente</w>
pou voir</w>
ess enti
prof essionn
u m</w>
m ère</w>
斯 坦</w>
工 作
s em
完 成</w>
gu es</w>
还 是</w>
ai der</w>
增 长</w>
assur er</w>
第 三</w>
当 然</w>
fam ille</w>
e c</w>
制 定</w>
en d
tou r</w>
uni s</w>
bu t</w>
ex te</w>
mu l
过 程</w>
p u</w>
vi c
inform ations</w>
arr ê
co û
ob serv
s er</w>
l’ a</w>
av is</w>
direc tive</w>
c ô
si m
b as</w>
未 来</w>
6 0</w>
女 孩</w>
觉 得</w>
之 后</w>
pos é</w>
av ant
s ouv
an i
anal y
利 用</w>
vou dr
共 同
è ne</w>
vi ens</w>
协 定</w>
不 要</w>
vo s</w>
at te
199 9</w>
g é
four ni
en c
工 业</w>
当 局</w>
h e
ai se</w>
s a
承 诺</w>
cro iss
各 国</w>
认 识</w>
cons équ
立 法</w>
cr ati
t élé
b ar
妈 妈</w>
l ent</w>
基 本</w>
b er
ac t
2 2</w>
适 当</w>
各 种</w>
共同 体</w>
4 0</w>
acc ès</w>
port er</w>
ex i
er re</w>
不 想</w>
t or
la quelle</w>
联 系</w>
in g</w>
l et
尼 亚</w>
min u
servi ce</w>
bén éfi
déc embre</w>
s ci
文 化</w>
mon tr
c ac
职 业</w>
ti que</w>
él ev
com pa
某 些</w>
p le</w>
ac cep
cert aines</w>
o r</w>
下 来</w>
公 民</w>
soi ent</w>
prés ent</w>
sou h
欢 迎</w>
an des</w>
è te</w>
terr oris
ê ts</w>
re t
in s
pr ouv
li gn
gén ér
étr ang
institu tions</w>
水 平</w>
严 重</w>
pro ch
ist ance</w>
改 变</w>
恐 怖</w>
b al
v ement</w>
ac tions</w>
f au
vis ion</w>
seu l</w>
涉 及</w>
dr a</w>
objecti f</w>
soci ale</w>
民 主</w>
parti r</w>
ty pe</w>
看 看</w>
出 现</w>
d esti
pass é</w>
nation ale</w>
pa l
ar mes</w>
真 正</w>
直 接</w>
1 7
qu’ une</w>
er ce</w>
com pren
régi ons</w>
g o
平 等</w>
dé termin
tu res</w>
m é</w>
g a
vis ant</w>
conform ément</w>
重 新</w>
ay ant</w>
étab li
t ab
2 3</w>
esti ss
l’en vironnement</w>
同 意</w>
appu i</w>
m me</w>
mar i
exam in
à -
jus qu’à</w>
s éri
dé pl
in dustri
popu lation</w>
事 务</w>
itu re</w>
alis ation</w>
利 益</w>
代 表
ét ant</w>
行 政</w>
一 定</w>
费 用</w>
结 构</w>
s ens</w>
peti t</w>
以 便</w>
au rait</w>
fr on
souh ai
démo crati
n’ ai</w>
ac cu
资 料</w>
ass oci
cho ses</w>
on c
jour n
g ni
价 格</w>
银 行</w>
an nu
l’ am
pr ession</w>
警 察</w>
看 起来</w>
成 功</w>
grou pes</w>
最 好</w>
是 个</w>
对 于</w>
冲 突</w>
it aires</w>
n é</w>
f ille</w>
进 程</w>
auc un</w>
我 会</w>
économ iques</w>
su jet</w>
con clu
pri or
uni vers
terr it
1 3
h é
nég oci
effi cac
用 于</w>
ser ont</w>
负 责</w>
进 展</w>
cap it
financ ement</w>
import ance</w>
st ati
ré union</w>
有 人</w>
形 式</w>
celu i</w>
in es</w>
déclar ation</w>
限 制</w>
comm erci
0 %</w>
最 近</w>
开 展</w>
城 市</w>
l’ on</w>
c li
ter me</w>
fa ce</w>
all em
auc une</w>
谈 判</w>
m éc
t ôt</w>
tou te
犯 罪</w>
communaut aire</w>
cré ation</w>
感 到</w>
memb re</w>
l’ application</w>
积 极</w>
学 校</w>
2 7</w>
moy en</w>
m aison</w>
toute fois</w>
分 析</w>
办 法</w>
nouv eaux</w>
con du
fi que</w>
1 4
oi res</w>
- ci</w>
健 康</w>
utilis ation</w>
c en
德 国</w>
审 议</w>
充 分</w>
办 公
cul ture</w>
as se</w>
m i</w>
lut te</w>
无 法</w>
ail leurs</w>
收 入</w>
ess ay
deu xième</w>
j an
p re</w>
lo ca
pos er</w>
su s
seu le</w>
l l
h ar
qu alité</w>
1 6
pau v
at s-
p é
s ement</w>
之 一</w>
cit oy
el l
comm erce</w>
一 般</w>
改 革</w>
su ff
rap ports</w>
se con
arg ent</w>
av aient</w>
多 数</w>
org an
s en
as si
moy ens</w>
能 源</w>
2 6</w>
l’ emploi</w>
味 着</w>
意 味着</w>
f ac
l’ ue</w>
h eur
b ru
s oir</w>
partici pation</w>
en vir
回 来</w>
d’ accord</w>
t el</w>
同 样</w>
t a
办公 室</w>
l’ a
du ra
relati ves</w>
en semble</w>
l’ on
renforc er</w>
fi x
in dre</w>
ce e</w>
nation ales</w>
me ill
保 持</w>
ats- unis</w>
2 8</w>
afri que</w>
内 部</w>
o ffici
dev ant</w>
erci ce</w>
那 样</w>
利 亚</w>
ju in</w>
t ation</w>
justi ce</w>
c c
fav eur</w>
v ille</w>
m ag
sû r</w>
stati sti
rap port
nécess aire</w>
程 度</w>
in ts</w>
支 助</w>
表 明</w>
意 思</w>
gr av
sor ti
第 二</w>
budg et</w>
哪 里</w>
设 施</w>
amélior er</w>
autor ités</w>
ér er</w>
ti fs</w>
reg is
po s</w>
qu ant</w>
代表 团</w>
dom aines</w>
soci al</w>
ori ent
女 人</w>
解 释</w>
iss ant</w>
允 许</w>
it ation</w>
derni ère</w>
se in</w>
保 证</w>
父 亲</w>
mét ho
gl ob
更 好</w>
es -
导 致</w>
统 计</w>
英 国</w>
网 络</w>
poli ce</w>
ai sse</w>
好 的</w>
id enti
conn aî
all ez</w>
opér ations</w>
以 来</w>
co m</w>
机 制</w>
publi c</w>
ati s
comm iss
1 00</w>
é ment
t ées</w>
o h</w>
的 话</w>
pr es
derni er</w>
m au
cl é
jeu nes</w>
cou r</w>
缔约 国</w>
l’ europe</w>
pré v
ré gl
d’ action</w>
一 致</w>
造 成</w>
明 确</w>
dev ons</w>
批 准</w>
sou s-
voudr ais</w>
199 8</w>
这 项</w>
gr and
ré es</w>
财 政</w>
procédu re</w>
techni que</w>
en fin</w>
suff is
si e</w>
医 生</w>
li t</w>
dé s
m ad
运 输</w>
déf en
说 明</w>
r oy
ma j
ci r
dépen ses</w>
méc anis
唯 一</w>
进 入</w>
ori g
syst èmes</w>
ex pli
199 0</w>
ai me</w>
4 .
ri er</w>
l an
é cou
atten tion</w>
ob jet</w>
改 善</w>
é chang
超 过</w>
ill et</w>
bes o
s é</w>
e d</w>
car act
高 兴</w>
暴 力</w>
感 谢</w>
fi gu
并 不</w>
a di
dé lég
pré ci
mul ti
v rai</w>
199 5</w>
咨 询</w>
éner gie</w>
令 人</w>
l l</w>
lors que</w>
l é</w>
发 言</w>
爸 爸</w>
2 9</w>
具 有</w>
progr ès</w>
beso ins</w>
ré c
entre prise</w>
ex e</w>
m ér
su l
r ont</w>
义 务</w>
了 解</w>
souv ent</w>
cons omm
l’ ai</w>
re té</w>
mo d
安 排</w>
l’ aide</w>
放 在</w>
min ist
d û</w>
h eures</w>
a ffi
金 融</w>
sou tien</w>
cau se</w>
seign ement</w>
vis i
证 明</w>
支 付</w>
w e
empl oy
qua tre</w>
ré s
internation ales</w>
加 入</w>
vic ti
优 先</w>
for mes</w>
er ait</w>
也 是</w>
l’en semble</w>
开 发</w>
nu clé
règ les</w>
comm une</w>
fi ques</w>
鼓 励</w>
étu di
suiv i</w>
b ri
sui vre</w>
f ont</w>
s ons</w>
似 乎</w>
spéci al</w>
h aut</w>
quel s</w>
s’ag it</w>
全 面</w>
mon tant</w>
comm enc
nécess aires</w>
v ér
bénéfi ci
l’ av
demand é</w>
p én
小 时</w>
伙 计</w>
阶 段</w>
特 派
199 2</w>
广 泛</w>
ass ez</w>
地 位</w>
一 部分</w>
风 险</w>
m and
c elle</w>
c entre</w>
ten tion</w>
enn ent</w>
首 先</w>
re ç
名 字</w>
至 少</w>
稳 定</w>
par le</w>
罗 斯</w>
qu elles</w>
qu it
l’ inter
k o
199 6</w>
è ce</w>
m ain</w>
ch é</w>
ce pendant</w>
pass er</w>
ag ne</w>
199 7</w>
différ ents</w>
am en
ali ment
及 其</w>
ti ques</w>
h an
承 认</w>
è ge</w>
j’ étais</w>
arri v
专 家</w>
tribu n
监 测</w>
正 式</w>
科 学</w>
i ra
设 立</w>
扩 大</w>
î tre</w>
administr ation</w>
议 程</w>
croiss ance</w>
co les</w>
représent ant</w>
en ir</w>
cin q</w>
vol on
éc ri
b re</w>
5 %</w>
特派 团</w>
pa sse</w>
b on
iss ent</w>
dis cu
trouv é</w>
l’ autre</w>
199 3</w>
è ve</w>
d ès</w>
如 此</w>
dis crimin
lon g</w>
n’ ont</w>
司 法</w>
trouv e</w>
r om
199 4</w>
no te</w>
rel ations</w>
g es</w>
organis mes</w>
t- il</w>
stratég ie</w>
mondi ale</w>
h au
l’ année</w>
nation aux</w>
ju di
com b
反 对</w>
s c
et tes</w>
房 子</w>
ju illet</w>
pré par
en coura
联 邦</w>
co ordin
l’ ordre</w>
gr â
travail leurs</w>
modi fi
p a</w>
t able</w>
按 照</w>
a r</w>
实 际</w>
voi e</w>
部 队</w>
dev raient</w>
t ez</w>
secrét ariat</w>
m ou
princi pe</w>
t ob
a de</w>
o k</w>
dam ent
grâ ce</w>
hu man
危 险</w>
竞 争</w>
gu erre</w>
att a
lib er
sp ec
指 令</w>
m oi
大 学</w>
cr u
lon g
以 为</w>
fon dament
n é
o li
因 素</w>
知 识</w>
ex ist
选 举</w>
étu de</w>
意 大
p ê
l’ oc
effec tu
秘书 处</w>
activ ité</w>
指 导</w>
re z</w>
拥 有</w>
desti n
歧 视</w>
in stru
带 来</w>
总 是</w>
维 持</w>
几 个</w>
val eur</w>
l anc
con f
达 成</w>
gouvern ement
ai rement</w>
ali e</w>
l ande</w>
检 查</w>
质 量</w>
f il
ra s</w>
c at
déb at</w>
除 了</w>
relati ve</w>
décisi ons</w>
ap par
最 终</w>
faci l
19 6
9 0</w>
er r
v ois</w>
vi er</w>
工作 组</w>
lib re</w>
挑 战</w>
提 到</w>
am en</w>
永 远</w>
需 求</w>
op h
dan ce</w>
e z-
tot al</w>
u tions</w>
il li
communi cation</w>
qu ête</w>
h ist
is er</w>
意大 利</w>
docu ment</w>
intér ess
g é</w>
t omb
t i</w>
工 人</w>
ét ats-unis</w>
西 班
lig ne</w>
ét aire</w>
合 同</w>
西班 牙</w>
des sus</w>
sou lign
ré uni
h ors</w>
cert ain</w>
app elle</w>
pr eu
au ra</w>
人 类</w>
三 个</w>
f ou
b el
f éli
卫 生</w>
citoy ens</w>
coordin ation</w>
prot ég
ven us</w>
prom ouv
avant age</w>
辩 论</w>
di ffici
recommand ations</w>
ou bli
创 造</w>
s ait</w>
几 乎</w>
su d</w>
prom o
al o
ab lement</w>
ad ap
améri c
re v
s in
f ra
po ints</w>
中 国</w>
价 值</w>
ni e</w>
per man
以 下</w>
du cation</w>
关 注</w>
c ité</w>
respec t</w>
d’ avoir</w>
明 显</w>
mis sions</w>
v as</w>
d onne</w>
通 常</w>
ti ent</w>
f ils</w>
nombr eux</w>
记 录</w>
a k
aff aire</w>
e ill
l oc
独 立</w>
关 键</w>
nu it</w>
sup pl
t ête</w>
roy au
货 币</w>
a dr
four n
con cur
即 使</w>
消 除</w>
以 色
ch ine</w>
tro isi
部 长</w>
出 去</w>
长 期</w>
promouv oir</w>
aut oris
感 觉</w>
fé dé
légis lation</w>
pr is
i dée</w>
组 成</w>
t’ as</w>
particuli èrement</w>
étu des</w>
以色 列</w>
oc tob
数 量</w>
t els</w>
8 0</w>
可 持续</w>
pro positions</w>
i de</w>
m age</w>
qu’ est-ce</w>
报 告
ex iste</w>
ci vi
lis te</w>
法 庭</w>
di eu</w>
ti ers</w>
coll ec
mar s</w>
c h</w>
renforc ement</w>
动 力</w>
cr oy
promo tion</w>
actu ellement</w>
贡 献</w>
l’ un</w>
工 具</w>
h y
octob re</w>
préc é
成 本</w>
is ra
经 验</w>
l s</w>
qu’ en</w>
sep t
h ér
adop té</w>
直 到</w>
现 有</w>
as pec
意 识</w>
mat éri
人 道</w>
业 务</w>
hu main
j et
报告 员</w>
par mi</w>
dura ble</w>
一 天</w>
fran ç
专 员</w>
集 团</w>
su péri
régl ement
事 实</w>
dé sol
ég ard</w>
jan vier</w>
regis tr
po l
aff ec
nécess ité</w>
g ence</w>
l’in formation</w>
nor mes</w>
俄 罗斯</w>
t elle</w>
ti ss
年 度</w>
做 法</w>
199 1</w>
s atis
d a</w>
dé l
er ai</w>
ap prouv
sept embre</w>
princi pes</w>
fr ance</w>
ren dre</w>
呼 吁</w>
adop tion</w>
a m</w>
z ones</w>
respons abilité</w>
et ats</w>
困 难</w>
dem ain</w>
n ent</w>
担 心</w>
附 件</w>
l’on u</w>
大 多数</w>
符 合</w>
ex plo
s ai
投 票</w>
有 点</w>
男 人</w>
peti te</w>
di ri
观 点</w>
da te</w>
plu tôt</w>
d’ autre</w>
im porte</w>
rapp el
条 款</w>
techni ques</w>
以 前</w>
l’ex ercice</w>
l’ accord</w>
capac ités</w>
de z</w>
ch au
an im
un i</w>
pon i
pro pre</w>
建 设</w>
p les</w>
商 业</w>
发 挥</w>
打 击</w>
办 事
学 生</w>
au rais</w>
m ai</w>
a h</w>
g er
prati ques</w>
trai tement</w>
打 电话</w>
prot o
行 业</w>
d it
nov embre</w>
viol ence</w>
représent ants</w>
dis poni
威 胁</w>
em ment</w>
eu sement</w>
t’ es</w>
说 话</w>
尊 重</w>
mi gr
ven tions</w>
g h
ten ue</w>
办事 处</w>
al ités</w>
c les</w>
fai tes</w>
sor te</w>
di ver
trans port</w>
l’é ducation</w>
élé ments</w>
produ c
sen si
变 得</w>
从 来</w>
a z
ren contr
appro che</w>
si gni
tab l
事 件</w>
analy se</w>
qu’ elles</w>
权 力</w>
国 内</w>
对 话</w>
mondi al</w>
per mettre</w>
for ce</w>
a -
accor ds</w>
im pli
e ec</w>
voul ais</w>
倡 议</w>
ris que</w>
gu eur</w>
a me</w>
ti ens</w>
am i</w>
l’ ac
失 去</w>
虽 然</w>
part i</w>
女 性</w>
ch ô
t ard</w>
cep tion</w>
内 容</w>
达 到</w>
专 业</w>
o eu
z one</w>
协 助</w>
évalu ation</w>
per ts</w>
por tu
h on
m enti
数 字</w>
affi r
ati fs</w>
enten du</w>
第 一</w>
st atu
出 口</w>
d’ abor
事 项</w>
terroris me</w>
显 示</w>
r ence</w>
aut ant</w>
ann exe</w>
sy n
ex écu
巴 勒
sur tout</w>
tabl eau</w>
性 别</w>
cor respon
me -
危 机</w>
procédu res</w>
m ement</w>
m ang
tro du
plu part</w>
p tion</w>
正 如</w>
c ec
mer ci</w>
rem erci
运 动</w>
d el
ch ap
欧 元</w>
t é
不 起</w>
as su
ré ser
pro pos</w>
拉 克</w>
回 到</w>
pren d</w>
c elles</w>
demand er</w>
produ it</w>
ar t</w>
ar ds</w>
d ation</w>
生 命</w>
试 图</w>
e z-vous</w>
vi v
分 配</w>
ti rer</w>
pal esti
指 示</w>
troisi ème</w>
1 2
爱 的</w>
亲 爱的</w>
c ite</w>
discrimin ation</w>
儿 子</w>
l’ ab
gen re</w>
ra di
生 物</w>
v éri
经 常</w>
augment ation</w>
受 害
下 降</w>
收 到</w>
正 案</w>
修 正案</w>
提 议</w>
当 地</w>
d’in formation</w>
parten aires</w>
学 习</w>
le -
légis l
au près</w>
main tien</w>
coll abor
缔约 方</w>
自 然</w>
m an</w>
分 钟</w>
l’ utilisation</w>
mand at</w>
ex prim
dé par
记 得</w>
听 到</w>
cré er</w>
in er</w>
ati onn
恢 复</w>
cô té</w>
th é
march és</w>
实 际
定 书</w>
实际 上</w>
愿 意</w>
r il</w>
议 定书</w>
p an
constru ction</w>
实 上</w>
事 实上</w>
comm un</w>
其 是</w>
ri s</w>
尤 其是</w>
différ entes</w>
i li
europé ens</w>
理 由</w>
gr é</w>
m am
ai e</w>
th e</w>
足 够</w>
6 .
import ante</w>
pauv reté</w>
巴勒 斯坦</w>
t an
领 土</w>
各 项</w>
旨 在</w>
jou er</w>
n eu
hé sion</w>
su cc
l’ objet</w>
死 亡</w>
cons ac
mê mes</w>
r empl
sur veill
fon ction</w>
l’ air</w>
che f</w>
cu lt
妻 子</w>
n o</w>
défin i
ch ac
最 大</w>
av ril</w>
dé es</w>
ag er</w>
ve aux</w>
a jou
en voy
dépar tement</w>
juridi que</w>
contr ô
保 障</w>
capac ité</w>
voi là</w>
dé but</w>
si x</w>
禁 止</w>
bu r
- tu</w>
战 争</w>
arri ve</w>
régi me</w>
j’ en</w>
s avez</w>
p eur</w>
_ _
minis tre</w>
n on
b or
aut o
rédu ction</w>
做 出</w>
el i
应 当</w>
遵 守</w>
rapport eur</w>
容 易</w>
不 管</w>
dr ait</w>
gouvern ements</w>
空 间</w>
s on
vo iture</w>
ré gu
案 件</w>
清 楚</w>
意 义</w>
li v
es père</w>
要 性</w>
协 商</w>
不 仅</w>
alo gue</w>
ven ue</w>
再 次</w>
av anc
ter mes</w>
oi x</w>
d’abor d</w>
f o
j’ avais</w>
pr ét
territ oire</w>
c k
n om
材 料</w>
家 伙</w>
l’ég alité</w>
app el</w>
定 义</w>
1 /
预 防</w>
sec teurs</w>
ail le</w>
qu ali
port ant</w>
更 加</w>
cor ps</w>
tribun al</w>
suppl ément
c y
夫 人</w>
应 用</w>
déci dé</w>
v ont</w>
基 于</w>
谢 谢</w>
inv estiss
tiv ement</w>
ai mer
ang l
judi ci
res ter</w>
介 绍</w>
临 时</w>
军 事</w>
ai l</w>
connaiss ance</w>
ci d
docu ments</w>
signi fi
soci aux</w>
n’ était</w>
ri ère</w>
7 0</w>
gar s</w>
pri t</w>
消 费
f illes</w>
onn es</w>
victi mes</w>
通 知</w>
正 确</w>
fon d</w>
上 帝</w>
pré vention</w>
c op
土 地</w>
ca sion</w>
natu re</w>
h or
d avantage</w>
è le</w>
c tions</w>
rés eau</w>
ex tr
ph ot
struc ture</w>
sci enti
commiss aire</w>
发 表</w>
te -
ban que</w>
p er</w>
面 临</w>
规 模</w>
c o</w>
eff ets</w>
for ces</w>
交 易</w>
状 况</w>
cr ise</w>
comp li
设 备</w>
怎 么
afri c
trai te</w>
internation aux</w>
en suite</w>
minist ère</w>
répon se</w>
5 .
防 止</w>
ni veaux</w>
qu ent</w>
tr ain</w>
b e</w>
种 族</w>
rel ev
3 5</w>
采 用</w>
intér êt</w>
t elles</w>
é vi
allem agne</w>
technologi es</w>
è de</w>
爱 尔
pa ti
in qui
爱尔 兰</w>
结 论</w>
大 量</w>
derni ères</w>
b as
tu er</w>
popu l
c k</w>
statisti ques</w>
gi que</w>
in te</w>
v ari
母 亲</w>
pro pr
d or
civi le</w>
du e</w>
b é
198 9</w>
nor d</w>
请 求</w>
sé ance</w>
le quel</w>
si r</w>
cho is
高 级</w>
entr aî
char ge</w>
r on
5 00</w>
cont exte</w>
拒 绝</w>
很 大</w>
n et</w>
emp ê
l’ex amen</w>
l à-
appro pri
葡 萄
réalis ation</w>
ë l</w>
l’ o
理 解</w>
prati que</w>
û t</w>
diffici le</w>
修 订</w>
struc tures</w>
péri ence</w>
l le</w>
mad ame</w>
pl ac
从 而</w>
e h</w>
1 ,
er ont</w>
ec u</w>
vi en
a ï
武 装</w>
europé ennes</w>
confi ance</w>
阿 拉
c é
缺 乏</w>
评 价</w>
ci v
men er</w>
a te</w>
amélior ation</w>
ent u
今 晚</w>
possi bilité</w>
受害 者</w>
重 大</w>
proto cole</w>
voul ez</w>
am is</w>
long temps</w>
concur rence</w>
liber té</w>
professionn elle</w>
d -
满 足</w>
履 行</w>
荷 兰</w>
晚 上</w>
想 法</w>
fron ti
direc tion</w>
r ob
20 10</w>
pos tes</w>
dustri e</w>
0 .
re qu
u ation</w>
d’ ac
比 例</w>
ter re</w>
访 问</w>
fourni r</w>
平 均</w>
établ issement</w>
o l</w>
ob tenir</w>
efficac ité</w>
di ffi
chi ff
错 误</w>
ass istance</w>
continu e</w>
一 级</w>
eur o
不 可</w>
有 些</w>
présent é</w>
传 统</w>
région al</w>
per mis</w>
回 家</w>
支 出</w>
rel i
sorti r</w>
conn u</w>
立 场</w>
明 白</w>
ou r</w>
ch im
ab ri
au x
tr on
历 史</w>
négoci ations</w>
巨 大</w>
语 言</w>
ci -
肯 定</w>
ét és</w>
fav oris
ten us</w>
1 er</w>
d res</w>
laiss er</w>
ca ce</w>
课 程</w>
4 5</w>
oeu vre</w>
sem aine</w>
劳 动力</w>
bi ens</w>
ris ques</w>
en vis
l’é qui
s ch
mon t
财 务</w>
adr ess
ch ance</w>
cont ac
tra di
es prit</w>
pa re
publi cs</w>
l oin</w>
电 子</w>
élabor ation</w>
entr er</w>
â ge</w>
声 明</w>
c atég
非 政府</w>
身 上</w>
rédu ire</w>
financi ère</w>
le v
di alogue</w>
电 影</w>
d us</w>
réuni ons</w>
k e</w>
汽 车</w>
伊 拉克</w>
v é
an ni
sex u
l’in dustrie</w>
l’ importance</w>
特 殊</w>
大 约</w>
mani f
来 源</w>
s’ en</w>
por té</w>
调 整</w>
证 据</w>
l’ espa
ré g
力 量</w>
2 00</w>
t exte</w>
en registr
s tu
设 计</w>
effi cace</w>
2 /
世 纪</w>
明 天</w>
utilis er</w>
ach et
emb our
lo g
ra ss
oc k
cham bre</w>
进 口</w>
cr it
保 留</w>
非 法</w>
for t</w>
palesti ni
pouv ez</w>
hab it
并 且</w>
com bien</w>
c ent
动 物</w>
授 权</w>
ré forme</w>
每 年</w>
all ait</w>
envir on</w>
financi ères</w>
l’ ag
9 2</w>
l’ al
vi gueur</w>
男 孩</w>
délég ation</w>
越 来
越来 越</w>
避 免</w>
pro pri
pl an
m un
di d
不 到</w>
ouv rir</w>
房 间</w>
补 充</w>
o f</w>
日 本</w>
b our
ex t
vol ution</w>
spéci alis
du rée</w>
indi vi
ouver t</w>
aspec ts</w>
ar ab
第 二
tru c</w>
écu tion</w>
form ations</w>
故 事</w>
s enti
改 进</w>
répon dre</w>
ph a
m eur
dé fi
preu ve</w>
meill eure</w>
pê che</w>
申 请</w>
d’ ici</w>
成 果</w>
ch em
主 题</w>
j ap
menti onn
tr ait</w>
人 数</w>
li e</w>
停 止</w>
2 ,
兴 趣</w>
198 8</w>
initi atives</w>
j ac
organ es</w>
proc é
mati que</w>
améri que</w>
pau x</w>
constitu e</w>
t â
n’ en</w>
确 实</w>
région ales</w>
pl ai
ch oix</w>
m én
助 于</w>
fav or
死 了</w>
l’ ap
mal adi
l’ eau</w>
propr es</w>
对 不起</w>
pens er</w>
p oi
f év
communaut és</w>
v ite</w>
y eux</w>
综 合</w>
移 民</w>
f is
精 神</w>
pour raient</w>
dé s</w>
l’ objectif</w>
监 督</w>
sol ution</w>
il leur</w>
const at
ri e</w>
比 亚</w>
ou ti
conom ie</w>
pr est
l and
connaî tre</w>
arti cles</w>
coû ts</w>
protég er</w>
l’ accès</w>
5 8</w>
i -
pro b
travail ler</w>
协 会</w>
orig ine</w>
消费 者</w>
mam an</w>
5 7</w>
is se</w>
希 腊</w>
d ar
d’ inter
uni que</w>
反 应</w>
纳 入</w>
lar ge</w>
平 衡</w>
dis tribu
fi é</w>
di e</w>
royau me-
gr andes</w>
fév rier</w>
établi r</w>
puis se</w>
pos te</w>
maj or
relati f</w>
communaut aires</w>
宪 法</w>
con vient</w>
有 助于</w>
ou ais</w>
sou ff
nombr euses</w>
交 流</w>
o graph
m è
royaume- uni</w>
d r</w>
me illeur</w>
7 .
par ents</w>
ouver ture</w>
œu r</w>
媒 体</w>
e d
g o</w>
it re</w>
bl an
失 业</w>
群 体</w>
t ent
针 对</w>
阿拉 伯</w>
l in
continu er</w>
该 死</w>
共 体</w>
创 新</w>
qu ée</w>
jo h
inf ra
off re</w>
x im
si que</w>
难 民</w>
之 外</w>
3 /
fin s</w>
compét ences</w>
par fois</w>
appu y
有 趣</w>
all ons</w>
it able</w>
2 8
séri e</w>
statu t</w>
let tre</w>
系 列</w>
关 切</w>
trans fer
l’ adoption</w>
j o</w>
d’ a
tu é</w>
相 当</w>
仅 仅</w>
o s
vi vre</w>
普 遍</w>
ver tu</w>
qu’ au</w>
co or
can did
cher cher</w>
规 划</w>
l’é conomie</w>
rec ours</w>
at oire</w>
présent er</w>
多 少</w>
tr a</w>
entr ée</w>
最 高</w>
chô mage</w>
télé ph
pa pa</w>
lib ér
oblig ations</w>
给 予</w>
intér êts</w>
而 是</w>
5 9</w>
fr ère</w>
è rent</w>
parl é</w>
princi paux</w>
ca t</w>
cec i</w>
l’ argent</w>
ten ti
fu gi
签 署</w>
ple in</w>
f abri
chang e</w>
欧 共体</w>
direc teur</w>
mati n</w>
气 候</w>
rem ar
重 要性</w>
ré férence</w>
form u
d its</w>
l am
con centr
gr o
专 门</w>
tiv ité</w>
conf lit</w>
农 村</w>
抱 歉</w>
pro pos
dét ail
défen se</w>
不 再</w>
vi ennent</w>
garanti r</w>
du rant</w>
l’ég ard</w>
conn ais</w>
b â
f lu
5 /
简 单</w>
糟 糕</w>
soci ales</w>
h er
coll è
cons ci
论 坛</w>
o le</w>
相 互</w>
pe ine</w>
7 /
métho des</w>
peu ple</w>
so li
actu elle</w>
收 集</w>
san g</w>
démocrati que</w>
私 人</w>
s k
v ain
éti que</w>
co de</w>
s our
l ’</w>
charg é</w>
gar de</w>
pac t</w>
direc tement</w>
宣 言</w>
fai ts</w>
ph y
per tin
agri culture</w>
a y</w>
0 ,
présid ence</w>
指 标</w>
z e</w>
5 5</w>
法 官</w>
re fu
mécanis mes</w>
év ol
grand s</w>
一 年</w>
这 次</w>
esti m
su per
反 映</w>
empl ois</w>
comp tes</w>
fais ant</w>
man que</w>
宣 布</w>
2 4
资 产</w>
fai te</w>
条 例</w>
公 众</w>
父 母</w>
重 点</w>
qu és</w>
d ence</w>
m ises</w>
h en
considé ra
pers pec
hi er</w>
cons er
autor ité</w>
l’ action</w>
测 试</w>
som met</w>
不 断</w>
集 中</w>
me c</w>
全 国</w>
开 放</w>
bil ités</w>
详 细</w>
centr ale</w>
exam en</w>
nu mér
显 然</w>
in dépen
ati que</w>
表 现</w>
员 工</w>
m ouv
不 得
st e
gr os</w>
198 7</w>
l’ au
克 斯</w>
écri t</w>
ter a</w>
f eu</w>
chang ements</w>
j’ espère</w>
év iter</w>
spéci fiques</w>
紧 急</w>
sec tion</w>
局 势</w>
ré fugi
con fl
3 2</w>
sub st
per met</w>
l’en f
l’av enir</w>
rap id
8 5</w>
l ou
198 5</w>
re tour
9 /
iss ements</w>
民 族</w>
rai sons</w>
tran si
阻 止</w>
bl o
d oc
贷 款</w>
pré vu</w>
c .
伤 害</w>
寻 求</w>
confl its</w>
计 算</w>
l’in st
vo te</w>
val uation</w>
l’int érieur</w>
import ants</w>
t o</w>
有 时</w>
instru ments</w>
désol é</w>
priv é</w>
ré fl
loca les</w>
3 6</w>
appli quer</w>
不得 不</w>
公 平</w>
financi ers</w>
nuclé aires</w>
d’ é
比 赛</w>
l’int ég
l’ énergie</w>
re tour</w>
pré occu
ne w</w>
chac un</w>
概 念</w>
生 产
ur gence</w>
198 6</w>
tr e
资 格</w>
tr ou
早 上</w>
违 反</w>
趋 势</w>
打 算</w>
重 申</w>
5 6</w>
an e</w>
v a
l’é ch
7 7</w>
ri ez</w>
外 交</w>
道 路</w>
succ ès</w>
enf ant</w>
谈 谈</w>
rai n</w>
才 能</w>
po tenti
类 型</w>
moy enne</w>
6 /
. .</w>
li er</w>
dou te</w>
ac tes</w>
y n
ra l</w>
团 体</w>
bu ll</w>
ai des</w>
com pos
v estiss
d’ im
修 改</w>
atte indre</w>
tionn el</w>
appli c
类 似</w>
dis position</w>
d’ ap
cl airement</w>
publi ques</w>
qu ées</w>
l’ un
dem ents</w>
technologi e</w>
密 切</w>
提 案</w>
模 式</w>
pres que</w>
r ons</w>
年 轻</w>
推 动</w>
it alie</w>
collabor ation</w>
inst all
uti le</w>
fu t</w>
di pl
pren ds</w>
ét aires</w>
regar de</w>
l’ ar
contribu tion</w>
病 毒</w>
比 利
ch an
discu s
consomm ation</w>
bi e</w>
9 3</w>
élev é</w>
permet tant</w>
qu anti
dev ait</w>
mar che</w>
min im
essenti el</w>
cam pa
e an</w>
刑 事</w>
保 险</w>
破 坏</w>
t’ ai</w>
n ité</w>
压 力</w>
esti me</w>
z i
constitu tion</w>
p it
agri cole</w>
a x
pa ci
cult és</w>
li és</w>
d on</w>
is me</w>
属 于</w>
l’ élaboration</w>
良 好</w>
e y</w>
pen sais</w>
de hors</w>
3 3</w>
or k</w>
v in
年 轻
比利 时</w>
pl ani
per du</w>
fai ble</w>
lim it
relati fs</w>
res t
financi er</w>
新 闻</w>
年轻 人</w>
j eu</w>
物 质</w>
bi en
jeu ne</w>
pl ement</w>
治 疗</w>
re venu</w>
4 /
possi bilités</w>
diffi cultés</w>
er ie</w>
漂 亮</w>
do ssi
上 述</w>
dépl ac
女 儿</w>
reç u</w>
tra du
构 成</w>
seign ements</w>
communi cations</w>
资 助</w>
chap itre</w>
di vers</w>
c ra
技 能</w>
手 段</w>
成 立</w>
9 5</w>
ven ant</w>
估 计</w>
工 资</w>
l’h eure</w>
- je</w>
a o
审 计</w>
trans ports</w>
v as
无 论</w>
rel s</w>
滋 病</w>
aimer ais</w>
王 国</w>
in ement</w>
b é</w>
l’en seignement</w>
邀 请</w>
caract ère</w>
li min
葡萄 牙</w>
发 达</w>
o t</w>
比 较</w>
chang ement</w>
官 员</w>
单 位</w>
ti é</w>
respons ables</w>
aî t</w>
spéci ale</w>
com prendre</w>
丈 夫</w>
m ess
mati ques</w>
k a</w>
soci étés</w>
confi r
crit ères</w>
本 身</w>
angl ais</w>
首 脑</w>
rapid ement</w>
l’ op
dis pens
h aut
appel é</w>
l aisse</w>
交 通</w>
领 导</w>
声 音</w>
除 非</w>
艾 滋病</w>
rap ide</w>
non -
int érieur</w>
région aux</w>
ex ac
cré é</w>
何 人</w>
ter rain</w>
星 期
mon tre</w>
l’in tention</w>
î t</w>
dev rais</w>
minu tes</w>
direc tives</w>
ç ons</w>
运 作</w>
jo int</w>
conclu sions</w>
资 本</w>
放 弃</w>
pl ans</w>
训 练</w>
éri eure</w>
dem andes</w>
飞 机</w>
定 期</w>
conséqu ences</w>
pouv ons</w>
rou te</w>
han di
fin al</w>
任 何人</w>
p nu
所 需</w>
import antes</w>
3 7</w>
cu l</w>
ave z-vous</w>
vi s</w>
l’é valuation</w>
律 师</w>
li vre</w>
p ér
fonc tions</w>
voi ci</w>
承 担</w>
货 物</w>
région ale</w>
caract ér
丹 麦</w>
t ex
一 方面</w>
human itaire</w>
arrê ter</w>
b es</w>
到 了</w>
atu re</w>
arm ement</w>
pour rais</w>
b a</w>
g ent</w>
2 %</w>
s ence</w>
im médi
而 言</w>
veill er</w>
衣 服</w>
gouvernement ales</w>
有 权</w>
portu g
g no
l ant</w>
基 金
l’é cole</w>
mari age</w>
at éra
rempl ac
宗 教</w>
mar i</w>
3 %</w>
tri ce</w>
该 国</w>
基金 会</w>
6 2</w>
re ce
facil iter</w>
1 %</w>
2 -
额 外</w>
a c</w>
contribu tions</w>
森 林</w>
an dis
nor m
管 制</w>
确 认</w>
4 8</w>
3 4</w>
传 播</w>
准 则</w>
d’ entre</w>
198 0</w>
和 国际</w>
l’ afrique</w>
échang es</w>
年 龄</w>
particip er</w>
回 答</w>
fonctionn ement</w>
6 1</w>
特 定</w>
fam ili
ac cro
si ège</w>
surveill ance</w>
ré si
in trodu
major ité</w>
pro posé</w>
疾 病</w>
pl aît</w>
f e
l ois</w>
文 书</w>
lo t</w>
respons able</w>
vi eux</w>
r ati
损 失</w>
c er</w>
dis tin
l’é volution</w>
瑞 典</w>
di x</w>
d en
7 5</w>
i ’
réfugi és</w>
v it
8 /
pour suivre</w>
fin i</w>
cit er</w>
怎么 样</w>
man u
he in</w>
re l</w>
l’ appui</w>
dis par
西 亚</w>
e x</w>
最 低</w>
ir lande</w>
福 利</w>
保 健</w>
土 耳
土耳 其</w>
hist oire</w>
ress or
opér ationn
éli min
j’ aimerais</w>
l’ ad
很 快</w>
reli gi
trav ers</w>
on s-
b lement</w>
ri ons</w>
pr êt</w>
è ces</w>
m’ en</w>
adop ter</w>
volon té</w>
l’ aut
供 应</w>
鉴 于</w>
6 5</w>
peti tes</w>
障 碍</w>
tou ch
on g</w>
im ag
au -
3 9</w>
药 物</w>
兄 弟</w>
investiss ements</w>
o re</w>
er t</w>
po ss
matéri el</w>
st ock
ch t
a d</w>
医 疗</w>
mécanis me</w>
indi qué</w>
coû t</w>
害 怕</w>
bil isation</w>
统 一</w>
r y
l’ une</w>
ssi e</w>
in é
经 费</w>
diver ses</w>
这 件</w>
or ie</w>
s ite</w>
v ul
照 顾</w>
描 述</w>
consult atif</w>
le y</w>
他 人</w>
w w
变 成</w>
经 历</w>
r ê
commenc é</w>
voi rs</w>
工 会</w>
pouv ait</w>
sour ce</w>
re cru
ple inement</w>
6 3</w>
dé ch
journ ée</w>
disponi bles</w>
élec tri
parten ariat</w>
ex clu
de venir</w>
很 难</w>
eu x
5 1</w>
划 署</w>
土 著</w>
g ation</w>
b ro
s ources</w>
m ill
fr ais</w>
trans par
t ons</w>
ét en
ur b
ca pa
照 片</w>
g am
arriv é</w>
peti ts</w>
es te</w>
indi c
agri coles</w>
t’ en</w>
quali fi
sau f</w>
fonctionn aires</w>
a dé
for te</w>
旅 行</w>
particip ants</w>
应 对</w>
su it</w>
处 于</w>
至 关</w>
2 9
电 视</w>
titu de</w>
1. 3.
主 管</w>
看 来</w>
n et
s t</w>
in ten
少 数</w>
否 则</w>
k i
voi x</w>
毒 品</w>
ag ents</w>
so ins</w>
纽 约</w>
sim plement</w>
ffi ce</w>
关 心</w>
résol utions</w>
多 样
plo itation</w>
今 年</w>
pr êts</w>
ob st
tr oph
眼 睛</w>
复 杂</w>
效 率</w>
规 例</w>
d’in formations</w>
l .
t ar
supplément aires</w>
réser ve</w>
3 0
结 婚</w>
mi ère</w>
建 筑</w>
r i</w>
迅 速</w>
fér ences</w>
食 品</w>
centr es</w>
例 子</w>
值 得</w>
supéri eur</w>
pu l
ré sid
isra ël</w>
塞 尔</w>
ch in
侵 犯</w>
con vain
hab itu
3 00</w>
中 央</w>
mal gré</w>
ap préci
别 人</w>
régu li
ru ssie</w>
y ork</w>
ré u
d at
7 3</w>
ologi que</w>
li ées</w>
pos ent</w>
t ements</w>
dés armement</w>
是 因为</w>
ao ût</w>
sim ple</w>
只 要</w>
3 8</w>
tra fi
pu t
ex er
cher ch
pa tri
l’ agriculture</w>
监 狱</w>
cri me</w>
渔 业</w>
l’ administration</w>
sem aines</w>
d’ex perts</w>
édu cation</w>
voul ait</w>
性 质</w>
atten dre</w>
prés ence</w>
d’ am
ty pes</w>
oblig ation</w>
f ré
in titu
转 移</w>
cons oli
l’oc casion</w>
8 8</w>
m uni
h ô
contribu er</w>
développ er</w>
pro vis
établ issements</w>
s ac
引 起</w>
nuclé aire</w>
4 9</w>
m ac
p il
ch u
年 代</w>
cr oire</w>
曾 经</w>
se aux</w>
d ess
5 2</w>
établ i</w>
li n</w>
élec tron
背 景</w>
s col
con dam
com par
s av
遇 到</w>
攻 击</w>
dan ger
t ellement</w>
l av
éri e</w>
通 信</w>
tu rels</w>
pou voirs</w>
g ences</w>
compa gn
sal ari
ex port
游 戏</w>
o j</w>
élec tions</w>
ex cu
pour ra</w>
tou ris
每 天</w>
l ec
condi tion</w>
comp éti
appel er</w>
re présente</w>
美 洲</w>
正 常</w>
v ing
com port
numér o</w>
消 息</w>
p .
proch aine</w>
è tes</w>
ac p</w>
stratég ies</w>
- -</w>
外 国</w>
trai tés</w>
st abilité</w>
时 期</w>
contr at</w>
7 %</w>
贫 穷</w>
sid a</w>
打 开</w>
i ra</w>
名 单</w>
arr ête</w>
单 一</w>
prior ité</w>
身 体</w>
相 同</w>
等 等</w>
auto cht
défini tion</w>
c ess
适 应</w>
sy m
qua tri
é tro
dev oir</w>
conséqu ent</w>
bé bé</w>
eur o</w>
d’ après</w>
dan ts</w>
粮 食</w>
以 上</w>
布 鲁
有 限</w>
cul ation</w>
ra y
战 斗</w>
ré seaux</w>
et c</w>
juridi ques</w>
担 任</w>
él è
安 全
respons abil
坚 持</w>
h am
ma xim
tionn elle</w>
sex es</w>
humain s</w>
一 系列</w>
sal u
d ’</w>
con sid
è vement</w>
听 说</w>
pha se</w>
principa l</w>
caractér is
6 %</w>
pu iss
奇 怪</w>
d ec
et at</w>
iti ative</w>
l ait</w>
m s</w>
de -
为 止</w>
cons e
les quels</w>
合 理</w>
vo is
g g
arm ée</w>
suiv ants</w>
寻 找</w>
éri eures</w>
inter ne</w>
小 姐</w>
on om
随 着</w>
各 方</w>
b elle</w>
现 实</w>
6 4</w>
生 效</w>
en qu
d’ emploi</w>
n’ as</w>
抓 住</w>
ac teurs</w>
consomm ateurs</w>
l’ex écution</w>
milli ards</w>
ca le</w>
一 位</w>
ac qu
l arg
vestiss ement</w>
层 面</w>
prév oit</w>
ar k</w>
印 度</w>
esp ér
领 导
g és</w>
身 份</w>
pr ie</w>
derni ers</w>
刚 刚</w>
qu ie</w>
制 订</w>
sou mis</w>
ti s
réc emment</w>
bat tre</w>
9 6</w>
d ites</w>
d’ état</w>
ca l</w>
一 只</w>
z- moi</w>
volon t
engag ements</w>
ologi e</w>
prior ités</w>
医 院</w>
ta x
hu m
c tu
c ent</w>
vi e
équi p
l’ efficacité</w>
em por
in clu
u lt
loc aux</w>
外 部</w>
suiv ant</w>
ch ev
assur ance</w>
食 物</w>
9 4</w>
sou tenir</w>
加 拿
port ée</w>
v ill
é ni
ad a</w>
加拿 大</w>
di vision</w>
198 4</w>
立 即</w>
年 期</w>
h onn
ra le</w>
consult ations</w>
transfer t</w>
é di
ré parti
vér ité</w>
vé hi
表 达</w>
过 来</w>
v ise</w>
痛 苦</w>
ag ent</w>
conti n
ez- moi</w>
为 此</w>
év entu
mo t</w>
a w
决 策</w>
i ii</w>
评 论</w>
les quelles</w>
y a</w>
官 方</w>
franç ais</w>
制 造</w>
moi tié</w>
amen dements</w>
客 户</w>
l’espa ce</w>
d p</w>
ang er</w>
竞 争
8 6</w>
di rait</w>
阿 尔
9 7</w>
minis tres</w>
oi rs</w>
peu ples</w>
列 入</w>
青 年</w>
d’ aide</w>
千 年</w>
comp t
cl ass
univers ité</w>
ser aient</w>
obst ac
men ac
envir onn
位 于</w>
8 9</w>
实 践</w>
g re
an a</w>
mil itaire</w>
lu x
核 心</w>
海 洋</w>
mi lieu</w>
montr er</w>
4 4</w>
k e
handi cap
a si
d’ urgence</w>
ten ce</w>
l’ établissement</w>
博 士</w>
fer a</w>
接 触</w>
sign é</w>
vi enne</w>
d o</w>
销 售</w>
bu l
参 考</w>
l’ annexe</w>
is tes</w>
一 条</w>
tr ouver
utilis é</w>
d’ application</w>
j’ aurais</w>
若 干</w>
ri ch
满 意</w>
9 1</w>
担 保</w>
t oire</w>
déch ets</w>
form ul
8 7</w>
enten dre</w>
ordin aire</w>
怀 疑</w>
l y
cl am
d’ en</w>
dé tru
dé pu
fu tu
毫 无</w>
pro fon
là- bas</w>
pens é</w>
l’in stitu
es sions</w>
en droit</w>
现 象</w>
véhi cu
jap on</w>
démocrati e</w>
流 动</w>
autocht ones</w>
下 列</w>
命 令</w>
pro por
t t
ss es</w>
recommand ation</w>
公 开</w>
ga z</w>
居 民</w>
mil itaires</w>
l’équi pe</w>
边 界</w>
l’ at
ver sion</w>
4 %</w>
con cr
march andis
ai ses</w>
i a</w>
fronti ères</w>
mod èle</w>
réalis er</w>
任 命</w>
ac cr
él arg
pr ê
prom is</w>
étrang ères</w>
an g</w>
dé sor
债 务</w>
严 格</w>
der rière</w>
b ass
相 对</w>
d’ assurer</w>
宣 传</w>
fac teurs</w>
dem an
ré v
步 骤</w>
c ouv
发 出</w>
di men
tionn elles</w>
quatri ème</w>
i ons</w>
cep ti
d’ al
不 过</w>
connaî t</w>
ag ir</w>
f re
ologi ques</w>
l’ est</w>
ten ues</w>
is tence</w>
税 收</w>
ju st
双 方</w>
gar der</w>
h ol
a éri
nov ation</w>
extr ê
维 亚</w>
4 1</w>
雇 主</w>
g ées</w>
rel ation</w>
pris on</w>
z a</w>
ra c
main s</w>
可 怕</w>
heur eux</w>
私 营</w>
4 6</w>
h eure</w>
sal le</w>
信 任</w>
谋 杀</w>
cré dits</w>
s ain
在 内</w>
5 3</w>
大 部分</w>
位 置</w>
g ri
最 初</w>
ré alité</w>
d’ armes</w>
4 3</w>
o -
ab and
eur os</w>
écu s</w>
l’ u
br it
伟 大</w>
能 性</w>
oy er</w>
annu el</w>
plani fication</w>
chang er</w>
t on
collè gues</w>
l ise</w>
w i
只 能</w>
pi re</w>
as troph
上 升</w>
bure aux</w>
d ra
n’ est-ce</w>
面 前</w>
阿 富
阿富 汗</w>
5 4</w>
取 消</w>
donn ée</w>
val eurs</w>
d .
c t</w>
bl ess
198 3</w>
indivi du
l’intég ration</w>
我 国</w>
m’ as</w>
arri ver</w>
损 害</w>
日 期</w>
l’ entreprise</w>
d’ améliorer</w>
团 结</w>
humain es</w>
pr on
不 在</w>
混 蛋</w>
4 7</w>
h a</w>
e- moi</w>
co hér
précé d
mau vais</w>
détermin er</w>
8 .
体 系</w>
财 产</w>
学 院</w>
an moins</w>
另 外</w>
para ît</w>
l’h ist
l’ amélioration</w>
登 记</w>
ang e</w>
cat astroph
génér alement</w>
消 失</w>
né anmoins</w>
l’ attention</w>
ti fi
差 异</w>
4 2</w>
家 人</w>
lon gue</w>
l’ acc
可 能性</w>
依 赖</w>
ra ge</w>
人 力</w>
t h</w>
4 -
做 到</w>
0 /
降 低</w>
orig in
a- t-il</w>
实 体</w>
l’ab sence</w>
s avais</w>
称 为</w>
ren seignements</w>
mo der
多 年</w>
某 种</w>
soulign é</w>
从 事</w>
réglement ation</w>
网 站</w>
9 8</w>
souhai te</w>
管 理
ins cri
进 去</w>
aliment aire</w>
地 点</w>
相 比</w>
déclar é</w>
ren du</w>
第 四</w>
s anc
tan dis</w>
diff u
速 度</w>
f li
quit ter</w>
con cl
pay er</w>
全 部</w>
用 户</w>
s onn
voul u</w>
pré occup
environn ement
s ée</w>
最 佳</w>
pos és</w>
adop tée</w>
examin er</w>
et é</w>
c n
trafi c</w>
aut om
préc is
预 期</w>
真 是</w>
cl air</w>
mati ères</w>
em pr
eff ecti
n ée</w>
ré p
figu re</w>
équi pe</w>
下 去</w>
secon de</w>
贫 困</w>
ab sol
pa ge</w>
oi e</w>
sup er</w>
干 预</w>
mo bi
艾 滋</w>
n our
commenc er</w>
pol lu
袭 击</w>
ca ss
m y
8 %</w>
关 税</w>
d an</w>
cour t</w>
échang e</w>
l’int ér
sau v
is ter</w>
au tour</w>
cons eill
constitu ent</w>
prév ues</w>
分 子</w>
di vers
ca ts</w>
一 旦</w>
其 他人</w>
j’ aime</w>
ét ap
tri ces</w>
an te-
编 制</w>
téléph one</w>
谈 论</w>
包 含</w>
lu mière</w>
mau v
fré qu
ex es</w>
observ ations</w>
dem ment</w>
har mon
l’enf ant</w>
connaiss ances</w>
态 度</w>
diri ge
fil m</w>
v an</w>
natu r
pou ss
élabor er</w>
国 民</w>
par ole</w>
bâ ti
vi n</w>
gr èce</w>
av o
伊 斯
接 近</w>
laiss é</w>
veu lent</w>
budg étaire</w>
er ais</w>
t’ a</w>
l’in itiative</w>
mes sieurs</w>
vol u
过 渡</w>
ex tra
s’ ils</w>
résult at</w>
posi tif</w>
pr esse</w>
l’ uni
principa les</w>
扩 散</w>
采 购</w>
avant ages</w>
heur eusement</w>
见 到</w>
pour cent
mou rir</w>
h ou
responsabil ités</w>
f ri
南 部</w>
fondament aux</w>
bou t</w>
坐 在</w>
忘 记</w>
指 控</w>
同 一</w>
it ali
l’hist oire</w>
年 前</w>
élé ment</w>
裁 军</w>
四 个</w>
总 部</w>
enn al</w>
展 示</w>
fr u
方 向</w>
角 色</w>
campa gne</w>
讨 厌</w>
地 球</w>
秘 密</w>
du l
cré dit</w>
sus cepti
cor rec
n’ avait</w>
orient ation</w>
conséqu ence</w>
英 语</w>
编 写</w>
ress emb
du r</w>
污 染</w>
进 来</w>
遗 憾</w>
音 乐</w>
examin é</w>
prob ablement</w>
ci er</w>
désor mais</w>
198 2</w>
d’ évaluation</w>
re venus</w>
i ez</w>
contr aire</w>
marchandis es</w>
b res</w>
c œur</w>
sex e</w>
l’h ô
b y</w>
con jo
dél ai</w>
jou e</w>
n omm
ou est</w>
respec ter</w>
s ois</w>
s cri
索 赔</w>
员 额</w>
b ra
r y</w>
mon étaire</w>
航 空</w>
grav e</w>
en g
fais ait</w>
n avi
judici aire</w>
n av
et h
下 午</w>
s am
bou lot</w>
b onnes</w>
森 堡</w>
dev ez</w>
syn di
d’ administration</w>
视 为</w>
研 究
signifi e</w>
divers ité</w>
卢 森堡</w>
疯 狂</w>
n a</w>
popul ations</w>
军 队</w>
b i</w>
石 油</w>
cour ant</w>
pé tro
二 次</w>
è que</w>
in dispens
当 时</w>
loca l</w>
g ol
con cep
分 类</w>
198 1</w>
transi tion</w>
principa lement</w>
ac compli
éner g
sign al
d y</w>
顾 问</w>
organis é</w>
ori es</w>
dé part</w>
paci fique</w>
刚 果</w>
arr êt</w>
一 半</w>
glob al</w>
chem in</w>
7 2</w>
atte int</w>
ce -
vi h</w>
vis ite</w>
conse ils</w>
好 处</w>
相 反</w>
ré sul
ci dent</w>
faci le</w>
l’ is
sep t</w>
stratég ique</w>
compa gni
分 享</w>
后 果</w>
多 边</w>
empê cher</w>
l’ autorité</w>
9 .
形 成</w>
如 下</w>
k ar
tionn els</w>
交 换</w>
médi as</w>
想 象</w>
scienti fique</w>
parl ement
con ci
领导 人</w>
维 护</w>
co opér
att ach
大 家</w>
pl ain
actu el</w>
举 办</w>
s ent</w>
lan gue</w>
évalu er</w>
这 儿</w>
ér é</w>
remerci er</w>
普 通</w>
m as
pay s-
麻 烦</w>
商 品</w>
o te</w>
cel le
celu i
s ent
g â
joh n</w>
l and</w>
li en</w>
hau te</w>
地 利</w>
ag ue</w>
p sy
dis pose</w>
diffu sion</w>
奥 地利</w>
è tement</w>
7 8</w>
b re
intég ration</w>
glob ale</w>
清 单</w>
tr im
本 国</w>
mer de</w>
b eau</w>
celui -ci</w>
预 测</w>
celle -ci</w>
y p
essay er</w>
mill én
ju ge</w>
manif est
事 故</w>
预 计</w>
9 9</w>
él ection</w>
end ement</w>
体 化</w>
lux embour
w o
atten ds</w>
form er</w>
e m</w>
pi ed</w>
travail le</w>
mang er</w>
compren ds</w>
cir culation</w>
以 后</w>
portug al</w>
c ab
po st
观 察
bel gique</w>
m onn
民 间</w>
男 性</w>
ré affir
来 到</w>
转 让</w>
诉 讼</w>
n’ importe</w>
l’ ira
集 体</w>
perman ent</w>
看 着</w>
brit anni
sol utions</w>
b ois</w>
失 败</w>
si l
li ens</w>
pays- bas</w>
isra éli
ré sou
t empor
期 限</w>
statisti que</w>
尚 未</w>
uni quement</w>
ap porter</w>
conclu sion</w>
补 贴</w>
déclar ations</w>
s ar
h é</w>
今 后</w>
怎 样</w>
che fs</w>
visi ons</w>
suiv antes</w>
拟 议</w>
ven te</w>
candid ats</w>
国 际
监 管</w>
métho de</w>
res tri
cl asse</w>
en quête</w>
maladi e</w>
1 2.
put ain</w>
conser v
e i
multi l
v oit</w>
团 队</w>
f rapp
约 翰</w>
p me</w>
一 体化</w>
particuli ère</w>
劳 工</w>
宪 章</w>
fau drait</w>
约 会</w>
sec r
l’ affaire</w>
mo ts</w>
6 7</w>
in a</w>
职 能</w>
essenti ellement</w>
昨 天</w>
é vo
et tre</w>
d’ appui</w>
t- elle</w>
中 小</w>
doc teur</w>
8 1</w>
p p
答 复</w>
t an</w>
ret ard</w>
év én
afric aine</w>
pen sion</w>
197 9</w>
t eau</w>
écou te</w>
millén aire</w>
ér ation</w>
l’ ont</w>
享 有</w>
3 ,
cl assi
règ le</w>
compl ément
cin qui
取 决
取决 于</w>
situ ations</w>
min or
w al
men ace</w>
议 员</w>
全 体</w>
ré cu
ser ai</w>
赞 成</w>
ouver te</w>
方 针</w>
and a</w>
par venir</w>
présent ation</w>
墨 西
envis ag
li eux</w>
回 顾</w>
罪 行</w>
7 1</w>
compren d</w>
o k
inf lu
è se</w>
s’ appli
外 面</w>
l’ idée</w>
ist an</w>
con nu
6 -
a re</w>
科 索
char te</w>
hu it</w>
en seign
concern és</w>
per dre</w>
utilis és</w>
ain ement</w>
f ête</w>
féli cite</w>
科索 沃</w>
cham p</w>
ég alité</w>
t ori
pour tant</w>
pré venir</w>
dom in
敦 促</w>
dépen dance</w>
附 近</w>
civ ils</w>
后 续</w>
ti en
servi r</w>
bi ent
re cu
con ven
y ou
réparti tion</w>
del à</w>
chiff res</w>
dé cou
rapp elle</w>
住 房</w>
fédé ration</w>
comm ence</w>
lut ter</w>
一 家</w>
4 00</w>
n éra
tr ap
苏 丹</w>
账 户</w>
职 位</w>
ti n</w>
propri été</w>
快 乐</w>
结 合</w>
compét ence</w>
7 9</w>
l’ esprit</w>
as h
grav es</w>
l’é limin
9 %</w>
起 草</w>
présid ente</w>
po que</w>
activ e</w>
融 资</w>
罗 马</w>
伊斯 兰</w>
dé si
cher che</w>
有 所</w>
pro cur
ti ré</w>
alis er</w>
ai m
黎 巴
黎巴 嫩</w>
c’ est-
t ait</w>
at tribu
étrang ers</w>
pourcent age</w>
bient ôt</w>
g al
以 外</w>
废 物</w>
par tout</w>
ati ques</w>
同 事</w>
星 期</w>
d’ énergie</w>
mess age</w>
dro gue</w>
c re</w>
去 年</w>
l ées</w>
d ité</w>
c re
lign es</w>
syst é
s lo
voy age</w>
b ai
pro pose</w>
聪 明</w>
关 闭</w>
pu issent</w>
fam illes</w>
3 -
vul néra
面 对</w>
p -
芬 兰</w>
j i
af gh
à- dire</w>
后 面</w>
consult ation</w>
拟 订</w>
6 8</w>
自 愿</w>
8 2</w>
prépar ation</w>
l’ass istance</w>
ét er</w>
这 份</w>
单 独</w>
pauv res</w>
ç ant</w>
境 内</w>
s’ag issant</w>
核 武器</w>
puis que</w>
ex perts</w>
mis si
transpar ence</w>
各 个</w>
ch ances</w>
20 11</w>
è nes</w>
pnu d</w>
montr é</w>
里 面</w>
cert aine</w>
ten dance</w>
pa ris</w>
竞争 力</w>
ac te</w>
ess aie</w>
comm is</w>
f action</w>
m ation</w>
pos ées</w>
ex péri
要 么</w>
for um</w>
所 说</w>
br an
太 多</w>
教 师</w>
ser ais</w>
重 视</w>
l’o ffice</w>
ren ouv
召 开</w>
旅 游</w>
留 下</w>
men ées</w>
百 分
杰 克</w>
qu e
o g
m ai
consid ère</w>
adap tation</w>
m eu
真 实</w>
合 法</w>
几 年</w>
t ari
appro fon
d’ origine</w>
prest ations</w>
消 费</w>
larg ement</w>
hu main</w>
cul tur
anim aux</w>
c’est- à-dire</w>
pr u
__ __
平 民</w>
gar çon</w>
8 4</w>
in tes</w>
essay é</w>
dam es</w>
法 案</w>
mod alités</w>
administr atives</w>
主 任</w>
regar der</w>
移 动</w>
看 法</w>
多样 性</w>
in ion</w>
l’élimin ation</w>
des cen
年 人</w>
ti fication</w>
em ark</w>
pac te</w>
8 3</w>
dépl oy
巴 黎</w>
at h
8 -
am iner</w>
re connaissance</w>
记 住</w>
mouv ement</w>
pro vo
7 6</w>
d’ ad
us age</w>
l ati
s és</w>
力 于</w>
cinqui ème</w>
indic ateurs</w>
sup pose</w>
e a</w>
计 划署</w>
r oi</w>
car te</w>
国 王</w>
l ac
terroris tes</w>
as -tu</w>
d’ argent</w>
化 学</w>
migr ation</w>
at es</w>
el l</w>
cir const
致 力于</w>
活 着</w>
m r</w>
哪 儿</w>
不 幸</w>
v illes</w>
é pou
初 步</w>
dan emark</w>
at ement</w>
当 前</w>
马 上</w>
k y
g enti
t aille</w>
prof ess
指 定</w>
su ffi
pare il</w>
l our
d’ ar
onc é</w>
男 女</w>
efficac es</w>
bru x
lan gues</w>
商 定</w>
pr o</w>
dis -
l it
s ation</w>
s s</w>
t es-
l’ université</w>
燃 料</w>
伊 朗</w>
s pati
ré vis
contac t</w>
v o</w>
k er</w>
nouv el</w>
am bi
el le-
s hi
résou dre</w>
appuy er</w>
实 行</w>
étudi ants</w>
publi é</w>
viol ations</w>
tr om
des tru
pen ses</w>
améric ain</w>
农 民</w>
atten d</w>
an ie</w>
墨西 哥</w>
d yn
状 态</w>
h al
s- tu</w>
紧 张</w>
tot ale</w>
re voir</w>
er i
分 别</w>
scienti fiques</w>
学 家</w>
proch ain</w>
main tenir</w>
她 们</w>
后 来</w>
sp i
n’ avez</w>
ter res</w>
é coles</w>
d ette</w>
gag ement</w>
cid ent
d ait</w>
g au
瑞 士</w>
con tenu</w>
distribu tion</w>
recher ches</w>
数 额</w>
dossi er</w>
研 讨
级 别</w>
加 以</w>
判 决</w>
艺 术</w>
启 动</w>
人 士</w>
自 从</w>
经 过</w>
è mement</w>
arrê té</w>
commun es</w>
est- il</w>
部 署</w>
approuv é</w>
espa gne</w>
研讨 会</w>
ç u</w>
文 本</w>
幸 运</w>
iti me</w>
accep ter</w>
引 入</w>
z ar
envoy é</w>
franç aise</w>
占 领</w>
tur quie</w>
潜 在</w>
l’intér êt</w>
小 型</w>
pré serv
aband onn
vér itable</w>
审 判</w>
onc er</w>
aut eurs</w>
出 生</w>
上 面</w>
pa pi
pré f
organ e</w>
di ction</w>
ca f
cons en
参 与
co ol</w>
én or
比 如</w>
v ac
re -
观 察</w>
角 度</w>
at eli
ec ou
遭 受</w>
pa tions</w>
initi ative</w>
亚 洲</w>
secon d
pén ale</w>
ven ez</w>
即 将</w>
seu ls</w>
高 度</w>
o is
病 人</w>
médi cam
sé min
capit aine</w>
尼 斯</w>
le ver</w>
t ac
fr oi
斯 洛
b ons</w>
涵 盖</w>
para ître</w>
妈 的</w>
他 妈的</w>
t ch
l’ étude</w>
ci el</w>
capit al</w>
到 达</w>
lanc é</w>
出 版</w>
释 放</w>
in formation</w>
屁 股</w>
从 未</w>
尽 可能</w>
exi gences</w>
ac compagn
export ations</w>
exac tement</w>
d ons</w>
déc ri
rappel er</w>
t es
réfl éch
spéci fique</w>
budg étaires</w>
古 巴</w>
catég orie</w>
惩 罚</w>
catég ories</w>
国际 法</w>
斯 特
réalis és</w>
th ème</w>
con ventions</w>
favoris er</w>
volu me</w>
m ets</w>
su e</w>
fau te</w>
197 5</w>
昨 晚</w>
org e</w>
cy cle</w>
tomb er</w>
ot h
b aisse</w>
职 责</w>
布鲁 塞尔</w>
défin ir</w>
l’ex périence</w>
d eur</w>
答 案</w>
不 够</w>
ren d</w>
你 好</w>
grand -
排 放</w>
dev ra</w>
can ada</w>
i dées</w>
re venir</w>
l’ as</w>
contr ats</w>
根 本</w>
延 长</w>
v aut</w>
往 往</w>
杀 死</w>
马 里</w>
off rir</w>
col on
ons- nous</w>
a h
défi s</w>
非 正式</w>
chim iques</w>
luxembour g</w>
brux elles</w>
再 也</w>
出 版
poi ds</w>
é cl
6 6</w>
phot o</w>
0 1</w>
ra les</w>
dé rou
rec ettes</w>
绝 对</w>
gé ograph
北 部</w>
e illi
pro che</w>
su ède</w>
viv ant</w>
ma î
尤 其</w>
d’ ailleurs</w>
anci en</w>
premi ers</w>
筹 备</w>
sol d
随 后</w>
l’éch elle</w>
ré clam
睡 觉</w>
bi ennal</w>
soulign er</w>
贩 运</w>
d’ex aminer</w>
r ue</w>
instru ment</w>
d’ intérêt</w>
suffis amment</w>
劳 动</w>
provis oire</w>
pi b</w>
ci de</w>
répon ses</w>
d ement</w>
等 待</w>
ap pris</w>
at oires</w>
修 正</w>
回 去</w>
esp èce</w>
don ateurs</w>
dan ger</w>
体 制</w>
适 合</w>
trai ter</w>
reg ret
sou ligne</w>
publi cation</w>
pit al</w>
de venu</w>
p om
残 疾
m ène</w>
él ar
妹 妹</w>
乐 部</w>
俱 乐部</w>
待 遇</w>
al li
su d-
ré mun
premi ères</w>
完 整</w>
st at</w>
合 并</w>
è lement</w>
愚 蠢</w>
l’acc ent</w>
里 斯
雇 员</w>
to m</w>
ru ption</w>
操 作</w>
r entr
l’ augmentation</w>
satis faction</w>
进 步</w>
197 8</w>
未 能</w>
en -
neu f</w>
fi t</w>
留 在</w>
案 例</w>
cor por
d î
iné a</w>
commerci ales</w>
捐 助
électron ique</w>
iss ons</w>
假 设</w>
认 真</w>
élarg issement</w>
l’am our</w>
n y</w>
adop tées</w>
lim ites</w>
ph én
f allait</w>
modi fication</w>
6 9</w>
逮 捕</w>
déb ats</w>
v oire</w>
in ation</w>
é missions</w>
tâ ches</w>
dyn am
大 规模</w>
5 -
最 新</w>
men é</w>
mor ts</w>
particip é</w>
procé der</w>
一 张</w>
7 4</w>
残疾 人</w>
sp h
gag ner</w>
re connaiss
bi o
victi me</w>
落 实</w>
at ér
du es</w>
r emp
第 五</w>
gé ni
k i</w>
pos ée</w>
arab e</w>
garanti e</w>
更 新</w>
pré vue</w>
sau ver</w>
con cours</w>
u ment</w>
immédi atement</w>
extrê mement</w>
ari ats</w>
consen sus</w>
到 底</w>
progr essi
au di
g ée</w>
d’ écus</w>
提 醒</w>
s co
perspec tives</w>
hum aine</w>
对 此</w>
considé rée</w>
fer me</w>
赔 偿</w>
proc ès</w>
éri eurs</w>
enqu êtes</w>
j’ y</w>
ap port
m eurs</w>
排 除</w>
负 担</w>
aut onom
ca les</w>
sanc tions</w>
s at
bon jour</w>
un ités</w>
sor t</w>
d’en seignement</w>
dou ble</w>
行 使</w>
pr ess
condu ite</w>
来 看</w>
pré al
老 板</w>
l’ analyse</w>
ré formes</w>
别 的</w>
节 目</w>
巴 西</w>
ple ine</w>
重 建</w>
文 章</w>
in c
capa ble</w>
im possible</w>
干 事</w>
dépu tés</w>
chang é</w>
au raient</w>
mu tu
eu h</w>
s u</w>
ci- après</w>
ti er</w>
encoura ger</w>
pren ant</w>
d’ eau</w>
fu ll</w>
报 道</w>
r av
employ és</w>
ill ég
re fl
快 速</w>
ign or
l’ activité</w>
éti ez</w>
tâ che</w>
occup er</w>
e k
mon ter</w>
considé ration</w>
双 边</w>
recomm ande</w>
modifi cations</w>
min es</w>
augment é</w>
日 益</w>
d ents</w>
génér aux</w>
spéci fi
lim ite</w>
gouvern ance</w>
tr ac
m c
chi en</w>
pré hen
europ ean</w>
这 场</w>
a p</w>
associ ation</w>
c on</w>
pren tiss
年 底</w>
数 据
不 足</w>
t _
pl a
import ations</w>
ass emblée</w>
车 辆</w>
es tre</w>
séri eux</w>
habit ants</w>
do c</w>
et -
destin és</w>
与 会
accor der</w>
meur tre</w>
f or</w>
l’institu t</w>
b omb
l’ armée</w>
en vironnement</w>
建 造</w>
par all
oi gn
médi aire</w>
婚 姻</w>
没 事</w>
con fron
ré par
波 兰</w>
re ques
délég ations</w>
effor t</w>
p pe</w>
en vie</w>
实 质
li ation</w>
bi ais</w>
定 性</w>
ni s</w>
f f</w>
tu e</w>
l ements</w>
与会 者</w>
m ol
fon dée</w>
斗 争</w>
reques t_
vo l</w>
request_ full</w>
投 入</w>
- même</w>
总 体</w>
véhicu les</w>
subst ances</w>
空 气</w>
per te</w>
购 买</w>
vi dé
f ar
co eur</w>
覆 盖</w>
发 言
fourn iss
rou ge</w>
可 爱</w>
favor able</w>
pi èce</w>
l’ex ploitation</w>
免 费</w>
sc ène</w>
l’im pact</w>
err eur</w>
de vient</w>
6 00</w>
di min
替 代</w>
achet er</w>
part age</w>
ban ques</w>
clu sion</w>
esp oir</w>
chau ff
ap parti
海 关</w>
证 实</w>
comm ent
voul ons</w>
en d</w>
b en</w>
so y
强 大</w>
inv ite</w>
数据 库</w>
organis ée</w>
工 程</w>
里 斯</w>
dirige ants</w>
jus qu’au</w>
si è
mes dames</w>
di minu
婴 儿</w>
mauv aise</w>
d re
jou é</w>
considé ré</w>
m it
semb l
viol ation</w>
avi ons</w>
contr ain
用 来</w>
t ali
comm is
尝 试</w>
té moi
197 7</w>
perman ente</w>
cu is
d’ amérique</w>
ch y
posi tifs</w>
dé cr
r embour
vien dra</w>
fau dra</w>
此 类</w>
公 正</w>
différ ence</w>
généra les</w>
cri mes</w>
de dans</w>
dan te</w>
sin on</w>
circonst ances</w>
élimin er</w>
拘 留</w>
so l</w>
con ception</w>
1 -
journ al</w>
10 .
trav er
特 征</w>
植 物</w>
économ ie</w>
标 题</w>
第 十
avi ez</w>
réalis é</w>
con férences</w>
受 伤</w>
si mil
dé sign
各 地</w>
对 待</w>
prentiss age</w>
prépar er</w>
发 布</w>
4 0
dro gues</w>
re jet
ré su
d’ établir</w>
dimen sion</w>
日 内
o ti
vers aire</w>
ti ennent</w>
生 气</w>
comp ter</w>
territ oires</w>
r entrer</w>
日内 瓦</w>
候 选
co hésion</w>
er n
b ras</w>
am ie</w>
pa ri
popul aire</w>
phén om
touris me</w>
es s</w>
it y</w>
l’ag ence</w>
détermin ation</w>
mal heureusement</w>
全 球
qu in
alis te</w>
è les</w>
n aiss
ess es</w>
ex cep
业 率</w>
l’in di
常 驻</w>
制 裁</w>
arr ang
j e
d’ assistance</w>
é cr
croy ais</w>
ex périence</w>
pren nent</w>
爆 炸</w>
实 验
l è
arm és</w>
k h
re traite</w>
économ ies</w>
教 授</w>
dipl ô
conti ent</w>
l’ om
ar me</w>
concl u</w>
7 -
4 ,
澳 大
澳大 利亚</w>
心 理</w>
inter net</w>
justi fi
désol ée</w>
太 太</w>
blan c</w>
mo de</w>
k istan</w>
plai sir</w>
augment er</w>
计 算
féli cit
consoli dation</w>
no té</w>
都 会</w>
起 诉</w>
家 里</w>
f asse</w>
organis er</w>
ra con
p et
obstac les</w>
li r</w>
pro li
合 适</w>
all oc
t oi
强 烈</w>
relati vement</w>
取 代</w>
aux quels</w>
s’ y</w>
es- tu</w>
休 息</w>
研究 所</w>
原 子
透 明
compl ète</w>
progr ess
不 仅仅</w>
固 定</w>
埃 及</w>
ce f</w>
v ali
c aux</w>
里 亚</w>
突 然</w>
ach ev
enti er</w>
engag ement</w>
con sul
dis ci
sci ence</w>
représent ent</w>
is ent</w>
all é</w>
ent -
5 ,
n er
d ot
mi cro
享 受</w>
m ée</w>
差 距</w>
cin qu
réu ssi</w>
退 休</w>
f er</w>
l’ âge</w>
bor d</w>
1. 2.
g ement</w>
su gg
议 院</w>
espa gno
qu ar
étudi er</w>
su isse</w>
d’ éducation</w>
parti s</w>
d’ enfants</w>
挪 威</w>
低 于</w>
l’ obligation</w>
尸 体</w>
sou viens</w>
mi r</w>
及 时</w>
l’ex istence</w>
联 网</w>
préoccu pations</w>
compa ti
潜 力</w>
indispens able</w>
install ations</w>
au quel</w>
实质 性</w>
有 没有</w>
gr an
期 望</w>
applic ables</w>
secon d</w>
centr al</w>
p ôt</w>
voy ez</w>
permet tent</w>
oc cident
现 金</w>
ci n</w>
ch érie</w>
il lu
回 应</w>
mu sique</w>
cl é</w>
高 等</w>
natur elles</w>
ter n
阅 读</w>
祝 贺</w>
谴 责</w>
出 席</w>
尽 快</w>
land ais</w>
事 业</w>
完 美</w>
secr et</w>
is é</w>
cé ré
euro stat</w>
consci ence</w>
两 性</w>
津 贴</w>
自 我</w>
增 强</w>
eth ni
ser t</w>
tex tes</w>
想 到</w>
计算 机</w>
effec tivement</w>
tri che</w>
appro visi
忘 了</w>
tu rel</w>
pou vais</w>
中 海</w>
discus sion</w>
总 额</w>
cel lu
m ass
concern ées</w>
éch é
地 中海</w>
ex ercice</w>
l’ entrée</w>
cons iste</w>
十 年</w>
maî tr
gen ève</w>
pl éni
带 到</w>
b rési
小 心</w>
discus sions</w>
ko so
preu ves</w>
proli fér
destru ction</w>
évol ution</w>
透明 度</w>
suiv ante</w>
d’ ab
ist ant</w>
fr anc
第 五
中 期</w>
qu arti
fabri cation</w>
n a
pério di
统 计
i v</w>
de z-vous</w>
ch aî
évén ements</w>
spéci ales</w>
met tant</w>
前 景</w>
diff us
拉 夫</w>
futu r</w>
b ande</w>
rév él
port ation</w>
do s</w>
compl ètement</w>
o v
t él
potenti el</w>
tot alement</w>
recommand é</w>
l’ or
不 利</w>
rece voir</w>
rest au
utilis ées</w>
实验 室</w>
制 造
figu rant</w>
o d</w>
migr ants</w>
吸 引</w>
produc teurs</w>
garanti es</w>
两 年</w>
l’ avis</w>
men ée</w>
cou rir</w>
vis age</w>
pai ement</w>
5 0%</w>
phy sique</w>
g dp</w>
prolifér ation</w>
principa le</w>
maladi es</w>
intitu lé</w>
lors qu’il</w>
f ou</w>
有 用</w>
aliment aires</w>
ré vision</w>
compéti tivité</w>
rai sonn
fi r
dem n
perspec tive</w>
l’en quête</w>
tru cs</w>
caractéris tiques</w>
rencontr é</w>
上 诉</w>
ai gn
n ement</w>
au ront</w>
类 别</w>
ti on
题 为</w>
or ique</w>
in é</w>
拉 丁</w>
com position</w>
soi x
d’ euros</w>
bi zar
identi té</w>
t al
c nu
déc en
inter ro
ot te</w>
百 万</w>
danger eux</w>
li re</w>
c eux
destin ées</w>
v i</w>
docu ment
itu res</w>
ori ent</w>
ren contre</w>
ré ment</w>
cl e
voul oir</w>
de au</w>
afgh anis
ex cel
南 非</w>
第二 个</w>
生 态</w>
mé dec
细 节</w>
in spec
condu it</w>
inv ité</w>
运 行</w>
trouv ent</w>
rég ler</w>
供 应
a des</w>
sup prim
d’ europe</w>
graph ique</w>
outi ls</w>
infra structures</w>
指 数</w>
b ag
工 厂</w>
腐 败</w>
afghanis tan</w>
宝 贝</w>
acc él
s h</w>
检 察
clu b</w>
ré per
l’ ai
w or
soli dar
整 体</w>
dipl om
多 么</w>
f as
élè ves</w>
er ons</w>
con go</w>
s .
s .</w>
伯 特</w>
requ ér
1. 4.
候选 人</w>
caf é</w>
铁 路</w>
原子 能</w>
d’ y</w>
ê tres</w>
vi t</w>
rass emb
ru r
explo it
期 待</w>
ouv re</w>
mè tres</w>
is té</w>
w il
观察 员</w>
paragraph es</w>
direc te</w>
collec te</w>
tr é
pro venant</w>
专 题</w>
arriv ée</w>
cli ents</w>
br û
fran ch
f en
we b</w>
得 出</w>
任 期</w>
oc casion</w>
c n</w>
机 关</w>
拨 款</w>
f r</w>
提 及</w>
dit err
ver re</w>
z z
在 乎</w>
n’ es</w>
sensi bilisation</w>
b ation</w>
里 克</w>
orient ations</w>
exclu si
crimin alité</w>
grou p
机 器</w>
tribun aux</w>
salari és</w>
industri elle</w>
re trouver</w>
在 于</w>
l ab
l’ i
intég rer</w>
diterr an
伦 敦</w>
dél ais</w>
lu n
pro vin
supplément aire</w>
financ er</w>
bénéfici er</w>
parten ariats</w>
依 据</w>
g a</w>
ti re</w>
ex ion</w>
机 场</w>
几 天</w>
pré fér
élec tor
étap e</w>
én onc
难 以</w>
affec tation</w>
m ie</w>
différ ences</w>
k il
开 车</w>
éti ques</w>
ins cr
autoris ation</w>
记 者</w>
经 济
atta que</w>
r o</w>
puiss ance</w>
pens ez</w>
功 能</w>
rencontr er</w>
th èse</w>
s avons</w>
enti tés</w>
ten sion</w>
disci pl
ter ri
déci de</w>
comport ement</w>
vi es</w>
v or
试 验</w>
垃 圾</w>
k o</w>
permet tra</w>
pr ête</w>
ti r</w>
li qui
relev ant</w>
j or
失 所</w>
至 于</w>
10 %</w>
esti mé</w>
all ant</w>
j ar
身 边</w>
表 决</w>
tu n
ré serv
just ement</w>
re connu</w>
出版 物</w>
主 权</w>
meill eurs</w>
nor v
1 00
indi que</w>
énerg étique</w>
指 南</w>
log ement</w>
minim um</w>
sû rement</w>
présent ée</w>
公 寓</w>
模 型</w>
l y</w>
1 1.
n oir</w>
l é
anni versaire</w>
b en
au- delà</w>
时 代</w>
direc t</w>
礼 物</w>
fin alement</w>
on ce</w>
fronti ère</w>
捐 款</w>
申 请
médicam ents</w>
cor ruption</w>
那 天</w>
pertin entes</w>
a dul
公 布</w>
élev és</w>
协 调
éch app
习 班</w>
réser ves</w>
commerci al</w>
n’ avons</w>
m aire</w>
公 路</w>
所 谓</w>
an o</w>
d’ où</w>
看 见</w>
六 个</w>
su res</w>
cert ainement</w>
纲 领</w>
赢 得</w>
solidar ité</w>
alis tes</w>
lu i-
短 期</w>
哥 哥</w>
is ant</w>
profess eur</w>
ru rales</w>
loca le</w>
dis ent</w>
fin lande</w>
fé min
voi ent</w>
d’ activité</w>
核 准</w>
ap porté</w>
inter nes</w>
场 所</w>
帝 汶</w>
signifi c
ad d</w>
human itaires</w>
en ce
0 6</w>
all ég
pour suite</w>
accompli s</w>
part ag
per form
pi èces</w>
流 离</w>
el lig
咖 啡</w>
professionn els</w>
加 勒
男 子</w>
si xième</w>
remerci e</w>
limit ée</w>
ob tenu</w>
suffi t</w>
ten te</w>
con ver
c es
st ade</w>
d’ accu
l â
w .
ad d.
予 以</w>
pass age</w>
l’ allemagne</w>
n ation</w>
op ti
t onnes</w>
occu pe</w>
讲 习班</w>
jac k</w>
t y</w>
头 发</w>
格 兰</w>
拯 救</w>
ad di
fourn iture</w>
expli que</w>
muni ci
renouv el
d’ au
l en
居 住</w>
克 尔</w>
inter ventions</w>
koso vo</w>
sé par
8 00</w>
pri me</w>
pl at
t ance</w>
règ lements</w>
sorti e</w>
地 理</w>
suscepti bles</w>
优 势</w>
mor te</w>
on ni
capit aux</w>
v ues</w>
l’aut eur</w>
很 少</w>
工 程
produ ire</w>
lui- même</w>
l u</w>
dess ous</w>
互 联网</w>
p é</w>
r ations</w>
d’ obtenir</w>
尔 斯</w>
ar ch
modi fier</w>
r al
milli on</w>
cl au
g érer</w>
b ill
sû reté</w>
sû re</w>
for êts</w>
déb ar
per tes</w>
véri fier</w>
précé dent</w>
de l</w>
ex c
è s-
e .
palestini en</w>
197 3</w>
补 偿</w>
197 6</w>
g ents</w>
1 50</w>
lec ture</w>
po is
charg ée</w>
声 称</w>
s ach
oc tr
cal cul
compl et</w>
jus qu’
事 务
重 复</w>
s essions</w>
申 诉</w>
four ni</w>
cli matiques</w>
compagni e</w>
vi ce-
absol ument</w>
e e</w>
利 于</w>
is lam
g in
all ais</w>
ti ème</w>
travail l
疑 问</w>
pren ez</w>
dî ner</w>
oubli é</w>
maxim um</w>
快 点</w>
sexu elle</w>
adress ée</w>
op or
st abil
atér aux</w>
meill eures</w>
pollu tion</w>
véri fi
错 过</w>
警 告</w>
k u
开 枪</w>
dimin ution</w>
m assi
cô te</w>
commiss ariat</w>
accro ître</w>
p ô
exécu tif</w>
anc er</w>
qu et</w>
s’ ac
améric ains</w>
ag ers</w>
h c
卫 星</w>
ca dres</w>
有 力</w>
s te</w>
po lo
早 期</w>
东 帝汶</w>
时 刻</w>
d’in vestissement</w>
condu ire</w>
éri que</w>
ce d</w>
虐 待</w>
标 志</w>
浪 费</w>
e p</w>
证 书</w>
gau che</w>
什 么
dr ont</w>
prét ation</w>
i di
chiff re</w>
灾 害</w>
su spec
éc u</w>
déploy és</w>
améric aine</w>
dét ail</w>
particuli ers</w>
规 范</w>
船 长</w>
bil iser</w>
真 相</w>
m lle</w>
vis ées</w>
aliment ation</w>
cor ée</w>
en vers</w>
cl aire</w>
palestini ens</w>
qu’ est</w>
contrô les</w>
p es
si gne</w>
士 兵</w>
li s</w>
岛 屿</w>
sec tori
négoci ation</w>
中 东</w>
chois i</w>
书 面</w>
jo indre</w>
s an</w>
ve ille</w>
intég r
7 ,
regar dez</w>
原 谅</w>
d’ activités</w>
alis me</w>
通 讯</w>
chin ois</w>
mé diterran
赋 予</w>
m’ ont</w>
s it
d’ emplois</w>
gn er</w>
royau me</w>
ma ître</w>
残 疾</w>
道 德</w>
叙 利亚</w>
电 脑</w>
l és</w>
1 000</w>
6 ,
conci liation</w>
v ê
britanni que</w>
esp èces</w>
in comb
b er</w>
cr ain
arri ère</w>
贸 发</w>
dé pendant</w>
金 属</w>
阻 碍</w>
î le</w>
mi cha
identi fier</w>
197 0</w>
c u</w>
之 下</w>
res tent</w>
安全 和</w>
monn aie</w>
dou ani
applic able</w>
er aient</w>
propor tion</w>
l’é tr
nour r
效 力</w>
塞 浦
it ement</w>
technologi que</w>
好 像</w>
contr e
太 平
t ap
professionn el</w>
l’on u
comm and
惊 讶</w>
associ ations</w>
phy si
0 2</w>
酷 刑</w>
zi ème</w>
乔 治</w>
测 量</w>
赞 赏</w>
pétro le</w>
t ol
c lim
梦 想</w>
筹 资</w>
路 上</w>
教 学</w>
十 分</w>
拿 走</w>
cer tifi
situ ée</w>
tr on</w>
de gré</w>
anti ll
con que</w>
r ar
expli quer</w>
én u
敏 感</w>
pi e
自 由
专 家
理 论</w>
s ouver
失 踪</w>
主 意</w>
会 计</w>
pro fit</w>
com battre</w>
mi di</w>
d’ affaires</w>
ph ili
î les</w>
pour ront</w>
哪 些</w>
d c</w>
可 怜</w>
s ites</w>
ter ait</w>
b oire</w>
决 心</w>
av e</w>
l’ad hésion</w>
réguli èrement</w>
soi rée</w>
bo î
électri cité</w>
si di
e g
巴 基
continu ent</w>
ag ement</w>
克 兰</w>
巴基 斯坦</w>
ma ch
fer ai</w>
ci ale</w>
c ence</w>
信 号</w>
z u
rec en
有 利</w>
ac tifs</w>
ouver ts</w>
sci ences</w>
contribu é</w>
commis sions</w>
trodu ction</w>
sor ti</w>
成 就</w>
présent és</w>
服 务
d’ études</w>
disponi ble</w>
pén al</w>
d’ aller</w>
塞浦 路
批 评</w>
制 作</w>
priv il
arr y</w>
dem eure</w>
adé qu
ba r</w>
intéress ant</w>
un ité</w>
正 是</w>
j eux</w>
sé pa
priv ée</w>
hau sse</w>
flu x</w>
ch ers</w>
dé gra
v aiss
regar d</w>
分 发</w>
commerci ale</w>
法 规</w>
ail les</w>
总 理</w>
radi o</w>
â gées</w>
磋 商</w>
塞浦路 斯</w>
季 度</w>
派 对</w>
l’ ét
multil atéra
préoccu pation</w>
empr un
7 00</w>
n ez</w>
dev ront</w>
l’ avez</w>
o w
cu s</w>
commerci aux</w>
ec tu
com préhen
sal aires</w>
b ret
获 取</w>
effecti fs</w>
a .</w>
b anc
设 法</w>
经 营</w>
respec tivement</w>
dé tention</w>
milli ers</w>
返 回</w>
ex ique</w>
pré pa
activ ement</w>
int ellig
oubli er</w>
rét ab
匈 牙
匈牙 利</w>
cel les
两 次</w>
li aison</w>
minu te</w>
20 %</w>
siè cle</w>
生 意</w>
en nu
迄 今</w>
phot os</w>
sal aire</w>
到 处</w>
再 见</w>
ren dez-vous</w>
诸 如</w>
gi es</w>
教 堂</w>
l’hô pital</w>
av enir</w>
sa c</w>
d ite</w>
d’ aider</w>
d’ accès</w>
appro bation</w>
représent ation</w>
基 地</w>
di c
哥 伦
struc turels</w>
f ant
配 额</w>
调 查
in ée</w>
d g</w>
信 心</w>
广 告</w>
证 人</w>
j a
法 令</w>
j ec
动 员</w>
是 不是</w>
手 术</w>
inten si
之 中</w>
份 额</w>
可 用</w>
w h
专家 组</w>
m m</w>
倾 向</w>
区 别</w>
déci der</w>
x -
印 象</w>
re prise</w>
o x
car rière</w>
s én
bal l</w>
s w
édu c
let tres</w>
不 得</w>
contrô ler</w>
com promis</w>
constru c
电 力</w>
it ent</w>
太平 洋</w>
l’ origine</w>
accep té</w>
婊 子</w>
ré ellement</w>
relev er</w>
in suffis
bass ad
s lav
特 点</w>
étro ite</w>
n’ existe</w>
r w
cul turels</w>
罗 马
ent er
见 面</w>
a o</w>
gra tu
possi bles</w>
chois ir</w>
tor ture</w>
付 款</w>
现 场</w>
comm en
m exique</w>
2. 1.
介 意</w>
rece v
ach at</w>
fr au
uti les</w>
com pens
代 价</w>
minor ités</w>
exprim é</w>
ré el</w>
fer ait</w>
dit es-
乐 队</w>
second aire</w>
observ er</w>
ser tion</w>
ba ses</w>
ru ral</w>
de cin</w>
c f
s ées</w>
现 代</w>
可 靠</w>
utilis ateurs</w>
乌 克兰</w>
import ation</w>
tr aî
micha el</w>
s œur</w>
l’im pression</w>
主 持</w>
fin ances</w>
f ol
养 老
s en</w>
seign eur</w>
广 播</w>
mé m
电 信</w>
周 围</w>
catastroph es</w>
l’ ouest</w>
罗马 尼亚</w>
那 种</w>
失 望</w>
d avi
mar que</w>
nomm é</w>
连 接</w>
dé r
邮 件</w>
美 丽</w>
自 治</w>
ér opor
su jets</w>
视 频</w>
终 于</w>
正 义</w>
mén ages</w>
少 年</w>
vois ins</w>
mal ade</w>
197 4</w>
re connaître</w>
dépen d</w>
pouv ant</w>
sou dan</w>
al lu
inqui ète</w>
mo indre</w>
é co
e k</w>
c ouverture</w>
ajou ter</w>
ad or
op e</w>
参与 者</w>
sec ours</w>
observ ation</w>
政 党</w>
équi pes</w>
clim at</w>
出 于</w>
professionn elles</w>
cr u</w>
dat ée</w>
dis cours</w>
cal end
加勒 比</w>
利 率</w>
d’ex amen</w>
0 3</w>
叔 叔</w>
enten d</w>
oc k</w>
fin ir</w>
dan ces</w>
st a</w>
fron tali
on i
h tt
l’en gagement</w>
玛 丽</w>
bi tr
rel ève</w>
occup é</w>
注 册</w>
mé decin</w>
lati ne</w>
sub ventions</w>
大 使</w>
ww w.
公 园</w>
équip ements</w>
a .
retour ner</w>
l’étr anger</w>
性 恋</w>
同 性恋</w>
摆 脱</w>
éc ra
et ats-unis</w>
déf i</w>
entre tien</w>
évi demment</w>
éc ar
priv és</w>
用 途</w>
bat eau</w>
enti èrement</w>
澄 清</w>
跟 踪</w>
聚 力</w>
commun s</w>
cou pa
c ents</w>
各 自</w>
群 岛</w>
cl és</w>
ci e</w>
gar çons</w>
港 口</w>
li ers</w>
演 员</w>
int éri
dét ec
下 面</w>
for tement</w>
逐 步</w>
éri a</w>
提 请</w>
农 场</w>
dé li
全球 化</w>
eu e</w>
coor donn
ch al
dis ant</w>
car aï
sub sidi
développ és</w>
ai es</w>
ch ant</w>
che veux</w>
organis me</w>
名 义</w>
上 午</w>
和 解</w>
an che</w>
国 会</w>
dispar u</w>
u re</w>
alis é</w>
商 店</w>
o c</w>
dé gag
演 讲</w>
还 要</w>
sim pli
ap prendre</w>
exist ants</w>
f actu
0 5</w>
l’in novation</w>
通 报</w>
ré fér
开 心</w>
régi mes</w>
engag é</w>
gu ide</w>
liv res</w>
s c</w>
pô ts</w>
灵 魂</w>
o ï
委 会</w>
enregistr é</w>
mér ite</w>
议 事</w>
pau vre</w>
davi d</w>
tes- vous</w>
信 贷</w>
统计 局</w>
绿 色</w>
意 愿</w>
intég rée</w>
aspec t</w>
d’ entreprises</w>
mo tiv
inter gouvernement
défi ci
gn es</w>
自 动</w>
治 理</w>
b s</w>
approvisi onnement</w>
裁 决</w>
斯 拉夫</w>
au str
occu pation</w>
oblig atoire</w>
- mêmes</w>
vill age</w>
lo s</w>
共 识</w>
争 议</w>
vol é</w>
dé liv
net t
cri ption</w>
pour sui
you go
d en</w>
酒 吧</w>
trai tements</w>
d’ entreprise</w>
no ël</w>
sold ats</w>
connu e</w>
précis ément</w>
in no
凝 聚力</w>
fou r</w>
克 服</w>
salu t</w>
procur eur</w>
rom e</w>
port ent</w>
su re</w>
k en
dev rions</w>
b ab
思 考</w>
n ant</w>
ill er</w>
l’uni cef</w>
am a</w>
养老 金</w>
执 行
liber tés</w>
透 明</w>
索 马里</w>
b n</w>
déj eu
rê ve</w>
气 体</w>
annu elle</w>
employ eurs</w>
c ée</w>
vi ande</w>
洛 哥</w>
摩 洛哥</w>
av er
难 道</w>
捷 克</w>
plan ète</w>
lon dres</w>
法 治</w>
ge ant</w>
rem on
不 好</w>
j a</w>
cn .
yougo slav
conclu re</w>
bl er</w>
nor mal</w>
ré elle</w>
concr ètes</w>
volont aires</w>
is ol
posi tive</w>
man ie</w>
l’is sue</w>
mo bilité</w>
l au
动 机</w>
pos ant</w>
发 起</w>
prév us</w>
com ités</w>
庇 护</w>
con venu</w>
档 案</w>
pi erre</w>
sus pen
受 益</w>
comb at</w>
ré di
ad er</w>
uti lise</w>
大 脑</w>
告 知</w>
东 欧</w>
qu oti
dépl oi
concep t</w>
l’in troduction</w>
fédé rale</w>
pré voir</w>
aux quelles</w>
举 措</w>
失 业率</w>
e- toi</w>
all ée</w>
cu ba</w>
rai ne</w>
赞 同</w>
avo cat</w>
作 品</w>
更 高</w>
inform é</w>
n l</w>
pi t</w>
minist éri
0 -
f all
cu le</w>
产 量</w>
dro ite</w>
有 利于</w>
l’ approche</w>
l’ass oci
中 间</w>
efficac ement</w>
许 可</w>
南 斯拉夫</w>
习 惯</w>
显 著</w>
appropri ées</w>
papi er</w>
检察 官</w>
arab es</w>
concern ent</w>
r .
bizar re</w>
授 予</w>
conseill er</w>
considé rer</w>
utilis ée</w>
stock s</w>
e .</w>
混 合</w>
脆 弱</w>
不 错</w>
pro ven
t el
quoti di
htt p
c -
ci- dessus</w>
l’ élargissement</w>
présent ées</w>
m és</w>
助 理</w>
charg és</w>
sign ature</w>
encoura ge</w>
équ itable</w>
am our</w>
长 官</w>
considéra ble</w>
quit té</w>
offici el</w>
2 50</w>
d ences</w>
ven dre</w>
供应 商</w>
is tique</w>
英 里</w>
ég al</w>
ci a</w>
: /
caraï bes</w>
哥伦 比亚</w>
véri fication</w>
constitu er</w>
各 级</w>
l’ira q</w>
储 存</w>
d’ adopter</w>
里斯 本</w>
agri cult
montr ent</w>
百分 比</w>
vidé o</w>
p ée</w>
剩 下</w>
é der</w>
p in
i ci
截 至</w>
met tent</w>
gu er</w>
exist antes</w>
简 化</w>
heur euse</w>
exi ge</w>
桌 子</w>
mu r</w>
op éra
带 走</w>
削 减</w>
constru ire</w>
f e</w>
剥 夺</w>
industri es</w>
territ ori
拜 托</w>
préc ise</w>
b aiss
放 松</w>
例 外</w>
地 雷</w>
ca ch
différ ent</w>
au tr
restri ctions</w>
结 构
许 可
qu ot
im pact</w>
l’espa gne</w>
推 迟</w>
jeu n
不 敢</w>
jap on
雇 佣</w>
http :/
dev aient</w>
v ar
at trap
标 签</w>
pa ssi
co -
lanc er</w>
sat ell
论 是</w>
一 般
ressemb le</w>
const ate</w>
dis ait</w>
ar ité</w>
manif es
dossi ers</w>
怀 孕</w>
活 性</w>
n és</w>
comm an
th èmes</w>
discu ter</w>
当 事
bénéfici aires</w>
vulnéra bles</w>
解 雇</w>
l’ opération</w>
exprim er</w>
概 述</w>
l’ ouverture</w>
秘 书</w>
stri c
tou che</w>
nom s</w>
交 给</w>
accr ue</w>
极 端</w>
0 8</w>
n t
fondament ales</w>
espér ons</w>
compét entes</w>
生 存</w>
边 境</w>
ver t</w>
iss ait</w>
0 7</w>
m y</w>
衡 量</w>
l ad
k m</w>
后 者</w>
一般 性</w>
一 边</w>
ré d
cau ses</w>
équi lib
cnu ced</w>
开 支</w>
实 验</w>
cid ents</w>
cul tures</w>
brési l</w>
polo gne</w>
ess ais</w>
彼 此</w>
du re</w>
出 售</w>
si s</w>
接 下来</w>
大 型</w>
actu elles</w>
a pr
效 果</w>
http:/ /
d’ éviter</w>
fl exi
moy ennes</w>
彻 底</w>
en trav
mont ants</w>
desti né</w>
呼 吸</w>
ren voy
制 性</w>
it ant</w>
allem and</w>
赞 扬</w>
mouv ements</w>
豁 免</w>
recru tement</w>
本 上</w>
dem eur
f aux</w>
an es</w>
stu pi
充 满</w>
ég i
e la</w>
parlement aire</w>
设 想</w>
现 行</w>
列 出</w>
第 六</w>
extra ordinaire</w>
体 育</w>
ti r
pau l</w>
自 杀</w>
télé vision</w>
忽 视</w>
pré visions</w>
correspon dant</w>
all ou
ing ton</w>
am our
ceux -ci</w>
依 照</w>
l’ e
刚 才</w>
for d</w>
翻 译</w>
essenti els</w>
愿 望</w>
quanti té</w>
défen dre</w>
l’un ité</w>
许可 证</w>
ad ore</w>
l’in vestissement</w>
constat er</w>
fai ll
恶 化</w>
navi res</w>
vas te</w>
h el
ré jou
n ou
engag er</w>
日 子</w>
救 济</w>
inv esti
pie ds</w>
si le</w>
手 机</w>
ju ges</w>
v oi</w>
re vient</w>
认 可</w>
fix é</w>
un es</w>
res tru
n s</w>
f eu
accor dée</w>
l’ em
发 誓</w>
途 径</w>
prim aire</w>
l’associ ation</w>
norv ège</w>
si onn
ec s</w>
说 法</w>
ressor tiss
l’é poque</w>
étrang ère</w>
dé mar
er ies</w>
scol aire</w>
f i</w>
维 也
维也 纳</w>
soy ez</w>
f il</w>
deu xi
lis bonne</w>
cri tique</w>
in dépendant</w>
senti r</w>
打 破</w>
moy en-
0 4</w>
procé dé</w>
ré us
évi dence</w>
inst amment</w>
continu é</w>
安 装</w>
m ant</w>
ge orge</w>
honn eur</w>
inci dences</w>
associ és</w>
législ atives</w>
fon dation</w>
figu rent</w>
pléni ère</w>
évalu ations</w>
trans formation</w>
rev anche</w>
将 军</w>
avanc és</w>
at aires</w>
regis tre</w>
d’ avis</w>
prét en
pai ements</w>
cam p</w>
滥 用</w>
尼 日
解 除</w>
n g</w>
répon du</w>
charg es</w>
identi fi
préci s</w>
phénom ène</w>
éri r</w>
mod èles</w>
considéra blement</w>
psy ch
fourniss eurs</w>
élabor é</w>
反 恐</w>
l’h onn
l o</w>
rem ettre</w>
dé pass
effec tive</w>
sol eil</w>
情 报</w>
œu v
li é</w>
长 的</w>
扮 演</w>
yp te</w>
te z-moi</w>
ten dances</w>
inst au
re prises</w>
lim iter</w>
dis positif</w>
dis tri
ex ter
ci ens</w>
vi vent</w>
rap proch
ac tif</w>
naiss ance</w>
ati e</w>
calend rier</w>
impli que</w>
intég ré</w>
fer ais</w>
prest ation</w>
足 以</w>
ca p</w>
黑 暗</w>
个 别</w>
vis és</w>
alis és</w>
mo sph
前 进</w>
印 度
sou s
enti ère</w>
s avait</w>
lo gi
l ité</w>
l’ offre</w>
飞 行</w>
afric ains</w>
g our
dr ess
ob tenus</w>
可 行</w>
相 应</w>
敌 人</w>
différ en
d’ ordre</w>
报 纸</w>
ad joint</w>
fon dé</w>
c ouvrir</w>
ser as</w>
rédu it</w>
com bu
x -tu</w>
摧 毁</w>
bo s
卡 车</w>
pris onni
国 籍</w>
强 迫</w>
p érer</w>
assu re</w>
eilli r</w>
恐 惧</w>
sou mettre</w>
婚 礼</w>
sa m</w>
èg es</w>
anci ens</w>
版 本</w>
vi a</w>
案 文</w>
工作 队</w>
数 目</w>
d enti
détail s</w>
城 镇</w>
qu’ aux</w>
dor mir</w>
contac ts</w>
加 工</w>
consac ré</w>
fac teur</w>
gu i
cham pi
pro poser</w>
说 服</w>
on ie</w>
enseign ants</w>
nourr iture</w>
car tes</w>
sep tième</w>
容 忍</w>
sp ection</w>
mar itime</w>
d’ utiliser</w>
li ée</w>
adr esse</w>
b us</w>
切 实</w>
s’ av
不 必</w>
s ité</w>
souv en
20 13</w>
灵 活</w>
巩 固</w>
几 内
使 得</w>
n’ êtes</w>
l’en contre</w>
moi -même</w>
破 产</w>
vrai e</w>
主 流</w>
装 置</w>
hy po
natu rel</w>
第 六
par fait</w>
ri re</w>
像 是</w>
d’inter vention</w>
m él
produc tivité</w>
执 法</w>
bi bli
réu ss
bâti ment</w>
开 发
compl exe</w>
is bn</w>
bal le</w>
travail lé</w>
publi cations</w>
int ell
spéci aux</w>
val oir</w>
moyen- orient</w>
re ven
am i
ti enne</w>
t oires</w>
d ais</w>
al -
bil an</w>
arri ver
ci eux</w>
s ho
fais ons</w>
pa th
pré voy
科 威
sou lev
持 久</w>
旺 达</w>
卢 旺达</w>
apparti ent</w>
pl eur</w>
jeun esse</w>
cli ent</w>
ti onne</w>
cro ître</w>
é ma</w>
d’ i
- à-
conn us</w>
o m</w>
no tion</w>
éché ant</w>
ma r</w>
quarti er</w>
d’ œuvre</w>
acc essi
no ter</w>
e p
l’é change</w>
civ il</w>
col ère</w>
parten aire</w>
chy pre</w>
钥 匙</w>
距 离</w>
vo té</w>
réc ente</w>
famili ale</w>
con gr
agricult eurs</w>
vie ille</w>
ill ez</w>
som me</w>
mi que</w>
k s</w>
hon or
设 置</w>
dis poser</w>
死 去</w>
établi s</w>
chac une</w>
干 净</w>
沟 通</w>
周 期</w>
au rai</w>
tempor aire</w>
保 罗</w>
entre pris</w>
bien venue</w>
对 外</w>
ap er
fourni t</w>
比 率</w>
d’ or
fai m</w>
s ors</w>
克 斯坦</w>
actu els</w>
转 变</w>
ma chine</w>
â me</w>
pay é</w>
am us
pari tion</w>
vi eill
cul turel</w>
iti mes</w>
cr oi
lib an</w>
n’ avais</w>
fai bles</w>
s ter
l’ es
大 陆</w>
聚 会</w>
ex posé</w>
d’ assurance</w>
l’ italie</w>
sé ances</w>
ci ble</w>
bru t</w>
ressor t</w>
9 -
无 论是</w>
modifi é</w>
ne y</w>
évi dent</w>
vit esse</w>
t érieur</w>
w illi
s oin</w>
él oign
o ise</w>
秩 序</w>
menac es</w>
en a</w>
友 好</w>
l’inter médiaire</w>
过 度</w>
travail lent</w>
ag ré
der a</w>
ateli ers</w>
dé marche</w>
radi o
准 确</w>
d’ élaborer</w>
celles -ci</w>
bre f</w>
anci enne</w>
ent ement</w>
b et
pré para
ac h</w>
信 仰</w>
汤 姆</w>
cer tes</w>
跳 舞</w>
nation alité</w>
comb in
fin ale</w>
庆 祝</w>
地 址</w>
表 演</w>
th er
s ab
担 忧</w>
o tes</w>
st er</w>
跨 国</w>
上 文</w>
bien -
深 入</w>
ter ie</w>
industri e</w>
便 利</w>
app els</w>
p eau</w>
qualifi cations</w>
cal me</w>
fédé ral</w>
ving t-
一 杯</w>
续 性</w>
组 合</w>
维 和</w>
ouv ri
ai r
化 学
préal able</w>
dr ôle</w>
s’ était</w>
送 到</w>
ri v
cro is
迹 象</w>
cal cul</w>
écri re</w>
p â
号 码</w>
w it
经 理</w>
envoy er</w>
科威 特</w>
教 训</w>
com porte</w>
stratég iques</w>
intell ectu
d ge</w>
autr ement</w>
pa kistan</w>
ti s</w>
d’ op
dé pit</w>
administr ative</w>
féli citer</w>
展 开</w>
effectu é</w>
handicap ées</w>
h aï
so eur</w>
绑 架</w>
结构 性</w>
争 取</w>
l’honn eur</w>
8 ,
间 接</w>
ordin ateur</w>
tradi tion</w>
puis -je</w>
ci ers</w>
思 想</w>
supéri eure</w>
alis ée</w>
spec tac
案 子</w>
去 世</w>
申请 人</w>
islam ique</w>
l’ex térieur</w>
l abor
m’ avez</w>
effectu er</w>
si n</w>
capit ale</w>
pa tron</w>
义 者</w>
re construction</w>
lim ité</w>
voi es</w>
主 义者</w>
那 时</w>
z o
d’ égalité</w>
钢 铁</w>
t ables</w>
équi val
cohér ence</w>
l’ etat</w>
industri el</w>
inv ent
da m</w>
收 益</w>
bour g</w>
仔 细</w>
d’ affectation</w>
mo teur</w>
g ou
前 面</w>
扩 展</w>
姆 斯</w>
a k</w>
tien dra</w>
conserv ation</w>
s ale</w>
ru sse</w>
以 期</w>
ap porte</w>
ch il
- là</w>
化学 品</w>
vis -à-
bl es
institu tion</w>
fac ult
v écu</w>
ér ance</w>
géograph ique</w>
斯 特</w>
remplac er</w>
si mu
减 轻</w>
查 明</w>
con ç
cultur elle</w>
遭 到</w>
on cle</w>
g or
st y
坚 定</w>
exemp les</w>
感 染</w>
vê tements</w>
vis-à- vis</w>
priv ées</w>
o bi
atta quer</w>
此 种</w>
总 数</w>
ré action</w>
想 你</w>
appar tenant</w>
难 民
gag né</w>
dis tance</w>
记 忆</w>
路 线</w>
法 语</w>
g il
cons om
ab s
地 狱</w>
dev ais</w>
s’appli que</w>
indivi dus</w>
struc tur
公 里</w>
di n</w>
动 性</w>
cri p
st and
时 间
senti ment</w>
l’ an</w>
ch ass
1 20</w>
软 件</w>
科 技</w>
di tion</w>
adap ter</w>
d’ex écution</w>
dé ro
- il</w>
兴 奋</w>
dev riez</w>
g s</w>
in sul
appu ie</w>
推 广</w>
作 物</w>
妥 协</w>
off er
pens ons</w>
cl us</w>
vis u
boî te</w>
restru ctu
生产 者</w>
考 试</w>
déploi ement</w>
éc art</w>
nég lig
红 色</w>
doi g
exist ent</w>
多 久</w>
t’ aime</w>
197 2</w>
expéri ences</w>
qu isi
formul ées</w>
其 次</w>
mondi alisation</w>
ry th
manu el</w>
i dé
b ris
t am
e ille</w>
présid ents</w>
l’am endement</w>
酒 店</w>
发言 者</w>
迈 克尔</w>
ecou te</w>
industri els</w>
d j
作 者</w>
感 激</w>
deuxi èmement</w>
重 组</w>
m p
mi x
每 次</w>
con forme</w>
加 上</w>
识 别</w>
牛 奶</w>
产 权</w>
20 12</w>
it ablement</w>
ac cident</w>
du m</w>
mém oire</w>
déjeu ner</w>
re prendre</w>
sav ent</w>
termin é</w>
r t</w>
ab ou
会 议
s’ appelle</w>
trouver a</w>
acqu is</w>
a la</w>
on t
l’inter diction</w>
indépen dants</w>
波 斯
炸 弹</w>
moder n
c oin</w>
prior itaires</w>
at tirer</w>
collè gue</w>
m our
chô meurs</w>
增 长
accep table</w>
股 票</w>
human ité</w>
administr ations</w>
突 出</w>
ai mes</w>
inter vention</w>
从 没</w>
t om
fourni s</w>
dan tes</w>
ven ti
s ant</w>
愤 怒</w>
辩 护</w>
l’h y
j ean</w>
强 制</w>
b al</w>
hon g
pet er</w>
tour ner</w>
生 日</w>
congr ès</w>
灾 难</w>
基 因</w>
多 个</w>
强 奸</w>
coopér er</w>
vol er</w>
s’ assurer</w>
hu iti
si er
注 意
注意 力</w>
correspon d</w>
赤 字</w>
concentr ation</w>
分 开</w>
p i</w>
por tes</w>
fu sion</w>
dou ze</w>
décl are</w>
ti ère</w>
保 加
ér i</w>
保加 利亚</w>
essenti elle</w>
19 2,
政 治
时间 表</w>
物 种</w>
préc isi
pi ra
指 挥
ce de
1. 6.
不 见</w>
l’in dépendance</w>
don é
col om
老 人</w>
命 运</w>
公 社</w>
cont ent</w>
ser ez</w>
budg ets</w>
intitu lée</w>
l ève</w>
柏 林</w>
英 雄</w>
信 托</w>
adul tes</w>
pru dence</w>
gro sse</w>
télé communications</w>
塞 尔
pare ils</w>
天 然
genti l</w>
邪 恶</w>
并 非</w>
阿 根
阿根 廷</w>
constat é</w>
d’in fra
不 久</w>
会 儿</w>
主 动</w>
k ing</w>
协调 员</w>
加 速</w>
voy ons</w>
道 歉</w>
增长 率</w>
dé bou
老 年人</w>
d eurs</w>
d’ex ploitation</w>
艺 术
d’ ass
par fai
pil ote</w>
inv it
huiti ème</w>
envis ager</w>
u k
清 洁</w>
énor me</w>
l’ amérique</w>
tr oi</w>
天然 气</w>
打 赌</w>
judici aires</w>
查 理</w>
cré di
欺 诈</w>
administr atif</w>
一 生</w>
放 下</w>
pl ant
p is
b ot
老 师</w>
titu l
h abil
trans port
遵 循</w>
s me</w>
n’ étaient</w>
pren dra</w>
lin gu
déc ès</w>
司 机</w>
l i</w>
ch ris
manifest ations</w>
di am
sur face</w>
暂 停</w>
cli matique</w>
陷 入</w>
pouv aient</w>
é m
sub s
handicap és</w>
cinqu ante-
年 内</w>
bassad eur</w>
aff ron
parfai tement</w>
死 刑</w>
cer veau</w>
d t</w>
产 出</w>
比 里亚</w>
利 比里亚</w>
斯洛 伐
斯洛伐 克</w>
外 地</w>
pl or
g h</w>
s o</w>
l’ effet</w>
ajou tée</w>
t- ils</w>
船 只</w>
syndi cats</w>
provin ce</w>
espa ce</w>
imag ine</w>
再 生</w>
汇 率</w>
vis ent</w>
no tes</w>
j’ i
灵 活性</w>
inter dit</w>
阿尔 及
ju ris
dé bu
约 翰
d’ o
appar emment</w>
jet er</w>
废 除</w>
s élection</w>
lib res</w>
连 续</w>
m el
g on
混 乱</w>
l’inst ant</w>
上 次</w>
pren antes</w>
mentionn é</w>
开发 署</w>
b u</w>
载 有</w>
其 余</w>
永 久</w>
整 合</w>
législ ations</w>
déc ouvert</w>
样 子</w>
剥 削</w>
遗 产</w>
in nov
obj ec
撒 谎</w>
形 势</w>
恤 金</w>
ter ai</w>
3 0%</w>
terroris te</w>
d’ elle</w>
主 人</w>
安 静</w>
ca n</w>
rou manie</w>
né er
德 里</w>
orient ale</w>
金 额</w>
布 莱
l’ irlande</w>
favor ables</w>
vi ème</w>
亨 利</w>
é cole</w>
民 主
s’ en
préserv er</w>
tomb e</w>
总 值</w>
产 业</w>
faci lement</w>
卡 尔</w>
multi pli
inf érieur</w>
众 议院</w>
ch t</w>
s oi</w>
d ri
ti c</w>
cou n
怎么 办</w>
ai mé</w>
institu tionnel</w>
fi li
那 儿</w>
ko we
éch antill
mi ra
mach ines</w>
m ages</w>
著 名</w>
ch â
al tern
dynam ique</w>
加 拉
froi d</w>
av ion</w>
ch ent</w>
anti que</w>
价 值
dan s
bil atéra
l’op inion</w>
特 设</w>
rem édi
i .
融 入</w>
假 装</w>
白 痴</w>
五 个</w>
complément aires</w>
弗 兰
清 理</w>
utilis ant</w>
艰 难</w>
cuis ine</w>
sain t-
f oi</w>
s- toi</w>
限 度</w>
donn ent</w>
char bon</w>
in demn
prouv er</w>
sol v
马 克</w>
尼 尔</w>
答 应</w>
t aire</w>
intéress és</w>
juridi ction</w>
国 人</w>
现 代
基 本上</w>
elle- même</w>
chan son</w>
présent ent</w>
religi on</w>
he y</w>
achet é</w>
con vo
ti e</w>
bru it</w>
大 卫</w>
ai dé</w>
illi cite</w>
策 略</w>
签 名</w>
自由 化</w>
om è
hist orique</w>
arg enti
résul tant</w>
espagno l</w>
2 5
大 大</w>
20 15</w>
h i</w>
pol y
av ance</w>
onn er</w>
différ ente</w>
0 9</w>
s élec
témoi gn
a sie</w>
足 球</w>
l’oc troi</w>
avanc er</w>
ap paraît</w>
杂 志</w>
女 朋友</w>
vien drait</w>
高 于</w>
繁 荣</w>
pré judi
手 册</w>
accu eill
v an
proven ance</w>
and s</w>
veu illez</w>
diffici les</w>
膨 胀</w>
tu s</w>
ori z
considé rant</w>
l’ex ception</w>
ci bl
min i
é rés</w>
fondament al</w>
o les</w>
kowe ï
b o</w>
啤 酒</w>
o p</w>
追 求</w>
re ts</w>
pr in
捐助 者</w>
élev ée</w>
program mation</w>
d’ afrique</w>
e ant</w>
t t</w>
e ch
oubli e</w>
分 歧</w>
rémun ération</w>
permet tr
邻 国</w>
彼 得</w>
c aisse</w>
旅 馆</w>
compréhen sion</w>
lanc ement</w>
rappel ant</w>
jor dan
tran qu
lo gique</w>
9 ,
口 头</w>
h as
ca deau</w>
三 年</w>
fix e</w>
défici t</w>
exist ant</w>
对 抗</w>
tu eur</w>
inscri t</w>
创 建</w>
加 沙</w>
bret agne</w>
atta ques</w>
di vor
pl eur
主 席
ra ch
b elles</w>
空 中</w>
ég ale</w>
ren tre</w>
em i</w>
到 来</w>
营 养</w>
全 世界</w>
穿 着</w>
rac isme</w>
更 为</w>
波斯 尼亚</w>
p y
précéd ente</w>
尼 西亚</w>
im pu
d’in stru
direc teurs</w>
r it
offici elles</w>
el d</w>
ter ont</w>
海 上</w>
穿 过</w>
qu ’</w>
医 学</w>
arm ées</w>
贝 尔</w>
pé d
l ang
f t</w>
尊 敬</w>
transfer ts</w>
pro sp
tr ag
jam es</w>
补 救</w>
晚 餐</w>
ber t</w>
p el
part ager</w>
j’ allais</w>
ré ci
établi e</w>
b rev
premi èrement</w>
gno re</w>
gu é</w>
éra ture</w>
ra mener</w>
coura ger</w>
ac k</w>
slo va
effecti f</w>
s sions</w>
ag u
ouver tes</w>
l’ emb
克 罗
ve z-vous</w>
现代 化</w>
4 0%</w>
ent am
pl ait</w>
re connaît</w>
委 员</w>
利 润</w>
réper cu
t- on</w>
维 尔</w>
de venue</w>
争 端</w>
有 效
海 军</w>
b all
合 众
合众 国</w>
séri eusement</w>
dét este</w>
l’in fra
con gé</w>
ai t-il</w>
东 部</w>
té moins</w>
p t</w>
三 方</w>
vir on</w>
ac compl
mor t
深 刻</w>
appropri ée</w>
fru its</w>
9 00</w>
fl ation</w>
cor ri
l’ex clusion</w>
c ités</w>
considéra bles</w>
登 记
ext érieures</w>
建 设
d’accu eil</w>
ag res
aéri en</w>
ryth me</w>
déb at
com para
univers ités</w>
火 车</w>
主 导</w>
dis ais</w>
ê tes-vous</w>
苏 联</w>
hc r</w>
ré pression</w>
d’ appliquer</w>
l’ac te</w>
pri é</w>
h a
制 止</w>
document ation</w>
eng age</w>
f bi</w>
évol u
réfl exion</w>
下 次</w>
罪 犯</w>
t ante</w>
gu eu
cou ps</w>
平 台</w>
to r</w>
h eur</w>
l’ humanité</w>
centr ales</w>
周 末</w>
s ing
formu le</w>
196 7</w>
décri t</w>
rati fication</w>
f ati
每 周</w>
l’ alimentation</w>
度 过</w>
海 岸</w>
ré pu
be i</w>
合 格</w>
ga za</w>
identi fication</w>
mar oc</w>
这 位</w>
不 在乎</w>
pati ents</w>
刺 激</w>
con tenant</w>
s’ im
parti el</w>
其 它</w>
un s</w>
l’ île</w>
m asse</w>
ph il
rass er</w>
ach ats</w>
警 官</w>
com té</w>
谈 到</w>
décen nie</w>
富 有</w>
spécialis ées</w>
示 范</w>
管 辖</w>
appropri é</w>
vers er</w>
continu era</w>
at l
驱 逐</w>
追 踪</w>
gu er
科 学家</w>
par les</w>
modifi ant</w>
vi end
tch èque</w>
atten dant</w>
r ang</w>
analy ses</w>
qu ait</w>
semb lent</w>
ab u
s tre</w>
tél é</w>
x x
neu vième</w>
trans mission</w>
vaiss eau</w>
onn é</w>
ca dr
au par
n at
太 阳</w>
coupa ble</w>
chaî ne</w>
da me</w>
atten dez</w>
rappel é</w>
appli quées</w>
董 事会</w>
l’ avoir</w>
constitu é</w>
sou ci</w>
om e</w>
美 利
美利 坚</w>
f ous</w>
常 设</w>
rec ouv
op portu
pul sion</w>
soci o
nor d-
k y</w>
entre pren
gi r</w>
ê me</w>
利 昂</w>
fu ture</w>
ch ée</w>
indépen dante</w>
sin c
libér ation</w>
ira qui
enten ds</w>
离 婚</w>
le aux</w>
chau d</w>
某 个</w>
颁 布</w>
工 发</w>
cherch eurs</w>
杀 手</w>
remédi er</w>
pens ent</w>
al l</w>
t s
l’a sie</w>
ar gu
sémin aire</w>
is on</w>
塞 拉
ch és</w>
长 大</w>
布 隆
t est</w>
vi de</w>
布隆 迪</w>
registr ement</w>
compar aison</w>
l’ assurance</w>
conn exes</w>
e f</w>
胜 利</w>
塞拉 利昂</w>
aupar avant</w>
顺 便</w>
per t</w>
搜 索</w>
什么 样</w>
fu tures</w>
2 3
图 书
塞尔 维亚</w>
价值 观</w>
n’ aurait</w>
écou tez</w>
communi quer</w>
volont aire</w>
é tions</w>
prati quement</w>
du r
destin ation</w>
particuli ères</w>
妨 碍</w>
nu l</w>
引 用</w>
réfléch ir</w>
ti tres</w>
contin gents</w>
人 和</w>
cr oit</w>
玩 笑</w>
rob ert</w>
日 常</w>
appli cations</w>
建设 性</w>
ext érieure</w>
écou ter</w>
统 治</w>
b ec
tiv ités</w>
pen sions</w>
专 利</w>
超 级</w>
学 会</w>
没 什么</w>
trim estre</w>
pro ches</w>
图书 馆</w>
做 爱</w>
stupi de</w>
w at
要 素</w>
持 有</w>
dom mages</w>
菲 尔</w>
ren for
ag ences</w>
ca d
pério des</w>
omb re</w>
一 会儿</w>
joh n
parall èlement</w>
inst ance</w>
发 行</w>
夜 晚</w>
di r</w>
transi t</w>
m .
否 认</w>
déplac ées</w>
récu pérer</w>
étro itement</w>
défin i</w>
约 束
国 有</w>
fl am
供 资</w>
po te</w>
er as</w>
阿尔及 利亚</w>
激 励</w>
par don</w>
ec tionn
visi ble</w>
尼日 利亚</w>
诚 实</w>
simil aires</w>
permet trait</w>
尼 克</w>
initi ale</w>
冷 静</w>
it é
保 存</w>
au ras</w>
op ie</w>
细 胞</w>
destin ée</w>
législ atif</w>
ass e
5 7/
印度 尼西亚</w>
concern é</w>
科 特
raisonn able</w>
dem i-
抗 议</w>
coor donner</w>
迪 瓦</w>
科特 迪瓦</w>
qu’ avec</w>
s and
197 1</w>
d’en viron</w>
comman dant</w>
意 图</w>
fonc tionne</w>
alloc ation</w>
laiss ez</w>
弗兰 克</w>
él ève</w>
新 闻
迫 切</w>
得 以</w>
6 0/
w e</w>
术 语</w>
t as</w>
outi l</w>
g ène</w>
stitu tion</w>
plain te</w>
fourni es</w>
威 尔</w>
初 级</w>
accél érer</w>
阿 尔</w>
off res</w>
l’ex portation</w>
titu des</w>
tr ou</w>
chau s
弹 药</w>
seu les</w>
所 在</w>
c esse</w>
争 论</w>
par c</w>
équi libre</w>
缅 甸</w>
industri elles</w>
f nu
observ ateurs</w>
ven ait</w>
in croy
sou tient</w>
estim ations</w>
bul gar
consac rée</w>
ass ass
债 权
tax e</w>
atte inte</w>
被 告</w>
origin aires</w>
res tre
质 疑</w>
务 员</w>
ov ine</w>
exc essi
核 查</w>
近 年</w>
m oin</w>
5 9/
无 辜</w>
autoris é</w>
捐 助</w>
代 理</w>
proch aines</w>
血 液</w>
指挥 官</w>
détru ire</w>
conti nent</w>
infra ctions</w>
mo ine</w>
l ai
march er</w>
préc iser</w>
l’al inéa</w>
muni tions</w>
d’ap porter</w>
判 断</w>
en voie</w>
dis posent</w>
青 少年</w>
sc én
s port</w>
métho d
ju gement</w>
发 送</w>
mar ge</w>
trans form
en lev
libér alisation</w>
su ites</w>
combu sti
compren nent</w>
pa ges</w>
lit t
前 提</w>
obj ets</w>
监 视</w>
nom ination</w>
mat ch</w>
vo itures</w>
p se</w>
li eu
g le</w>
朝 鲜</w>
d’ orientation</w>
er ez</w>
direc ts</w>
订 正</w>
囚 犯</w>
co op
左 右</w>
appar tement</w>
té moin</w>
effectu és</w>
campa gnes</w>
舒 服</w>
d’ évaluer</w>
通 货</w>
inv ités</w>
éch elle</w>
modifi ée</w>
secon des</w>
multi ples</w>
fil ms</w>
ressortiss ants</w>
ne w
效 应</w>
quisi tion</w>
ann a</w>
pass ée</w>
pro long
d’ états</w>
obstac le</w>
r ô
d’ac croître</w>
vo ter</w>
bou che</w>
s’ac quitter</w>
al i</w>
let tes</w>
eux -mêmes</w>
缺 陷</w>
ten dant</w>
很 棒</w>
restructu ration</w>
ol i</w>
résu mé</w>
bibli oth
is és</w>
ch éri</w>
政 权</w>
ru bri
re group
hong rie</w>
cec a</w>
ordin aires</w>
indi quer</w>
ph ra
couv re</w>
tex ti
ver se</w>
alis ées</w>
m’ appelle</w>
南 方</w>
祈 祷</w>
connaiss ez</w>
b y
offici elle</w>
护 理</w>
燃 烧</w>
acc éder</w>
谨 慎</w>
vis ites</w>
di gn
ag o
牺 牲</w>
区 分</w>
s- je</w>
itu de</w>
能 量</w>
ri che</w>
formu ler</w>
dom esti
pres sions</w>
忘 录</w>
备 忘录</w>
付 出</w>
es ter</w>
pass ant</w>
re tirer</w>
fix és</w>
cit es</w>
voudr ait</w>
rem ise</w>
considé rés</w>
华 盛
ma x</w>
r ité</w>
l’ accu
expéri ment
代 码</w>
re pose</w>
ré conciliation</w>
bos ni
m ette</w>
掌 握</w>
jou ent</w>
d’ eux</w>
ci en</w>
装 备</w>
médi ateur</w>
li vrai
remp lir</w>
雇 用</w>
派 遣</w>
村 庄</w>
黑 人</w>
船 上</w>
ber g</w>
atu res</w>
ni g
r ationn
ag o</w>
char lie</w>
ext érieur</w>
设 定</w>
ac teur</w>
ven dre
ol es
conform ité</w>
公 务员</w>
相 当
相当 于</w>
op i
5 8/
in et</w>
西 方</w>
su g
192, 2
震 惊</w>
dé faut</w>
b ain</w>
for esti
有 害</w>
cri tiques</w>
对 手</w>
essenti elles</w>
g ê
制造 商</w>
effectu ées</w>
d’in st
债权 人</w>
对 付</w>
nouv elle-
croy ez</w>
gé or
croiss ante</w>
particip ent</w>
话 说</w>
ra ciale</w>
cour se</w>
al inéa</w>
附 属</w>
忍 受</w>
établi es</w>
交 付</w>
mor ce
隔 离</w>
on u
mo tifs</w>
机 械</w>
投 资
很 高</w>
环 境
sau ve
vis é</w>
or o
jo e</w>
dis- moi</w>
物 品</w>
capa bles</w>
远 离</w>
表 格</w>
dis positifs</w>
surveill er</w>
成 年</w>
tr iste</w>
主 教</w>
sur prise</w>
子 女</w>
mar in</w>
骄 傲</w>
chev al</w>
nu m
catastroph e</w>
collec tive</w>
frau de</w>
拟 定</w>
organis ées</w>
la r</w>
规 划署</w>
ré els</w>
第二 十
抱 怨</w>
spécialis tes</w>
纠 正</w>
b an</w>
终 止</w>
崩 溃</w>
革 命</w>
j on
ter ais</w>
opérationn elles</w>
bénéfici ent</w>
没 关系</w>
ex cé
是 从</w>
ca s
ox y
荣 誉</w>
s eurs</w>
cou cher</w>
l em
ci s</w>
ce voir</w>
f un
总 结</w>
突 尼斯</w>
业 化</w>
制 品</w>
l’in de</w>
coura ge</w>
am endement</w>
m ons</w>
施 加</w>
t hom
贩 卖</w>
satis faire</w>
dé ment</w>
c élé
流 行</w>
分 散</w>
norm alement</w>
distin ction</w>
发 射</w>
ré veill
ess ai</w>
w n</w>
管 辖
génér ation</w>
辐 射</w>
géni al</w>
collec tivités</w>
融 合</w>
remar qu
réc entes</w>
préjudi ce</w>
必 要性</w>
13 73</w>
喝 酒</w>
re trait</w>
fli cs</w>
excu se
牧 师</w>
子 弹</w>
地 图</w>
or dres</w>
储 备</w>
c ancer</w>
ér o
w ash
activ es</w>
建 筑
essay e</w>
maj eure</w>
di rais</w>
每 月</w>
rich ard</w>
él u</w>
独 自</w>
pl as
pertin ents</w>
entr et
男 朋友</w>
technologi ques</w>
parlement aires</w>
马 斯</w>
2 5%</w>
华盛 顿</w>
bi ologique</w>
新 西
us ine</w>
协 作</w>
万 人</w>
马 拉</w>
拉 斯</w>
mi ke</w>
地 亚</w>
效 益</w>
n’ aime</w>
fer mer</w>
ot o</w>
hor ri
fran k</w>
言 论</w>
西 非</w>
高 中</w>
fo ot
au- dessus</w>
fix er</w>
fi che</w>
dé part
éten dre</w>
quanti tés</w>
fr ères</w>
intér esse</w>
推 进</w>
no tification</w>
con c
cl o
闭 嘴</w>
a que</w>
r .</w>
d’ organisations</w>
留 下来</w>
p o</w>
préf ère</w>
大 幅</w>
想 想</w>
k g</w>
sier ra</w>
appro ches</w>
mort alité</w>
publi cité</w>
d’a sile</w>
饮 料</w>
ving t</w>
新西 兰</w>
com posé</w>
sou scri
progress er</w>
款 项</w>
bur un
表 面</w>
法 定</w>
dom ici
haut -
实 地</w>
is ée</w>
g el
oi vent</w>
dom mage</w>
幸 福</w>
i le</w>
cru ci
主席 团</w>
vali dité</w>
d’ atteindre</w>
常 规</w>
雷 斯</w>
inform er</w>
introdu it</w>
人 群</w>
vendre di</w>
克罗 地亚</w>
____ ____
rel lement</w>
min eurs</w>
réd action</w>
vac ances</w>
empr e
约束 力</w>
窗 户</w>
subst anti
议 题</w>
杀 人</w>
pnu e</w>
安 娜</w>
pré limin
concentr er</w>
大 楼</w>
futu rs</w>
ca cher</w>
被 迫</w>
l’ ob
长 级</w>
r ot
con vers
6 1/
qu’ a</w>
su cre</w>
analy ser</w>
pa tient</w>
nu lle</w>
méditerran é
in d
ter res
cl ar
尊 严</w>
回 报</w>
le z-vous</w>
contribu e</w>
pa l</w>
l et</w>
sensi ble</w>
2 7
部 长级</w>
é rée</w>
c y</w>
accor dé</w>
留 给</w>
cul té</w>
jo lie</w>
- moi</w>
本 届</w>
défin is</w>
ès- midi</w>
暂 时</w>
苏 格兰</w>
électron iques</w>
wo od</w>
合 法
lib an
d’ intégration</w>
gam in</w>
assur é</w>
che c</w>
conjo int
char les</w>
侦 探</w>
ac cidents</w>
药 品</w>
d’in v
逐 渐</w>
谈 话</w>
plu ri
常 常</w>
jordan ie</w>
rel è
月 份</w>
双 重</w>
non- prolifération</w>
不 可
第 四
斯洛 文
斯洛文 尼亚</w>
yougoslav ie</w>
wash ington</w>
前 往</w>
pi ration</w>
联合 会</w>
contr aign
mag ni
执行 局</w>
增 值
cultur elles</w>
et t</w>
吉 亚</w>
安 保</w>
叫 做</w>
l’h ab
oc ca
influ ence</w>
主 张</w>
r an
听 取</w>
convain cu</w>
hér os</w>
sé jour</w>
ér ité</w>
f us</w>
net tement</w>
增值 税</w>
循 环</w>
tab leaux</w>
理 学</w>
diver si
诉 人</w>
fr -
r ent
cô tés</w>
allem ande</w>
souver ain
作 家</w>
投 诉</w>
présent ant</w>
ex posés</w>
ver ra</w>
k ir
该 项</w>
pren d
dura bles</w>
增 进</w>
so vi
l’om c</w>
ass ist
estim ation</w>
将 来</w>
exer cer</w>
p ement</w>
inst ant</w>
distin c
p ist
coll ecti
mén age</w>
无 关</w>
史 蒂
ar chi
é man
bur g</w>
systé matique</w>
physi ques</w>
mu si
sou tenu</w>
格 鲁
her z
du quel</w>
si fs</w>
déc entr
互 相</w>
样 本</w>
事务 部</w>
per f
强 制性</w>
ann once</w>
ef forc
comm ande</w>
故 意</w>
国 外</w>
j im
n’ ait</w>
thé orie</w>
stock age</w>
souff r
sti mu
termin er</w>
exam ine</w>
顺 利</w>
体 现</w>
l ap
删 除</w>
j’ adore</w>
sk i</w>
ang let
mo bilisation</w>
sol de</w>
mondi aux</w>
塞 俄
塞俄 比亚</w>
埃 塞俄比亚</w>
én agement</w>
conjoint ement</w>
ju li
cr ises</w>
cou pe</w>
bien- être</w>
f ass
som alie</w>
艺术 家</w>
vers ement</w>
那 边</w>
in utile</w>
tour n
蓝 色</w>
极 其</w>
st ation</w>
pe in
ques tionn
résid ence</w>
cou che</w>
y m
su bi
pu te</w>
p ont</w>
回 事</w>
et age</w>
dan i
g rec
re viens</w>
poss ède</w>
cré anci
a trice</w>
s aut
co tis
l’ euro</w>
in sertion</w>
各 位</w>
annu els</w>
anglet erre</w>
adop tés</w>
s eur</w>
diffi culté</w>
t au
cir cu
re ine</w>
bulgar ie</w>
标 记</w>
付 钱</w>
h am</w>
lim itation</w>
首 次</w>
vis ée</w>
préoccup é</w>
8 0%</w>
n’ avaient</w>
危 害</w>
ou g
以 往</w>
基 督
confir mé</w>
tomb é</w>
多样 化</w>
物 理</w>
暴 露</w>
’ s</w>
ar mon
emp le</w>
g as
d’en quête</w>
博 客</w>
依 然</w>
未 经</w>
有效 性</w>
sai si</w>
家 族</w>
既 然</w>
mat ern
argenti ne</w>
imag in
per p
确 信</w>
对 象</w>
缔 结</w>
ju re</w>
dar four</w>
c d</w>
au rez</w>
意 外</w>
tot alité</w>
ant i</w>
propos ée</w>
jusqu’ ici</w>
d’ autant</w>
年 来</w>
dé tenus</w>
direc trices</w>
格鲁 吉亚</w>
ent- ils</w>
plain tes</w>
fon d
offici ellement</w>
herz ég
fér er</w>
é do
super fi
souverain eté</w>
g rés</w>
requér ant</w>
偿 还</w>
ak e</w>
fondament ale</w>
bomb e</w>
一 方</w>
pa s
纪 念</w>
ju i
ch ron
we ek
命 名</w>
com prom
: (</w>
相 关
mon u
重 返</w>
serv i</w>
夏 天</w>
fnu ap</w>
消 耗</w>
转 换</w>
v ég
is ées</w>
engag és</w>
c .</w>
sign er</w>
w ard</w>
comment aires</w>
l’h armon
l’im migration</w>
一 道</w>
contr ac
éropor t</w>
pour riez</w>
sac ri
herzég ovine</w>
asi n</w>
颜 色</w>
s age</w>
m ente</w>
d y
各 样</w>
chu te</w>
att ent
réuss ite</w>
1 30</w>
regret te</w>
从 不</w>
中 尉</w>
l d</w>
c â
mo du
assu mer</w>
con vi
尔 特</w>
ri ches</w>
次 区域</w>
é poque</w>
地 板</w>
ch i</w>
氧 化
应 付</w>
re trouve</w>
lè v
inst ances</w>
tes ts</w>
déc ouvrir</w>
职 权</w>
分 布</w>
fi ée</w>
err eurs</w>
i rait</w>
pa quet</w>
pou vez-vous</w>
熟 悉</w>
丰 富</w>
fai sais</w>
lég ères</w>
詹 姆斯</w>
rob e</w>
l’in stru
监 督
促 使</w>
tor t</w>
ail l
op tions</w>
ral enti
progressi vement</w>
fer mé</w>
accor de</w>
démocrati ques</w>
bal ance</w>
pou ssi
死 亡
cré ée</w>
citoy en</w>
傻 瓜</w>
viol ences</w>
appel ée</w>
骚 扰</w>
不 安</w>
维 斯</w>
n’ aurais</w>
considé rées</w>
tou ché</w>
p ill
cou leur</w>
d’ aujourd’hui</w>
独 特</w>
man che</w>
propos ées</w>
av ou
ann oncé</w>
l èvement</w>
soli de</w>
in vo
采 访</w>
为 期</w>
au triche</w>
per ç
se i
随 时</w>
téléph on
宏 观</w>
干 什么</w>
d’ utilisation</w>
amélior ations</w>
land aise</w>
ec sc</w>
opti m
permet tez-moi</w>
mo des</w>
contrain tes</w>
y er</w>
con ten
活 跃</w>
autom obi
civ il
财 富</w>
gu ère</w>
l’ an
dé favoris
di rai</w>
souv enir</w>
n oire</w>
h il
doné sie</w>
re pris</w>
石 头</w>
gl ace</w>
di ag
employ eur</w>
œ il</w>
appli qué</w>
sau rait</w>
massi ve</w>
en seignement</w>
ap pareils</w>
勇 敢</w>
j’ essaie</w>
l’éch elon</w>
动 者</w>
t ations</w>
sup pression</w>
志 愿</w>
commerci alisation</w>
天 气</w>
mobi le</w>
美 好</w>
首 席</w>
西 洋</w>
证 券</w>
有 机</w>
opérationn el</w>
z él
pour rai
捕 鱼</w>
拿 到</w>
负 责
排 斥</w>
6 0%</w>
dé ser
b is
管辖 权</w>
加 快</w>
帮 忙</w>
itali en</w>
touch és</w>
世 贸</w>
it eur</w>
et h</w>
requ ises</w>
médi caux</w>
décou lant</w>
vég ét
保 险
bâti ments</w>
it ables</w>
mag asin</w>
ab outi
at mosph
ence inte</w>
su prê
éri ques</w>
ch ère</w>
b one</w>
监 禁</w>
做 好</w>
des cription</w>
l’am bassadeur</w>
o ts</w>
讲 话</w>
ar bitr
优 惠</w>
inter venir</w>
pois son</w>
生 殖</w>
patri moine</w>
比 尔</w>
手 指</w>
men su
最 多</w>
合 物</w>
assi s</w>
就 要</w>
mar ie</w>
死亡 率</w>
s ant
it a</w>
détermin ée</w>
croiss ant</w>
hen ry</w>
défin ies</w>
étrang e</w>
cl ô
中 欧</w>
b .
安 德
vers é</w>
remplac ement</w>
min e</w>
dign ité</w>
sol li
in spi
g ers</w>
p c</w>
l’ as
cent aines</w>
ly cée</w>
过 境</w>
- y</w>
地 面</w>
艾 米</w>
supprim er</w>
at titude</w>
distri ct</w>
bat aille</w>
ê ter</w>
邻 居</w>
pan sion</w>
pren ne</w>
inform atique</w>
名 称</w>
donn ant</w>
incomb e</w>
pa t
prob able</w>
illu str
受 益
理 想</w>
û ment</w>
sign al</w>
后 勤</w>
行 车</w>
st able</w>
bénéfi ces</w>
多 种</w>
sa ou
一 致
一致 性</w>
atten te</w>
菲 律
菲律 宾</w>
haut eur</w>
易 斯</w>
matéri aux</w>
hu mi
b ol
泰 国</w>
ra y</w>
勇 气</w>
quali fication</w>
cro issement</w>
渴 望</w>
迟 到</w>
fr ont</w>
dr esse</w>
着 重</w>
étrang er</w>
而 已</w>
ali ments</w>
propos és</w>
提 前</w>
l une</w>
formu lation</w>
compét ents</w>
contr act
d’en courager</w>
excel l
找 出</w>
reconnaiss ant</w>
种 植</w>
有 罪</w>
年 后</w>
b el</w>
th e
éch ou
c p</w>
沉 默</w>
tin g</w>
â tre</w>
m ille</w>
fli c</w>
accompl i</w>
人 均</w>
当 选</w>
réalis ées</w>
ni es</w>
diminu é</w>
生 于</w>
maj eur</w>
第五 十
迈 克</w>
répercu ssions</w>
gro ss
确 立</w>
1 1
凶 手</w>
médec ine</w>
投资 者</w>
智 利</w>
防 治</w>
assi n</w>
h ay
kil omè
自 身</w>
文 明</w>
complément aire</w>
idi ot</w>
main -
répon d</w>
民 事</w>
cen sé</w>
cré és</w>
mer veill
出 色</w>
探 讨</w>
t va</w>
par s</w>
prés ents</w>
负 面</w>
dé libér
刑 法</w>
li que</w>
sai sie</w>
sou mises</w>
qu e-
a st
15 %</w>
per tur
a- t-elle</w>
调 动</w>
at ou
amen é</w>
水 果</w>
s aison</w>
budg et-
natu rellement</w>
emb ar
tab ac</w>
r ation
compl exes</w>
哈 拉</w>
ai mer</w>
profon dément</w>
愉 快</w>
ch ant
ra t
étap es</w>
干 达</w>
乌 干达</w>
一 部</w>
suffis ant</w>
arrang ements</w>
赠 款</w>
cab inet</w>
流 动性</w>
bl é</w>
ap paraître</w>
blan che</w>
护 士</w>
mai sons</w>
vou d
trans frontali
元 首</w>
proto coles</w>
分 离</w>
particip ant</w>
m o</w>
新 鲜</w>
emp s</w>
ti ne</w>
教 科
l’ arrêt</w>
financ és</w>
scén ari
l’ écart</w>
mang e</w>
l as
ré ception</w>
élar gir</w>
第 七</w>
多 大</w>
mi -
fis cale</w>
le e</w>
su n
gi ques</w>
成 绩</w>
intellectu elle</w>
exclusi vement</w>
调 解</w>
sou p
an ne</w>
j’ aurai</w>
o de</w>
l’ importation</w>
玻 璃</w>
立 陶
立陶 宛</w>
is ie</w>
6 2/
décl en
dou leur</w>
盒 子</w>
扭 曲</w>
包 装</w>
lis tes</w>
权 威</w>
ethni ques</w>
appli quée</w>
m ité</w>
m ecs</w>
rég issant</w>
se c</w>
r h
privil égi
标 准
侵 害</w>
suprê me</w>
ju gé</w>
in cit
ste in</w>
d’en semble</w>
trans actions</w>
次 级</w>
反 对
葡萄 酒</w>
沮 丧</w>
肯 尼亚</w>
提 名</w>
è tent</w>
mand ats</w>
小 学</w>
tou cher</w>
p p</w>
ateli er</w>
学 位</w>
rapproch ement</w>
s- moi</w>
r ist
is sus</w>
bou te
j al
budget- programme</w>
sil ence</w>
li cence</w>
pré con
dem nité</w>
jac k
palesti ne</w>
皮 书</w>
mentionn és</w>
er te</w>
véhicu le</w>
蒙 特
fo p</w>
l’ appel</w>
prin ce</w>
class es</w>
li ez</w>
prof iter</w>
le one</w>
gran de-
d f</w>
洛 杉
anal o
spéci alement</w>
man n</w>
所 有权</w>
add. 1</w>
mar tin</w>
n’ étais</w>
port able</w>
bi ère</w>
al y
travail lant</w>
o la</w>
外 国人</w>
sui vie</w>
语 文</w>
pré ven
ext érieurs</w>
c élè
mat eur</w>
蛋 糕</w>
东 道
m ées</w>
poi gn
嫌 疑
200 4-
équip ement</w>
ér o</w>
ra ges</w>
ira n</w>
欧 元
教 育
欺 骗</w>
欧元 区</w>
ser ons</w>
b ét
l’in v
丹 尼</w>
in struc
询 问</w>
a b</w>
攸 关</w>
l’ég lise</w>
ét at
électri que</w>
限 于</w>
洛杉 矶</w>
烟 草</w>
cid ence</w>
spati ales</w>
entre prendre</w>
毕 竟</w>
entraî ner</w>
confi denti
suscepti ble</w>
d’ actions</w>
支 柱</w>
入 侵</w>
t ai
1. 1.
十 一
ri vi
at aire</w>
h t
commiss aires</w>
norm ale</w>
附 加</w>
pass agers</w>
e ar
fourn issent</w>
l’ ancien</w>
mo tif</w>
si ve</w>
to xi
i c</w>
停 下来</w>
log istique</w>
有 益</w>
斯 堡</w>
峰 会</w>
dé du
自 行车</w>
re joindre</w>
bless é</w>
癌 症</w>
ti rés</w>
vas -y</w>
论 文</w>
koweï t</w>
précé demment</w>
éri eur
laiss e-moi</w>
仲 裁</w>
s p</w>
pr oro
超 越</w>
er nité</w>
japon ais</w>
d’ad hésion</w>
s’ op
révis é</w>
senti ments</w>
in corpor
associ é</w>
古 老</w>
巴 布
l oy
ff e</w>
at om
马 耳
contribu ent</w>
活 力</w>
dan se</w>
整 天</w>
anim ité</w>
依 靠</w>
cer a</w>
al s</w>
上 校</w>
l’ avait</w>
es té</w>
马耳 他</w>
试 点</w>
men son
habitu de</w>
k at
im age</w>
ai sons</w>
l’hô tel</w>
20 20</w>
v entes</w>
打 败</w>
sur monter</w>
ent i</w>
ex -
aiss ent</w>
l’ usage</w>
prof ession</w>
ô me</w>
offici er</w>
fen être</w>
appréci e</w>
事 态</w>
2. 2.
scol aires</w>
tionn ellement</w>
首 要</w>
entraî né</w>
pour suivi</w>
宁 愿</w>
签 订</w>
黑 塞
黑塞 哥
黑塞哥 维
黑塞哥维 那</w>
fol le</w>
保 护
vou lez-vous</w>
i g
solv abilité</w>
人 物</w>
边 缘</w>
rés istance</w>
形 象</w>
con version</w>
农 产品</w>
冠 军</w>
communi qué</w>
enn y</w>
dis pos
很 久</w>
l’am pleur</w>
in age</w>
énonc és</w>
nom in
安 置</w>
mutu elle</w>
fi chi
外 交
牛 肉</w>
re vue</w>
ra m
parl ez</w>
entr é</w>
探 索</w>
re pas</w>
réglement ations</w>
im pér
l ance</w>
résul te</w>
réalis ée</w>
减 贫</w>
l’ag ent</w>
travail leur</w>
轨 道</w>
白 俄罗斯</w>
ro se</w>
u se</w>
gr en
fu ir</w>
200 6-
持 续性</w>
厨 房</w>
an i</w>
it ec
précéd entes</w>
qua te</w>
10 5</w>
加 剧</w>
a just
ci des</w>
tr ent
fonctionn aire</w>
200 4/
下 文</w>
rev ê
客 观</w>
sou d
souhai tent</w>
arm é</w>
concer t</w>
市 长</w>
affir me</w>
面 积</w>
逻 辑</w>
st on</w>
洗 钱</w>
业 绩</w>
分 之</w>
mar k</w>
è dent</w>
bosni e-
族 裔</w>
酒 精</w>
dou ane</w>
man qu
t ais</w>
晚 饭</w>
论 会</w>
personn els</w>
f rap
原 始</w>
di es</w>
tent ative</w>
tradu it</w>
par ts</w>
cou ple</w>
变 革</w>
li ti
解 放</w>
l’onu di</w>
connu es</w>
的 确</w>
民 众</w>
t aient</w>
grande- bretagne</w>
occup és</w>
amen er</w>
计 数</w>
就 是
in de</w>
hon te</w>
音 乐
怪 物</w>
10 -
摘 要</w>
事 先</w>
im pr
re trouv
旁 边</w>
mac ro
管理 局</w>
sym pa</w>
回 收</w>
远 远</w>
sai sir</w>
tax es</w>
作 业</w>
贸 易
inscr its</w>
entraî n
5 6/
an t-
g han
l’ap prentissage</w>
转 向</w>
康 复</w>
subst ance</w>
击 中</w>
bi r
引 力</w>
mar gin
经 合</w>
mon o
tr o</w>
li cen
英 尺</w>
al ise</w>
漠 化</w>
g -
特 权</w>
mi cr
enregistr és</w>
colon el</w>
adé quate</w>
当事 人</w>
界 定</w>
宇 宙</w>
海 外</w>
e re</w>
黑 色</w>
企 业
岗 位</w>
l’inter vention</w>
ch oc
refu se</w>
détermin é</w>
utilis ent</w>
首 都</w>
给 出</w>
j ette</w>
西 部</w>
明 智</w>
高 速</w>
chaus sures</w>
ang le</w>
ex press
ei b</w>
honn ête</w>
hist oires</w>
struc tu
compagni es</w>
res tes</w>
2 6
帽 子</w>
斯 林</w>
end a</w>
cl in
悲 伤</w>
就是 说</w>
excel lent</w>
domici le</w>
周 年</w>
car bone</w>
优 秀</w>
facult atif</w>
驾 驶</w>
sign es</w>
m’ aider</w>
int érieures</w>
convain cre</w>
ch ement</w>
propri étaire</w>
bu n
白 人</w>
civi les</w>
n’ arrive</w>
d’ analyse</w>
拖 延</w>
g an</w>
off rent</w>
s tes</w>
res té</w>
耶 稣</w>
ti mor
approfon die</w>
东道 国</w>
eli er</w>
j .</w>
报 酬</w>
palestini enne</w>
médec ins</w>
d’ organisation</w>
sexu el</w>
jus qu’en</w>
chi rur
毕 业</w>
谅 解</w>
mu r
contr airement</w>
神 圣</w>
adress er</w>
女 王</w>
白 色</w>
retour ne</w>
au d</w>
打 扰</w>
认 证</w>
运 动员</w>
ser ve</w>
sym bo
si f</w>
sémin aires</w>
minist ères</w>
旅 游
共 享</w>
périodi que</w>
dét ection</w>
上 涨</w>
nu tri
撤 销</w>
établi t</w>
cellu le</w>
营 销</w>
拉 圭</w>
vice- président</w>
f al
départ ements</w>
m ali
w in
amour eux</w>
一 周</w>
situ é</w>
hist ori
quit te</w>
抢 劫</w>
refu sé</w>
n ette</w>
ethni que</w>
approuv e</w>
沿 海</w>
mo biliser</w>
conver gence</w>
ch asse</w>
éten due</w>
跟 着</w>
aut eur</w>
监督 厅</w>
considé rations</w>
200 8-
cl av
avo cats</w>
博 物
en seignements</w>
in fir
y u
k an
放 射
生 涯</w>
瓦 尔</w>
开 玩笑</w>
nécess airement</w>
fer mement</w>
eu ra
and re
博物 馆</w>
酌 情</w>
délég u
基 准</w>
répar ation</w>
off ert</w>
ax ée</w>
教 练</w>
ach èvement</w>
lun di</w>
ar t
accep te</w>
mon te</w>
b ob
st an</w>
负责 人</w>
ou x</w>
nav ire</w>
at t</w>
prépara toire</w>
migr ations</w>
prisonni ers</w>
prim er</w>
con formes</w>
意 志</w>
go û
eff ray
inter prét
éventu ellement</w>
ven ues</w>
mar ine</w>
弱 势</w>
车 站</w>
développ é</w>
天 堂</w>
colom bie</w>
exécu tion</w>
超 出</w>
l’ être</w>
san itaires</w>
女 童</w>
sélec tionn
organis és</w>
l’ avons</w>
ri ce</w>
神 经</w>
gh t</w>
九 届</w>
int érieure</w>
hy dr
entraî ne</w>
阿 塞
阿塞 拜
阿塞拜 疆</w>
标准 化</w>
is -je</w>
h r
卡 拉</w>
opéra teurs</w>
殖 民
j’ imagine</w>
érieur ement</w>
es h</w>
au ration</w>
钻 石</w>
戒 指</w>
environnement ales</w>
i er</w>
l’ essentiel</w>
专 辑</w>
mo dé
l ing</w>
ét oi
journ alistes</w>
univers elle</w>
穷 人</w>
di a</w>
terri ble</w>
林 业</w>
médi cal</w>
皮 肤</w>
bil atéraux</w>
ain issement</w>
多 次</w>
rw anda</w>
touch ant</w>
几内 亚</w>
l itu
爱 上</w>
克 里斯</w>
appropri és</w>
pour suit</w>
约 束</w>
satell ite</w>
毛 里
c is
frapp é</w>
mi ch
开 会</w>
it eurs</w>
scri ption</w>
pê ch
成 人</w>
常 见</w>
sensi blement</w>
f leurs</w>
bo ok</w>
ira q</w>
re fus</w>
en gen
pour suites</w>
ré insertion</w>
requ is</w>
in o</w>
bénéfici é</w>
脸 上</w>
200 5/
sa che</w>
initi al</w>
spectac le</w>
先 进</w>
relev é</w>
renforc é</w>
quot as</w>
rê ves</w>
atten du</w>
生 病</w>
harmon isation</w>
connaiss ent</w>
ô tre</w>
re trouvé</w>
l’ organe</w>
un il
d’ achat</w>
爱 沙
爱沙 尼亚</w>
竞 选</w>
renouvel ables</w>
maîtr ise</w>
fe m</w>
modern isation</w>
effectu ée</w>
196 8</w>
au riez</w>
cam ion</w>
讨 论会</w>
借 口</w>
in aire</w>
c m</w>
ch ré
lieu tenant</w>
精 确</w>
m eur</w>
阐 述</w>
arm ac
se z-vous</w>
200 3/
anti -
19 60</w>
tent er</w>
j i</w>
乘 客</w>
signal er</w>
exploit ations</w>
清 除</w>
强 有力</w>
杀 害</w>
200 2/
d’ âge</w>
大 西洋</w>
sauv é</w>
公 牛</w>
par oles</w>
rembour sement</w>
enti té</w>
伴 侣</w>
l’ espoir</w>
mè n
环境 署</w>
ad oles
帝 国</w>
tour ne</w>
matéri els</w>
aff ai
斯 科</w>
负 有</w>
网 上</w>
britanni ques</w>
规 约</w>
lac unes</w>
co u</w>
无 疑</w>
partici pe</w>
生 育</w>
fu rent</w>
会 谈</w>
bu m</w>
potenti els</w>
面 包</w>
autonom e</w>
ér u
tradi tionnelles</w>
两 天</w>
vi vement</w>
co ff
trou pes</w>
pro pa
men és</w>
décr et</w>
lég itime</w>
log ements</w>
conser ver</w>
moder ne</w>
rou ill
被 捕</w>
h e</w>
péd ago
c é</w>
j er
dis ons</w>
burun di</w>
uti lité</w>
一 支</w>
probl é
ju ger</w>
封 信</w>
signal é</w>
l’en droit</w>
相 似</w>
fi eld</w>
si ble</w>
矛 盾</w>
l’infra structure</w>
发 放</w>
mentionn ées</w>
纪 律</w>
di able</w>
荒 漠化</w>
correc tement</w>
莎 拉</w>
十 字</w>
vi i</w>
go ût</w>
马 来
外 层</w>
d’ association</w>
ci ère</w>
week -
déc ol
occident ale</w>
anti ci
blan chim
es co</w>
financ é</w>
mar y</w>
sexu els</w>
l’harmon isation</w>
cher a</w>
dégra dation</w>
ré férences</w>
el les
ca li
服 装</w>
sp ir
univers el</w>
ti me</w>
and y</w>
穆 斯林</w>
ru p
冒 险</w>
â gés</w>
典 型</w>
约 旦</w>
cop ine</w>
中 学</w>
blanchim ent</w>
or donn
on y
consom mateur</w>
升 级</w>
car di
午 餐</w>
relè vent</w>
拍 摄</w>
dom mag
co stu
w a</w>
par cours</w>
bénéfi ce</w>
r ang
famili ales</w>
中 等</w>
soix ante-
rou tes</w>
成 熟</w>
suffis ante</w>
ali gn
靠 近</w>
sub i</w>
ag i</w>
fl or
con cré
肮 脏</w>
fon dées</w>
bi ologiques</w>
威 尔
国 防</w>
领 取</w>
vi ez</w>
ograph ie</w>
voy ag
ad hésion</w>
a f</w>
审 理</w>
客 人</w>
défini tive</w>
éri or
urb ain</w>
罗 伯特</w>
五 年</w>
chil i</w>
là- dedans</w>
éra ble</w>
报 表</w>
d’i voire</w>
导 弹</w>
总 的</w>
tiss ement</w>
ba ï
phili pp
phra se</w>
分 手</w>
intéri maire</w>
fer ro
hu r
mu sul
th aï
屠 杀</w>
灭 绝</w>
d’ agir</w>
ph ab
con çu</w>
想 念</w>
d’ établissement</w>
bil l</w>
阿尔 巴
an th
bai ser</w>
mar qué</w>
阿尔巴 尼亚</w>
constru it</w>
bill ets</w>
im pôts</w>
cré e</w>
st ar</w>
for êt</w>
laiss ez-moi</w>
w s</w>
in clus</w>
st ar
gar di
目 录</w>
安 妮</w>
munici pal
cou tu
détail lées</w>
196 9</w>
att énu
préc ises</w>
h oriz
compt abilité</w>
cede fop</w>
15 .
l’ auto
conjo inte</w>
学 科</w>
résid ents</w>
l’inst auration</w>
y e</w>
cl ari
第 三方</w>
民主 党</w>
voy ages</w>
quel conque</w>
d’ importance</w>
den rées</w>
pr int
练 习</w>
é par
心 脏</w>
土 壤</w>
mesu rer</w>
détail lée</w>
难民 署</w>
d .</w>
查 尔斯</w>
圣 诞
仪 式</w>
fi d
thé rap
鼓 舞</w>
联 络</w>
sec rets</w>
h o</w>
conn ec
马来 西亚</w>
employ é</w>
aper çu</w>
分 裂</w>
flu ence</w>
slova quie</w>
陈 述</w>
engag ée</w>
cre ts</w>
av eu
学 术</w>
v us</w>
sti pu
octr oy
hau ts</w>
qu al
反 恐怖</w>
diplô me</w>
inf érieure</w>
t’ avais</w>
danger euses</w>
el la</w>
prior itaire</w>
as tri
rem is</w>
互 动</w>
央 行</w>
街 上</w>
分 支</w>
th é</w>
magni fique</w>
阁 下</w>
恐 怕</w>
g érie</w>
cu re</w>
b -
老 鼠</w>
quin ze</w>
领 袖</w>
uni forme</w>
co inc
犯 下</w>
bon heur</w>
沙 特</w>
remar quer</w>
e et</w>
ag grav
qui conque</w>
e tre</w>
吸 收</w>
9 2-
perman ents</w>
gag ne</w>
消 极</w>
十一 届</w>
intég rés</w>
d ûment</w>
la c</w>
年 初</w>
vari ations</w>
编 辑</w>
i j
i des</w>
détru it</w>
w an</w>
spécialis és</w>
express ément</w>
经济 体</w>
ass or
圣 诞</w>
n ar
kilomè tres</w>
crip tions</w>
po l</w>
退 出</w>
一 块</w>
cu ri
就 此</w>
graph ie</w>
d’ organiser</w>
mondi ales</w>
好 事</w>
démo cra
se y</w>
渠 道</w>
incroy able</w>
处 境</w>
inclu re</w>
ambi ti
n ’</w>
北 爱尔兰</w>
in i</w>
ten eur</w>
征 聘</w>
吉 米</w>
empê che</w>
convers ation</w>
gé nie</w>
dét ach
迫 使</w>
concl us</w>
两 者</w>
seu il</w>
l’un animité</w>
7 0%</w>
bi n</w>
引 进</w>
cont am
réalis ations</w>
l’ac croissement</w>
米 尔</w>
克 莱
艾 伦</w>
引 渡</w>
arrê tez</w>
concer tation</w>
孤 独</w>
san itaire</w>
bo b</w>
托 尼</w>
eu s</w>
中 非</w>
infra ction</w>
f a</w>
op inion</w>
classi fication</w>
cin éma</w>
s’ag issait</w>
醒 来</w>
没 错</w>
po issons</w>
利 息</w>
compos ante</w>
grand- mère</w>
发 明</w>
mar itimes</w>
v ité</w>
麦 克</w>
consci ent</w>
stu p
st at
reç ues</w>
经 营
特 工</w>
to x
生产 力</w>
s por
compl éter</w>
奶 奶</w>
ist ent</w>
charg ées</w>
脖 子</w>
签 证</w>
m ères</w>
ér a</w>
专 办</w>
personn elle</w>
milli ard</w>
habit ant</w>
arri vent</w>
1 3.
情 绪</w>
fer ont</w>
res tez</w>
fer met
accr u</w>
越 南</w>
chal eur</w>
d’ étudier</w>
l’ occupation</w>
污 染
会 员</w>
s mit
ét ér
d al
关 联</w>
宝 贵</w>
systé mati
consac rés</w>
隐 藏</w>
一 座</w>
mari er</w>
prépar é</w>
采 纳</w>
cro atie</w>
lou is</w>
鼻 子</w>
ré col
明 星</w>
空 缺</w>
s’ effor
rapport ant</w>
小 镇</w>
val oris
stup éfi
mar qu
查 德</w>
lég iti
e le</w>
prépa re</w>
不 用</w>
场 景</w>
y cl
pens ait</w>
舞 台</w>
来 文</w>
同 等</w>
posi tives</w>
toi lettes</w>
céré ales</w>
approuv er</w>
吁 请</w>
移 交</w>
ent ail</w>
présid enti
in ions</w>
致 命</w>
x e</w>
煤 炭</w>
con joint</w>
200 6/
d’ appel</w>
平 静</w>
吸 引力</w>
弟 弟</w>
2 2
clau se</w>
lég èrement</w>
1 60</w>
foot ball</w>
print emps</w>
. 1</w>
x én
temp érature</w>
trans mettre</w>
vic toire</w>
qualifi és</w>
f oyer</w>
impr essionn
bri ll
ay ez</w>
d’ israël</w>
有 着</w>
手 中</w>
chim ique</w>
lég u
注 重</w>
s el
graph iques</w>
crit ère</w>
slo vé
administr atifs</w>
ser vent</w>
pa rie</w>
mix te</w>
l’ afghanistan</w>
d’ étude</w>
dr ons</w>
a trices</w>
saut er</w>
vér itablement</w>
本 质</w>
ent er</w>
bas é</w>
lu e</w>
facil it
établ issant</w>
运 人</w>
惯 例</w>
rubri que</w>
const ante</w>
确 切</w>
ret ar
re y</w>
选 民</w>
flexi bilité</w>
perform ance</w>
oi r
18 0</w>
pl on
avanc ées</w>
oblig é</w>
运 营</w>
nett oy
k a
trans mis</w>
背 后</w>
法 典</w>
d’in di
第 十</w>
oc é
pil otes</w>
profon de</w>
demand ons</w>
坚 决</w>
parl ons</w>
l’a éroport</w>
g ab
énerg étiques</w>
ren dus</w>
温 度</w>
当 作</w>
mess ages</w>
d’ allemagne</w>
座 位</w>
n an
协 同</w>
progr ession</w>
inter rom
chi ens</w>
syn thèse</w>
so r</w>
écri v
défin it</w>
城 里</w>
justi fier</w>
fri c</w>
温 室</w>
k az
ferro vi
ét e
oc ar
len demain</w>
秘 鲁</w>
juris prudence</w>
pai e</w>
dol lar</w>
slové nie</w>
nor me</w>
ti mo
尽 量</w>
cham bres</w>
放射 性</w>
récu pér
脱 维亚</w>
拉 脱维亚</w>
dr ais</w>
l’institu tion</w>
géor gie</w>
jet é</w>
ton y</w>
è che</w>
mont agne</w>
échapp er</w>
d’ échange</w>
te d</w>
大 小</w>
stabil isation</w>
manu factu
fr- c</w>
bosnie- herzégovine</w>
犹 太
em e</w>
eu t</w>
suspec t</w>
po inte</w>
l’é v
sovi étique</w>
envis age</w>
ch at</w>
è ques</w>
爆 发</w>
plac é</w>
condam né</w>
一 把</w>
urb aines</w>
山 姆</w>
contr adi
im ages</w>
r on</w>
ré volution</w>
gueu le</w>
缓 慢</w>
京 都</w>
tr ine</w>
mal ai
ag i
demand eurs</w>
营 地</w>
微 笑</w>
bl eu</w>
w ar
逃 跑</w>
atten dent</w>
indi quent</w>
is tr
5 000</w>
保 密</w>
v il
元 素</w>
im posées</w>
o ffice</w>
tr action</w>
ren dement</w>
recher cher</w>
d’ap prentissage</w>
9 0%</w>
é pi
ber lin</w>
l’enf ance</w>
demand ent</w>
管 道</w>
f aut
cu les</w>
licen ci
职 务</w>
研 发</w>
sain t</w>
噪 音</w>
较 高</w>
tradu ction</w>
de viennent</w>
好 人</w>
négoci er</w>
structur elles</w>
bl esse</w>
神 秘</w>
sensi bles</w>
3 0.
尴 尬</w>
é die</w>
mé mor
lors qu’ils</w>
ag n
削 弱</w>
vir us</w>
dét érior
viv ants</w>
脑 袋</w>
成 长</w>
i c
指 挥</w>
pén étr
p iste</w>
处 罚</w>
descen dre</w>
使 用
thom as</w>
皇 家</w>
sol s</w>
谷 物</w>
ra ce</w>
diffus er</w>
无 效</w>
ai s-tu</w>
élector ale</w>
pour suiv
re dou
天 使</w>
vis er</w>
er baï
成 年人</w>
mo bil
din g</w>
l om
ag ence</w>
特 性</w>
re courir</w>
bas ée</w>
d’ article</w>
工作 者</w>
紧 密</w>
personn ellement</w>
insul aires</w>
esp érer</w>
dé passe</w>
合法 性</w>
ph armac
har c
fi le</w>
中 小型</w>
- cadre</w>
in tention</w>
cont est
s’ occuper</w>
w ell</w>
d’ accorder</w>
pron oncer</w>
确 定性</w>
assur ances</w>
多 尔</w>
si l</w>
ez- le</w>
6 3/
au gu
bu ts</w>
banc aire</w>
perf ectionn
confron tés</w>
专 注</w>
no sti
supéri eurs</w>
tent é</w>
1 10</w>
pré judici
mi gn
北 方</w>
一 刻</w>
指 责</w>
fis cales</w>
g ations</w>
pron onc
pu ni
ex prime</w>
l’intég rité</w>
alloc ations</w>
z éro</w>
sy ri
教 会</w>
observ ateur</w>
anim al</w>
lib éria</w>
头 脑</w>
occup ent</w>
谎 言</w>
jan e</w>
av oirs</w>
restau rant</w>
zél ande</w>
n am</w>
mi r
cam ps</w>
remar que</w>
企业 家</w>
b is</w>
garanti ss
gam me</w>
sui vent</w>
l’ orientation</w>
is tiques</w>
试 试</w>
sur vie</w>
始 终</w>
d na</w>
l’équi libre</w>
l’ex pression</w>
d’in stitu
cam er
par tant</w>
衰 退</w>
week- end</w>
institu tionnelles</w>
j’ arrive</w>
él us</w>
enn eté</w>
奖 励</w>
100 %</w>
旅游 业</w>
certifi cat</w>
dé pôt</w>
灭 性</w>
毁 灭性</w>
donn e-moi</w>
裤 子</w>
in cen
d’ efforts</w>
ai der
bul le
in ég
无 聊</w>
哈 利</w>
lib rement</w>
engag ées</w>
e di</w>
极 大</w>
l’ avais</w>
journ aux</w>
limit ées</w>
尖 叫</w>
au rons</w>
examin ées</w>
dou c
mal te</w>
é mo
refu ser</w>
ho sti
裁 定</w>
登记 册</w>
l’ adaptation</w>
sty le</w>
检 查
pré su
crimin els</w>
北 京</w>
尔 夫</w>
ét onn
ré unis</w>
工程 处</w>
简 要</w>
jeu di</w>
b ête</w>
can adi
不 良</w>
exam ens</w>
renforc ée</w>
illi cites</w>
tou rs</w>
美 尼亚</w>
亚 美尼亚</w>
con tente</w>
m exi
o v</w>
ra patri
dépu té</w>
莱 斯</w>
sim ples</w>
adop te</w>
军 官</w>
泊 尔</w>
尼 泊尔</w>
原 则
城 堡</w>
o .
compét ente</w>
sal ue</w>
ten ons</w>
ur gent</w>
pouss er</w>
livrai son</w>
li gue</w>
某 人</w>
con crets</w>
安 哥
安哥 拉</w>
su c
individu els</w>
单 元</w>
em mener</w>
off en
ins iste</w>
allem ands</w>
ob é
sou mise</w>
gu ay</w>
极 为</w>
ti mi
过 于</w>
l’au triche</w>
diag nosti
ky oto</w>
幅 度</w>
str alie</w>
收 购</w>
麦 克
intéress ées</w>
匹 配</w>
pour rons</w>
忠 诚</w>
l’ autorisation</w>
mar ins</w>
四 年</w>
ma astri
部 落</w>
木 材</w>
cour rier</w>
por tera</w>
pe ines</w>
consul ter</w>
ch rist
暗 示</w>
ru sses</w>
cou l
dé charge</w>
阐 明</w>
afric ain</w>
普 查</w>
ci els</w>
réaffir me</w>
b t
正 规</w>
univers itaires</w>
色 情</w>
r ol
ad mis</w>
内 陆</w>
préfér é</w>
publi és</w>
b s
雄 心</w>
困 境</w>
重 量</w>
折 磨</w>
l’ira n</w>
c m
ni ck</w>
suffis antes</w>
姐 妹</w>
vers ées</w>
提 供
cer titude</w>
abandonn er</w>
六 届</w>
游 客</w>
satis fais
précéd ents</w>
tranqu ille</w>
spécifi quement</w>
会 上</w>
quanti t
environnement ale</w>
y n</w>
parl ant</w>
cons istant</w>
耳 朵</w>
sy l
ab at
14 .
提 起</w>
papi ers</w>
泰 勒</w>
hi opie</w>
衬 衫</w>
人 居</w>
maastri cht</w>
ken ya</w>
教科 文</w>
ess ence</w>
exter nes</w>
等 级</w>
吃 饭</w>
peu t
估 计数</w>
mi en</w>
cit y</w>
d’ augmenter</w>
inci dence</w>
sud- est</w>
含 有</w>
200 2-
sensi biliser</w>
方 便</w>
划 分</w>
tri que</w>
蔬 菜</w>
bo ss
玻 利
dé ten
al ex
affec tés</w>
聚 集</w>
o se</w>
不 多</w>
dé posé</w>
aug mente</w>
comb att
un e
gouvern eur</w>
ad o</w>
复 苏</w>
dis e</w>
明 年</w>
jam bes</w>
sé v
ru es</w>
感 情</w>
要 点</w>
pour rions</w>
预 见</w>
加 尔</w>
本 次</w>
便 宜</w>
bel ge</w>
2 e</w>
复 员</w>
上 限</w>
ministéri elle</w>
fonctionn er</w>
cohér ente</w>
还 给</w>
mari é</w>
l’ac quisition</w>
willi am</w>
碎 片</w>
grand- père</w>
马 丁</w>
星 球</w>
remar qué</w>
c ouvert</w>
政 部</w>
s y</w>
企 图</w>
ét h
l’ approbation</w>
交 谈</w>
诊 断</w>
原则 上</w>
ne i
réguli ère</w>
as pi
远 程</w>
per su
cit ation</w>
20 .
meu ble</w>
on or
j .
v .
opérationn els</w>
ex istence</w>
poss ession</w>
haï ti</w>
圣诞 节</w>
t’ aider</w>
2006- 2007</w>
ser re</w>
k in
路 易斯</w>
hou se</w>
examin ée</w>
t .
这 座</w>
institu ant</w>
ri d</w>
瑞 拉</w>
委 内
委内 瑞拉</w>
格 式</w>
é prouv
chan ter</w>
味 道</w>
est- elle</w>
al ex</w>
饥 饿</w>
话 题</w>
d’ oeuvre</w>
expli qué</w>
par ent
提 升</w>
fac e
调查 局</w>
患 者</w>
thé âtre</w>
res titu
err y</w>
很 小</w>
épou se</w>
看 待</w>
性 感</w>
compati ble</w>
israéli en</w>
爵 士</w>
同 情</w>
ch anc
动 态</w>
上 学</w>
trans former</w>
dé sé
警 方</w>
动 议</w>
meu bles</w>
ga re</w>
ex hor
différen ds</w>
输 入</w>
bl anc
这 本</w>
j oli</w>
清 晰</w>
椅 子</w>
ment i</w>
d’ années</w>
k in</w>
for tes</w>
apport ées</w>
o d
lib érer</w>
be auté</w>
毫 不</w>
吉 尔</w>
bour se</w>
不 论</w>
tradi tionnels</w>
g y
soi gn
labor atoire</w>
总 共</w>
ci gar
mang é</w>
sc and
respec te</w>
p ain</w>
lt an
jim my</w>
几 十</w>
1 40</w>
condu c
鲍 勃</w>
治 安</w>
冻 结</w>
弥 补</w>
传 递</w>
pro xim
上 周</w>
规 章</w>
refl ète</w>
op ho
禁 令</w>
trans it
纯 粹</w>
创 造
ti se</w>
科 特</w>
手 臂</w>
réglement aires</w>
gu inée</w>
地 带</w>
辞 职</w>
reç oivent</w>
兽 医</w>
ren dent</w>
offici els</w>
交 易
上 床</w>
qua si
合 作
v é</w>
am or
格 雷</w>
indi ces</w>
一 本</w>
ni er</w>
investiss eurs</w>
dé bi
compren ant</w>
德 尔</w>
recouv rement</w>
l’inter net</w>
dani el</w>
观 念</w>
progressi ve</w>
ra s
d’ accords</w>
arti fi
经营 者</w>
fabri c
0 3
bran che</w>
辅 助</w>
悲 剧</w>
k er
s ag
ren due</w>
simu ltan
发 展
convi ction</w>
c av
abor der</w>
球 员</w>
dé mon
看 过</w>
m atu
层 次</w>
rev êt</w>
l’ex -
er cer</w>
余 额</w>
classi ques</w>
这 笔</w>
apr ès-midi</w>
ot age</w>
承 包
导 演</w>
过 分</w>
d’ entrée</w>
税 率</w>
mari ée</w>
désé qui
j’ appelle</w>
d’ an
l’inter prétation</w>
gouvernement aux</w>
si ez</w>
port ait</w>
environnement aux</w>
aff ér
图 像</w>
philipp ines</w>
tu és</w>
coordonn ateur</w>
先 前</w>
jo r</w>
décen nies</w>
ai ment</w>
屋 顶</w>
阿 姆
célè bre</w>
répar er</w>
fa o</w>
systémati quement</w>
应 急</w>
l’a dresse</w>
dis parition</w>
regar dé</w>
违 背</w>
阿姆 斯特
r t
rel èvement</w>
pu issant</w>
王 子</w>
israéli ennes</w>
d’ habitude</w>
忽 略</w>
veu x-tu</w>
s’appli quent</w>
cop ain</w>
exprim ées</w>
h ec
ten sions</w>
cotis ations</w>
奥 斯
réc ents</w>
précisi on</w>
热 情</w>
商 务</w>
娱 乐</w>
poss é
inter pr
较 小</w>
ju g
d aient</w>
réclam ations</w>
bo is
mén ag
向 前</w>
é mer
ti es</w>
促 请</w>
w ay</w>
b c</w>
pla fond</w>
diplom atique</w>
本 人</w>
mon ie</w>
j onc
d et
十 二</w>
t oit</w>
目 的
犹太 人</w>
réuni r</w>
meur tri
fourni e</w>
恶 心</w>
élev ées</w>
难 过</w>
d’ex plo
excuse z-moi</w>
no tifi
巴 尔
hypo th
l’im age</w>
兰 卡</w>
p n
市 政</w>
entre -
ô mes</w>
syn er
horri ble</w>
administr ateur</w>
achev é</w>
i d</w>
ri gour
ch anti
sup porter</w>
stupéfi ants</w>
感 觉
présent es</w>
感觉 到</w>
ir landais</w>
bat tu</w>
ven du</w>
危 地
accro issement</w>
西 斯</w>
p ann
mi ques</w>
en cl
赫 特</w>
op port
discipl ine</w>
territori ale</w>
i .</w>
e ffici
cap itu
religi eux</w>
n au
影 响
g .
差 别</w>
my st
捍 卫</w>
gar des</w>
l’in form
储 蓄</w>
本 来</w>
candid at</w>
z e
影响 力</w>
install ation</w>
d’ex périence</w>
reç oit</w>
g is
s’ inscri
库 存</w>
d’ es
d’ hommes</w>
分 摊</w>
signific ative</w>
n ace</w>
biblioth èque</w>
re quête</w>
fix ation</w>
prom et
制造 业</w>
d d
mass ac
支 票</w>
封 锁</w>
利 比亚</w>
mo des
场 合</w>
韩 国</w>
l’ aider</w>
permettr ont</w>
含 义</w>
univers itaire</w>
成 千</w>
d rap
poli ciers</w>
has ard</w>
上 万</w>
ré vol
en droits</w>
re v</w>
li es</w>
compl ex
d’ adaptation</w>
获 益</w>
pha re</w>
disponi bilité</w>
ten ez</w>
v ant</w>
ji m</w>
b att
class ement</w>
confir mer</w>
at a</w>
litu anie</w>
ajou te</w>
form é</w>
instruc tions</w>
cl ai
ten si
iti é</w>
navi gation</w>
cel l
mauv aises</w>
cour te</w>
ban k</w>
autoris er</w>
席 位</w>
检 测</w>
工程 师</w>
危地 马拉</w>
根 源</w>
rivi ère</w>
de aux</w>
explo itation</w>
dévelop pe</w>
onn age</w>
cellu les</w>
simil aire</w>
par faite</w>
l’ électricité</w>
j é
d’en gag
c il</w>
si èges</w>
paci fiques</w>
ing s</w>
compos antes</w>
dan ny</w>
sti que</w>
dites- moi</w>
ati vement</w>
vari ation</w>
concur ren
consoli der</w>
未 成年</w>
res tation</w>
神 奇</w>
institu tionnelle</w>
缺 少</w>
ci bles</w>
stu di
face book</w>
itali enne</w>
proxim ité</w>
bal les</w>
培 养</w>
原 来</w>
目的 地</w>
dot és</w>
b oy
b au
餐 厅</w>
提 取</w>
a e</w>
海 滩</w>
pl age</w>
archi ves</w>
met tez</w>
单 方面</w>
何 种</w>
e- le</w>
consac rées</w>
tradu ire</w>
防 御</w>
stimu ler</w>
ir s</w>
hô tel</w>
allég ations</w>
évo qué</w>
t n
desti n</w>
fréqu ence</w>
3 1.
配 偶</w>
大 便</w>
发 动</w>
rec ycl
enc er</w>
j’ estime</w>
rel â
man qué</w>
火 灾</w>
de bout</w>
sugg ère</w>
qu ette</w>
b .</w>
珍 妮</w>
re qui
http:// www.
骗 子</w>
som m
h an</w>
l’aut onom
iss ez</w>
soli des</w>
médi cale</w>
mi er</w>
rar es</w>
cc c</w>
bor del</w>
dé mie</w>
ter s</w>
ste ve</w>
eff on
饲 料</w>
船 舶</w>
électri ques</w>
administr ateurs</w>
or y</w>
mar ques</w>
gi ène</w>
n ées</w>
en glob
cul aire</w>
op inions</w>
e ons</w>
an -
抛 弃</w>
mi n</w>
情 形</w>
lu es</w>
b angl
波 罗</w>
掩 盖</w>
d amment</w>
indispens ables</w>
oug anda</w>
facil ité</w>
fais aient</w>
吉 姆</w>
丧 失</w>
em pris
bangl ad
aéri enne</w>
与 其</w>
gu at
my an
thé matiques</w>
p ma</w>
encoura gé</w>
唱 歌</w>
船 员</w>
柬 埔
柬埔 寨</w>
销 毁</w>
地 下
feu ille</w>
冰 岛</w>
con venus</w>
lad ite</w>
asse oir</w>
d’ or</w>
假 期</w>
opho bie</w>
en h
ar y</w>
d’ etat</w>
卡 特</w>
parl ait</w>
lon gues</w>
cou teau</w>
tr e-
écr ite</w>
16 .
ad h
d’ex pression</w>
ag issant</w>
l at
as h</w>
crédi bilité</w>
célé b
illég ale</w>
d s
能 否</w>
jar din</w>
al d</w>
év ac
感 受</w>
一 人</w>
bour ses</w>
处 置</w>
mi lieux</w>
myan mar</w>
remar ques</w>
bo v
ecou tez</w>
manifest ation</w>
j oy
c ine</w>
frapp er</w>
数 学</w>
2004- 2005</w>
罚 款</w>
mét é
l’ ancienne</w>
phil os
sex y</w>
conseill ers</w>
semb lait</w>
opérationn elle</w>
v ag
10 9</w>
行 事</w>
卖 淫</w>
de la</w>
gi bles</w>
matern elle</w>
l’ar me</w>
quar ante-
工 艺</w>
筹 措</w>
威 廉</w>
薪 酬</w>
prom ets</w>
cess é</w>
l’ art</w>
di manche</w>
终 身</w>
g ènes</w>
订 单</w>
pr inc
决 策
lég al</w>
ing éni
dé riv
respec tifs</w>
k ur
inspec teur</w>
sold at</w>
久 性</w>
l’ap pareil</w>
ck y</w>
短 缺</w>
go sse</w>
cou per</w>
嫉 妒</w>
éman ant</w>
grav ement</w>
d’en qu
pal ais</w>
l an</w>
要 说</w>
dem i</w>
all on
éner gies</w>
défin iti
pa c</w>
纪 念
对 应</w>
s’ attaquer</w>
接 收</w>
intég rées</w>
d’ appuyer</w>
dé chi
mor ale</w>
indi quant</w>
onn aire</w>
h éli
habit at</w>
euro pa
cruci al</w>
g age</w>
con for
d’ex ercer</w>
all ation</w>
sidé rur
enn em
assu rée</w>
dan ser</w>
具 备</w>
régu lar
bless és</w>
du n
sar ah</w>
mar di</w>
孟 加拉
appel l
aim ait</w>
pa trou
déser tification</w>
地 下</w>
n ai
ef eu
re cor
const amment</w>
d’ observation</w>
prosp érité</w>
génér ations</w>
smit h</w>
ot tes</w>
f ère</w>
妓 女</w>
énonc ées</w>
atis ation</w>
prévoy ant</w>
or ateurs</w>
associ ée</w>
nig éria</w>
慷 慨</w>
di x-
ell y</w>
u m
pass és</w>
tr au
ass isté</w>
n d</w>
朝 着</w>
harc èlement</w>
mag az
中 部</w>
améric aines</w>
在 线</w>
dé sir</w>
hom mage</w>
缩 小</w>
情 感</w>
compens ation</w>
招 募</w>
h arry</w>
e illes</w>
l’au stralie</w>
l’ élection</w>
背 叛</w>
rati fié</w>
perform ances</w>
相 机</w>
arg o</w>
口 袋</w>
port efeu
飞 行
sem estre</w>
ry an</w>
备 选</w>
investiss ement</w>
公 报</w>
陛 下</w>
接 到</w>
用 品</w>
mom ents</w>
骨 头</w>
荣 幸</w>
arriver a</w>
recru té</w>
fi ables</w>
共 有</w>
tran che</w>
添 加</w>
y th
奇 迹</w>
cons entement</w>
aim ez</w>
am ène</w>
publi ée</w>
reven di
met tr
dispar ités</w>
特 里</w>
d’ électricité</w>
月 底</w>
grav ité</w>
associ er</w>
分 为</w>
ri ez-vous</w>
歇 尔</w>
donn era</w>
恶 魔</w>
修 复</w>
ç ait</w>
年 中</w>
thaï lande</w>
rejet é</w>
z im
b at</w>
政治 家</w>
lég ale</w>
assur ant</w>
vol et</w>
exac t</w>
développ ements</w>
10 4</w>
urb aine</w>
l’ arti
披 露</w>
c c</w>
b arr
拉 德</w>
référ en
l’av ion</w>
cali for
丹 尼尔</w>
想 起</w>
inter médiaire</w>
atta che</w>
ag it</w>
代表 性</w>
ai -je</w>
sexu elles</w>
昂 贵</w>
收 费</w>
ph o
l’u k
estim ons</w>
essay ez</w>
j oie</w>
gar anti</w>
mon stre</w>
meur t</w>
d’ex portation</w>
种 子</w>
d’ aides</w>
委 托</w>
res tera</w>
年 级</w>
multilatéra l</w>
fi anc
负 债</w>
p t
cau sé</w>
ois eaux</w>
正 当</w>
擅 长</w>
孟加拉 国</w>
免 受</w>
ri es</w>
pro jec
parti ellement</w>
ot y
multil atéraux</w>
c ateur</w>
演 出</w>
peut- on</w>
k ong</w>
eura tom</w>
c ouverts</w>
19 .
置 于</w>
推 出</w>
trans nationale</w>
pré voient</w>
流 血</w>
l’é qu
défin ie</w>
classi que</w>
f ed</w>
剩 余</w>
dimen sions</w>
peut être</w>
着 手</w>
ster dam</w>
候 选</w>
电 台</w>
stand ard</w>
d dy</w>
观 众</w>
mat ernité</w>
forc é</w>
科 尔</w>
ins isté</w>
mil it
s’av ère</w>
p ani
num érique</w>
黄 金</w>
é mis</w>
mentionn er</w>
sus pension</w>
fall u</w>
in tra
慈 善</w>
ré com
基督 教</w>
引 发</w>
ro ger</w>
déci deurs</w>
节 省</w>
cop ie</w>
pi er
empre intes</w>
i quement</w>
rési de</w>
因 而</w>
d’in iti
é puis
annu lation</w>
ex ception</w>
国 防
chin oise</w>
17 .
s ’</w>
gag n
d’a sie</w>
实 质</w>
兼 职</w>
peu x-tu</w>
a g</w>
d’ac tes</w>
3 5
vers ée</w>
str ation</w>
diri ge</w>
揽 子</w>
一 揽子</w>
in du
m â
ex plor
rencontr és</w>
clô ture</w>
op tion</w>
d’ opérations</w>
ab us</w>
行 性</w>
préci eux</w>
st é
rav i</w>
prof il</w>
men tion</w>
banc aires</w>
p ant
néer landais</w>
d ent
do se</w>
2008- 2009</w>
march es</w>
pren ons</w>
风 格</w>
l’ identité</w>
qu ez</w>
trouv ée</w>
含 量</w>
决 定性</w>
早 餐</w>
si er</w>
représent er</w>
接 管</w>
souhai table</w>
v acc
ren voi</w>
ou t</w>
médi aires</w>
守 则</w>
干 扰</w>
ris quent</w>
n app
pl antes</w>
j au
sec tions</w>
大 不
花 费</w>
di xième</w>
mari a</w>
萨 姆</w>
examin és</w>
征 收</w>
l’uk raine</w>
b ite</w>
dan ois</w>
d d</w>
tr ace</w>
ré pan
传 输</w>
réaffir mé</w>
恰 当</w>
侧 重</w>
let ton
att entes</w>
马 其
马其 顿</w>
vou s-
ad hér
accessi bles</w>
仇 外</w>
è ses</w>
arriv és</w>
物 体</w>
approuv és</w>
cam éra</w>
atte ign
vi abilité</w>
on t-ils</w>
g el</w>
utilis ations</w>
direc tes</w>
遇 见</w>
est onie</w>
philos oph
发 电
pi res</w>
abandonn é</w>
孤 立</w>
parl ements</w>
l issement</w>
s ap
préci ation</w>
cou ché</w>
appel ez</w>
惊 喜</w>
me d</w>
更 快</w>
d’ identifier</w>
z o</w>
offici ers</w>
n’ oubli
autoris és</w>
mon d</w>
jou eur</w>
看 作</w>
ment ation</w>
di z
natur elle</w>
révél é</w>
lib éra
ex empl
trai tées</w>
indi cations</w>
trent e-
im pose</w>
tun isie</w>
fix ées</w>
维 度</w>
退 化</w>
boute ille</w>
intégr ante</w>
玩 具</w>
3 6
名 为</w>
rép ète</w>
mag n
f outre</w>
tra h
ag r
second aires</w>
二 氧化
ti ères</w>
financ ements</w>
comment aire</w>
史蒂 夫</w>
克 里斯
encoura geant</w>
拉 里</w>
résol u</w>
fu ite</w>
学 徒</w>
频 率</w>
rédu ctions</w>
divor ce</w>
éti sation</w>
ra bles</w>
业 者</w>
定 于</w>
7 5%</w>
complex ité</w>
d’in vestiss
sugg éré</w>
顺 序</w>
letton ie</w>
浓 度</w>
donn ez-moi</w>
有 时候</w>
斯特 里
sur pris</w>
fl otte</w>
毁 灭</w>
外交 部</w>
pass e
大 厅</w>
inter prétation</w>
ré agir</w>
re dress
or g</w>
星期 五</w>
10 1</w>
dou ce</w>
sam edi</w>
méc an
复 制</w>
wor ld</w>
dé n
可 以
可以 说</w>
réus sir</w>
比 利</w>
同 一个</w>
验 证</w>
l er
inf ec
s’ élev
correspon dent</w>
représent ante</w>
k am
g ains</w>
demeur ent</w>
contin u</w>
ab sence</w>
co des</w>
agré able</w>
m ’est</w>
cass é</w>
bles sures</w>
18 .
méditerran ée</w>
早 些</w>
天 空</w>
阿姆斯特 丹</w>
législ ative</w>
武 力</w>
夫 妇</w>
招 聘</w>
魔 法</w>
ma jor</w>
g en</w>
哪 个</w>
arm ements</w>
périodi ques</w>
cour ants</w>
ol s</w>
soci aliste</w>
eu tiques</w>
ouvri ers</w>
v étér
ois elle</w>
direc trice</w>
摄 像
deman dant</w>
w ol
l’oc de</w>
éventu elle</w>
l les</w>
简 短</w>
响 应</w>
之 内</w>
魔 鬼</w>
étudi é</w>
绝 望</w>
problé matique</w>
co ch
excu ser</w>
ma y
h aw
c f</w>
coun cil</w>
m’ avoir</w>
re dev
d’ irlande</w>
troisi èmement</w>
汇 编</w>
有 化</w>
nég atif</w>
uni ème</w>
lo r</w>
malai sie</w>
cher ché</w>
banglad esh</w>
produc teur</w>
笑 话</w>
疫 苗</w>
经济 学</w>
真 诚</w>
manif este</w>
inform atiques</w>
bou ge</w>
公 主</w>
prof essions</w>
垄 断</w>
l’ex plo
斯 里
da w</w>
souhai tons</w>
预 先</w>
orient al</w>
创 业</w>
先 决</w>
会 见</w>
qualifi ée</w>
coû t
qu’ après</w>
大 师</w>
w all
ec us</w>
排 放
ré it
combin aison</w>
vi ons</w>
斯里 兰卡</w>
塔 尔</w>
马 斯特里
马斯特里 赫特</w>
n az
tré sor</w>
sépar ation</w>
prim or
es comp
accep tation</w>
comm ises</w>
cam bo
亲 密</w>
ill é</w>
acqu ise</w>
sco tt</w>
e- t-il</w>
德 拉</w>
cr eu
fa c</w>
沿 着</w>
doig ts</w>
ac t</w>
recen sement</w>
institu ts</w>
inter ven
信 用</w>
autonom es</w>
con viendrait</w>
religi euses</w>
香 港</w>
护 照</w>
dj an</w>
annu elles</w>
consac rer</w>
准 入</w>
ver ts</w>
fin ance</w>
理 查德</w>
d’ articles</w>
vis ager</w>
bl oc
指 望</w>
plu ie</w>
ci- dessous</w>
罗 姆</w>
élimin ation</w>
自 豪</w>
v on</w>
ré capitu
没 收</w>
gu ée</w>
警 卫</w>
tr emb
pro pi
fourn issant</w>
转 化</w>
rétab lir</w>
. eu
excu se</w>
球 队</w>
c ences</w>
线 索</w>
plac er</w>
le- moi</w>
2 3.
m b
ex erce</w>
马 德里</w>
i m</w>
re tenir</w>
as t</w>
qu oi
mer cre
污染 物</w>
工 业化</w>
in gue</w>
10 3</w>
填 补</w>
nouvelle- zélande</w>
爱 情</w>
di eux</w>
nécess ite</w>
瓜 多尔</w>
厄 瓜多尔</w>
collabor er</w>
ab sor
出 租
缓 解</w>
延 迟</w>
残 忍</w>
m en</w>
s r</w>
moder nes</w>
din gue</w>
institu tionnels</w>
po che</w>
l’ approvisionnement</w>
confir me</w>
mad rid</w>
l’op position</w>
粮 农</w>
dé gâ
d’en vironnement</w>
at ti
结 盟</w>
布 斯</w>
塞 内
罢 工</w>
容 性</w>
inter gouvernementales</w>
fass ent</w>
d’in spection</w>
h aine</w>
盈 余</w>
cou p
co sta</w>
an n</w>
k el
le ader</w>
end or
欣 赏</w>
陪 审
威 士
奴 隶</w>
con cevoir</w>
南 亚</w>
re ti
人 格</w>
no y
mi ères</w>
liban ais</w>
战 士</w>
干 旱</w>
大 人</w>
ok ay</w>
fix ant</w>
atténu er</w>
offici euses</w>
erbaï djan</w>
compati bles</w>
mé tier</w>
vi ol</w>
représent é</w>
clu re</w>
provis oires</w>
fon dement</w>
déro gation</w>
lon gueur</w>
维 修</w>
cam p
trac es</w>
塞内 加尔</w>
爆 炸
indépen damment</w>
歌 曲</w>
mani pu
现 状</w>
28 .
杀 案</w>
réc ent</w>
zu ela</w>
ri o</w>
幻 想</w>
200 1/
全 力</w>
ser gent</w>
l’en registrement</w>
亲 自</w>
提 案
primor di
hi ér
es tri
vi er
défini tions</w>
autor ise</w>
dégag er</w>
征 税</w>
mon étaires</w>
pen sez-vous</w>
pass ent</w>
pér ou</w>
ga y</w>
会议 室</w>
journ aliste</w>
s k</w>
répu tation</w>
好 几</w>
d’ éliminer</w>
racon ter</w>
10 8</w>
修 理</w>
li ons</w>
薪 金</w>
im poser</w>
有 者</w>
交 叉</w>
financ ées</w>
qu in</w>
ré uni</w>
maxim ale</w>
ma tri
no tant</w>
per d</w>
d’ approvisionnement</w>
d’au dit</w>
听 见</w>
严 肃</w>
f oli
liqui de</w>
浪 漫</w>
ca che</w>
歧 视
trouv ez</w>
t cha
phot ograph
sac ré</w>
警 察
消 灭</w>
dis paraître</w>
缺 点</w>
énor mes</w>
债 券</w>
喝 醉</w>
immédi ate</w>
鱼 类</w>
esti ment</w>
f es
0 4
细 则</w>
l’inst ance</w>
ar a</w>
立 特
立特 里亚</w>
厄 立特里亚</w>
副 本</w>
sous- comité</w>
qu at
秒 钟</w>
morce au</w>
疯 子</w>
félicit ons</w>
questionn aire</w>
3 8
处 决</w>
d’ ouverture</w>
阿 里</w>
波 动</w>
凯 特</w>
核 能</w>
m ans</w>
l’indi ce</w>
inég alités</w>
ma h
路 撒
耶 路撒
p l</w>
vou liez</w>
t ay
好 好</w>
cop enh
餐 馆</w>
剂 量</w>
f ccc</w>
反 应
亚 太</w>
plai gn
成 分</w>
pens ée</w>
chois is</w>
e v</w>
ven e
touch ées</w>
re tenue</w>
produ isent</w>
co s
de venus</w>
d ente</w>
é rées</w>
t age</w>
n’ ayant</w>
hu m</w>
耶路撒 冷</w>
sacri fi
on a</w>
opportu n
去 过</w>
bru t
托 马斯</w>
申 诉人</w>
卡 斯</w>
échang er</w>
affir mé</w>
r ain
mag ie</w>
cho c</w>
mémor an
visi bles</w>
ph el
for ts</w>
走 进</w>
新 加
宗 旨</w>
wal ter</w>
新加 坡</w>
mercre di</w>
pré fé
3 50</w>
l’ai ea</w>
ro m</w>
扩 张</w>
只 想</w>
单 身</w>
差 点</w>
tour née</w>
déplac ements</w>
合作 社</w>
vulnéra bilité</w>
lab o</w>
打 断</w>
_ bar
半 年</w>
印 刷</w>
qu is</w>
ac k
爷 爷</w>
vé ni
l’al cool</w>
pi que</w>
纤 维</w>
出 发</w>
publi er</w>
不 变</w>
智 慧</w>
d ettes</w>
blanc s</w>
tu de</w>
déplac ement</w>
t te</w>
sc h</w>
s ements</w>
s b
种 类</w>
sauve garde</w>
fant as
emb rass
indi ce</w>
伤 口</w>
occup ée</w>
costu me</w>
cham ps</w>
intergouvernement ale</w>
n u</w>
地 震</w>
év entail</w>
am s</w>
quali fié</w>
英 镑</w>
机 器
pro stitution</w>
审 计
souven irs</w>
提案 国</w>
in aires</w>
exter ne</w>
titul aire</w>
port e-
prépar atifs</w>
机器 人</w>
mau rice</w>
atten dons</w>
报 复</w>
all o
atta qué</w>
dégâ ts</w>
线 电</w>
激 烈</w>
mis s</w>
charg er</w>
无 线电</w>
d’ importantes</w>
ur g
u t</w>
f â
乍 得</w>
dou anes</w>
com bler</w>
k id
dér ange</w>
d age</w>
absol ue</w>
本 哈
本哈 根</w>
哥 本哈根</w>
mé d
appuy é</w>
rationn elle</w>
r eux</w>
sous- programme</w>
b arri
参 数</w>
生产 率</w>
compt ables</w>
d’en gagement</w>
ch ante</w>
这 部</w>
ér ations</w>
fréqu emment</w>
choc ol
196 5</w>
ver b
弗 雷</w>
n is
舰 队</w>
公 式</w>
pro cher</w>
ennem is</w>
2 4.
撤 回</w>
动 作</w>
n y
concr ète</w>
ret ards</w>
titul aires</w>
progress é</w>
- toi</w>
fr om
israéli ens</w>
排放 量</w>
collec tives</w>
main- d’œuvre</w>
démo graphique</w>
寻 常</w>
faill i</w>
d’ au</w>
首 长</w>
购 物</w>
lég ère</w>
gram me</w>
pi tié</w>
trou bles</w>
g y</w>
延 伸</w>
tol érance</w>
be aux</w>
公 斤</w>
initi alement</w>
fourn itures</w>
eff ac
constitu tionnel</w>
代 理
ch ris</w>
化 合物</w>
p r</w>
象 征</w>
éventu elles</w>
exist ait</w>
affron ter</w>
打 架</w>
psy cho
re pos</w>
pour rai</w>
qual it
ag nes</w>
tu ée</w>
ar ra
ob serve</w>
doig t</w>
au tri
inter médiaires</w>
sach ant</w>
星期 一</w>
斯 塔</w>
automobi le</w>
l aire</w>
soulign ant</w>
ri t</w>
introdu ire</w>
厌 倦</w>
spécialis te</w>
1. 1</w>
l’ hu
cherch ent</w>
cri ti
好 消息</w>
vi able</w>
erci ces</w>
小 说</w>
y o
条 文</w>
argu ments</w>
parl ent</w>
débar rasser</w>
强 化</w>
仇 恨</w>
l’oc é
re poser</w>
d’am our</w>
大 力</w>
abou ti</w>
l’in fluence</w>
glob alement</w>
lom é</w>
10 ,
sk y</w>
ec o
ca st
改 为</w>
pour ras</w>
l’av o
cr ains</w>
轻 武器</w>
i p</w>
10 2</w>
订 立</w>
jam be</w>
soup ç
ennu is</w>
商 人</w>
éru sal
困 惑</w>
j érusal
fin ales</w>
d’en visager</w>
鞋 子</w>
h â
è vre</w>
h ari
o ’
信 念</w>
2 2.
po t</w>
intergouvernement al</w>
frap pe</w>
航 行</w>
manifes tement</w>
e in</w>
一 代</w>
ré publi
qu’ aucun</w>
prom ul
mi enne</w>
al on</w>
t wit
hol m</w>
b és</w>
抚 养</w>
rap ides</w>
o visu
co ï
葬 礼</w>
onn aires</w>
rô les</w>
décri re</w>
h un
écl ai
ca se</w>
roy al</w>
éc ologique</w>
atmosph érique</w>
ult érieurement</w>
d’instru ments</w>
人 为</w>
opti mis
l’ effort</w>
le çon</w>
92- 7
tr ente</w>
spati ale</w>
ré actions</w>
拥 抱</w>
peti t-
v ad
l’instru ment</w>
suffis ance</w>
gé no
a se</w>
p .</w>
viend rai</w>
copenh ague</w>
d’ empêcher</w>
p éti
限 额</w>
dépen se</w>
奶 酪</w>
met tra</w>
复 杂
en lever</w>
d’ arrêter</w>
car bu
pleur er</w>
rétab lissement</w>
vi ve</w>
ga z
inv iter</w>
必 不可
196 4</w>
尔 顿</w>
安 东
imag iner</w>
时 机</w>
lit tor
克 力</w>
pha ses</w>
生 长</w>
请 愿</w>
睡 着</w>
m g</w>
accueill i</w>
vieill issement</w>
explo sifs</w>
emp ire</w>
经 委会</w>
chap i
s’ efforc
j an</w>
empl oie</w>
罗 毕</w>
内 罗毕</w>
l’a cier</w>
加 纳</w>
名 额</w>
ju n
巧 克力</w>
diminu er</w>
帐 户</w>
xén ophobie</w>
hiér arch
gr ati
ang es</w>
布莱 恩</w>
prélimin aire</w>
e les</w>
re connus</w>
sal on</w>
brev ets</w>
用 水</w>
l’ex emple</w>
跨 境</w>
impli quant</w>
atom ique</w>
es pi
appel lent</w>
co ali
sou rire</w>
concern ée</w>
fix ée</w>
wil l</w>
ca ché</w>
大 战</w>
拜 访</w>
re tenu</w>
pa n</w>
j en
éduc atif</w>
r ents</w>
im mobi
bran ches</w>
félicit ations</w>
citoy enneté</w>
引 擎</w>
牙 齿</w>
充 足</w>
e ait</w>
设 在</w>
s avez-vous</w>
绝 大</w>
v au
as a</w>
ce daw</w>
détail lé</w>
meur tres</w>
必不可 少</w>
绩 效</w>
s’ occupe</w>
mè tre</w>
donn ez</w>
tour né</w>
accu sé</w>
论 点</w>
沃 尔特</w>
街 道</w>
châ teau</w>
in év
196 1</w>
inqui ét
1 25</w>
l’ employeur</w>
sui cide</w>
鸡 蛋</w>
or es</w>
落 后</w>
下 放</w>
subs istance</w>
trai ts</w>
pl om
al ban
lanc ée</w>
d’in novation</w>
op s</w>
adress ées</w>
定 居
t une</w>
文 学</w>
得 了</w>
菲 利
浴 室</w>
intellig ent</w>
po lon
par k</w>
投 标</w>
源 自</w>
sur vivre</w>
sou dan
受害 人</w>
combatt ants</w>
钱 包</w>
支 持
in és</w>
w er
réclam ation</w>
ren con
支 配</w>
一 对</w>
consci ents</w>
profon deur</w>
institu t</w>
fra î
数 百万</w>
menti r</w>
encoura ge
individu elles</w>
res tant</w>
rentr é</w>
appel ait</w>
脱 离</w>
l’ex tension</w>
多 哈</w>
cons enti
conn eries</w>
bat eaux</w>
sex o
5 5/
在 场</w>
nég atifs</w>
b ad
légu mes</w>
démo bilisation</w>
d’ ouvrir</w>
ann exes</w>
ver a</w>
这 会</w>
l’ été</w>
co p</w>
ajou té</w>
tin a</w>
délibér ations</w>
电 池</w>
t en</w>
rédu ite</w>
onn és</w>
ca te</w>
coura g
scénari o</w>
fre d</w>
ti ez</w>
dé signé</w>
公 顷</w>
séri es</w>
一 批</w>
réserv é</w>
t omm
i p
2 7.
19 58</w>
compét ent</w>
vie w</w>
mor al</w>
29 .
enqu ê
克 拉克</w>
lev ée</w>
al bum</w>
para mètres</w>
superfi cie</w>
vari ables</w>
ment ale</w>
pré co
jo b</w>
évén ement</w>
转 交</w>
gen er
c ain</w>
sy rie</w>
pau se</w>
par ité</w>
cle fs</w>
推 荐</w>
g ér
deman dez</w>
cess er</w>
迈 出</w>
li ance</w>
con jonc
停 火</w>
tomb ée</w>
constitu ant</w>
vill ages</w>
plac es</w>
si on
vi ii</w>
propor tionn
im prim
在 家</w>
紧 迫</w>
indemn ités</w>
l t</w>
s’ explique</w>
hô pit
pi ég
住 区</w>
ron de</w>
cit ement</w>
第二 天</w>
北 约</w>
d’ arriver</w>
选 定</w>
嫌疑 犯</w>
timor -
dé passer</w>
tax i</w>
n oirs</w>
海 事</w>
bou ger</w>
ar i</w>
guat em
飞行 员</w>
诅 咒</w>
diri ger</w>
accu eille</w>
déclar er</w>
上 尉</w>
s’ élève</w>
c oi
affec té</w>
for ment</w>
3 e</w>
véri fié</w>
vene zuela</w>
侵 权</w>
t’ étais</w>
民 国</w>
新 兴</w>
quel ques
sup pli
岩 石</w>
cl aires</w>
am y</w>
pron oncé</w>
ou n</w>
nég ative</w>
correspon dants</w>
头 上</w>
envisag é</w>
satis fait</w>
官 僚</w>
偏 见</w>
j’ attends</w>
l’ arrivée</w>
j’i gnore</w>
consci ente</w>
外 勤</w>
écar ts</w>
一 无
répon dant</w>
生产 商</w>
主 办</w>
sé cher
bure au
arr anger</w>
évol utions</w>
ten ait</w>
tri e</w>
neu tr
b illet</w>
hôpit aux</w>
ph ar
l’océ an</w>
gâ teau</w>
bénéfici e</w>
tempor aires</w>
200 7/
dan gers</w>
accor dées</w>
纺 织</w>
本 书</w>
comport ements</w>
乌 拉圭</w>
provin ces</w>
gi n</w>
logi ciels</w>
3 4
b ay
céré monie</w>
运 送</w>
rar ement</w>
coor données</w>
chap eau</w>
ren ds</w>
汇 报</w>
cor de</w>
布 雷</w>
réglement aire</w>
avi ation</w>
监 控</w>
ser bie</w>
ex pé
princ esse</w>
débat tre</w>
souhai terais</w>
nég atives</w>
1 11</w>
cr aign
复 兴</w>
j us</w>
cam ar
affir mer</w>
ex pert</w>
guatem ala</w>
in acceptable</w>
可 行性</w>
eri c</w>
terres tres</w>
判 例</w>
n’ aura</w>
rem et
emb au
信 用
pli cation</w>
d’ intérêts</w>
pour rez</w>
bio diversité</w>
继 承</w>
多 米
re jet</w>
occup ant</w>
aéri ennes</w>
ki m</w>
emp i
cad av
t- ce</w>
m us</w>
3 000</w>
co te</w>
personn elles</w>
ra t</w>
s ante</w>
recu eillir</w>
克 劳
ma c</w>
改 造</w>
blo g</w>
onn ements</w>
austr alie</w>
dé passé</w>
mac édo
危 及</w>
les te</w>
ordin ateurs</w>
ir ré
亚 当</w>
enf er</w>
rapport eurs</w>
莫 斯科</w>
礼 貌</w>
干 涉</w>
chev aux</w>
强 度</w>
参 照</w>
do ha</w>
新闻 部</w>
ap pareil</w>
哥 斯
变 动</w>
condi tionn
écra n</w>
remarqu able</w>
阿 姨</w>
sti mul
atten dais</w>
l’at elier</w>
出租 车</w>
bs ci</w>
1 12</w>
haut ement</w>
c éli
profon des</w>
organ ise</w>
海 洋
bulle tin</w>
ang ola</w>
ra re</w>
dis sement</w>
sing a
trans fé
简 报</w>
ju ry</w>
califor nie</w>
opér er</w>
mag istr
l’hab itude</w>
慢 慢</w>
qu art</w>
ci après</w>
mal ades</w>
chapi tres</w>
精 力</w>
missi les</w>
ir ani
pri mes</w>
combusti bles</w>
天 才</w>
通 用</w>
di fication</w>
i i
histori ques</w>
创 伤</w>
pr e
couv rant</w>
河 流</w>
l’in flation</w>
g r</w>
反应 堆</w>
monu c</w>
理 性</w>
剧 院</w>
étudi ant</w>
form ateurs</w>
consid èrent</w>
ath an</w>
ar ts</w>
坚 强</w>
b asse</w>
di ra</w>
1 ’
t aires</w>
ol d</w>
si en</w>
d’investiss ements</w>
plac ement</w>
hy dro
es a</w>
展 览</w>
此 事</w>
affec ter</w>
norm alisation</w>
pass ation</w>
ss é</w>
adress é</w>
ac .
什么 的</w>
c end
r ock</w>
handi cap</w>
command ement</w>
白 皮书</w>
it age</w>
écl at
cl and
外 科</w>
200 8/
l’in cidence</w>
rép éter</w>
tun n
d h</w>
器 官</w>
and er</w>
v am
pres criptions</w>
lang age</w>
必 需</w>
macédo ine</w>
l’aut om
ess é</w>
conform er</w>
参 议员</w>
douc ement</w>
voul aient</w>
pouss é</w>
john ny</w>
vien dront</w>
juridi ctions</w>
ann onc
196 3</w>
renvoy er</w>
empl oi
戏 剧</w>
texti les</w>
sou tenue</w>
可 疑</w>
ot an</w>
t ants</w>
lors qu’elle</w>
st ages</w>
津 巴布
津巴布 韦</w>
成 效</w>
instau rer</w>
cland esti
bu sin
传 真</w>
gu iné
看 出</w>
pén ales</w>
模 糊</w>
ol ym
游 泳</w>
sh éri
水 域</w>
荒 谬</w>
由 此</w>
完 善</w>
参 见</w>
抵 消</w>
remplac é</w>
隧 道</w>
英 文</w>
coor donnée</w>
斯 科特</w>
es e</w>
最 小</w>
斯 加</w>
cor é
强 加</w>
parall èle</w>
demand ais</w>
提供 者</w>
内 心</w>
m’ y</w>
3 7
长 度</w>
con tenues</w>
venti lation</w>
斯 蒂
qu eue</w>
ec h</w>
conn ard</w>
文 斯</w>
指 纹</w>
mo sco
accompli r</w>
s ri</w>
ak h
2 20</w>
任 职</w>
res tée</w>
celu i-
sit ue</w>
port és</w>
少 于</w>
零 售</w>
用 作</w>
全 民</w>
箱 子</w>
假 定</w>
k on
禁 运</w>
l’ espèce</w>
dis pu
汤 米</w>
compt abil
mu sée</w>
arab ie</w>
电 视
以 此</w>
rat trap
conf is
公 认</w>
un ep</w>
10 6</w>
逃 避</w>
dev el
1 19</w>
实 说</w>
定 位</w>
off rant</w>
employ er</w>
决策 者</w>
réalis te</w>
in con
警察 局</w>
第五 十</w>
fémin ine</w>
s’ éten
萨 尔
债 务
origin al</w>
v ague</w>
本 地</w>
indi en</w>
旋 转</w>
太 空</w>
军 备</w>
soci o-
ai gu
propri étaires</w>
p éch
承包 商</w>
马 拉
间 谍</w>
海 湾</w>
opport un</w>
sh ar
sou pl
diri gé</w>
fou tu</w>
ad am</w>
créanci ers</w>
股 份</w>
厕 所</w>
tari f</w>
vo cation</w>
représent és</w>
st ock</w>
ér yth
1 17</w>
inclu t</w>
经 社会</w>
référen dum</w>
im mun
做 完</w>
196 2</w>
射 击</w>
pu re</w>
cu ler</w>
n ami
merveill eux</w>
桑 尼亚</w>
坦 桑尼亚</w>
investi r</w>
qu ants</w>
歌 手</w>
trouv es</w>
监 察
cré ant</w>
oblig atoires</w>
impli qués</w>
super vision</w>
fai blesse</w>
ca ï
perp étr
fall oir</w>
arrê tés</w>
soy ons</w>
minim ales</w>
har a</w>
196 6</w>
应 有</w>
fi e</w>
r eur</w>
了 不起</w>
t’ avoir</w>
ret omb
in on
尔 德</w>
compa gne</w>
承 受</w>
prim aires</w>
队 伍</w>
焦 点</w>
u r</w>
d’ intégrer</w>
définiti f</w>
歧视 性</w>
l’a ffi
si as
血 鬼</w>
吸 血鬼</w>
三 天</w>
vol s</w>
独 立
加 州</w>
面 试</w>
pré val
hô pital</w>
li ère</w>
月 内</w>
do ter</w>
该 法</w>
s oph
lib ell
com portant</w>
concep ts</w>
unil atéra
fi és</w>
已 有</w>
us agers</w>
l’ achèvement</w>
œu rs</w>
ét ai
re au</w>
a w</w>
avanc ée</w>
s- le</w>
harmon iser</w>
souscri t</w>
玉 米</w>
pers ist
b iss
驱 动</w>
spec teur</w>
连 贯</w>
丽 莎</w>
pu n
ap portée</w>
d’ élaboration</w>
20 14</w>
刑 警</w>
syri enne</w>
l’ achat</w>
国 内
re connue</w>
avanc é</w>
str as
sectori elles</w>
水 资源</w>
弗 里</w>
午 饭</w>
航 班</w>
区 的</w>
soupl esse</w>
appu i
val able</w>
coï n
mo teurs</w>
satisfais ante</w>
all és</w>
l ag
franch ement</w>
围 绕</w>
侮 辱</w>
乐 观</w>
fermet ure</w>
ai dera</w>
印 发</w>
s’ engager</w>
qu er
entrepren eurs</w>
舞 会</w>
rencon tres</w>
ra ff
ambiti eux</w>
pa m</w>
entre tiens</w>
om é
摇 滚</w>
绝 不</w>
pu nité</w>
étoi les</w>
bri an</w>
决 权</w>
pré férence</w>
b ang
d’ entrer</w>
卧 室</w>
sou ris</w>
m ail</w>
li cences</w>
pén u
ren seignement</w>
di gne</w>
souff re</w>
da r</w>
严 厉</w>
麦 隆</w>
1. 2</w>
l’ identification</w>
f .
et u
d’ éléments</w>
一 贯</w>
上 班</w>
en ver
a éropor
控 制
tomm y</w>
fra gi
répon dent</w>
nei ge</w>
le o</w>
inter diction</w>
ex hau
联 络
喀 麦隆</w>
gre c</w>
诊 所</w>
变 量</w>
subsidi arité</w>
sou tiens</w>
弱 点</w>
字 母</w>
chy pri
乡 村</w>
p h</w>
f mi</w>
diam ants</w>
provo qué</w>
d’ identité</w>
portefeu ille</w>
recycl age</w>
exi gent</w>
mono po
陪审 团</w>
大 韩</w>
ra té</w>
bro chu
sor tes</w>
plant ation</w>
multilatéra les</w>
ges tions</w>
rob i</w>
le çons</w>
收 养</w>
garanti t</w>
logi ciel</w>
dé montré</w>
受益 人</w>
综 合
qu etage</w>
疟 疾</w>
devel op
excu ses</w>
马 尔
dev oirs</w>
hal l</w>
accessi ble</w>
q u</w>
mar sh
po in
chaî nes</w>
pon dé
bl ague</w>
inf lig
cer cle</w>
s’ag isse</w>
乐 意</w>
注 射</w>
ju gés</w>
syn th
du c</w>
太 阳
cess ation</w>
证 会</w>
cat ho
听 证会</w>
受 理</w>
espagno le</w>
crimin el</w>
tan z
qu erait</w>
k en</w>
房 屋</w>
芝 加
nai robi</w>
l’al liance</w>
géograph iques</w>
ex pul
ar isation</w>
寿 命</w>
l’avo cat</w>
hom olo
审 评</w>
réjou is</w>
nett oyer</w>
intéress é</w>
prê ter</w>
stric tement</w>
克 莱</w>
cer tification</w>
coali tion</w>
上 去</w>
友 谊</w>
200 0-
埃 尔</w>
échantill ons</w>
for tune</w>
sp e
timor- leste</w>
re joint</w>
man quer</w>
str eet</w>
抵 抗</w>
g om
肖 恩</w>
ridi cule</w>
cul tiv
u sa</w>
ul té</w>
sal ope</w>
observ é</w>
对 方</w>
之 上</w>
承 运人</w>
on ze</w>
塑 料</w>
sep h</w>
littor al</w>
2. 1</w>
z am
人 质</w>
推 行</w>
卫 生
légiti mité</w>
ann on
教 徒</w>
广 场</w>
l’inst allation</w>
br av
屏 幕</w>
para dis</w>
通 道</w>
dés as
hon g</w>
运 气</w>
inst aller</w>
concurren ti
乌 兹
乌兹 别
re cul</w>
颁 发</w>
timo r</w>
var ie</w>
préserv ation</w>
jo seph</w>
g it
comm andes</w>
全 职</w>
2 5.
al co
二氧化 碳</w>
陌 生
c s
技 巧</w>
演 变</w>
mari és</w>
dis- lui</w>
c ts</w>
bo li
走 廊</w>
张 照</w>
in i
précis é</w>
dis tor
以 防</w>
législ atifs</w>
c. 3/
convain cus</w>
10 7</w>
这 家</w>
舞 蹈</w>
有 钱</w>
万 吨</w>
dé tr
保 安</w>
ver ti
sub vention</w>
ke vin</w>
bill y</w>
liv rer</w>
s ez</w>
chi c
l’au di
陌生 人</w>
m l</w>
lour d</w>
f lo
tor tu
ol érance</w>
12 -
mes -
配 置</w>
individu elle</w>
identi fié</w>
ez- le-
al er</w>
关 掉</w>
’ a</w>
芝加 哥</w>
列 颠</w>
prom esse</w>
老 实说</w>
mi li
选 出</w>
zim bab
amus er</w>
nutri tion</w>
代 替</w>
h s</w>
写 作</w>
y -
d’ importants</w>
er son</w>
领 先</w>
视 察</w>
t w
性 能</w>
saou dite</w>
l’ac cident</w>
定 罪</w>
é p
pu r</w>
ren oncer</w>
捐助 国</w>
出 口
blo c</w>
a a</w>
ass istant</w>
近 东</w>
supéri eures</w>
su es</w>
rati fier</w>
置 信</w>
habitu ellement</w>
文 字</w>
核 裁军</w>
倾 销</w>
哈 萨
召 集</w>
s ine</w>
qu érir</w>
19 50</w>
fac ulté</w>
impli qué</w>
pu its</w>
操 纵</w>
conti ennent</w>
ci euse</w>
ai mais</w>
situ és</w>
cu e</w>
c ’</w>
demn isation</w>
6 e</w>
bitr age</w>
assi mil
基 督</w>
ré tro
行 动者</w>
shéri f</w>
墙 上</w>
仓 库</w>
décentr alisation</w>
z- le</w>
vois in</w>
oeu v
loc ation</w>
无 能</w>
personn alité</w>
autoris ée</w>
j ection</w>
ar bres</w>
coll ège</w>
t .</w>
捕 捞</w>
phénom ènes</w>
li ge</w>
l’un esco</w>
restri ction</w>
5 0
sign és</w>
mo tion</w>
d’ efficacité</w>
史 密
不 足以</w>
cess ez-le-
élev age</w>
avant ag
or i</w>
mentionn ée</w>
s de</w>
th or
fér é</w>
cessez-le- feu</w>
chic ago</w>
fl eu
c. 2/
appuy ant</w>
引 导</w>
克 拉</w>
期 内</w>
compara bles</w>
谋 杀案</w>
lâ che</w>
adéqu ates</w>
遣 返</w>
céli bat
identi ques</w>
ch et</w>
sau ra</w>
op tique</w>
私 有化</w>
équilib rée</w>
tari fs</w>
oi ré</w>
accor dés</w>
obj ection</w>
t v</w>
occident al</w>
地 产</w>
圆 桌</w>
形 态</w>
austr ali
préal ables</w>
1 15</w>
牙 买
détermin ant</w>
sug gestions</w>
studi o</w>
res pi
d’ap prendre</w>
1 13</w>
ress enti
s able</w>
p ères</w>
牙买 加</w>
l’ avant</w>
iss er</w>
一 国</w>
一 轮</w>
indic ateur</w>
演 奏</w>
h u</w>
all ah</w>
utilis ateur</w>
ven ons</w>
sor tez</w>
ég ypte</w>
perman ence</w>
众 多</w>
géno cide</w>
pou let</w>
饼 干</w>
犹 太</w>
大 麻</w>
dé man
v d</w>
fa çons</w>
d’initi atives</w>
r ance</w>
inspec teurs</w>
continu ité</w>
domesti que</w>
g i</w>
d’institu tions</w>
jac ques</w>
达 黎
称 之
称之 为</w>
哥斯 达黎
哥斯达黎 加</w>
m’ avait</w>
défini tivement</w>
carbu rant</w>
花 园</w>
écl air
il y</w>
famili al</w>
19 49</w>
比 绍</w>
sav oir
1, 5</w>
ri z</w>
h enti
d’ équipement</w>
dou x</w>
v rais</w>
cô tes</w>
av entu
s pr
r and
cul é</w>
communi quées</w>
souffr ances</w>
mér it
do té</w>
ri ck</w>
时 限</w>
condam nation</w>
celui- là</w>
busin ess</w>
si enne</w>
commenc ent</w>
adap tées</w>
l’hy po
有 毒</w>
收 取</w>
restri c
stras bourg</w>
coff re</w>
g orge</w>
金 钱</w>
强 壮</w>
w ay
fru it</w>
cl os</w>
撤 出</w>
l’inform atique</w>
autom atique</w>
敌 对</w>
2 6.
mu rs</w>
转 型</w>
su é
gross esse</w>
gar dé</w>
2 1.
凯 尔</w>
pass ées</w>
模 拟</w>
constitu tionnelle</w>
1 18</w>
p è
enlev é</w>
fra g
équival ent</w>
楼 上</w>
ter ons</w>
m ont</w>
l’h onor
bou le
问 卷</w>
élec teurs</w>
différen ci
短 信</w>
conn exion</w>
ss ement</w>
3 9
édi tion</w>
ér on
maj esté</w>
部 件</w>
prouv e</w>
是 以</w>
tradi tions</w>
爱 德
effon dr
尺 寸</w>
ri ers</w>
早 就</w>
voy er</w>
éra di
用 说</w>
不 用说</w>
玻利 维亚</w>
trans férer</w>
t’ inquiète</w>
dé poser</w>
on de</w>
n .
ch a</w>
ach es</w>
ann oncer</w>
élé ment
adoles cents</w>
adap tés</w>
ra mené</w>
contribu era</w>
l’in specteur</w>
i an</w>
de- moi</w>
预 算
坟 墓</w>
stipu le</w>
atte ints</w>
看 不到</w>
recru tés</w>
douani er</w>
气 氛</w>
收 回</w>
sch éma</w>
interven ants</w>
dou tes</w>
mér itent</w>
pro fond</w>
déc lin</w>
直 升
直升 机</w>
aimer ait</w>
trouv ait</w>
bri èvement</w>
b élar
ti an</w>
comp table</w>
mi o</w>
tent atives</w>
recu eilli
att én
adul te</w>
d’ e
bru te</w>
共 产</w>
大 声</w>
précisi ons</w>
subi r</w>
formul é</w>
diplom atiques</w>
cat alogue</w>
â ne</w>
illég al</w>
f an
安 迪</w>
déc é
j ake</w>
di que</w>
共 计</w>
recomm an
制 服</w>
人 事</w>
racon te</w>
列 表</w>
ver bal</w>
adéqu at</w>
服 从</w>
sué dois</w>
a qu
du res</w>
l’in scription</w>
énu mé
affec tées</w>
促 成</w>
ss on</w>
阶 层</w>
ministéri el</w>
k it
排 雷</w>
mo ham
l’ organisme</w>
e conom
w est</w>
on al</w>
attach é</w>
17 0</w>
情 人</w>
offer tes</w>
er o</w>
弗 雷
15 40</w>
说 真的</w>
orient er</w>
ra mène</w>
h él
communi qués</w>
re z-vous</w>
lèv ements</w>
pu rement</w>
局 面</w>
大 门</w>
personn alités</w>
collecti f</w>
补 助
religi euse</w>
sén égal</w>
m ez</w>
州 长</w>
rempl i</w>
inform és</w>
凯 瑟
大 气</w>
垃 圾
编 号</w>
判 处</w>
l’ allocation</w>
pist ol
inscr ites</w>
favoris ant</w>
bomb ar
be ij
twit ter</w>
pu r
appli qués</w>
凯瑟 琳</w>
任 意</w>
老 年</w>
租 赁</w>
dat es</w>
du mp
l’in solvabilité</w>
香 蕉</w>
intéri m</w>
佛 罗
g les</w>
dérou lement</w>
陷 阱</w>
认 定</w>
毫 米</w>
局 长</w>
tin s</w>
souhai té</w>
穿 上</w>
于 是</w>
d’ offrir</w>
can al</w>
跑 步</w>
大 概</w>
approuv ée</w>
mosco u</w>
说 出</w>
dé gu
星期 四</w>
lan ka</w>
实 话</w>
œuv res</w>
人 人</w>
f esses</w>
portug ais</w>
g as</w>
va sion</w>
te aux</w>
运 用</w>
fai tes-
mar quée</w>
maj eurs</w>
毛里 求
ass ister</w>
agres sion</w>
g att</w>
ap parten
百分 点</w>
éco systèmes</w>
dev rai
巴 斯</w>
str ess</w>
毛里求 斯</w>
行 李</w>
g on</w>
éch el
entraî nement</w>
当 中</w>
go sses</w>
巴尔 干</w>
姑 娘</w>
姐 姐</w>
克 林</w>
措 辞</w>
ho sp
souff rir</w>
ten d</w>
quelques -
intégr alement</w>
h er</w>
债务 人</w>
figu rer</w>
as cen
ex ercices</w>
使 命</w>
méthod ologie</w>
b ap
cy cl
consult atifs</w>
建筑 物</w>
é al</w>
amélior é</w>
销 商</w>
chirur gi
女 巫</w>
consult ants</w>
l’ entretien</w>
iraqui en</w>
né pal</w>
forc ément</w>
monn aies</w>
compos ée</w>
thé matique</w>
compl ément</w>
tay lor</w>
优 点</w>
inqui éter</w>
尔 摩</w>
哈萨 克斯坦</w>
certifi cats</w>
li on</w>
con tenus</w>
走 向</w>
搜 查</w>
偶 尔</w>
coû te</w>
abouti r</w>
sb sta</w>
clau ses</w>
pens ées</w>
pay s
pati ence</w>
contac ter</w>
suppl ément</w>
anti ème</w>
qu’ aucune</w>
cadr ement</w>
dél in
占 据</w>
vois inage</w>
rou tier</w>
puis qu’il</w>
gouvernement ale</w>
纲 要</w>
mon té</w>
avanc ement</w>
respec té</w>
opportun ités</w>
pa d</w>
pou sse</w>
d’ appeler</w>
ist an
执 照</w>
史密 斯</w>
不 对</w>
défen seurs</w>
hu r</w>
s bi</w>
résid ent</w>
beij ing</w>
sud- sud</w>
parl ers</w>
l’ ou
li ères</w>
qu era</w>
en de</w>
no ti
ab eth</w>
d’ iran</w>
parl ais</w>
树 林</w>
机 密</w>
液 体</w>
numér os</w>
h av
4 8
利 尔</w>
季 节</w>
hô te</w>
民 用</w>
埃 里克</w>
侵 略</w>
不 满</w>
贸易 法</w>
好 运</w>
之 类</w>
住 宅</w>
mémoran dum</w>
bénéfici aire</w>
补助 金</w>
几内 亚
几内亚 比绍</w>
détérior ation</w>
sû rs</w>
k or
收 拾</w>
征 求</w>
借 此</w>
prom en
健 全</w>
termin ée</w>
ré un
su nis</w>
b assin</w>
据 称</w>
traver ser</w>
l’ aise</w>
b éci
inci dents</w>
form id
cou pé</w>
situ ées</w>
mé chant</w>
b eur
pour parlers</w>
médi ation</w>
海洋 法</w>
或 许</w>
singa pour</w>
巡 逻</w>
de vienne</w>
éc ologiques</w>
携 带</w>
cam bri
ru rale</w>
角 落</w>
k al
constitu ée</w>
文 献</w>
tionn aires</w>
温 和</w>
ent hou
温 暖</w>
反对 派</w>
ving t
achev er</w>
仅 此</w>
耐 心</w>
dépen dent</w>
contr o
vi eil</w>
per ception</w>
pén it
élarg i</w>
st age</w>
l yn
ff er</w>
格 雷
均 衡</w>
瓦 多</w>
分 割</w>
有 待</w>
simultan ément</w>
家 具</w>
sent i</w>
困 扰</w>
travail lait</w>
adop tant</w>
相 处</w>
sé du
car d</w>
vers ements</w>
ré chauff
cou sin</w>
règ ne</w>
préc au
formul aire</w>
pass era</w>
蒙特 利尔</w>
弗 兰</w>
进 度</w>
ri ca</w>
d av
indépen dance</w>
黑 山</w>
y e
formu lée</w>
民 兵</w>
凯 文</w>
0 2
迷 人</w>
enthou sias
mè nent</w>
fi able</w>
写 信</w>
diplô mes</w>
somm eil</w>
游 行</w>
g esti
布 朗</w>
使 馆</w>
红 十字</w>
10 /
大 喊</w>
哲 学</w>
lingu istiques</w>
combusti ble</w>
occa sions</w>
dé cor
h re
音 机</w>
缔 约</w>
d’ offres</w>
嘲 笑</w>
requ ise</w>
中 方</w>
ang eles</w>
rup ture</w>
semb lant</w>
tal ent</w>
f oy
不 必要</w>
déc ouverte</w>
pro clam
ch at
野 生</w>
格 林</w>
培 训
re porter</w>
到 期</w>
走 开</w>
struc turel</w>
大 众</w>
s pon
inten tions</w>
s ations</w>
is ations</w>
ignor er</w>
布 尔</w>
英 格兰</w>
chi a
dr .</w>
股 东</w>
cu b
cam éra
au rions</w>
ow n</w>
计 量</w>
pr é</w>
ferrovi aire</w>
ap pren
univers ity</w>
k im
aéri ens</w>
f at
谈 会</w>
bal k
入 境</w>
不 妨</w>
半 岛</w>
ant érieures</w>
poli cier</w>
transport eur</w>
péri ph
ni ch
铭 记</w>
fau sse</w>
分 担</w>
em mène</w>
al an</w>
相关 者</w>
乌兹别 克斯坦</w>
fourniss eur</w>
sup port</w>
ce in
amélior ée</w>
cle f</w>
教育 部</w>
quarti ers</w>
jé sus</w>
un it
arrang ement</w>
司 法
rom s</w>
ax é</w>
honn ê
municipal ités</w>
d’in dic
is sues</w>
校 长</w>
警 报</w>
萨尔 瓦多</w>
sécher esse</w>
exi ons</w>
ru guay</w>
mani ères</w>
pa lu
代理 人</w>
contr e-
bar re</w>
tn p</w>
占 领
ô tres</w>
l’ attaque</w>
conn ai
dump ing</w>
séri euse</w>
et er</w>
受 过</w>
当事 方</w>
pi ège</w>
simpli fication</w>
汽 油</w>
l entement</w>
g re</w>
学 金</w>
ven deur</w>
s el</w>
lég itimes</w>
état sunis</w>
lu ci
u l</w>
domesti ques</w>
biss au</w>
bilatéra les</w>
沙 漠</w>
procé dés</w>
po t
免 疫</w>
阳 光</w>
lég ales</w>
lor d</w>
克 利</w>
le on
développ ées</w>
街 区</w>
concentr ations</w>
né fas
impli cations</w>
违 法</w>
montr éal</w>
enregistr ées</w>
s pa
尔 多
克 逊</w>
restau ration</w>
l’ aime</w>
in demnité</w>
c ann
proc ède</w>
accompagn er</w>
tu be</w>
stock holm</w>
sti n
mu s
赫 尔
i v
d’ accepter</w>
attén uation</w>
régu lier</w>
l’honor able</w>
就 业率</w>
mo z
attrap er</w>
l’am énagement</w>
筹 集</w>
is ti
démon stration</w>
autonom ie</w>
不 然</w>
l ez</w>
传 达</w>
j’i rai</w>
ï s</w>
fant ôme</w>
流 通</w>
wo o
急 剧</w>
s’ in
discu té</w>
ch lor
respec tu
硬 币</w>
os ité</w>
bli n</w>
前 任</w>
d’im pact</w>
candid ature</w>
rédi gé</w>
技 术
时 光</w>
rassemb ler</w>
l’in clusion</w>
ap pl
chocol at</w>
inf os</w>
form elle</w>
tu y
déplac er</w>
mar re</w>
视 听</w>
稍 后</w>
expli cation</w>
vas -tu</w>
l’ él
低 估</w>
recommand er</w>
码 头</w>
清 醒</w>
vis a</w>
compar er</w>
ren force</w>
pi c</w>
伍 德</w>
斯特 拉
in at</w>
réguli ers</w>
d’en registrement</w>
tre i
all ez-vous</w>
1 16</w>
将 近</w>
sec ou
jack son</w>
发言 人</w>
souh ait</w>
mén ager</w>
m uti
défavoris ées</w>
élector al</w>
l as</w>
苹 果</w>
2002- 2003</w>
后 悔</w>
v él
扫 描</w>
l ing
pré visible</w>
面 向</w>
壁 垒</w>
赞 助</w>
人 体</w>
sal vad
斯 德
斯德 哥
会 晤</w>
说 谎</w>
纺 织
respec tent</w>
plom b</w>
jam aï
糖 果</w>
等 于</w>
là- haut</w>
汉 堡</w>
损 坏</w>
也 门</w>
introdu ction</w>
de z-moi</w>
coopér atives</w>
ber n
st an
替 代
c r</w>
ex posées</w>
斯德哥 尔摩</w>
体 面</w>
uni e</w>
mar ines</w>
vo le</w>
d’ entendre</w>
独立 性</w>
挑 选</w>
开 采</w>
attent ats</w>
fi cations</w>
envisag ées</w>
en fu
家 园</w>
不 限</w>
cop t
l’en n
voy ager</w>
s’effor ce</w>
sté ré
l’ usine</w>
da d</w>
ad ri
pol it
anci ennes</w>
grand i</w>
es c</w>
ste ph
croi ent</w>
éventu els</w>
mi grés</w>
d’ essayer</w>
arti stes</w>
froi de</w>
cit ée</w>
皮 特</w>
杰 瑞</w>
adap té</w>
作 证</w>
l arry</w>
ab ore</w>
m ers</w>
inv est
provo quer</w>
individu el</w>
不 知</w>
motiv ation</w>
fon de</w>
复杂 性</w>
bo issons</w>
d’ex péri
西 蒙</w>
ef f</w>
sub stitu
摊 款</w>
赞 比亚</w>
印 第
o eil</w>
3. 1</w>
fréqu ent
1 22</w>
吸 取</w>
satell ites</w>
pass ait</w>
fi ch
洪 水</w>
地 上</w>
associ ées</w>
肉 类</w>
prot ège</w>
élar gie</w>
ré elles</w>
事 物</w>
in tr
l ler</w>
dr aient</w>
a ci
onn ée</w>
invit ée</w>
étudi e</w>
br un
总 协定</w>
vo tes</w>
l’im pôt</w>
excell ente</w>
电 站</w>
星期 二</w>
尔多 瓦</w>
dér ang
col o
baiss é</w>
d’inv esti
隐 私</w>
pé enne</w>
等 到</w>
fes tiv
d’ ou
罗 伊</w>
成 了</w>
弃 权</w>
re port</w>
切 割</w>
effectu e</w>
mutu ellement</w>
l’uni vers</w>
l’im punité</w>
ch ou
晚 安</w>
行 星</w>
w er</w>
19 45</w>
积 累</w>
福 德</w>
nour rir</w>
je an-
源 于</w>
foli e</w>
fis cal</w>
ell i</w>
rap procher</w>
publi ées</w>
认 出</w>
支持 者</w>
cap tu
希 尔</w>
israéli enne</w>
过 时</w>
相关 性</w>
ali ce</w>
per a</w>
pl at</w>
exécu ter</w>
漫 长</w>
s cr
m t</w>
it z</w>
comp tent</w>
souff rent</w>
pré vision</w>
mat hé
ad mettre</w>
s ombre</w>
唱 片</w>
re tiré</w>
l’ otan</w>
fru ctu
rest ait</w>
19 51</w>
再 说</w>
s ad
succ essi
colon i
签 字</w>
mobi les</w>
c ente</w>
ay ons</w>
mél ange</w>
反 腐败</w>
u vre</w>
annu ler</w>
i les</w>
fa x</w>
账 单</w>
残 酷</w>
泳 池</w>
soix ante</w>
街 头</w>
termin e</w>
吉 尔
er as
交 道</w>
régl é</w>
聊 天</w>
兔 子</w>
pein ture</w>
conç us</w>
伤 心</w>
sus citer</w>
itec ture</w>
玛 丽
compati bilité</w>
信 誉</w>
ir o</w>
和 谐</w>
mon tée</w>
ver te</w>
her ine</w>
mont agnes</w>
appel és</w>
驻 地</w>
杰 夫</w>
quotidi enne</w>
e able</w>
plac és</w>
2. 2</w>
脑 子</w>
一 小</w>
sus cité</w>
信 件</w>
protég és</w>
cou ches</w>
at ar</w>
存 者</w>
l’ex position</w>
激 进</w>
là- dessus</w>
charg ement</w>
exer cent</w>
平 行</w>
十 三</w>
北 欧</w>
de grés</w>
cré ances</w>
trai tes</w>
g ang</w>
d rai</w>
accu sés</w>
ca sse</w>
vol ant</w>
mign on</w>
胡 子</w>
另 有</w>
tradi tionnelle</w>
bo y</w>
portu nité</w>
切 断</w>
st ations</w>
déf end
短 暂</w>
po table</w>
è n
gol fe</w>
4 4
col onne</w>
rév èle</w>
em ma</w>
démocra tes</w>
公 爵</w>
fl é
f -
si de</w>
magaz ine</w>
flu ctu
f ab
amour euse</w>
1 23</w>
hab ite</w>
道 理</w>
形 状</w>
comm u</w>
per mission</w>
mad em
结 局</w>
rel ance</w>
的 心</w>
你 的心</w>
sand wi
l’ex i
d’indic ateurs</w>
balk ans</w>
回 合</w>
aveu gle</w>
胸 部</w>
幸 存者</w>
展 望</w>
ra cin
mo t
热 带</w>
habil itation</w>
bob by</w>
所 在
坚 果</w>
ét age</w>
zimbab we</w>
profess eurs</w>
l’enn emi</w>
re d</w>
produ ite</w>
遣 队</w>
li a</w>
y s</w>
guer res</w>
海 盗</w>
pant alon</w>
监 护
并 未</w>
ins ister</w>
转 递</w>
击 败</w>
in donésie</w>
distribu er</w>
ro g
ob tenues</w>
ajust ements</w>
bureau crati
fran k
f aires</w>
d’ importation</w>
小 额</w>
救 援</w>
支 援</w>
ali er</w>
audi ovisu
19 57</w>
列 为</w>
s as</w>
d’ agent</w>
dé lit</w>
madem oiselle</w>
diversi fication</w>
人 才</w>
bo w
autor ou
diver gences</w>
听 听</w>
贝 克</w>
é pau
袋 子</w>
v ap
he b
k ins</w>
tanz anie</w>
l ine</w>
d’ organismes</w>
al t
épou ser</w>
hom o
伪 造</w>
门 口</w>
年 间</w>
du blin</w>
逃 离</w>
u ms</w>
d ations</w>
bé bés</w>
appar aissent</w>
bur ants</w>
tr opi
fin it</w>
重 叠</w>
那 条</w>
德 里克</w>
l’ag enda</w>
laiss ent</w>
construc tif</w>
环 保</w>
proch ains</w>
kid napp
ent our
巴 马</w>
vis iteurs</w>
toi -même</w>
线 图</w>
entret en
domin ante</w>
ghan a</w>
cau sés</w>
douani ère</w>
crain te</w>
propri étés</w>
魅 力</w>
vi dence</w>
镇 上</w>
n ev
mété or
or donné</w>
gratu it</w>
ad mi
盘 子</w>
pêch eurs</w>
较 少</w>
v et
pi ques</w>
度 假</w>
章 节</w>
i vre</w>
打 交道</w>
助 手</w>
demand eur</w>
16 9</w>
féli cité</w>
compt ait</w>
营 业
习 俗</w>
截 止</w>
v ec
extra -
煽 动</w>
en rich
奠 定</w>
楼 梯</w>
fis c
核 实</w>
rom an</w>
d’ effectuer</w>
des quels</w>
convain cue</w>
all ez-
其 后</w>
port ées</w>
都 柏林</w>
j ones</w>
cambo dge</w>
善 良</w>
entam er</w>
斯特拉 斯堡</w>
sinc èrement</w>
bass ade</w>
参 观</w>
discrimin atoires</w>
马 特</w>
仪 器</w>
sym path
利 斯</w>
pro v
东 盟</w>
diagnosti c</w>
approfon di</w>
velop pe</w>
ser ai
moy enn
inqui étude</w>
捐 赠</w>
explo iter</w>
迁 移</w>
l’ex pansion</w>
保 守</w>
第 八</w>
f an</w>
actu alité</w>
威士 忌</w>
appli que</w>
产 妇</w>
d’ accéder</w>
compéti tion</w>
b ê
se g
autom ati
nom encl
s’ adapter</w>
baiss er</w>
z i</w>
p ent</w>
火 箭</w>
alli ance</w>
é es
bi g</w>
ven tre</w>
engen dr
气 味</w>
salari é</w>
rent abilité</w>
pr its</w>
c di</w>
structur elle</w>
est ation</w>
voudr a</w>
juridi quement</w>
re prend</w>
compli qué</w>
pa st
or ti
uk raine</w>
trim ent</w>
toxi com
n ets</w>
kaz akh
val ent</w>
tri ques</w>
mé nie</w>
entr ent</w>
bles sure</w>
l’é pi
cru ciale</w>
car l</w>
da y</w>
密 集</w>
shi p</w>
patri ck</w>
lim ités</w>
路 线图</w>
te- moi</w>
2 35</w>
regis tres</w>
n ag
contin ent
不 适</w>
l’ég ypte</w>
espér ais</w>
得 不到</w>
中 断</w>
金 斯</w>
m r.</w>
概 算</w>
al th</w>
plat eau</w>
乐 趣</w>
ra mass
si mon</w>
es f</w>
enn emi</w>
海 牙</w>
garantiss ant</w>
首 相</w>
驳 回</w>
remon te</w>
pon ctu
ess eur</w>
anti terroriste</w>
chem ins</w>
喉 咙</w>
2 70</w>
d’ occupation</w>
d’ avancement</w>
册 子</w>
é mission</w>
ch ette</w>
图 表</w>
dou che</w>
mét aux</w>
gu re</w>
organis ationn
achet eur</w>
不 停</w>
lors qu’un</w>
d’ u
hau tes</w>
对 面</w>
fémin ines</w>
e te</w>
désign ation</w>
w es
采 矿</w>
ed die</w>
di visions</w>
bar bar
litt ér
éten du</w>
ress our
per tise</w>
quotidi en</w>
atte intes</w>
construc tive</w>
bar cel
家 长</w>
dis su
j’ apprécie</w>
gén étique</w>
crain t</w>
cons écu
观 测</w>
trai tée</w>
requi ert</w>
小 册子</w>
一 面</w>
ir ont</w>
马 达
ann ex
jo ints</w>
foy ers</w>
悲 惨</w>
én ég
gr ève</w>
aiss es</w>
流 入</w>
布 什</w>
lis a</w>
enregistr ée</w>
洛 克</w>
all er
préten dre</w>
ell o</w>
abor dé</w>
t est
sépa rés</w>
ach ète</w>
tcha d</w>
s’ appliquer</w>
all y</w>
j erry</w>
im men
d’engag er</w>
am bu
毕 业
te z-vous</w>
car ol
cel lec
住 所</w>
d’al erte</w>
帕 特
cellec i</w>
ence intes</w>
compren ez</w>
殖民 地</w>
惊 人</w>
尽 早</w>
psych ologique</w>
3 3
马达 加
马达加 斯加</w>
陆 地</w>
杰 克逊</w>
12 ,
attach ement</w>
an ony
cur rence</w>
乔 伊</w>
一 百
re belles</w>
perfectionn ement</w>
l’ or</w>
18 9</w>
招 标</w>
per due</w>
频 道</w>
salu er</w>
exprim és</w>
envisag ée</w>
menson ge</w>
nomm és</w>
caméra s</w>
pi lier</w>
viol é</w>
ra -
lo se</w>
mer cure</w>
to p</w>
favor ablement</w>
mont énég
周 知</w>
fer mée</w>
l’ oit</w>
extrê me</w>
误 解</w>
genti lle</w>
12 %</w>
预 警</w>
热 烈</w>
克莱 尔</w>
arrê tée</w>
v ôtre</w>
c ant
ch aise</w>
addi tionnel</w>
配 合</w>
subsidi aires</w>
ri ères</w>
j oign
密 度</w>
通 往</w>
sup posé</w>
onu -
fra c
excep tions</w>
dé triment</w>
par gne</w>
l eur
备 金</w>
发 动机</w>
facil itation</w>
accep tables</w>
apport ent</w>
埋 葬</w>
ser s</w>
i gnore</w>
pertin ence</w>
dé sh
邮 政</w>
qu ettes</w>
nt 1</w>
serv ant</w>
cl ark</w>
acc ess
查 阅</w>
occa sionn
approuv ées</w>
尼 加拉
尼加拉 瓜</w>
坦 白</w>
réci pro
or phel
马 尔</w>
l’av ance</w>
ou se</w>
高 效</w>
rich esse</w>
re production</w>
chauff age</w>
西 尔</w>
学 者</w>
g ère</w>
cour ses</w>
1 21</w>
from age</w>
cré d
肌 肉</w>
渔 民</w>
psy chia
m org
d’ amélioration</w>
influ enc
mor ales</w>
la m</w>
l’ arrière</w>
syndi cat</w>
c b-
pollu ants</w>
电 梯</w>
sépa rément</w>
h it
u k</w>
fou le</w>
comm ettre</w>
散 步</w>
特 遣队</w>
ét ern
on ale</w>
1 14</w>
eu tique</w>
mali n</w>
concr ètement</w>
t êtes</w>
op es</w>
野 蛮</w>
tari faires</w>
octr oi</w>
am ent</w>
所 周知</w>
众 所周知</w>
autoris ées</w>
l on</w>
gram mes</w>
organ iques</w>
valoris ation</w>
s r.
pré lèvement</w>
14 9</w>
l’ob tention</w>
poursui vent</w>
摩 尔多瓦</w>
帕 克</w>
per mette</w>
伯 爵</w>
reç us</w>
nouv e
ham as</w>
下 一次</w>
蒙 特</w>
danger euse</w>
barri ères</w>
阴 谋</w>
scol arité</w>
form és</w>
vers és</w>
排 名</w>
poss èdent</w>
i x</w>
eng en</w>
b ce</w>
renfor çant</w>
l’auto détermination</w>
gra ce</w>
déliv rance</w>
pay és</w>
médi cales</w>
fichi ers</w>
té l</w>
inter institutions</w>
撒 哈拉</w>
texti le</w>
pos ait</w>
car ter</w>
选 择
全 新</w>
w g</w>
qu’ y</w>
concur rents</w>
存 款</w>
黄 色</w>
anim ale</w>
dé lib
生 物
风 暴</w>
s’ inscrit</w>
fi ées</w>
œuv rer</w>
明 治</w>
s ales</w>
最 有</w>
ner veux</w>
法 郎</w>
p- 4</w>
西 欧</w>
星期 三</w>
西 撒</w>
exprim ée</w>
enf ance</w>
prot é
natu rels</w>
内 阁</w>
prom esses</w>
观察 团</w>
signific atif</w>
camer oun</w>
阶 级</w>
par venu</w>
laiss ant</w>
猴 子</w>
fémin in</w>
entr ées</w>
pouss ée</w>
ja son</w>
dom ad
chim ie</w>
ordonn ance</w>
è tre</w>
稍 微</w>
供 水</w>
champi on</w>
这 边</w>
x i</w>
cau chem
年 龄
laiss ée</w>
es prits</w>
n g
u p</w>
statu ts</w>
am ies</w>
co effici
do is-je</w>
a cier</w>
岛 上</w>
一 再</w>
é chec</w>
e fs</w>
mon i
conjo ints</w>
13 8</w>
星期 六</w>
calcul é</w>
v om
transit oire</w>
révis ée</w>
1 28</w>
mi gra
dépl or
镜 头</w>
an gu
费 率</w>
请 你</w>
特 尔</w>
au rai
全球 性</w>
loc alisation</w>
0 7.
l’autonom ie</w>
haut- commissariat</w>
ré alise</w>
vi ces</w>
大不 列颠</w>
d’ échanges</w>
附 录</w>
实 例</w>
不 结盟</w>
p neu
adi eu</w>
pe te</w>
hor aires</w>
eras mus</w>
抓 到</w>
l’é chec</w>
esti mer</w>
dé montrer</w>
us d</w>
分 列</w>
局 限</w>
ach em
19 0</w>
除 外</w>
touch ent</w>
本 着</w>
ress ens</w>
进 口
og a</w>
dit eurs</w>
vérifi e</w>
ot a</w>
rom pu</w>
f se</w>
文 职</w>
pour riez-vous</w>
毕业 生</w>
urb ains</w>
fu mer</w>
minu k</w>
du rer</w>
ad missi
g abri
旅 程</w>
tribu tion</w>
in forme</w>
问 问</w>
税 务</w>
or eilles</w>
孤 儿</w>
kazakh stan</w>
identi que</w>
exi ger</w>
joh ann
大 叫</w>
p ét
l’at titude</w>
couv rent</w>
d ale</w>
传 染
mi t</w>
en e</w>
可 取</w>
l ob
apparti ennent</w>
每 日</w>
对 性</w>
p son</w>
ay a</w>
大 幅度</w>
愿 景</w>
ti mes</w>
ar s</w>
wh it
脆 弱
rom pre</w>
socio économique</w>
p- 3</w>
chauff eur</w>
绳 子</w>
l’ aviation</w>
intéress ante</w>
eu il</w>
adé mie</w>
次 序</w>
témoi gne</w>
au tre
脆弱 性</w>
aéropor ts</w>
ré intégration</w>
corpor ation</w>
遥 远</w>
早 晨</w>
将 要</w>
trim estri
停 留</w>
所 属</w>
souffr ance</w>
po int
sectori elle</w>
labor atoires</w>
介 入</w>
vér itables</w>
c. 5/
沙 发</w>
地 域</w>
garanti s</w>
détermin és</w>
a çant</w>
impli quer</w>
cir cons
除 此</w>
pren ait</w>
vir er</w>
beur re</w>
比 克</w>
十 五</w>
prov inci
被 占</w>
c b</w>
b av
observ atoire</w>
collecti fs</w>
est om
bu sh</w>
2 12</w>
申 报</w>
国 界</w>
扭 转</w>
回 忆</w>
fi ant</w>
expli cations</w>
s emi
prépara toires</w>
生 计</w>
d’ art</w>
b ren
coll ection</w>
ter aient</w>
rach el</w>
trodu ire</w>
揭 示</w>
sor tant</w>
j’ entends</w>
物 资</w>
trag édie</w>
核 定</w>
s’ étaient</w>
d’ auto
vas tes</w>
b lu
链 接</w>
fe der</w>
us ines</w>
6 0
2 10</w>
碰 巧</w>
付 诸</w>
lèv res</w>
bon soir</w>
ob tient</w>
cont empor
minor ité</w>
视 觉</w>
4 50</w>
ab r
斯 坦
平 均
ass emb
réus si
is co</w>
难民 营</w>
倡 导</w>
从 中</w>
gu it
pay e</w>
fisc alité</w>
tr ême</w>
or ale</w>
l’au dit</w>
m ail
强 劲</w>
异 常</w>
rejet er</w>
exist ante</w>
élabor és</w>
mé ment</w>
无 害</w>
p esti
inqui études</w>
el le
el er</w>
terr ains</w>
para î
u er</w>
定居 点</w>
威尔 士</w>
clin ique</w>
musul mans</w>
em mené</w>
顾 客</w>
约 瑟
产 地</w>
三 明治</w>
lingu istique</w>
k ate</w>
各 类</w>
sai sis</w>
fi bres</w>
国内 法</w>
图 片</w>
signi fication</w>
cro ît</w>
贝 利</w>
1 1-
échou é</w>
o w</w>
visi bilité</w>
s’ intéress
intensi fier</w>
im posé</w>
bu t
起 飞</w>
偷 偷</w>
respec tives</w>
in novation</w>
europa .eu
immédi at</w>
can on</w>
dé marches</w>
眼 镜</w>
spécialis é</w>
redress ement</w>
par venus</w>
1 29</w>
读 者</w>
sa r</w>
ré alités</w>
作 战</w>
larg es</w>
s ain</w>
ré adaptation</w>
dé missi
低 收入</w>
t ad
formid able</w>
on ique</w>
gra de</w>
冲 击</w>
guiné e-
car los</w>
夹 克</w>
创 作</w>
l’in donésie</w>
sign ataires</w>
十 四</w>
症 状</w>
sol aire</w>
马 车</w>
服务 业</w>
卡 罗
d’ objectifs</w>
échantill on</w>
em men
不 人道</w>
all aient</w>
饮 食</w>
temp le</w>
s ang
y a
m r
propr ement</w>
山 区</w>
souhai ter</w>
conci lier</w>
rap porte</w>
针 对性</w>
gi o</w>
donn és</w>
赛 季</w>
b in
requér ante</w>
par ent</w>
dépl oyer</w>
ab on
s cho
illég ales</w>
décisi onn
inf anti
te x</w>
accu eillir</w>
获 悉</w>
合 成</w>
台 湾</w>
1 26</w>
è s
绅 士</w>
b ague</w>
pou dre</w>
92-7 7-
运 营
recu eil</w>
l’ ordinateur</w>
小 小
ouv rage</w>
identifi és</w>
小小 的</w>
l’a pr
英 寸</w>
tri b
l’ élément</w>
病 例</w>
外 汇</w>
en dommag
prot ec
po sera</w>
empl ac
安 慰</w>
tar di
pa vill
indépen dantes</w>
mét al</w>
cardi aque</w>
bai gn
打 扫</w>
art hur</w>
fon dés</w>
sub ven
in capable</w>
puiss ances</w>
脂 肪</w>
hay e</w>
guinée- bissau</w>
ca deaux</w>
sub stitution</w>
glob ales</w>
vous- même</w>
c ci</w>
fi a</w>
employ ées</w>
d’ air</w>
ég yp
证 词</w>
章 程</w>
tot ales</w>
terres tre</w>
spir itu
冰 箱</w>
appar u</w>
集 会</w>
st a
adap tée</w>
im béci
血 腥</w>
monténég ro</w>
inform el</w>
ce v
entret enir</w>
infra structure</w>
produ ites</w>
信用 卡</w>
discrimin atoire</w>
o a</w>
fédé r
puis sions</w>
ban des</w>
o j
中 止</w>
morce aux</w>
容 器</w>
vir tu
iti n
i 9
bénéfici ant</w>
dis me</w>
肩 膀</w>
殖 民</w>
ag ress
货 运</w>
heb domad
据 说</w>
sanc tionn
不 行</w>
西 岸</w>
acqu érir</w>
归 还</w>
0 3.
ex ag
责 任
熟 练</w>
吸 烟</w>
w in</w>
pi n</w>
emb all
favor ise</w>
n el
sp a</w>
per ds</w>
coinc é</w>
r ock
志 愿
n ing</w>
l’é cou
désign er</w>
搭 档</w>
prouv é</w>
可 归</w>
mas cul
无 家
无家 可归</w>
l’équi pement</w>
con s</w>
房 地产</w>
弗 朗
12 /
s et</w>
intellig ente</w>
l’op portunité</w>
d’in clure</w>
at tire</w>
deman dés</w>
crimin elle</w>
发 给</w>
ra sse</w>
2, 5</w>
pom mes</w>
dic t
申 根</w>
des quelles</w>
cri t</w>
cau ser</w>
sch engen</w>
confi é</w>
2 40</w>
l’ aspect</w>
想 出</w>
参 议院</w>
ni car
hé ber
bélar us</w>
at tiré</w>
社 交</w>
l’ avantage</w>
personn age</w>
grati tude</w>
main tenu</w>
préco ce</w>
chan sons</w>
租 金</w>
裁 谈会</w>
星 星</w>
u t
司法 部</w>
com pose</w>
diz aines</w>
v este</w>
e i</w>
cul pa
装 饰</w>
d ai
qu’ ont</w>
cel le-
prélimin aires</w>
grec que</w>
fichi er</w>
d’infra structures</w>
sh e
包 围</w>
l’ass ainissement</w>
ra tt
détec tive</w>
深 度</w>
elles -mêmes</w>
bl eue</w>
选 票</w>
incomb ent</w>
1. 5</w>
sén ateur</w>
christ oph
g .</w>
cré ées</w>
yougoslav e</w>
amen de</w>
allez- y</w>
lors qu’on</w>
d’in itiative</w>
nicar agu
confi er</w>
品 种</w>
son t-ils</w>
缴 纳</w>
at o</w>
manu els</w>
trouv ant</w>
ch èque</w>
周 五</w>
ar bre</w>
pri er</w>
3. 2</w>
inci dent</w>
ko v</w>
chem ise</w>
automati quement</w>
初 始</w>
经 纪
粉 丝</w>
患 有</w>
好 多</w>
pli quer</w>
l’om s</w>
体 重</w>
一 团
一团 糟</w>
hâ te</w>
créanci er</w>
提 倡</w>
bé ni
a- t-on</w>
奖 学金</w>
rép éti
计 师</w>
e b</w>
爆炸 物</w>
举 起</w>
op position</w>
洗 澡</w>
东 京</w>
libér é</w>
contin gent</w>
con fusion</w>
aut henti
fon dant</w>
cass er</w>
océ ans</w>
19 48</w>
d’in troduire</w>
sai si
在 外</w>
urb anis
éryth rée</w>
此 项</w>
clai rs</w>
兰 德</w>
mécan ique</w>
gar age</w>
sign ée</w>
comp il
模 块</w>
expli citement</w>
in directement</w>
in cul
t d</w>
l’ ir
自 动
pluri annuel</w>
tiss u</w>
预 防
杰 出</w>
旅 行
捐助 方</w>
écou té</w>
dé min
埃 德</w>
é rément</w>
prend rai</w>
品 牌</w>
st one</w>
correspon dance</w>
志愿 者</w>
沉 重</w>
日 历</w>
中 亚</w>
élev er</w>
lour de</w>
布 拉</w>
c ées</w>
ru ss
im ent</w>
商 标</w>
analo gues</w>
免 除</w>
3 2
领 空</w>
援 引</w>
祖 父</w>
préoccup ée</w>
走 出</w>
星 人</w>
外 星人</w>
占 有</w>
米 歇尔</w>
hil l</w>
le ad
vari able</w>
présid é</w>
不 了</w>
territori ales</w>
l age</w>
o b</w>
bri ga
中 美洲</w>
30 1</w>
ti ser</w>
nettoy age</w>
am eri
密 码</w>
vou lues</w>
un g</w>
quoi que</w>
assur ent</w>
ni que</w>
破 坏
v én
ré veiller</w>
réguli ères</w>
olo gue</w>
d ors</w>
soudan ais</w>
培训 班</w>
竞 赛</w>
suppl é
affec te</w>
可 信</w>
sé qu
f ill
骑 士</w>
ment al</w>
自动 化</w>
冬 天</w>
part ez</w>
d’ accélérer</w>
ten dent</w>
souff le</w>
rép ét
继 承
in car
s’ engag
de x</w>
compl ét
tr in
t’ aurais</w>
ét atiques</w>
salvad or</w>
包 容</w>
n t</w>
oi rement</w>
comport ent</w>
ch ées</w>
mosph ère</w>
bro wn</w>
pénit enti
gardi en</w>
预防 性</w>
签 发</w>
subsidi aire</w>
l’h é
cour u</w>
m all
________ ________
pol i</w>
ky o</w>
rapatri ement</w>
connaiss ait</w>
v allée</w>
on zième</w>
d’ honneur</w>
com porter</w>
预 定</w>
sembl erait</w>
遗 传</w>
性 骚扰</w>
pro stitu
palu disme</w>
不 当</w>
au rer</w>
meurtri er</w>
四 处</w>
2 30</w>
定 为</w>
t’ y</w>
ar do</w>
核 算</w>
必 然</w>
当 今</w>
休 假</w>
pier res</w>
ouv rages</w>
l’int olérance</w>
经纪 人</w>
lun ettes</w>
bét ail</w>
宣 称</w>
pénu rie</w>
horiz ont
feu illes</w>
13 25</w>
modes te</w>
ation s
n’ oublie</w>
pro jet
deman dée</w>
trai tant</w>
l’ argentine</w>
ro y</w>
at titudes</w>
k ol
compos ants</w>
营业 额</w>
组 建</w>
总 量</w>
分 段</w>
dét est
rapport euse</w>
d’am sterdam</w>
comb ats</w>
éth ique</w>
vi gour
scri re</w>
fu ri
envoy és</w>
décr ites</w>
vis iter</w>
désign és</w>
停 下</w>
jui fs</w>
siè cles</w>
donn a</w>
sembl able</w>
c dr</w>
手 表</w>
实 用</w>
tox iques</w>
b it
k es</w>
glob aux</w>
1 er
menac é</w>
ra ts</w>
gi r
mar rant</w>
bris é</w>
re connues</w>
pro viennent</w>
cour ante</w>
草 稿</w>
左 边</w>
se ins</w>
pen cher</w>
gh ts</w>
on des</w>
nomm ée</w>
bless er</w>
f o</w>
délégu és</w>
l’at mosphère</w>
k enn
fi c
ch air</w>
流 行
l’or ateur</w>
家 属</w>
减 免</w>
pê ches</w>
d’inst aurer</w>
dé va
a sion</w>
b b</w>
a ç
di ab
罗 德</w>
g c</w>
ti m</w>
cri er</w>
中 立</w>
略 有</w>
菲利 普</w>
ch en
èg re</w>
l’in suffisance</w>
compos és</w>
co 2</w>
17 5</w>
réc ession</w>
re d
fid èle</w>
mati f</w>
ati vité</w>
dispos ons</w>
inno cent</w>
七 个</w>
veu se</w>
s’im pose</w>
而 易
pru dent</w>
序 言</w>
trouv ons</w>
s cul
mat t</w>
ani um</w>
produc tions</w>
com penser</w>
加 值</w>
ex clus</w>
收 音机</w>
咖 啡
tap is</w>
底 部</w>
celu ici</w>
sauv etage</w>
prof its</w>
av ant-
阴 影</w>
fin is</w>
e en</w>
插 入</w>
en jeux</w>
cr oix</w>
contrain te</w>
15 3</w>
chau ss
1 re</w>
0 5
组 织
symbo le</w>
cons tant</w>
麦 克斯</w>
contract antes</w>
j ’</w>
is sue</w>
dé ni
journ ées</w>
伊 丽
explo ser</w>
瓶 子</w>
environnement al</w>
德 意志</w>
impér atif</w>
监察 员</w>
and ais</w>
伊丽 莎
香 烟</w>
héli copt
讽 刺</w>
d ave</w>
噩 梦</w>
vi c</w>
john son</w>
c its</w>
甜 蜜</w>
re jo
médicam ent</w>
0 1.
较 大</w>
t ail
dis que</w>
appréci er</w>
pertur b
身 份
身份 证</w>
constitu ait</w>
pistol et</w>
minu it</w>
存 储</w>
am én
vit al</w>
post -
j’ espérais</w>
boli vie</w>
s n
emb rasser</w>
队 长</w>
抵 制</w>
ex tension</w>
dé sert</w>
remon ter</w>
bomb es</w>
2 60</w>
已 婚</w>
sph ère</w>
onu- habitat</w>
isi on</w>
精 神
év it
w p</w>
festiv al</w>
ax es</w>
lac s</w>
en lève</w>
反 馈</w>
退 休
未 决</w>
prest ataires</w>
ho c</w>
罗 那</w>
巴 塞
巴塞 罗那</w>
系 数</w>
厨 师</w>
l’oc currence</w>
纺织 品</w>
写 道</w>
mira cle</w>
手 续</w>
轻 微</w>
治 愈</w>
历 史
莉 莉</w>
使用 者</w>
re g</w>
ci ères</w>
s aine</w>
下 周</w>
不 止</w>
l’é mission</w>
春 天</w>
fl ingue</w>
atten dait</w>
13 5</w>
d’abor der</w>
gl ac
流 量</w>
iss a</w>
traver sé</w>
线 路</w>
l ations</w>
connaiss ais</w>
管理 层</w>
注 定</w>
di er</w>
文 凭</w>
bur k
viol ent</w>
coul oir</w>
laiss es</w>
精神 病</w>
周 前</w>
dé vou
prét exte</w>
dev rons</w>
200 0/
sei gne</w>
里 奇</w>
导 航</w>
lu cr
d ci</w>
该 部</w>
develop ment</w>
转 基因</w>
poi trine</w>
ét ou
约翰 尼</w>
calcul s</w>
recor d</w>
蔓 延</w>
quat or
来 不</w>
从 来不</w>
伤 亡</w>
lev é</w>
现 已</w>
dé mon</w>
c ari
市 中心</w>
上 空</w>
contraign ant</w>
边 缘
im parti
ass er</w>
correspon dantes</w>
ur gences</w>
en va
dis posé</w>
barcel one</w>
体 育
l’enf er</w>
pris ons</w>
18 2</w>
交易 所</w>
arrê ts</w>
废 话</w>
莫 桑
莫桑 比克</w>
intég rale</w>
fi abilité</w>
b ac
购 买
吸 毒</w>
rou tière</w>
b onn
散 发</w>
包 裹</w>
distri cts</w>
attach er</w>
货 车</w>
o ffi
lo cu
me- cadre</w>
faut -il</w>
d’ aucune</w>
chal eur
契 约</w>
ratt ach
旅 费</w>
l’h ér
运营 商</w>
sp é
autre fois</w>
protég é</w>
巴 里</w>
午 夜</w>
onn ées</w>
prof it
约瑟 夫</w>
libell é</w>
哭 泣</w>
st agi
som ali
sh er
巴 塞尔</w>
par rain
击 者</w>
nécess it
塔 利
塔利 班</w>
pré férences</w>
di ez</w>
d m</w>
lav er</w>
财 政部</w>
é pis
nom mer</w>
闻 到</w>
su édo
流行 病</w>
罗 杰</w>
已 知</w>
équilib ré</w>
modu le</w>
cn. 4/
pu e</w>
杀 伤</w>
ray on</w>
cham pa
ori a</w>
纳 米
main ten
1 27</w>
无 视</w>
斯 托</w>
exécu tive</w>
cor r</w>
suspec ts</w>
qu alités</w>
justifi e</w>
cor ré
审计 员</w>
l également</w>
连 续性</w>
经 社</w>
app elles</w>
0 8
s’ inquiète</w>
euro -
玫 瑰</w>
猜 猜</w>
改 组</w>
o ises</w>
haut commissariat</w>
检 验</w>
dél its</w>
cit ées</w>
rapp elles</w>
l’ utilité</w>
5 7
e ine</w>
bov ine</w>
lu ke</w>
ak i</w>
l’ ur
éduc atifs</w>
rev .1</w>
拆 除</w>
g s
pr être</w>
exclusi ve</w>
19 59</w>
量 化</w>
su is-je</w>
den sité</w>
地下 室</w>
ve y</w>
rou ges</w>
退休 金</w>
办 公</w>
解 释
v .</w>
整 理</w>
temp ête</w>
propa gation</w>
mich el</w>
inter dire</w>
人 工</w>
ob lige</w>
20 6</w>
- on</w>
镜 子</w>
连 同</w>
坦 率</w>
em pois
col or
接 待</w>
plas tique</w>
e ea</w>
comprom ettre</w>
古 怪</w>
mag as
laiss erai</w>
3 5%</w>
赶 上</w>
er df</w>
野 兽</w>
ta r</w>
处 在</w>
回 归</w>
rec our
exécu té</w>
延 误</w>
inv itation</w>
accompagn é</w>
证 件</w>
纳米 比亚</w>
等 你</w>
橄 榄
大 使馆</w>
sou tiennent</w>
激 情</w>
1 24</w>
lég alité</w>
corri ger</w>
娃 娃</w>
av en
拍 卖</w>
déb iteur</w>
cis jordanie</w>
circu it</w>
14 1</w>
souff ert</w>
dit eur</w>
correc te</w>
con fon
comm er
spécialis ée</w>
l’in vasion</w>
l’hypo thèse</w>
révél er</w>
suffis ants</w>
and on</w>
扣 除</w>
失 业者</w>
gén é
fon der</w>
跨 越</w>
peut- il</w>
逆 转</w>
réfléch i</w>
k ey</w>
何 时</w>
k ra
simpli fier</w>
ri ch</w>
e va</w>
brev et</w>
自 主</w>
deman dées</w>
制 约</w>
d’ analyser</w>
sépar er</w>
导 向</w>
oty pes</w>
伊丽莎 白</w>
l’ étendue</w>
lég er</w>
f eux</w>
suspen s</w>
racon té</w>
面 具</w>
l’inv itation</w>
ap prend</w>
k et</w>
fu sil</w>
du dit</w>
crois -moi</w>
走 私</w>
日 出</w>
原 产地</w>
k elly</w>
indivi du</w>
compara ble</w>
va che</w>
tunn el</w>
收 支</w>
om d</w>
真 理</w>
小 偷</w>
停 车
fer mes</w>
des crip
福 特</w>
sauv age</w>
d’é mission</w>
al le</w>
订 婚</w>
viv ante</w>
pro lon
itin ér
凯 西</w>
trau mati
chi er</w>
réuni t</w>
coupa bles</w>
废 料</w>
propi ce</w>
op pos
ce au</w>
嘴 里</w>
l’ anglais</w>
新 娘</w>
z er</w>
fac es</w>
concr et</w>
nu its</w>
r c</w>
u h</w>
ent ente</w>
philosoph ie</w>
col lo
opportu nité</w>
米 奇</w>
org /
l ou</w>
demand ait</w>
install é</w>
sus an</w>
ag rég
创 立</w>
soulev ées</w>
tis sus</w>
soud ain</w>
ex pression</w>
ser iez</w>
prisonni er</w>
ent ou
杰 森</w>
cou leurs</w>
grou p</w>
手 套</w>
vic tor</w>
exécu tés</w>
vi gil
soulev é</w>
le x</w>
脑 海</w>
et a</w>
原 籍</w>
an dre</w>
拉 姆</w>
em ily</w>
di vul
加 大</w>
手 里</w>
to kyo</w>
décou lent</w>
appréci é</w>
y ’a</w>
main d’œuvre</w>
espa ces</w>
c rev
on i</w>
k w
d’ hy
ari a</w>
坦 克</w>
ralenti ssement</w>
multilatéra le</w>
示 威</w>
掩 护</w>
sai s-tu</w>
et y</w>
t- elles</w>
stric tes</w>
voyag eurs</w>
touris tique</w>
sauv ages</w>
ren dant</w>
in hér
边缘 化</w>
ob s
cô tières</w>
走 路</w>
re viendra</w>
micro -
cr ist
inf érieurs</w>
fin ie</w>
m’ occuper</w>
h r</w>
gratu itement</w>
法 人</w>
jou eurs</w>
ten dre</w>
d’al cool</w>
大 国</w>
v es
tr ain
enf re
cher chez</w>
mar ti
cb- co-
商 会</w>
简 称</w>
pro f</w>
巴 林</w>
angl aise</w>
a x</w>
带 有</w>
一 封</w>
renouv ellement</w>
5 6
d’ esprit</w>
commun iste</w>
琼 斯</w>
re tés</w>
r ants</w>
打 死</w>
com te</w>
pai r</w>
jau ne</w>
savoir -
indi qués</w>
凯 蒂</w>
sal aud</w>
le w
am pleur</w>
仲 裁
l’ab ri</w>
c age</w>
po p</w>
del ors</w>
蒙 古</w>
出 生于</w>
固 体</w>
s ports</w>
rou tiers</w>
ologi quement</w>
ver rai</w>
缴 款</w>
mun ité</w>
z za</w>
rai s
bl ack</w>
x y
innov ations</w>
fleu ve</w>
connaiss ons</w>
asi atique</w>
tradi tionnel</w>
démar rage</w>
mon ter
do m</w>
sou mission</w>
col le
仆 人</w>
régu lation</w>
re tenus</w>
好 奇</w>
s- là</w>
r entrée</w>
轮 班</w>
quasi ment</w>
forc er</w>
发 电</w>
ci o</w>
耻 辱</w>
宽 容</w>
不 一定</w>
vir gin
modu les</w>
ay er</w>
s v</w>
cr âne</w>
distin guer</w>
故 障</w>
chanti er</w>
拉 格</w>
m ec
inscr ite</w>
ch en</w>
témoign age</w>
lors qu’elles</w>
hr c</w>
pertin ente</w>
所 指</w>
姓 名</w>
o o
开 设</w>
portug aise</w>
main tes</w>
lib y
突 破</w>
sign ale</w>
海 伦</w>
fu mée</w>
artifi ci
裸 体</w>
lo isi
抽 烟</w>
dura bilité</w>
航 天</w>
an dr
tré sor
解释 性</w>
童 工</w>
ém en</w>
tur c</w>
regret table</w>
iss ance</w>
b rou
播 放</w>
passe port</w>
néfas tes</w>
14 5</w>
all ons-
m ecu</w>
k u</w>
良 心</w>
vi ce</w>
不 该</w>
fl ori
余 地</w>
ré habilitation</w>
护 者</w>
所 得</w>
sec t</w>
allou és</w>
动 荡</w>
super be</w>
it h</w>
donn erai</w>
终 了</w>
星期 天</w>
pis cine</w>
déro gations</w>
at tr
跟 随</w>
痕 迹</w>
棒 球</w>
cou illes</w>
知 情</w>
substanti elle</w>
入 学</w>
exer cé</w>
voy ant</w>
touris tes</w>
clari fier</w>
atten tivement</w>
东 方</w>
ant aine</w>
parti elle</w>
optim ales</w>
月 亮</w>
par aly
奖 金</w>
t’ ont</w>
meur ent</w>
insuffis ante</w>
refl ètent</w>
compl ètes</w>
亚 历
l’affi r
fer as</w>
long s</w>
câ ble</w>
0 2.
纳 税
国 务
étonn ant</w>
r in
jamaï que</w>
considé rons</w>
assu rés</w>
sor tent</w>
vir é</w>
j’ aie</w>
contribu ant</w>
moyenn ant</w>
tradi tionnellement</w>
t as
圣 经</w>
养 护</w>
世 界
l’emb argo</w>
g all
d’ attendre</w>
co l</w>
m p</w>
douani ères</w>
vieill esse</w>
gu n
franç aises</w>
年 份</w>
subven tionn
笨 蛋</w>
gro sses</w>
con tenir</w>
mi ers</w>
lanc és</w>
colon ies</w>
en er
ti m
龄 化</w>
ne pad</w>
15 6</w>
游 泳池</w>
y l</w>
champi onn
ag as
f c</w>
soix antième</w>
interro ger</w>
d’ un
钢 琴</w>
而易 见</w>
老 龄化</w>
显 而易见</w>
illu stre</w>
l’ angle</w>
迫 害</w>
当 代</w>
修 建</w>
spécifi cités</w>
par te</w>
ss er</w>
gen oux</w>
门 槛</w>
微 妙</w>
celle- là</w>
aw a</w>
gu és</w>
v all
勃 的</w>
勃 勃的</w>
honor er</w>
疼 痛</w>
dé tour
poussi ère</w>
g u</w>
2. 5</w>
可 见</w>
dé gage</w>
以 至于</w>
特 使</w>
éli gibles</w>
s es
infanti le</w>
gre en</w>
d’ élargir</w>
aî tre</w>
既 定</w>
卢 克</w>
ax és</w>
贝 卡</w>
人 身</w>
mag ique</w>
semb les</w>
concer tée</w>
放 进</w>
失 败
in citer</w>
an nie</w>
préf érable</w>
mét alli
在 下</w>
am u
renvoy é</w>
少 校</w>
产 假</w>
indi ens</w>
examin era</w>
开 幕</w>
minim ale</w>
完 了</w>
réper toire</w>
d’im migration</w>
ax ées</w>
15 00</w>
卷 入</w>
fo ssé</w>
团 伙</w>
m ait</w>
puni r</w>
穿 越</w>
教 皇</w>
关 押</w>
or a</w>
f leur</w>
chev au
ch o</w>
donn es</w>
种 种</w>
无 意</w>
w om
以 南</w>
i o</w>
continu ez</w>
a j
普 及</w>
ex position</w>
理 化</w>
de viendra</w>
dé cro
mal i</w>
inno cents</w>
chré tiens</w>
地 毯</w>
pi liers</w>
欧 安</w>
ky le</w>
démo graphiques</w>
dé non
occident aux</w>
l’a z
dési re</w>
transpar ente</w>
实 物</w>
al gérie</w>
stri ct</w>
développ ée</w>
第二 十</w>
加 里</w>
l’ observation</w>
波 特</w>
摩 托
ez- nous</w>
vél o</w>
枪 支</w>
麻 醉</w>
tu ber
récom pense</w>
ver ras</w>
频 繁</w>
纳 粹</w>
ult érieure</w>
本 条</w>
r us</w>
把 手</w>
ocar bu
œu fs</w>
nomencl ature</w>
menson ges</w>
余 生</w>
k s
clar té</w>
vari ent</w>
sym pt
牲 畜</w>
更 具</w>
si ves</w>
h eu</w>
al ph
sou ple</w>
l’indi vi
l’explo sion</w>
conclu t</w>
工作 量</w>
s is
sou lever</w>
原 材料</w>
voud rions</w>
s aviez</w>
program me-cadre</w>
la h</w>
cy cles</w>
résid us</w>
cen sée</w>
sur venus</w>
spati al</w>
bris er</w>
il l</w>
堕 胎</w>
dev ises</w>
点 燃</w>
敦 士
敦士 登</w>
支 敦士登</w>
列 支敦士登</w>
trésor erie</w>
1 1,
轮 胎</w>
所在 地</w>
é s
fer ons</w>
富 裕</w>
sé ment</w>
résol us</w>
me di
l -
bou tique</w>
épar gn
oxy de</w>
巴 拿
合 理化</w>
至 今</w>
re connais</w>
g éré</w>
approfon dir</w>
tar der</w>
卖 掉</w>
moz ambi
franc isco</w>
伯 格</w>
天 主教</w>
bel l</w>
atl antique</w>
l’at tribution</w>
gi b
spati aux</w>
j eff</w>
am bul
j’ essaye</w>
dis cr
cein ture</w>
bi jou
配 备</w>
抑 制</w>
condam ne</w>
res tés</w>
开 办</w>
空 军</w>
réaffir mer</w>
indi cation</w>
cr ème</w>
franc s</w>
hypoth èses</w>
ra n</w>
纳 法
纳法 索</w>
布 基
布基 纳法索</w>
非 正规</w>
évolu er</w>
tu es</w>
微 型</w>
20 10-
scr uti
xi li
rob er
écr ites</w>
syner gies</w>
priv atisation</w>
光 明</w>
个 体</w>
récupér ation</w>
k ar</w>
l’ eu
consul té</w>
industri alisés</w>
ch e-
idé al</w>
d’ animaux</w>
ai re
加 热</w>
d’a justement</w>
cigar ettes</w>
维 克</w>
为 力</w>
空 白</w>
récapitu l
fis caux</w>
do r</w>
马 蒂</w>
gam ins</w>
c t
1. 3</w>
减 损</w>
撤 离</w>
an y</w>
restitu tion</w>
永 恒</w>
l’ essence</w>
l’inst ar</w>
empris onnement</w>
让 步</w>
trans position</w>
rem or
mari ages</w>
align és</w>
sal les</w>
offer ts</w>
对 比</w>
加 紧</w>
de m</w>
自 决</w>
卫生 部</w>
冒 犯</w>
réaffir mant</w>
c ession</w>
德 语</w>
sui vies</w>
man te</w>
死 人</w>
stabil iser</w>
i um</w>
h ad
容 量</w>
pavill on</w>
énor mément</w>
c ouverte</w>
trom p
or alement</w>
gar dez</w>
dé pôts</w>
arrê tées</w>
l’é ti
lib re-
g ang
et ant</w>
蒂 斯</w>
faill ite</w>
sembl ables</w>
dot ée</w>
rencontr ées</w>
利 安</w>
vol ets</w>
sou lève</w>
drap eau</w>
贝 宁</w>
淘 汰</w>
挖 掘</w>
on -
常 任</w>
这 辆</w>
讲 述</w>
t atou
gro ssi
莱 德</w>
restre int</w>
l’é pou
sho w</w>
入 口</w>
sur vécu</w>
vol eur</w>
dou z
ch ants</w>
包 容性</w>
卡 因</w>
pil u
arti san
voy ait</w>
gé o
au dit</w>
diri gée</w>
分 数</w>
mon go
fabric ants</w>
集 合</w>
tari faire</w>
s ali
ois eau</w>
savoir- faire</w>
appel ons</w>
témoi gner</w>
20 7</w>
g era</w>
démin age</w>
déclar ée</w>
随 机</w>
inclu ant</w>
dis cré
partici pa
l’at l
ges te</w>
fi èvre</w>
cf .</w>
traver se</w>
h l</w>
4 5
24 2</w>
l ités</w>
w y
th er</w>
at terr
限 制性</w>
p aire</w>
晋 升</w>
gr andis
essay ons</w>
op hi
赶 走</w>
indi quées</w>
tex as</w>
玛丽 亚</w>
d’ idées</w>
w ork</w>
te e</w>
fran c</w>
élec tro
è nement</w>
socio économiques</w>
回 返</w>
国 别</w>
住 宿</w>
allons- y</w>
逃 脱</w>
flé au</w>
dou lour
appréci ation</w>
jo sh</w>
13 %</w>
可 靠
个 案</w>
remerci ements</w>
pé ni
预算 外</w>
procur er</w>
起 源</w>
l ette</w>
磁 带</w>
修 好</w>
7 50</w>
自 然
é min
conven tionnels</w>
liqui dation</w>
ca libre</w>
vidé os</w>
维 克
évolu é</w>
johann es
ch ères</w>
empê ché</w>
vi et
or al</w>
ent aire</w>
sant a</w>
co ton</w>
l ass
morg an</w>
次 数</w>
仅 限于</w>
ira k</w>
摩托 车</w>
可靠 性</w>
卡 塔尔</w>
ré examen</w>
祝 福</w>
religi ons</w>
unit ed</w>
envoy ée</w>
achev ée</w>
高 尔夫</w>
净 额</w>
q atar</w>
minim al</w>
ar c
失败 者</w>
prévoy ait</w>
économ iquement</w>
maîtr iser</w>
différ emment</w>
gl om
présent era</w>
ht m</w>
ag issent</w>
d’ essai</w>
才 是</w>
pas sion</w>
经 销商</w>
pesti cides</w>
bo sse</w>
19 56</w>
负 债
吓 坏</w>
hé sit
爱德 华</w>
d’in scrire</w>
酋 长</w>
v ins</w>
esp oirs</w>
ch age</w>
后 代</w>
ul aire</w>
institu é</w>
urg ente</w>
sén at</w>
iss age</w>
bas ées</w>
fa ç
civil isation</w>
parti sans</w>
l’al gérie</w>
d’instru ction</w>
d’ entretien</w>
tr y</w>
thérap ie</w>
essay ais</w>
ac adé
僵 局</w>
far deau</w>
el ec
con gol
ten stein</w>
约翰 内
ol o</w>
prononc ée</w>
g hi
sur veille</w>
ressour ce</w>
200 7-
d’o zone</w>
d’ équipements</w>
nou s-
l’a ele</w>
ck et</w>
鸟 类</w>
太 晚</w>
一无 所
rembour ser</w>
redou bler</w>
mutu el</w>
1 31</w>
pos t</w>
c enti
纳税 人</w>
见 见</w>
expli c
见 鬼</w>
约翰内 斯堡</w>
嘴 唇</w>
re faire</w>
cohér ent</w>
arti ste</w>
小 子</w>
13 3</w>
m’ excuser</w>
doc tor
entam é</w>
tr ons</w>
nicaragu a</w>
jus que</w>
tionn aire</w>
ré cep
co st
cinqu ante</w>
re tire</w>
distribu é</w>
合 资</w>
è re-
augment ations</w>
ant oni
有 的</w>
ver rez</w>
d’ attention</w>
一 片</w>
sa hara</w>
par fu
continu eront</w>
枪 杀</w>
z bé
prof ite</w>
t onn
vis as</w>
vis ait</w>
s hu
r en</w>
d’ étendre</w>
bâ le</w>
0 6.
déplac és</w>
a éron
编 码</w>
w est
le i
am ine</w>
l’ac adémie</w>
crain dre</w>
épou x</w>
ég lise</w>
印第 安</w>
por c</w>
贝 尔
期 刊</w>
老 朋友</w>
名 声</w>
董 事</w>
a hi
rédu its</w>
compl issement</w>
exhau s
b arry</w>
珠 宝</w>
déc ouvre</w>
小 丑</w>
sac rée</w>
fou t</w>
下 跌</w>
re venue</w>
excessi ve</w>
eur -
acc entu
pom pi
x xi
inf o</w>
13 2</w>
会 费</w>
partag é</w>
trans action</w>
re froi
2 11</w>
停 车</w>
ô ne</w>
aw i</w>
attent at</w>
污 水</w>
投 票
tr i</w>
cré tin</w>
avi er</w>
c et
苦 难</w>
polon ais</w>
marsh all</w>
bu v
accu mul
par -
zbé kistan</w>
protég ées</w>
in directe</w>
睡 眠</w>
per eur</w>
pens es-tu</w>
ju m
膝 盖</w>
战 胜</w>
ré former</w>
qua si</w>
g ps</w>
坏 人</w>
préfér enti
l’ ombre</w>
异 议</w>
巴拿 马</w>
4. 1</w>
plac ements</w>
respec tant</w>
prét end</w>
perman entes</w>
mo re</w>
ach è
借 款</w>
ph il</w>
pass ez</w>
fonctionn ent</w>
兰 特</w>
al liés</w>
照 料</w>
c entes</w>
东 南亚</w>
écriv ain</w>
représent ait</w>
par king</w>
bar ème</w>
vin cent</w>
emprun ter</w>
半 个</w>
一 句</w>
ressor tir</w>
par d</w>
ven d</w>
d’expéri ences</w>
lar mes</w>
隐 瞒</w>
渔 船</w>
大 胆</w>
coordonn ateurs</w>
pu b</w>
13 6</w>
否 决</w>
k har
con centre</w>
大 屠杀</w>
生 素</w>
服 用</w>
15 5</w>
soi gner</w>
qu eur</w>
c p
死 者</w>
centr africaine</w>
黄 油</w>
annu lé</w>
19 52</w>
proch ainement</w>
plan -cadre</w>
lour ds</w>
服务 员</w>
运 会</w>
n’ aient</w>
norv égi
accor dent</w>
13 4</w>
权 限</w>
la w</w>
淇 淋</w>
mo to</w>
loisi rs</w>
im migrés</w>
放 缓</w>
冰 淇淋</w>
内 在</w>
gener al</w>
ci es</w>
阿 布
幽 灵</w>
al e
警 惕</w>
按 钮</w>
trans féré</w>
it o</w>
chu ck</w>
révis er</w>
raisonn ables</w>
po r</w>
jou es</w>
j uni
ge ance</w>
c ains</w>
31. 12.
尼 加</w>
多米 尼加</w>
tes ter</w>
cont ent
perp étu
d’enqu êtes</w>
m c</w>
17 7</w>
ai da</w>
笔 记</w>
十 字
honnê tement</w>
défi cits</w>
l op
coi ff
盈 利</w>
ex ister</w>
斯 克</w>
sou cis</w>
n der</w>
décou le</w>
头 部</w>
g ez</w>
du ré</w>
臭 氧</w>
操 作
m ens</w>
li ech
inspec tions</w>
详 尽</w>
d’in flation</w>
d’ac quérir</w>
起 床</w>
is ait</w>
ch ait</w>
fi ère</w>
一 首</w>
altern ative</w>
坐 下</w>
戴 夫</w>
保 人</w>
三 项</w>
l’o s
clav age</w>
无 数</w>
lors qu’une</w>
d’ habitants</w>
带 回</w>
condam ner</w>
l’ap parition</w>
parti cules</w>
it at</w>
conjo intes</w>
édi ction</w>
re gi
lis se</w>
invent é</w>
中 介</w>
ma jeu
f oc
confidenti alité</w>
右 边</w>
bu ff
常 会</w>
pres cr
is -ci</w>
burk ina</w>
appro xim
6 4/
脏 病</w>
affai bli
高 达</w>
ra m</w>
两 位</w>
su le</w>
暗 杀</w>
舌 头</w>
écri s</w>
el li
祖 母</w>
棉 花</w>
rés ister</w>
中 午</w>
dé faill
retour n
modifi és</w>
peu pl
pa k
ni ce</w>
n ôtre</w>
im pression</w>
déva st
20 1</w>
méditerrané ens</w>
外 套</w>
l’onu dc</w>
g al</w>
一 百</w>
桥 梁</w>
bless es</w>
audi ence</w>
上 来</w>
affér entes</w>
长 远</w>
vic tori
servi ra</w>
负债 表</w>
habitu el</w>
f ères</w>
eli z
发 作</w>
form at</w>
conduc teur</w>
羞 辱</w>
dis posés</w>
舆 论</w>
奥 运会</w>
ai dent</w>
1. 3
界 限</w>
mou r</w>
ass ise</w>
名 人</w>
pr ag
at i</w>
养 殖</w>
inter vient</w>
carol ine</w>
葡 萄</w>
牢 房</w>
cl ame</w>
brav o</w>
traî ner</w>
défavoris és</w>
crimin elles</w>
历史 性</w>
poursui vis</w>
lo ts</w>
au xili
pes er</w>
迎 接</w>
y émen</w>
d vd</w>
justifi ée</w>
enf oiré</w>
13 7</w>
fil er</w>
ess ai
ech o</w>
节 日</w>
照 会</w>
sac s</w>
m n</w>
andre w</w>
amus ant</w>
inqui et</w>
ad é</w>
自 行</w>
塔 尼亚</w>
mad agas
mi el</w>
金 发</w>
吉尔 吉
mas que</w>
litt érature</w>
所 有者</w>
vi ables</w>
t én
d’ entreprendre</w>
进 攻</w>
in ées</w>
引 人</w>
心 脏病</w>
asse y
4 7
éventu el</w>
封 闭</w>
brû ler</w>
杀 人
wh is
中 士</w>
puiss ants</w>
m’ appeler</w>
munici pa
fo ot</w>
automobi les</w>
感 器</w>
l oyer</w>
d’ ir
ge org
bilatéra le</w>
dési gne</w>
discrimin ations</w>
rel ais</w>
激 活</w>
摄像 机</w>
fas o</w>
gar der
内 战</w>
e y
accu sations</w>
rav ie</w>
理 论
布 罗</w>
传 感器</w>
cnu dci</w>
降 落</w>
majeu res</w>
trouver ez</w>
ed f</w>
进 化</w>
d’in former</w>
缩 短</w>
约翰 逊</w>
暂 行</w>
po ll
inv ali
迪 恩</w>
fl ot
ab sur
13 ,
第 七
数 百</w>
四 条</w>
trai tent</w>
hydr ocarbu
son dage</w>
représent aient</w>
离 职</w>
madagas car</w>
plo re</w>
l’ac complissement</w>
il la</w>
ch ester</w>
aspi rations</w>
adh érer</w>
jo sé</w>
s’im posent</w>
经 典</w>
ap h
裂 变</w>
夜 间</w>
dé tenu</w>
décisi f</w>
性 虐待</w>
吉 布
iné as</w>
大 街</w>
抵 达</w>
土 豆</w>
s’efforc er</w>
自 信</w>
反 过来</w>
剧 本</w>
停 滞</w>
préci euse</w>
差 不多</w>
14 %</w>
之 所以</w>
i b
di x
rot ation</w>
l’ ouganda</w>
correc tion</w>
200 9/
塔 吉
re cul
fati gué</w>
sag esse</w>
s- nous</w>
montr ant</w>
sou pe</w>
représent ées</w>
过 夜</w>
拿 出</w>
杀 戮</w>
0 4.
薄 弱</w>
exi ge
ai s-je</w>
火 焰</w>
v en</w>
regroup ement</w>
br ève</w>
l’ar ch
incon véni
br on
ar d
initi ales</w>
公 告</w>
norm ales</w>
excep tionnel</w>
奥 利</w>
fix es</w>
bén évo
百分 之</w>
访 者</w>
定 居</w>
v al</w>
origin aire</w>
japon aise</w>
g us</w>
con ju
fragi le</w>
pla que</w>
gar y</w>
一 类</w>
co ck
18 %</w>
u res</w>
楼 下</w>
im péri
家 中</w>
女 生</w>
cor r.
assass iné</w>
offer te</w>
抵 押</w>
欲 望</w>
r p
l’ entr
caractéris tique</w>
矿 物</w>
eg ypte</w>
洛 斯</w>
ambu le</w>
考 验</w>
plat e
liech tenstein</w>
ai res
pass er
donn ait</w>
vie illes</w>
bi ographie</w>
泰 德</w>
爱 丽
最 为</w>
l’atl antique</w>
ju an</w>
f .</w>
2. 3</w>
- elle</w>
p ent
j ay</w>
阵 线</w>
o ter</w>
现 任</w>
森 特</w>
ad judi
sui ci
炸 药</w>
克 里</w>
rev it
â mes</w>
pédago gique</w>
détail lés</w>
e- la</w>
一 封信</w>
加 油</w>
wil son</w>
per dus</w>
e b
身 后</w>
吉 他</w>
sti ques</w>
p tions</w>
grec s</w>
contr aires</w>
e o</w>
al inéas</w>
ag ro
inter disant</w>
d’ avance</w>
cit ant</w>
皇 帝</w>
白 天</w>
zam bie</w>
d 6
20 5</w>
ég al
u .
lap in</w>
démocrati sation</w>
4 000</w>
越 过</w>
techni quement</w>
二 级</w>
体 内</w>
grand ement</w>
an é
解 散</w>
做 饭</w>
recueilli es</w>
犯 有</w>
rom antique</w>
r era</w>
ob ama</w>
l’in demnité</w>
compar é</w>
他 杀</w>
johannes burg</w>
hi ver</w>
bou ton</w>
b and
viv ait</w>
l’hu ile</w>
discipl inaire</w>
戴 维斯</w>
d’ex cell
未 婚
天 赋</w>
correc t</w>
néer landaise</w>
jo inte</w>
l’audi ence</w>
社 会
叛 乱</w>
l’in spection</w>
虚 拟</w>
原 子</w>
co décision</w>
ball on</w>
is ses</w>
饮 用水</w>
confir mation</w>
introdu ite</w>
cen die</w>
选择 性</w>
罕 见</w>
会 面</w>
cat herine</w>
送 给</w>
着 陆</w>
reconnaiss ent</w>
fabri quer</w>
d’en voyer</w>
ri n</w>
l’ég ide</w>
维 奇</w>
min ce</w>
gri m
秋 天</w>
接 着</w>
pers istance</w>
d’ac compagn
本 周</w>
保 姆</w>
jon ction</w>
de viens</w>
19 55</w>
z h
trom pe</w>
se an</w>
permettr aient</w>
no r</w>
16 %</w>
勋 爵</w>
appli quent</w>
差 额</w>
4 5%</w>
15 7</w>
pér il</w>
san gu
l’intér essé</w>
3 52</w>
回 复</w>
可 卡因</w>
lour des</w>
民主 化</w>
榜 样</w>
德 里
ni ck
里 昂</w>
分 销</w>
post é</w>
fai tes-vous</w>
accep tée</w>
监 察</w>
势 头</w>
ch lo
院 子</w>
lis ation</w>
pro spec
inon dations</w>
consac re</w>
符 号</w>
司 长</w>
刊 物</w>
uni fem</w>
cour antes</w>
毒 性</w>
si mul
secr ète</w>
ri gi
plac ée</w>
ré ti
relev és</w>
attribu tions</w>
根 除</w>
推 翻</w>
thé ori
naiss ances</w>
transform é</w>
亲 戚</w>
pour vu</w>
l’ac quis</w>
s’ arrête</w>
罪 恶</w>
volu mes</w>
ho ward</w>
ex is
av an
激 动</w>
pe re</w>
l’ex piration</w>
da e</w>
付 给</w>
joy eux</w>
有 意</w>
d’inter venir</w>
ill age</w>
斐 济</w>
bois ement</w>
én oncé</w>
dirige ant</w>
félicit ant</w>
喜 剧</w>
s’ attendre</w>
abu dg
15 2</w>
ef ta</w>
thé orique</w>
sol des</w>
d’im poser</w>
13 9</w>
仁 慈</w>
c ouvertes</w>
14 3</w>
l’ex pert</w>
extr abudg
diplô més</w>
cat aly
ant érieure</w>
l’ex- yougoslavie</w>
d’ harmonisation</w>
accompagn ée</w>
emprun ts</w>
dés esp
man quent</w>
d’ ajouter</w>
节 约</w>
s onne</w>
conç ue</w>
l’éch antill
inter venus</w>
respi rer</w>
党 派</w>
veill ant</w>
d oy
appli quant</w>
l’ex trême</w>
f el
au ts</w>
15 1</w>
d’ étudiants</w>
w ill
maîtr esse</w>
cha p</w>
d’in demnisation</w>
20 8</w>
12 67</w>
ren voie</w>
pare ille</w>
s’ appuyant</w>
chau de</w>
gui der</w>
exhor te</w>
cr i</w>
téléph ones</w>
it h
内 政</w>
ré gr
神 父</w>
sil en
gol f</w>
旗 帜</w>
roy ale</w>
舒 适</w>
犯 罪
ai s
怀 特</w>
clav es</w>
院 长</w>
电视 台</w>
séri euses</w>
in f</w>
pertin ent</w>
鬼 魂</w>
丹 尼斯</w>
d’ex primer</w>
工作 室</w>
inscri re</w>
j essi
开 门</w>
复 仇</w>
呈 现</w>
20 ,
mozambi que</w>
蒙特 雷</w>
普 森</w>
学 员</w>
met tons</w>
屈 服</w>
s’ emploie</w>
d avis</w>
ci dessus</w>
appro cher</w>
austr ale</w>
买 方</w>
一无所 知</w>
trag ique</w>
l’ appartement</w>
特 网</w>
尔 森</w>
因 特网</w>
oï ne</w>
定 者</w>
cu lose</w>
débar rass
信 通</w>
卡 片</w>
d ités</w>
镇 压</w>
ration alisation</w>
15 ,
re conversion</w>
保护 区</w>
satis faisant</w>
iss é</w>
一 季度</w>
jou ait</w>
antoni o</w>
1 1%</w>
is a</w>
voy ais</w>
pi ano</w>
fai s-tu</w>
exer çant</w>
ac p-
盟 友</w>
关 贸</w>
conn ait</w>
cau tion</w>
entrav e</w>
ay s</w>
能 为</w>
scruti n</w>
menti onne</w>
po tes</w>
l’or donn
anti personnel</w>
翅 膀</w>
摩 根</w>
否 定</w>
al bert</w>
préc ède</w>
ant érieurs</w>
des sin</w>
cons orti
苏 珊</w>
s’ engage</w>
plat e-
chirur gie</w>
p istes</w>
estom ac</w>
mo s
书 记</w>
pres s</w>
eliz abeth</w>
s cru
radi ation</w>
林 斯</w>
proro gation</w>
pou viez</w>
béni n</w>
山 脉</w>
倾 听</w>
préven tive</w>
célé br
as tron
li aisons</w>
s we
oblig és</w>
dor t</w>
肚 子</w>
répon ds</w>
respec tés</w>
phab étisation</w>
山 谷</w>
trouver ai</w>
introdu ites</w>
_bar _</w>
3 60</w>
ma ïs</w>
正 面</w>
中 型</w>
l otte</w>
. org</w>
时 至</w>
in gues</w>
九 条</w>
proc ès-
pac ts</w>
ob us</w>
简 直</w>
plu r
nov atrices</w>
con gés</w>
in connu</w>
d’ hier</w>
4. 2</w>
hydrocarbu res</w>
dis posant</w>
co r</w>
em s</w>
下 述</w>
ra mi
poussi ères</w>
tis me</w>
胞 胎</w>
临 床</w>
ir landaise</w>
d’infra structure</w>
抽 样</w>
l’in verse</w>
甲 基</w>
f le
蒙 德</w>
ul time</w>
薪 水</w>
responsabil isation</w>
puiss ante</w>
用 以</w>
做 生意</w>
sign aux</w>
satis faits</w>
洪 都
k ers</w>
购 置</w>
洪都 拉斯</w>
l’instru ction</w>
hél as</w>
理 智</w>
n anc
dou zième</w>
corr. 1</w>
d ji
h eu
: 00</w>
exprim ant</w>
boss er</w>
d’ identification</w>
ser rer</w>
ant es
15 8</w>
战 役</w>
更 换</w>
匿 名</w>
sû retés</w>
w ag
ed ward</w>
part agent</w>
be c</w>
4 9
文 森特</w>
诗 人</w>
北 美</w>
formu les</w>
l’ aurais</w>
com prise</w>
爱丽 丝</w>
[...]
