e </w>
s </w>
t h
, </w>
t </w>
i n
d </w>
a n
e r
th e</w>
的 </w>
o n
y </w>
. </w>
e n
。 </w>
o r
o </w>
t i
a r
a l
o u
f </w>
r e
g </w>
o f</w>
a </w>
an d</w>
e d</w>
t o</w>
on </w>
in g</w>
er </w>
s t
in </w>
i s</w>
c h
e s</w>
o m
l </w>
a t
a t</w>
是 </w>
l i
在 </w>
r o
al </w>
or </w>
an </w>
s i
a s</w>
r i
e c
a ti
e s
a c
e l
了 </w>
i l
a s
v e</w>
d i
en </w>
w h
们 </w>
en t</w>
y ou
e m
s h
o w
i c
th at</w>
k </w>
u r
p l
t s</w>
有 </w>
a m
个 </w>
" </w>
th </w>
我 </w>
i </w>
和 </w>
i t</w>
u n
u s
l y</w>
o l
h a
p ro
d e
人 </w>
r </w>
f or</w>
you </w>
ati on</w>
i t
a b
' s</w>
g h
为 </w>
c om
c on
a g
w i
ch </w>
会 </w>
a d
p </w>
b e
l e
c e</w>
s u
你 </w>
: </w>
他 </w>
e x
) </w>
ar e</w>
v er
( </w>
、 </w>
国 </w>
? </w>
b u
a y</w>
t r
l o
到 </w>
l e</w>
n </w>
n e
th e
要 </w>
a p
s e
b e</w>
n o
f or
m </w>
t er
v i
s p
一 </w>
ti on</w>
o p
0 </w>
a i
er e</w>
wi th</w>
上 </w>
来 </w>
我 们</w>
能 </w>
于 </w>
以 </w>
ow </w>
s t</w>
c i
u l
p o
对 </w>
用 </w>
ou n
th is</w>
w as</w>
ha ve</w>
中 </w>
这 </w>
ar </w>
m o
f r
w or
s e</w>
a k
“ </w>
f i
o o
er s</w>
l d</w>
om </w>
q u
” </w>
一 个</w>
些 </w>
p e
f f
h e</w>
on s</w>
w </w>
at e</w>
m e
al l</w>
il l</w>
p er
no t</w>
m ent</w>
s o</w>
t y</w>
d u
b y</w>
年 </w>
说 </w>
w e</w>
th er</w>
ou t</w>
p re
bu t</w>
m e</w>
不 </w>
p ar
i m
行 </w>
t er</w>
c an</w>
on e</w>
w ill</w>
d s</w>
st r
时 </w>
c </w>
家 </w>
h as</w>
fr om</w>
h i
t e
pl e</w>
将 </w>
g r
他 们</w>
e t</w>
子 </w>
the y</w>
i s
w e
者 </w>
a y
ou ld</w>
t ed</w>
过 </w>
就 </w>
ur e</w>
p or
m or
m an
es s</w>
后 </w>
出 </w>
gh t</w>
多 </w>
g o
生 </w>
与 </w>
也 </w>
而 </w>
得 </w>
都 </w>
种 </w>
- </w>
c o
作 </w>
em </w>
性 </w>
地 </w>
; </w>
an t</w>
里 </w>
2 0
v er</w>
大 </w>
ch in
d ing</w>
力 </w>
an g
么 </w>
c l
' t</w>
t o
果 </w>
业 </w>
y e
a in
间 </w>
法 </w>
定 </w>
it y</w>
1 </w>
h e
mor e</w>
着 </w>
in g
al ly</w>
h is</w>
es t</w>
ai d</w>
en ts</w>
t ing</w>
s om
g i
动 </w>
a f
2 </w>
样 </w>
us e</w>
可 以</w>
p u
wh i
you r</w>
她 </w>
m ar
b o
a u
whi ch</w>
5 </w>
t u
度 </w>
前 </w>
ag e</w>
i r</w>
d e</w>
ak e</w>
去 </w>
及 </w>
i f</w>
面 </w>
a in</w>
下 </w>
ic </w>
es e</w>
pe o
on al</w>
它 </w>
in ter
peo ple</w>
du c
m in
gh </w>
on g</w>
th ere</w>
道 </w>
a d</w>
理 </w>
en t
s aid</w>
v el
the ir</w>
但 </w>
n ow</w>
ab le</w>
s o
u m
被 </w>
en ce</w>
re c
m y</w>
f e
好 </w>
f in
现 </w>
c oun
ou r</w>
ti c
学 </w>
con t
d o</w>
中 国</w>
o ther</w>
b i
ou r
s er
wh en</w>
本 </w>
t e</w>
e v
d o
成 </w>
司 </w>
s c
量 </w>
! </w>
化 </w>
3 </w>
d ay</w>
m i
wh at</w>
ab out</w>
as t</w>
题 </w>
p ri
us t</w>
u s</w>
k e</w>
公 司</w>
点 </w>
b ec
没 有</w>
并 </w>
at ed</w>
件 </w>
si on</w>
wh o</w>
an ce</w>
k s</w>
ti me</w>
想 </w>
1 9
com p
f ac
从 </w>
这 个</w>
ne w</w>
v e
4 </w>
u p</w>
al l
com m
员 </w>
t w
体 </w>
d er</w>
方 </w>
该 </w>
am e</w>
很 </w>
b l
ay s</w>
d er
0 0</w>
fi r
美 国</w>
s y
d r
场 </w>
ver y</w>
物 </w>
k ing</w>
w ere</w>
常 </w>
所 </w>
务 </w>
i ts</w>
g re
天 </w>
斯 </w>
' </w>
式 </w>
be en</w>
as e</w>
经 </w>
然 </w>
m on
示 </w>
al so</w>
次 </w>
己 </w>
ow n</w>
in e</w>
这 些</w>
oo d</w>
p r
ec t</w>
o b
分 </w>
c re
ou s</w>
p h
自 己</w>
ar d</w>
s ec
f u
an y</w>
s el
把 </w>
b r
ha d</w>
ar y</w>
g e</w>
心 </w>
问 题</w>
ar s</w>
此 </w>
t ri
ati ons</w>
可 能</w>
其 </w>
让 </w>
同 </w>
位 </w>
机 </w>
入 </w>
am </w>
chin a</w>
th an</w>
d ed</w>
sh e</w>
品 </w>
6 </w>
k e
如 果</w>
长 </w>
或 </w>
som e</w>
for m
ou gh</w>
还 </w>
es s
统 </w>
% </w>
事 </w>
给 </w>
8 </w>
li c
pre s
st u
li ke</w>
a v
月 </w>
n o</w>
o c
sh </w>
c or
什 么</w>
h er</w>
oun d</w>
ic e</w>
向 </w>
当 </w>
f l
ec i
据 </w>
ti es</w>
期 </w>
工 作</w>
ol d</w>
新 </w>
el l</w>
s ti
r e</w>
t en
a use</w>
em ent</w>
de vel
研 究
i z
起 </w>
w ay</w>
t ur
进 行</w>
部 </w>
做 </w>
g e
展 </w>
ti ons</w>
7 </w>
因 为</w>
b er</w>
si g
th ing</w>
g u
mo st</w>
d on</w>
制 </w>
ti ve</w>
u c
加 </w>
x </w>
en g
ac k</w>
使 </w>
b </w>
lo o
20 0
ad e</w>
l l</w>
尔 </w>
程 </w>
tw o</w>
国 家</w>
an d
wor k</w>
n i
g en
devel op
何 </w>
议 </w>
w ould</w>
at es</w>
or y</w>
数 </w>
外 </w>
be t
ol l
明 </w>
— </w>
ing s</w>
or s</w>
意 </w>
i es</w>
t ure</w>
那 </w>
研究 </w>
界 </w>
h ow</w>
已 经</w>
on ly</w>
高 </w>
名 </w>
ati onal</w>
el y</w>
th em</w>
en d</w>
等 </w>
经 济
但 是</w>
bec ause</w>
st s</w>
wor ld</w>
需 要</w>
g et</w>
利 </w>
t t
di ff
合 </w>
求 </w>
fir st</w>
o ff
m u
区 </w>
c e
一 些</w>
可 </w>
c ar
论 </w>
in to</w>
th ese</w>
话 </w>
un i
th o
c u
且 </w>
m ake</w>
p p
s ed</w>
更 </w>
man y</w>
pro duc
a ch
日 </w>
on om
sy st
ser v
af ter</w>
ac e</w>
g y</w>
c es</w>
an s</w>
en ti
il e</w>
l a
持 </w>
府 </w>
cl u
术 </w>
ch ang
由 </w>
n ing</w>
sh i
al s</w>
m a
il l
发 </w>
th in
内 </w>
9 </w>
k ed</w>
di s
d y</w>
计 </w>
政 府</w>
ol o
如 </w>
s s</w>
qu i
系 </w>
候 </w>
就 是</w>
j ust</w>
go ver
— —</w>
h el
型 </w>
受 </w>
ec onom
m ay</w>
b le</w>
m an</w>
少 </w>
u e</w>
关 </w>
re d</w>
sh ould</w>
re e</w>
应 </w>
时 间</w>
gover n
ye ar</w>
望 </w>
s ur
th en</w>
器 </w>
比 </w>
e i
不 是</w>
e l</w>
i li
ye ars</w>
经济 </w>
供 </w>
元 </w>
· </w>
发 展</w>
格 </w>
por t
通 过</w>
f e</w>
最 </w>
n ational</w>
现 在</w>
e a
吗 </w>
ti m
re l
像 </w>
/ </w>
v es</w>
车 </w>
情 </w>
g ood</w>
ci al</w>
管 </w>
i r
始 </w>
h </w>
使 用</w>
息 </w>
su ch</w>
at er</w>
球 </w>
看 </w>
之 </w>
k now</w>
特 </w>
us ed</w>
认 为</w>
a il
ro w
民 </w>
这 样</w>
- -</w>
世 界</w>
hi m</w>
全 </w>
产 </w>
c ri
色 </w>
at ing</w>
提 供</w>
实 </w>
亚 </w>
tr y</w>
syst em</w>
por t</w>
h o
p s</w>
fu l</w>
re s</w>
1 0</w>
这 种</w>
率 </w>
以 及</w>
立 </w>
n ed</w>
知 道</w>
ic al</w>
al i
》 </w>
时 候</w>
《 </w>
活 </w>
g o</w>
类 </w>
际 </w>
v ed</w>
开 </w>
克 </w>
金 </w>
st e
j o
s ch
v ing</w>
it ed</w>
助 </w>
o f
pl e
o ver</w>
d ent</w>
所 有</w>
小 </w>
lo c
b an
义 </w>
开 始</w>
其 他</w>
c ur
el l
e ff
s on</w>
pu b
tr an
表 示</w>
m il
项 </w>
diff er
因 </w>
别 </w>
f un
som e
况 </w>
约 </w>
m at
' re</w>
thin k</w>
om e</w>
s es</w>
di c
市 </w>
见 </w>
chin ese</w>
w ant</w>
ic i
ex p
str uc
se e</w>
s ol
c er
c ould</w>
st ri
易 </w>
则 </w>
for e</w>
已 </w>
口 </w>
目 </w>
代 </w>
系 统</w>
ev en</w>
en c
c ul
备 </w>
ti c</w>
构 </w>
re sp
develop ment</w>
su p
够 </w>
te ch
b us
表 </w>
govern ment</w>
s m
th r
b as
k et</w>
li fe</w>
进 </w>
su l
ar t</w>
市 场</w>
达 </w>
wh ere</w>
am er
t or</w>
至 </w>
comp any</w>
op er
户 </w>
重 要</w>
se ar
c ess</w>
e ar
c ol
ati ve</w>
b ri
解 </w>
s ing</w>
h ou
l ar
per i
响 </w>
e st
pro vi
r a
西 </w>
近 </w>
自 </w>
第 </w>
划 </w>
人 们</w>
续 </w>
料 </w>
y ing</w>
信 </w>
m em
r u
f ri
部 分</w>
ac t</w>
po li
in ess</w>
c en
ch il
象 </w>
告 </w>
t ake</w>
pub li
布 </w>
称 </w>
we en</w>
bet ween</w>
头 </w>
or i
com e</w>
门 </w>
t re
a st
ar i
两 </w>
文 </w>
ap p
in clu
重 </w>
洲 </w>
正 </w>
w ell</w>
手 </w>
gen er
oo k</w>
您 </w>
in v
sp eci
气 </w>
师 </w>
德 </w>
e ver</w>
ch ar
su b
c ap
man ag
士 </w>
ne ed</w>
ter s</w>
源 </w>
th er
im port
on g
19 9
变 </w>
20 1
又 </w>
d ec
影 响</w>
m ade</w>
tr a
gr ou
un der
方 法</w>
资 </w>
水 </w>
案 </w>
中 的</w>
生 活</w>
p i
须 </w>
pro bl
c an
方 面</w>
go ing</w>
s ay</w>
po in
技 术</w>
tech n
ar e
0 00</w>
值 </w>
v al
验 </w>
请 </w>
f ic
amer ic
h ere</w>
vi e
非 常</w>
m ak
片 </w>
it e</w>
不 同</w>
form ation</w>
ri ght</w>
队 </w>
ow er</w>
s en
取 </w>
ec tion</w>
f am
l ast</w>
步 </w>
wi th
识 </w>
处 </w>
查 </w>
权 </w>
e u
n or
thr ough</w>
线 </w>
织 </w>
n um
情 况</w>
em s</w>
r y</w>
言 </w>
级 </w>
be fore</w>
三 </w>
份 </w>
境 </w>
k n
语 </w>
所 以</w>
括 </w>
a si
d at
发 现</w>
院 </w>
mu ch</w>
vi r
儿 </w>
再 </w>
企 业</w>
w om
问 </w>
sti ll</w>
h u
平 </w>
ec ted</w>
po si
ab ili
as s</w>
d em
su m
工 </w>
社 会</w>
al ity</w>
包 括</w>
s ure</w>
单 </w>
标 </w>
w ays</w>
g g
for m</w>
le t</w>
成 为</w>
bu il
cont ro
图 </w>
造 </w>
c ent</w>
s in
你 们</w>
许 </w>
只 </w>
re ad
' m</w>
b ack</w>
e p</w>
mar ket</w>
ou t
组 织</w>
hi gh
试 </w>
shi p</w>
f ul
v en
服 务</w>
任 何</w>
它 们</w>
必 须</w>
in cre
希 望</w>
拉 </w>
险 </w>
m s</w>
美 元</w>
al y
wh ile</w>
s ame</w>
质 </w>
chang e</w>
tic al</w>
$ </w>
ha pp
di rec
ex t</w>
j u
那 些</w>
p t</w>
re sear
in d</w>
olo gy</w>
ac ti
d own</w>
le ar
l ine</w>
或 者</w>
we e
任 </w>
t al
import ant</w>
resp on
t ly</w>
2 0</w>
li on</w>
bus iness</w>
b er
de sig
c our
管 理</w>
很 多</w>
f er
域 </w>
d es
计 划</w>
国 际</w>
分 析
oo l</w>
f t</w>
sel f</w>
应 该</w>
differ ent</w>
路 </w>
产 品</w>
c lo
tri es</w>
素 </w>
u m</w>
段 </w>
l ong</w>
不 会</w>
主 要</w>
条 </w>
l ess</w>
列 </w>
a ve</w>
施 </w>
直 </w>
发 生</w>
ver si
价 </w>
st or
pl o
th ree</w>
h ar
书 </w>
min i
in du
ec ts</w>
算 </w>
p er</w>
费 </w>
st er
ac cor
置 </w>
止 </w>
as s
s k
t y
in formation</w>
un </w>
l in
爱 </w>
un ited</w>
款 </w>
p en
数 据</w>
非 </w>
coun tries</w>
能 够</w>
m ust</w>
si de</w>
l and</w>
coun try</w>
s ays</w>
an aly
s is</w>
许 多</w>
对 于</w>
同 时</w>
tt le</w>
w ar
tho se</w>
se t</w>
th ou
作 为</w>
t ain</w>
d re
w ater</w>
不 能</w>
inter national</w>
ve st
致 </w>
or g
ai r
信 息</w>
e y</w>
in t
接 </w>
j ect</w>
商 </w>
关 系</w>
e -
断 </w>
ow s</w>
hi gh</w>
号 </w>
an ts</w>
s ci
d es</w>
abili ty</w>
m ain
re sul
p e</w>
m r
hel p</w>
育 </w>
先 </w>
方 式</w>
低 </w>
at t
身 </w>
re gi
孩 子</w>
il y</w>
on d</w>
g row
pu t</w>
决 </w>
友 </w>
却 </w>
tim es</w>
t es</w>
b re
an g</w>
grou p</w>
di d</w>
那 么</w>
s ou
乎 </w>
in vest
切 </w>
o ver
to o</w>
m ents</w>
ea ch</w>
设 计</w>
得 到</w>
呢 </w>
例 </w>
e very</w>
站 </w>
万 </w>
t en</w>
m is
ai r</w>
述 </w>
num ber</w>
击 </w>
o i
流 </w>
re g
字 </w>
因 此</w>
难 </w>
d n</w>
快 </w>
项 目</w>
c all
publi c</w>
结 果</w>
起 来</w>
dat a</w>
而 且</w>
ex am
边 </w>
一 样</w>
诉 </w>
me di
带 </w>
如 何</w>
住 </w>
态 </w>
n er</w>
活 动</w>
st an
[ </w>
正 在</w>
econom ic</w>
治 </w>
st er</w>
ap er</w>
pro f
二 </w>
节 </w>
s our
b ro
t ak
护 </w>
si ble</w>
ve l</w>
视 </w>
分析 </w>
he al
st re
st ates</w>
l ed</w>
par t
w ri
] </w>
装 </w>
效 </w>
银 行</w>
e ver
pre si
证 </w>
po s
要 求</w>
一 次</w>
欢 </w>
还 是</w>
d ents</w>
so ci
me tho
病 </w>
v en</w>
w s</w>
str y</w>
lo t</w>
e f
准 </w>
e d
org an
大 学</w>
地 区</w>
兰 </w>
学 生</w>
li ttle</w>
pr om
s al
loo k</w>
c ity</w>
i d
st ate</w>
lo ve</w>
an c
喜 欢</w>
cont in
m r</w>
否 </w>
放 </w>
选 择
el ec
乐 </w>
tran s
便 </w>
le ad
par t</w>
然 后</w>
策 </w>
sec u
ad v
序 </w>
sh all</w>
速 </w>
习 </w>
人 员</w>
感 </w>
si ve</w>
in di
仅 </w>
英 国</w>
l es</w>
im pro
之 间</w>
enc y</w>
吧 </w>
fac e</w>
台 </w>
fin d</w>
看 到</w>
si m
光 </w>
为 了</w>
组 </w>
g n</w>
accor ding</w>
导 </w>
or der</w>
州 </w>
ever y
选择 </w>
be li
ti onal</w>
命 </w>
主 </w>
才 </w>
chil dr
环 境</w>
' ll</w>
太 </w>
通 </w>
d d
cur r
childr en</w>
获 得</w>
be g
较 </w>
益 </w>
s w
mon ey</w>
pl y</w>
出 现</w>
stu dy</w>
帮 助</w>
ag es</w>
th ough</w>
be ing</w>
h um
sh ed</w>
it al</w>
gre at</w>
支 持</w>
强 </w>
i de
一 直</w>
n ext</w>
e ty</w>
pl an
f re
马 </w>
ac k
地 方</w>
j ob
li m
comp an
确 </w>
us ing</w>
安 全</w>
具 </w>
这 里</w>
e t
bas ed</w>
wh y</w>
d eci
应 用</w>
th ings</w>
sin ce</w>
目 前</w>
pro cess</w>
uni versi
t ors</w>
由 于</w>
eu ro
知 </w>
resear ch</w>
ap pro
an other</w>
ur ing</w>
钱 </w>
ex peri
un der</w>
app lic
en d
越 </w>
di sc
re qui
ec tive</w>
势 </w>
an n
ent ly</w>
有 关</w>
t a
还 有</w>
al ways</w>
并 且</w>
美 </w>
f oll
更 多</w>
c le
mr .</w>
pl ace</w>
没 </w>
su c
1 0
contro l</w>
过 程</w>
ati on
o p</w>
e ve</w>
• </w>
c r
gi ve</w>
之 后</w>
容 </w>
3 0</w>
其 中</w>
室 </w>
能 力</w>
z e</w>
comm un
at ure</w>
pro gr
t em
con si
走 </w>
测 </w>
c a
d ri
en vir
s .</w>
5 0</w>
n s</w>
envir on
另 </w>
sch ool</w>
p ic
ul ar</w>
bet ter</w>
el e
层 </w>
建 </w>
is su
w in
团 </w>
f a
不 过</w>
存 在</w>
机 构</w>
techn ology</w>
校 </w>
vie w</w>
ic es</w>
sm all</w>
岁 </w>
远 </w>
wom en</w>
关 于</w>
夫 </w>
manag ement</w>
a w
sp e
张 </w>
亿 </w>
争 </w>
f ound</w>
do es</w>
a ch</w>
of f</w>
bo th</w>
g lo
re as
东 西</w>
报 </w>
控 制</w>
p ower</w>
ri s
u tion</w>
告 诉</w>
一 起</w>
presi dent</w>
局 </w>
决 定</w>
往 </w>
hou se</w>
v o
p aper</w>
c ess
海 </w>
le g
来 说</w>
par ty</w>
合 作</w>
d ge</w>
ne ver</w>
ent al</w>
secu ri
v </w>
投 资</w>
离 </w>
全 球</w>
众 </w>
b est</w>
t ting</w>
u </w>
fin an
probl em</w>
li sh</w>
赛 </w>
tic s</w>
ar ound</w>
fe w</w>
觉 </w>
h ome</w>
解 决</w>
compan ies</w>
li ght</w>
pr in
f il
qu es
ai l</w>
写 </w>
at e
n ess</w>
bo dy</w>
1 2</w>
al iz
提 出</w>
调 </w>
票 </w>
是 否</w>
l ing</w>
具 有</w>
st ory</w>
inclu ding</w>
事 情</w>
每 </w>
根 据</w>
客 </w>
律 </w>
an y
只 是</w>
re ally</w>
功 </w>
p op
serv ice</w>
新 的</w>
增 加</w>
买 </w>
目 标</w>
universi ty</w>
st ar
so cial</w>
a z
si ons</w>
神 </w>
油 </w>
两 个</w>
也 是</w>
虑 </w>
en ter
v ari
bi g</w>
b ar
gh ts</w>
朋 友</w>
' ve</w>
周 </w>
cu st
t ain
an ds</w>
疗 </w>
st ed</w>
女 </w>
er i
wh e
之 前</w>
to day</w>
增 长</w>
ow ing</w>
b ook</w>
au th
脑 </w>
总 统</w>
finan cial</w>
之 一</w>
sti tu
处 理</w>
p ur
organ iz
me as
h op
d uring</w>
顿 </w>
战 </w>
… </w>
板 </w>
h ow
显 示</w>
call ed</w>
g l
for ei
报 告</w>
复 </w>
e duc
作 用</w>
pro t
b en
m ain</w>
待 </w>
, 000</w>
em plo
of ten</w>
过 去</w>
行 为</w>
m ul
ban k</w>
stu dents</w>
ap pe
最 后</w>
ro om</w>
成 功</w>
c oll
hum an</w>
交 </w>
城 市</w>
络 </w>
st ing</w>
f ood</w>
ti ci
实 现</w>
ac tion</w>
with out</w>
党 </w>
u p
sh or
cen tr
p ing</w>
ne e
glo b
略 </w>
s l
s or
政 策</w>
先 生</w>
亲 </w>
y es</w>
l ong
h er
some thing</w>
tur n</w>
影 </w>
th ers</w>
除 </w>
中 心</w>
奥 </w>
产 生</w>
念 </w>
ro w</w>
c ase</w>
一 位</w>
星 </w>
b or
desig n</w>
oper ation</w>
空 </w>
per son</w>
生 产</w>
围 </w>
曾 </w>
sec ond</w>
per s
庭 </w>
继 续</w>
文 化</w>
en er
观 </w>
in de
t om
qu ality</w>
indu stry</w>
史 </w>
g oo
限 </w>
ag ain
设 </w>
售 </w>
pl ay
j ap
heal th</w>
a ff
again st</w>
in i
di tion</w>
学 习</w>
m en</w>
原 因</w>
未 </w>
how ever</w>
选 </w>
poin t</w>
fam ily</w>
as es</w>
ol e</w>
花 </w>
尽 管</w>
vel y</w>
ou s
t ary</w>
ag ain</w>
v ol
americ an</w>
教 育</w>
提 高</w>
林 </w>
d in
吃 </w>
st at
服 </w>
lar ge</w>
程 序</w>
re le
努 力</w>
w at
1 1</w>
只 有</w>
th s</w>
com ple
听 </w>
u res</w>
te ach
1 .
sup port</w>
接 受</w>
st and</w>
照 </w>
政 </w>
华 </w>
cust om
找 </w>
la w</w>
来 自</w>
康 </w>
责 </w>
建 立</w>
无 </w>
al e</w>
t able</w>
调 查</w>
尼 </w>
日 本</w>
en ds</w>
a th</w>
bec ome</w>
e f</w>
店 </w>
白 </w>
录 </w>
d ays</w>
read y</w>
ul t</w>
securi ty</w>
不 要</w>
is m</w>
极 </w>
网 络</w>
升 </w>
p tion</w>
forei gn</w>
足 </w>
comm it
声 </w>
米 </w>
sh ow</w>
exam ple</w>
军 </w>
价 格</w>
gener al</w>
的 话</w>
害 </w>
并 不</w>
会 议</w>
di dn</w>
metho d</w>
se ver
族 </w>
bi li
改 变</w>
个 人</w>
fi ed</w>
h y
相 关</w>
今 天</w>
u .
拥 有</w>
科 </w>
g er
b il
are a</w>
ati c</w>
f ur
形 </w>
as si
i d</w>
you n
ti on
wee k</w>
委 员
x i
保 </w>
四 </w>
econom y</w>
然 而</w>
wor k
n ec
s ing
ow ed</w>
变 化</w>
京 </w>
集 </w>
委员 会</w>
off ici
as k</w>
ch i
re por
注 </w>
li k
甚 至</w>
de t
觉 得</w>
席 </w>
1 5</w>
he ad</w>
一 定</w>
b ur
wor king</w>
音 </w>
a way</w>
港 </w>
h al
行 动</w>
as h
基 础
认 </w>
终 </w>
pro ject</w>
en s</w>
in fl
币 </w>
换 </w>
几 </w>
主 义</w>
en ing</w>
利 用</w>
educ ation</w>
网 </w>
a w</w>
无 法</w>
le vel</w>
存 </w>
ma j
欧 洲</w>
do c
glob al</w>
a k</w>
fun c
st and
基础 </w>
produc ts</w>
re port</w>
d om
on -
完 成</w>
con tr
趣 </w>
ne t</w>
ke ep</w>
w al
mil lion</w>
纳 </w>
察 </w>
失 </w>
即 </w>
每 个</w>
t ation</w>
受 到</w>
ag re
n al</w>
tu ally</w>
fu ture</w>
an t
ple ase</w>
用 户</w>
回 </w>
k ind</w>
an ti
c al
n ame</w>
满 </w>
跟 </w>
相 </w>
ener gy</w>
ch an
令 </w>
最 大</w>
t al</w>
char ac
完 全</w>
景 </w>
均 </w>
ul ation</w>
provi de</w>
考 虑</w>
grow th</w>
b ers</w>
fi el
那 个</w>
金 融
de l</w>
cl ass</w>
p ast</w>
com pu
du ce</w>
营 </w>
n am
虽 然</w>
一 点</w>
cour se</w>
一 下</w>
额 </w>
卡 </w>
s af
job </w>
导 致</w>
f ic</w>
ac coun
. .</w>
rec ei
ne t
政 治</w>
whe ther</w>
健 康</w>
pl an</w>
com pe
十 </w>
码 </w>
善 </w>
为 什么</w>
如 此</w>
付 </w>
re al</w>
结 构</w>
ke y</w>
b oo
保 护</w>
底 </w>
at ur
章 </w>
per cent</w>
val ue</w>
五 </w>
w ard</w>
mi ght</w>
th ir
sp o
gr ap
0 %</w>
as ed</w>
ni ght</w>
感 到</w>
f our</w>
at or</w>
一 切</w>
了 解</w>
久 </w>
带 来</w>
资 源</w>
re ad</w>
多 数</w>
vi si
开 发</w>
or d</w>
ph one</w>
mat eri
共 </w>
汽 车</w>
disc us
pl ay</w>
b el
u al</w>
te am</w>
今 </w>
po lic
建 议</w>
机 会</w>
c ame</w>
d ence</w>
con struc
教 </w>
mem ber</w>
mo del</w>
at ely</w>
记 </w>
b ab
真 </w>
mar ke
me ans</w>
ex </w>
t est</w>
今 年</w>
读 </w>
st ance</w>
ter min
at ten
馆 </w>
历 史</w>
pri ce</w>
loc al</w>
con sum
u. s.</w>
ar ly</w>
thou ght</w>
g ical</w>
sh ar
pos sible</w>
2 .
思 </w>
收 </w>
叫 </w>
w a
on ce</w>
纪 </w>
th an
em ents</w>
官 </w>
en ed</w>
l ab
金融 </w>
eng lish</w>
tic le</w>
保 持</w>
未 来</w>
applic ation</w>
fe el</w>
or e
sp or
t old</w>
de part
h ol
speci al</w>
客 户</w>
. ..</w>
pl ac
h un
好 的</w>
词 </w>
fi ve</w>
ex pl
re co
h ard</w>
go t</w>
re sour
diff ic
e qu
索 </w>
g n
牌 </w>
t -
内 容</w>
er ing</w>
有 些</w>
仍 </w>
f oc
t ar
probl ems</w>
oi l</w>
lar g
标 准</w>
业 务</w>
学 校</w>
tr ade</w>
resul ts</w>
youn g</w>
一 步</w>
es ti
ag o</w>
表 明</w>
密 </w>
方 案</w>
prom o
出 来</w>
me dic
似 </w>
tu al</w>
re si
mak ing</w>
j ing</w>
beli eve</w>
sou th</w>
ang u
电 </w>
experi ence</w>
文 件</w>
en ces</w>
im p
领 域</w>
sec re
t or
通 常</w>
us es</w>
tur al</w>
座 </w>
posi tion</w>
te e</w>
讲 </w>
produc tion</w>
ain ing</w>
w ent</w>
i a</w>
ac c
am a</w>
运 </w>
op en</w>
struc ture</w>
c am
el s</w>
est ab
le ft</w>
r ate</w>
t ook</w>
家 庭</w>
造 成</w>
pro per
d -
fac t</w>
束 </w>
st art</w>
准 备</w>
t ell</w>
u ally</w>
ful ly</w>
t ou
b ed</w>
最 近</w>
h ong</w>
整 </w>
p ay</w>
人 民</w>
e qui
p at
off ice</w>
有 效</w>
lik ely</w>
历 </w>
to p</w>
园 </w>
人 类</w>
con cer
to ge
en ough</w>
盟 </w>
闻 </w>
到 了</w>
设 备</w>
serv ices</w>
toge ther</w>
1 8
水 平</w>
母 </w>
以 来</w>
法 律</w>
刻 </w>
produc t</w>
gr ad
w ar</w>
ar ticle</w>
各 种</w>
ar ds</w>
t on</w>
l angu
ch o
ay ing</w>
sp ace</w>
re li
h and</w>
o thers</w>
ex ec
ur y</w>
姆 </w>
on es</w>
死 </w>
ter m</w>
si tu
不 断</w>
be i
养 </w>
派 </w>
wor ds</w>
r ing</w>
ph o
各 </w>
相 信</w>
0 .
端 </w>
部 门</w>
执 行</w>
al though</w>
invest ment</w>
减 少</w>
eff ect</w>
d ers</w>
孩 </w>
模 </w>
风 险</w>
ex per
es p
志 </w>
d am
str ate
me e
块 </w>
di tional</w>
诺 </w>
re pres
食 </w>
是 个</w>
下 来</w>
运 动</w>
更 加</w>
1 00</w>
f ar</w>
c al</w>
ear ly</w>
en ted</w>
目 的</w>
需 </w>
安 </w>
c ed</w>
di stri
超 过</w>
in stitu
rel ation
讨 论</w>
mo ve</w>
si te</w>
代 表</w>
com pl
ce pt</w>
be au
im pl
价 值</w>
poli tical</w>
b it</w>
int ro
di es</w>
pri v
ti al</w>
mak es</w>
analy sis</w>
in e
k ong</w>
传 统</w>
d ro
p ati
po sed</w>
enter pri
v al</w>
th em
b al
c ou
th re
polic y</w>
mul ti
ro ss</w>
r ang
达 到</w>
ach i
参 加</w>
c ar</w>
反 </w>
演 </w>
o d</w>
兴 </w>
谢 </w>
ex c
释 </w>
per for
电 影</w>
错 </w>
m ental</w>
采 取</w>
ar m
t ory</w>
掉 </w>
_ _
联 合
进 入</w>
那 里</w>
维 </w>
ous ly</w>
ou ght</w>
随 着</w>
buil ding</w>
福 </w>
gi r
ne ws</w>
environ ment</w>
事 件</w>
需 求</w>
str ong</w>
am s</w>
m er
curr ent</w>
str eng
ad mini
表 现</w>
r ai
le ast</w>
bili ty</w>
措 施</w>
de f
找 到</w>
状 </w>
under stand</w>
射 </w>
也 许</w>
sever al</w>
群 </w>
ex i
perfor man
as ked</w>
l at
举 </w>
j i
ri ed</w>
房 </w>
香 港</w>
一 家</w>
bei jing</w>
as h</w>
指 </w>
功 能</w>
d ate</w>
p ed</w>
ex pres
整 个</w>
mo ther</w>
世 纪</w>
c k</w>
ful l</w>
愿 </w>
b in
no v
山 </w>
同 样</w>
li ve</w>
hal f</w>
m y
cul ture</w>
commun ic
mon th</w>
v in
ide a</w>
mi li
令 人</w>
降 </w>
简 单</w>
t ro
坏 </w>
vi sion</w>
c all</w>
行 业</w>
5 %</w>
这 么</w>
怎 么</w>
col le
f ree</w>
富 </w>
ro ad</w>
un ti
朗 </w>
英 语</w>
go d</w>
排 </w>
c are</w>
落 </w>
革 </w>
m ag
当 然</w>
容 易</w>
esp eci
谁 </w>
he art</w>
钟 </w>
电 话</w>
fer ence</w>
co st</w>
架 </w>
质 量</w>
比 较</w>
reg ul
电 子</w>
at s</w>
压 </w>
olo gical</w>
4 0</w>
incre ase</w>
gr ound</w>
in te
especi ally</w>
规 定</w>
显 </w>
女 性</w>
ci r
nee ds</w>
wh ole</w>
ab o
2 5</w>
admini str
临 </w>
fri ends</w>
属 </w>
库 </w>
de b
d ou
建 筑
最 终</w>
se en</w>
ac y</w>
持 续</w>
注 意</w>
rec ent</w>
采 用</w>
m ic
f y</w>
sci enti
ni fic
打 </w>
mee ting</w>
一 天</w>
自 由</w>
控 </w>
unti l</w>
免 </w>
v ity</w>
u es</w>
几 个</w>
h and
mon ths</w>
因 素</w>
ati s
交 易</w>
测 试</w>
d one</w>
al ready</w>
de li
r us
f ail
depart ment</w>
严 重</w>
ris k</w>
奇 </w>
ef for
l ater</w>
b asi
performan ce</w>
h or
kn own</w>
报 道</w>
基 </w>
fiel d</w>
般 </w>
去 年</w>
er ed</w>
配 </w>
小 时</w>
热 </w>
do ing</w>
bi r
联合 国</w>
200 8</w>
d en
笑 </w>
gi ven</w>
贸 易</w>
特 别</w>
s un
kn ow
伤 </w>
r ul
大 家</w>
our s</w>
模 式</w>
th y</w>
条 件</w>
治 疗</w>
f oo
comm on</w>
败 </w>
用 于</w>
仍 然</w>
利 亚</w>
直 接</w>
ic k
i ght</w>
误 </w>
fa ther</w>
丽 </w>
似 乎</w>
北 京</w>
大 量</w>
pl es</w>
d en</w>
0 0
胞 </w>
z </w>
do es
maj or</w>
程 度</w>
wh ite</w>
d ar
es si
考 </w>
印 度</w>
b ad</w>
送 </w>
结 </w>
轻 </w>
真 正</w>
网 站</w>
impro ve</w>
tre at
变 得</w>
fi g
染 </w>
am oun
y et</w>
hi story</w>
罗 斯</w>
ch ed</w>
des cri
南 </w>
construc tion</w>
with in</w>
hop e</w>
an i
does n</w>
car e
c ent
r ap
协 议</w>
意 义</w>
酒 </w>
exec u
其 它</w>
转 </w>
键 </w>
风 </w>
r un
模 型</w>
de termin
亡 </w>
自 然</w>
w on</w>
stan ding</w>
几 乎</w>
语 言</w>
ci es</w>
z ed</w>
di se
l ow</w>
cap ital</w>
f oun
a vi
sig nific
n atur
ty pe</w>
最 好</w>
ow n
ma chin
chil d</w>
chang es</w>
cen ter</w>
19 8
画 </w>
mo der
收 入</w>
g in
ques tion</w>
谈 </w>
购 </w>
戏 </w>
st oc
区 域</w>
j ects</w>
fr on
jap an</w>
ol s</w>
巴 </w>
石 </w>
p as
科 学</w>
langu age</w>
基 本</w>
situ ation</w>
ri ghts</w>
总 是</w>
班 </w>
a h</w>
rus si
resul t</w>
c op
巴 马</w>
ic s</w>
n on-
an sw
空 间</w>
ster n</w>
gre ss</w>
know le
qu ar
含 </w>
东 </w>
loo king</w>
sol ution</w>
6 0</w>
c y
compe ti
euro pe
fic ation</w>
k in
bu y</w>
wom an</w>
半 </w>
americ a</w>
qu e</w>
危 机</w>
de fin
sp i
ain s</w>
so f
tr ac
cle ar</w>
wor d</w>
意 味
例 如</w>
al most</w>
f -
p ow
剧 </w>
y s</w>
bil lion</w>
com par
介 绍
tr u
确 定</w>
co ver
k i
or din
= </w>
y -
专 业</w>
com es</w>
症 </w>
压 力</w>
centr al</w>
commit tee</w>
cre di
acti vi
grap h
se e
happ y</w>
理 论</w>
nor th</w>
集 团</w>
土 </w>
罗 </w>
thir d</w>
老 </w>
k ore
medi a</w>
毒 </w>
cul tural</w>
署 </w>
or ity</w>
越 来
越来 越</w>
par tic
fur ther</w>
期 间</w>
af ri
ce p
tal k</w>
包 </w>
总 </w>
介绍 </w>
重 新</w>
知 识</w>
厂 </w>
销 </w>
w an
3 .
for ce</w>
怕 </w>
’ </w>
露 </w>
ec ti
烈 </w>
细 胞</w>
范 围</w>
inter est
那 样</w>
ac tually</w>
参 与</w>
l s</w>
m ing</w>
inter net</w>
ph y
答 </w>
inter est</w>
员 工</w>
as soci
g ar
当 时</w>
ent ation</w>
resour ces</w>
mu si
资 金</w>
am ong</w>
min d</w>
判 </w>
inv ol
商 业</w>
引 </w>
are as</w>
1 8</w>
官 员</w>
em er
s le
g ed</w>
ro le</w>
or e</w>
i l</w>
载 </w>
tici p
成 本</w>
me et</w>
晚 </w>
职 </w>
森 </w>
真 的</w>
d y
high er</w>
w el
peri od</w>
比 如</w>
l u
疑 </w>
w r
de al</w>
关 注</w>
感 觉</w>
有 人</w>
学 家</w>
relation ship</w>
靠 </w>
省 </w>
练 </w>
句 </w>
indu stri
恩 </w>
y m
办 </w>
de v
europe an</w>
cre ate</w>
至 少</w>
an im
媒 体</w>
d on
infl u
e as
m ed</w>
li st</w>
销 售</w>
tu res</w>
干 </w>
动 物</w>
g s</w>
wor ks</w>
h om
ob ama</w>
基 金</w>
ch ing</w>
mi dd
ain ed</w>
取 得</w>
1 4</w>
童 </w>
compu ter</w>
y u
fri end</w>
游 </w>
n a</w>
套 </w>
故 事</w>
e li
si mil
re duc
mem bers</w>
任 务</w>
细 </w>
大 多数</w>
id enti
ch ec
sal es</w>
生 命</w>
货 </w>
角 </w>
au di
经 验</w>
lear n</w>
投 资
结 束</w>
pres sure</w>
指 出</w>
diffic ult</w>
著 </w>
一 般</w>
ill ed</w>
g ation</w>
g a
jo h
min u
人 士</w>
征 </w>
mat ter</w>
contin ue</w>
op port
ser i
1 6</w>
enti al</w>
解 释</w>
消 息</w>
俄 罗斯</w>
新 闻</w>
g ame</w>
r un</w>
坦 </w>
mili tary</w>
m om
意味 着</w>
amoun t</w>
eff ici
intro duc
pro cess
am es</w>
foll owing</w>
r en
se a</w>
le t
床 </w>
tr ying</w>
联 系</w>
phy si
歌 </w>
m ay
n ations</w>
consi der
比 赛</w>
1 3</w>
s aw</w>
estab li
进 一步</w>
prin ci
me an
si l
ther e
ell s</w>
jo in
so on</w>
计 算</w>
d el
st y
leg al</w>
su per
异 </w>
po se</w>
形 成</w>
ne w
软 件</w>
规 模</w>
net work</w>
ad dition</w>
经 常</w>
负 责</w>
理 解</w>
意 识</w>
才 能</w>
多 少</w>
me chan
progr am</w>
支 </w>
啊 </w>
材 料</w>
b a
in ten
初 </w>
ar ti
c li
王 </w>
co operation</w>
ch e
共 同</w>
some one</w>
留 </w>
soci ety</w>
s am
nec ess
exp ected</w>
sci ence</w>
regi on</w>
本 文</w>
岛 </w>
第 一</w>
离 开</w>
a ver
it ing</w>
剂 </w>
药 </w>
h en
di ed</w>
火 </w>
tr aining</w>
别 人</w>
证 明</w>
cer tain</w>
人 口</w>
ra ther</w>
技 </w>
q </w>
tak en</w>
sel ves</w>
v ic
更 好</w>
励 </w>
reas on</w>
con n
松 </w>
f o
船 </w>
par ents</w>
beg an</w>
pri ces</w>
poli ce</w>
手 机</w>
natur al</w>
另 外</w>
p ul
me an</w>
o t</w>
tur ned</w>
身 体</w>
n er
即 使</w>
he ad
every one</w>
h old</w>
举 行</w>
sh ows</w>
精 神</w>
for ward</w>
ban ks</w>
form er</w>
5 00</w>
长 期</w>
予 </w>
activi ties</w>
工 程</w>
b all</w>
ch ri
w il
par ticip
c le</w>
和 平</w>
建 设</w>
emplo y
联 </w>
资 料</w>
contin u
e sts</w>
工 具</w>
绝 </w>
dr u
形 式</w>
游 戏</w>
m en
系 列</w>
操 作</w>
电 脑</w>
明 显</w>
vi ol
这 项</w>
ill s</w>
播 </w>
am e
mic ro
l on
ci l</w>
差 </w>
公 共</w>
su g
h on
巨 大</w>
改 革</w>
状 态</w>
ci vi
un e</w>
indi vi
we b</w>
con di
sum m
h ours</w>
el li
幅 </w>
elec tri
no thing</w>
m ess
indivi du
法 国</w>
cri sis</w>
罪 </w>
阿 </w>
早 </w>
医 生</w>
速 度</w>
pre ci
us ually</w>
十 分</w>
亮 </w>
tra ditional</w>
you r
nor m
to tal</w>
sh ing</w>
p ment</w>
c a</w>
some times</w>
oc r
做 出</w>
knowle dge</w>
基 于</w>
d oll
meas ures</w>
成 员</w>
cl ai
竞 争</w>
b s</w>
win d
200 9</w>
德 国</w>
刚 </w>
都 会</w>
loo d</w>
食 物</w>
' d</w>
rel ated</w>
资 产</w>
au gh
实 际</w>
拿 </w>
man u
can not</w>
t ow
盖 </w>
b ack
反 应</w>
s mo
he av
勒 </w>
f er</w>
st op</w>
treat ment</w>
建筑 </w>
sel f-
传 </w>
移 </w>
迪 </w>
every thing</w>
j our
li ving</w>
basi c</w>
波 </w>
首 先</w>
版 </w>
re turn</w>
su ff
func tion</w>
sim ple</w>
vari ous</w>
杂 </w>
li st
每 天</w>
第 三</w>
担 心</w>
根 </w>
charac ter
n uc
制 度</w>
错 误</w>
sof tw
at ors</w>
dem ocr
专 家</w>
en ding</w>
确 保</w>
y or
bl ack</w>
ch all
do or</w>
杀 </w>
si x</w>
musi c</w>
e p
af t</w>
降 低</w>
ch es</w>
eas y</w>
券 </w>
de ath</w>
gg est</w>
国 内</w>
学 院</w>
in st
is l
稳 定</w>
suc cess
br ing</w>
面 临</w>
softw are</w>
p ol
苦 </w>
经 历</w>
愿 意</w>
而 是</w>
inv esti
ri ch</w>
实 施</w>
priv ate</w>
迎 </w>
这 次</w>
味 </w>
coun cil</w>
distri bu
c ause</w>
ori gin
le ave</w>
commun ity</w>
关 键</w>
必 </w>
s aying</w>
r om
20 10</w>
鱼 </w>
bo ard</w>
euro pe</w>
ill ing</w>
tr ue</w>
弃 </w>
ver s
beau ti
issu e</w>
c ro
abo ve</w>
o s</w>
inte gr
sup por
e vi
buil d</w>
ha i</w>
> </w>
offici als</w>
托 </w>
核 </w>
clo se</w>
dre ss</w>
儿 童</w>
fron t</w>
impl em
re st</w>
责 任</w>
说 明</w>
comm er
ch em
积 极</w>
b an</w>
sen se</w>
marke ts</w>
ser ve</w>
ea si
普 </w>
on line</w>
av oi
emplo ye
2 4</w>
婚 </w>
怎 样</w>
mini ster</w>
ser ies</w>
洋 </w>
is sion</w>
数 量</w>
4 .
es sion</w>
2 1</w>
仅 仅</w>
季 </w>
com ing</w>
mor ning</w>
保 证</w>
投资 者</w>
loc k</w>
e yes</w>
develop ed</w>
以 前</w>
m us
有 限</w>
城 </w>
一 部分</w>
不 仅</w>
ag ed</w>
c t</w>
税 </w>
六 </w>
ta x</w>
体 系</w>
sy m
ti sh</w>
hel d</w>
manu fac
fam ili
high -
第 二</w>
按 </w>
创 造</w>
引 起</w>
ear th</w>
不 可</w>
塔 </w>
微 </w>
c o</w>
贵 </w>
很 大</w>
改 </w>
nuc le
ne l</w>
pr acti
v ement</w>
fir e</w>
ha ving</w>
agre ement</w>
midd le</w>
当 地</w>
al u
w est</w>
po ten
s us
atten tion</w>
乱 </w>
1 7</w>
in es</w>
d ly</w>
斯 坦</w>
允 许</w>
dem and</w>
cont ent</w>
避 免</w>
餐 </w>
音 乐</w>
tak ing</w>
s li
欢 迎</w>
不 到</w>
sh are</w>
le ad</w>
认 识</w>
生 物</w>
伦 </w>
organiz ation</w>
记 录</w>
ra di
p ay
out side</w>
办 公
科 技</w>
消 费
肉 </w>
olo gi
dise ase</w>
adv ant
径 </w>
盘 </w>
em ber</w>
邦 </w>
哥 </w>
requi re
fil m</w>
意 思</w>
防 </w>
频 </w>
com bin
any thing</w>
ak ing</w>
纸 </w>
li es</w>
work ers</w>
c lim
j e
是 因为</w>
堂 </w>
yor k</w>
询 </w>
父 亲</w>
世 </w>
fig ure</w>
the ory</w>
加 强</w>
cu t</w>
beauti ful</w>
战 争</w>
促 进</w>
伯 </w>
弹 </w>
in ste
poin ts</w>
训 </w>
con fi
效 果</w>
p ain
sc re
授 </w>
be ha
19 </w>
电 视</w>
死 亡</w>
亚 洲</w>
pers onal</w>
on ic</w>
200 7</w>
g as</w>
ex ten
发 布</w>
re member</w>
l ate</w>
限 制</w>
elec tr
vi ous</w>
eng ine
colle ge</w>
牙 </w>
chi ef</w>
从 而</w>
po or</w>
妈 </w>
t op
必 要</w>
fi ts</w>
下 降</w>
pre par
提 </w>
prof essi
eff ective</w>
领 导
simil ar</w>
ex change</w>
曼 </w>
而 言</w>
oun ds</w>
估 </w>
m a</w>
pres ent</w>
楚 </w>
aver age</w>
c at
数 字</w>
progr am
针 对</w>
艺 术</w>
shor t</w>
fin ally</w>
ar ing</w>
兴 趣</w>
+ </w>
犯 </w>
弱 </w>
con f
ob j
s qu
年 代</w>
分 钟</w>
si ze</w>
实 际
运 行</w>
m oun
购 买</w>
g ing</w>
慢 </w>
vel s</w>
藏 </w>
实际 上</w>
l ord</w>
积 </w>
proper ty</w>
ch oo
is tics</w>
轮 </w>
丝 </w>
tr ad
佳 </w>
s ent</w>
f all</w>
父 母</w>
位 置</w>
除 了</w>
鲜 </w>
long er</w>
es day</w>
pe ace</w>
em p
le y</w>
par ts</w>
一 条</w>
sur ve
all ow</w>
li ed</w>
ann oun
incre as
实 验</w>
equi pment</w>
larg est</w>
co de</w>
thou s
占 </w>
表 达</w>
i or</w>
i se</w>
necess ary</w>
lear ning</w>
敦 </w>
direc tor</w>
du e</w>
大 部分</w>
ar ch
ar -
他 人</w>
经 过</w>
l er</w>
imp act</w>
服 务
t ele
n ature</w>
au tom
beg in
时 代</w>
典 </w>
pers on
泛 </w>
n ers</w>
en jo
l dn</w>
7 0</w>
g er</w>
e at</w>
beha vi
dr in
p al
bri tish</w>
la un
wan ted</w>
re duce</w>
伴 </w>
moder n</w>
d a</w>
团 队</w>
独 立</w>
sing le</w>
c ases</w>
使 得</w>
mo d
issu es</w>
发 表</w>
grow ing</w>
im age</w>
辆 </w>
飞 机</w>
lo st</w>
费 用</w>
pro vin
以 后</w>
同 意</w>
stand ard</w>
ing ly</w>
三 个</w>
rul es</w>
i gh
syst ems</w>
领 </w>
星 期
gre en</w>
foc us</w>
位 于</w>
以 上</w>
cour t</w>
indi a</w>
re fl
卖 </w>
can c
某 些</w>
困 难</w>
d ance</w>
制 造</w>
invest ors</w>
试 图</w>
ast e</w>
我 会</w>
倍 </w>
s s
访 </w>
ty p
观 点</w>
suc cess</w>
fun d</w>
tem per
b lood</w>
in ation</w>
practi ce</w>
课 程</w>
守 </w>
能 源</w>
纽 约</w>
互 </w>
患 者</w>
m it
衡 </w>
inde pen
只 要</w>
in f
w all</w>
ac ross</w>
译 </w>
cor por
e ast</w>
检 查</w>
正 确</w>
sour ce</w>
曾 经</w>
永 远</w>
大 约</w>
rele v
si bility</w>
献 </w>
iz ed</w>
宣 布</w>
储 </w>
女 人</w>
遍 </w>
we stern</w>
我 国</w>
de st
ste p</w>
母 亲</w>
us ers</w>
担 </w>
condi tions</w>
us er</w>
ge tting</w>
这 位</w>
sh ang
1 5
摘 要</w>
your self</w>
gu e</w>
li er</w>
阶 段</w>
medic al</w>
f av
g le</w>
1 6
nucle ar</w>
stre et</w>
她 们</w>
saf ety</w>
machin e</w>
支 付</w>
疾 病</w>
al ong</w>
食 品</w>
货 币</w>
力 量</w>
inclu de</w>
ter ms</w>
a th
develop ing</w>
sp ec
re p
类 似</w>
contr act</w>
连 </w>
时 期</w>
vi de
anc ed</w>
组 成</w>
credi t</w>
ti ce</w>
定 义</w>
清 楚</w>
ne y</w>
inste ad</w>
0 s</w>
文 章</w>
there fore</w>
* </w>
we b
分 子</w>
f lo
grou ps</w>
f all
o h</w>
挑 战</w>
b it
描 述</w>
re aliz
in dic
办 法</w>
ac i
复 杂</w>
y e</w>
抗 </w>
wri te</w>
看 看</w>
及 其</w>
危 险</w>
sty le</w>
materi al</w>
in nov
pho to
tt en</w>
村 </w>
pop ular</w>
in sur
goo ds</w>
品 牌</w>
贷 款</w>
一 年</w>
教 授</w>
湾 </w>
deci sion</w>
散 </w>
穿 </w>
j an
s we
共 和
con duc
un ity</w>
出 口</w>
加 入</w>
u ary</w>
be h
joh n</w>
relev ant</w>
av ail
star ted</w>
股 </w>
输 </w>
qu ick
ho sp
楼 </w>
t ely</w>
工 业</w>
li </w>
se qu
exp en
bec om
li ves</w>
障 </w>
回 答</w>
订 </w>
战 略</w>
辑 </w>
vi s
类 型</w>
笔 </w>
原 </w>
广 告</w>
利 益</w>
苹 果</w>
on ed</w>
ach ed</w>
form s</w>
pr ac
跑 </w>
f ast</w>
comple te</w>
讨 </w>
se par
消费 者</w>
answ er</w>
det ail
ar ed</w>
h ur
w ash
l ower</w>
prot ection</w>
effor ts</w>
20 0</w>
er y</w>
伦 敦</w>
享 </w>
ag ing</w>
resear ch
减 </w>
mar y</w>
t an
g ave</w>
rec ently</w>
ri se</w>
或 许</w>
1 2
s av
眼 </w>
改 善</w>
申 请</w>
深 </w>
t on
应 当</w>
environ mental</w>
con clu
课 </w>
树 </w>
asi a</w>
wi fe</w>
g ri
良 好</w>
全 国</w>
shang hai</w>
lead ers</w>
卫 </w>
假 </w>
合 同</w>
metho ds</w>
救 </w>
se ts</w>
ec e</w>
a o</w>
作 品</w>
1 7
不 再</w>
唯 一</w>
dom es
环 </w>
manufac tur
作 出</w>
想 法</w>
结 合</w>
状 况</w>
非 洲</w>
o s
h im
石 油</w>
stor e</w>
广 泛</w>
boo ks</w>
拉 克</w>
bec ame</w>
安 排</w>
具 体</w>
看 起来</w>
职 业</w>
ap ple</w>
ac tive</w>
pop ulation</w>
accoun t</w>
对 象</w>
权 利</w>
fir m</w>
custom ers</w>
es tim
um ents</w>
ap e</w>
spi ri
may be</w>
goo gle</w>
de gre
拟 </w>
b and</w>
cont ri
t ab
o k</w>
杯 </w>
篇 </w>
beh ind</w>
双 方</w>
s n
威 胁
loo ked</w>
pl at
满 足</w>
stoc k</w>
pati ents</w>
静 </w>
o -
sol u
访 问</w>
sur pri
狗 </w>
thin king</w>
男 人</w>
如 今</w>
s m</w>
an ese</w>
m l</w>
创 建</w>
he ard</w>
ad op
job s</w>
fe el
可 是</w>
按 照</w>
s em
poten tial</w>
儿 子</w>
百 </w>
d own
威胁 </w>
19 7
devel op</w>
per f
enterpri se</w>
ben ef
visi t</w>
现 代</w>
sh e
contri bu
激 </w>
余 </w>
ac tions</w>
wr ong</w>
w on
k er</w>
年 前</w>
名 字</w>
创 新</w>
te l</w>
stu dent</w>
speci fic</w>
rang e</w>
f le
清 </w>
上 海</w>
厅 </w>
妇 女</w>
试 验</w>
achi ev
在 于</w>
b on
stu dies</w>
规 </w>
主 席</w>
千 </w>
pl ans</w>
塞 </w>
肯 定</w>
酸 </w>
直 到</w>
8 0</w>
奖 </w>
re main
read ing</w>
方 向</w>
p oll
is ra
hu man
放 在</w>
pre v
respon se</w>
快 速</w>
l ow
pro te
年 轻</w>
皮 </w>
兵 </w>
最 高</w>
e g
以 下</w>
200 6</w>
it self</w>
每 年</w>
gir l</w>
si des</w>
f el
渐 </w>
ad ded</w>
计 算
以 色
spe ed</w>
yu an</w>
materi als</w>
domes tic</w>
enc our
此 外</w>
帮 </w>
differ ence</w>
de pen
遇 </w>
in come</w>
以色 列</w>
mom ent</w>
资 本</w>
坐 </w>
cent ury</w>
at ures</w>
se ems</w>
液 </w>
确 实</w>
con ven
form ed</w>
午 </w>
p an
t un
c ally</w>
m al
很 快</w>
them selves</w>
mar k</w>
en sure</w>
mo di
ac ks</w>
事 实</w>
recei ved</w>
副 </w>
pp ed</w>
communic ation</w>
居 </w>
ter r
con sul
首 </w>
bu l
2 2</w>
respon sible</w>
than k</w>
缩 </w>
约 翰
声 音</w>
k en</w>
fe der
平 均</w>
kore a</w>
administr ation</w>
long -
医 疗</w>
le vels</w>
sy n
思 想</w>
offici al</w>
lon don</w>
变 成</w>
碍 </w>
techn ical</w>
t v</w>
若 </w>
chang ed</w>
st ant</w>
professi onal</w>
mon it
sig n</w>
re mo
1 3
mo vi
设 施</w>
air s</w>
s atis
quick ly</w>
z h
p sy
老 师</w>
映 </w>
菜 </w>
伊 </w>
sc ri
ic k</w>
ex er
快 乐</w>
norm al</w>
st ay</w>
grad u
寻 找</w>
内 部</w>
裁 </w>
hu ge</w>
g ic</w>
strate gy</w>
minu tes</w>
突 </w>
处 于</w>
fl ow</w>
d ings</w>
移 动</w>
现 实</w>
la w
sur face</w>
str u
di g
恢 复</w>
照 片</w>
ad d</w>
c ru
太 阳
ast er</w>
地 位</w>
st age</w>
涨 </w>
ev alu
ques tions</w>
we d
末 </w>
c y</w>
领 导</w>
商 品</w>
wi d
ec ting</w>
at ory</w>
manag er</w>
作 者</w>
挥 </w>
b ly</w>
ac cess</w>
sup ply</w>
或 是</w>
包 含</w>
相 比</w>
st an</w>
箱 </w>
seri ous</w>
se as
fr u
choo se</w>
意 见</w>
s end</w>
avail able</w>
相 同</w>
ad ver
200 5</w>
旧 </w>
posi tive</w>
b row
con ference</w>
ne arly</w>
交 流</w>
全 部</w>
承 认</w>
him self</w>
帝 </w>
高 兴</w>
适 </w>
ati ves</w>
一 只</w>
st a
评 估</w>
妈 妈</w>
c old</w>
jap anese</w>
o l</w>
ne ar</w>
温 </w>
上 升</w>
承 诺</w>
pro ce
x ed</w>
re qu
w ants</w>
st -
保 险</w>
地 球</w>
计算 机</w>
威 </w>
坚 持</w>
sug ge
sol ve</w>
吸 引</w>
河 </w>
机 制</w>
vide o</w>
mi gr
反 对</w>
评 </w>
调 整</w>
急 </w>
c s</w>
d ang
execu tive</w>
rec ord</w>
无 论</w>
c lear
拒 绝</w>
pro jects</w>
e ful</w>
z ation</w>
em o
re form</w>
曲 </w>
记 者</w>
尽 </w>
5 .
beli ev
经 理</w>
相 对</w>
讯 </w>
custom er</w>
醒 </w>
礼 </w>
乏 </w>
pro gress</w>
物 质</w>
20 00</w>
再 次</w>
d ation</w>
t own</w>
足 够</w>
cal cul
角 色</w>
m ou
推 动</w>
ri ver</w>
ther n</w>
fac tors</w>
旦 </w>
ter ri
ci ties</w>
br ain</w>
预 测</w>
dr aw
fr en
退 </w>
prof ess
tran spor
fin i
lin es</w>
af f</w>
其 实</w>
忙 </w>
im medi
于 是</w>
充 </w>
bas is</w>
短 </w>
bor n</w>
社 </w>
afri ca</w>
v ill
ch a
b ile</w>
wee ks</w>
fam ous</w>
观 察</w>
触 </w>
北 </w>
有 时</w>
er al</w>
avoi d</w>
pre dic
软 </w>
相 当</w>
艺 </w>
s un</w>
科 学家</w>
di vi
顾 </w>
sch o
f as
pres s</w>
sear ch</w>
w in</w>
wri ting</w>
le av
incre ased</w>
ar ri
g ol
sh own</w>
we ight</w>
失 去</w>
go al</w>
事 实
deb t</w>
事实 上</w>
spe e
d ail
as p
街 </w>
听 到</w>
teach ing</w>
财 政</w>
联 合</w>
t ai
shi ps</w>
im ag
规 则</w>
t a</w>
迅 速</w>
p ass
正 常</w>
g old</w>
性 能</w>
f f</w>
require ments</w>
制 定</w>
iz e</w>
cl es</w>
provi des</w>
for d</w>
research ers</w>
st ers</w>
倒 </w>
me t</w>
lim ited</w>
dail y</w>
st aff</w>
产 业</w>
现 象</w>
chec k</w>
选 举</w>
russi a</w>
痛 </w>
repor ted</w>
铁 </w>
武 器</w>
hou </w>
a p</w>
右 </w>
m ac
交 通</w>
幕 </w>
is tic</w>
gu ar
ori ties</w>
contro l
201 1</w>
策 略</w>
月 份</w>
病 毒</w>
provi ded</w>
获 </w>
sc en
bo x</w>
mo bile</w>
某 </w>
appro ach</w>
各 国</w>
赖 </w>
6 .
ver s</w>
run ning</w>
展 示</w>
off er</w>
基 因</w>
an ci
是 的</w>
1 4
别 是</w>
气 候</w>
acti vity</w>
有 着</w>
sec on
自 动</w>
页 </w>
尼 亚</w>
ou d</w>
r ates</w>
2 3</w>
n u
只 能</w>
西 方</w>
uni on</w>
exp an
deci ded</w>
破 </w>
or ies</w>
9 0</w>
plan ning</w>
ea k</w>
vie w
ge ts</w>
回 到</w>
故 </w>
bre ak</w>
cor rec
insur ance</w>
ca used</w>
he ar</w>
最 新</w>
re comm
特 殊
industri al</w>
特 别是</w>
a -
201 2</w>
direc tly</w>
经 营</w>
多 年</w>
tal king</w>
邮 件</w>
teach er</w>
ac cep
b lo
册 </w>
材 </w>
so ft</w>
l an
temper ature</w>
办公 室</w>
ye ar-
fin al</w>
土 地</w>
范 </w>
充 满</w>
exer ci
par ties</w>
单 位</w>
sh owed</w>
忆 </w>
ou gh
菌 </w>
g ames</w>
sp end</w>
面 对</w>
g es</w>
in s</w>
au str
失 败</w>
el se</w>
ver sion</w>
et c</w>
f ell</w>
ne g
character istics</w>
bi ggest</w>
fre qu
p age</w>
领导 人</w>
态 度</w>
employe es</w>
闭 </w>
signific ant</w>
fi sh</w>
特 征</w>
平 台</w>
血 </w>
qu ite</w>
h it</w>
l uc
e di
其 是</w>
代 码</w>
ho t</w>
冲 突</w>
col or</w>
ag ency</w>
原 则</w>
ch r
di sp
influ ence</w>
第 二
明 白</w>
充 分</w>
summ er</w>
lo ss</w>
什 </w>
身 上</w>
军 事</w>
尤 其是</w>
培 训</w>
ing ton</w>
重 大</w>
b a</w>
austr ali
雷 </w>
联 网</w>
re f
一 致</w>
t in
饭 </w>
教 学</w>
wi de</w>
bu d
ol ym
ho tel</w>
com for
联 邦</w>
fri end
夜 </w>
origin al</w>
fac ili
屋 </w>
sh op
不 得
k y</w>
习 惯
sc ale</w>
bo y</w>
j </w>
under standing</w>
promo te</w>
it able</w>
bab ly</w>
canc er</w>
连 接</w>
修 </w>
compar ed</w>
概 念</w>
晚 上</w>
用 来</w>
pro bably</w>
br an
医 院</w>
comp on
f ile</w>
pat ter
ri es</w>
nee ded</w>
loo ks</w>
怪 </w>
全 面</w>
特殊 </w>
des p
正 式</w>
训 练</w>
tr ou
自 我</w>
rel ations</w>
ag ri
评 价</w>
go ti
let ter</w>
ci ti
cover ed</w>
房 间</w>
li ter
股 票</w>
pri me</w>
b ill</w>
民 族</w>
烟 </w>
预 计</w>
e th
很 难</w>
绪 </w>
char ge</w>
ar m</w>
rec or
al -
cam p
高 级</w>
e ur
绩 </w>
卫 生</w>
ex tre
re view</w>
fren ch</w>
动 力</w>
anti -
s ound</w>
达 成</w>
ear lier</w>
不 想</w>
br ought</w>
up on</w>
有 所</w>
尝 试</w>
cl assi
e e</w>
h ands</w>
tar get</w>
li gh
看 见</w>
a ther</w>
cre ated</w>
tri ed</w>
au </w>
sec tion</w>
娜 </w>
opport unity</w>
pow er
compl ex</w>
invol ved</w>
dou b
尚 </w>
de ep</w>
黑 </w>
登 </w>
制 作</w>
g ence</w>
main ly</w>
女 孩</w>
co sts</w>
tra vel</w>
d p</w>
草 </w>
人 民
饰 </w>
房 子</w>
regi onal</w>
h am
or ing</w>
彩 </w>
ecti vely</w>
效 率</w>
属 于</w>
红 </w>
探 讨</w>
on y</w>
龄 </w>
检 测</w>
ke e
空 气</w>
分 别</w>
st op
physi cal</w>
uni ties</w>
陆 </w>
comm ission</w>
欧 盟</w>
ne goti
un it</w>
requi red</w>
旅 游</w>
wat ch</w>
博 </w>
衣 服</w>
begin ning</w>
sp eak</w>
pl ant</w>
co ver</w>
desig ned</w>
握 </w>
repor ts</w>
秀 </w>
success ful</w>
药 物</w>
当 前</w>
ad em
相 互</w>
p aid</w>
individu al</w>
gre at
哪 </w>
视 频</w>
i g
enterpri ses</w>
管 理
profess or</w>
玩 </w>
buil t</w>
债 务</w>
睛 </w>
for ces</w>
lead ing</w>
正 是</w>
ta x
难 以</w>
c ells</w>
斗 </w>
完 </w>
良 </w>
ac adem
宝 </w>
附 近</w>
wor th</w>
逊 </w>
哈 </w>
wri tten</w>
lo se</w>
gu i
谈 判</w>
pur ch
岸 </w>
p a
后 来</w>
y ed</w>
涉 及</w>
st ar</w>
大 型</w>
喝 </w>
su st
g en</w>
mis sion</w>
么 样</w>
d avi
s wi
跌 </w>
se p
根 本</w>
h us
强 调</w>
公 开</w>
往 往</w>
ti li
direc t</w>
fel t</w>
例 子</w>
en se</w>
sle ep</w>
‘ </w>
competi tion</w>
wh o
provin ce</w>
ess es</w>
sel l</w>
cap ac
cl in
partic ular</w>
ini ti
2 8</w>
sk ills</w>
设 置</w>
tak es</w>
鼓 励</w>
c ard</w>
互 联网</w>
优 势</w>
g ate</w>
so li
最 佳</w>
警 察</w>
l ack</w>
stat ement</w>
b ase</w>
is ed</w>
信 号</w>
201 5</w>
公 众</w>
st ation</w>
行 政</w>
开 放</w>
恐 怖
obj ective</w>
损 失</w>
碳 </w>
su pp
m c
z hou</w>
repres ent
surve y</w>
称 为</w>
bre ak
se ven</w>
int elli
双 </w>
有 趣</w>
2 6</w>
本 身</w>
lat est</w>
s ave</w>
灵 </w>
人民 币</w>
衣 </w>
收 到</w>
提 升</w>
督 </w>
bro ad
制 造
糕 </w>
prev ent</w>
眼 睛</w>
h our</w>
润 </w>
扩 大</w>
consi der</w>
establi shed</w>
ben e
冷 </w>
si ty</w>
augh ter</w>
发 出</w>
安 装</w>
声 明</w>
re ly</w>
t ex
徒 </w>
合 理</w>
结 论</w>
achi eve</w>
援 助</w>
批 </w>
值 得</w>
pub lic
tra ff
secre tary</w>
ch ance</w>
interest ing</w>
ide as</w>
er r
一 系列</w>
感 谢</w>
al one</w>
fl u
cho ice</w>
ur al</w>
镜 </w>
clim ate</w>
蒂 </w>
lo ad</w>
攻 击</w>
b on</w>
f our
e ts</w>
恐怖 </w>
ad dress</w>
酒 店</w>
publi shed</w>
di ag
雨 </w>
lead er</w>
平 衡</w>
幸 福</w>
扰 </w>
丁 </w>
ar gu
符 合</w>
mess age</w>
as tic</w>
2 7</w>
br and</w>
w ood</w>
o x
届 </w>
缺 乏</w>
趋 势</w>
par k</w>
工 厂</w>
妻 子</w>
er ous</w>
停 </w>
社 区</w>
韩 国</w>
维 持</w>
sub ject</w>
污 染</w>
< </w>
w ell
突 然</w>
conf lic
bal ance</w>
龙 </w>
明 确</w>
不得 不</w>
宫 </w>
exi sting</w>
踪 </w>
档 </w>
no te</w>
s tic
里 面</w>
b ac
自 身</w>
stand ards</w>
evi dence</w>
ex tr
se em</w>
习惯 </w>
s mar
事 务</w>
co ordin
sen ior</w>
americ ans</w>
约翰 </w>
sk in</w>
规 划</w>
sp ring</w>
k illed</w>
特 点</w>
employ ment</w>
per ha
eff ects</w>
bo tt
航 空</w>
200 4</w>
mar ch</w>
sh o
7 .
随 </w>
perha ps</w>
199 4</w>
h ic
核 心</w>
r an
镇 </w>
iz ation</w>
冲 </w>
sh u
201 4</w>
鼠 </w>
& </w>
ir a
wa it</w>
阅 读</w>
并 非</w>
一 旦</w>
b c</w>
appro pri
di st
re pe
plac es</w>
tech ni
顶 </w>
af ter
in si
pic ture</w>
equ al</w>
wi se</w>
pro sp
stri c
we al
ne igh
c au
wi sh</w>
大 利</w>
stat us</w>
adver ti
por ts</w>
w an</w>
om e
大 会</w>
implem entation</w>
木 </w>
适 合</w>
化 学</w>
en ded</w>
事 会</w>
数 据
fun ds</w>
宜 </w>
ei ther</w>
davi d</w>
伊 拉克</w>
植 物</w>
c ele
n ation</w>
bus in
behavi or</w>
poli cies</w>
ser ver</w>
ab </w>
首 席</w>
佛 </w>
pre hen
说 道</w>
发 挥</w>
ev ent</w>
停 止</w>
stre ss</w>
有 点</w>
男 性</w>
att ack</w>
su dd
s er</w>
国 会</w>
mem ory</w>
遇 到</w>
f arm
se tt
ver se</w>
reco gn
l ay
ti v
一 张</w>
l and
sh ou
朝 鲜</w>
er ship</w>
distribu tion</w>
al o
特 定</w>
z one</w>
s sed</w>
ac cept</w>
消 费</w>
cont act</w>
w ind</w>
fe ar</w>
sur vi
s ses</w>
ye ster
cl ass
工 人</w>
贴 </w>
psy ch
princi ple</w>
ha ir</w>
gener ation</w>
外 国</w>
上 述</w>
scho ols</w>
贷 </w>
dy nam
ap poin
咖 啡
tr ust</w>
比 亚</w>
ak es</w>
病 人</w>
announ ced</w>
dre am</w>
袭 击</w>
瓦 </w>
p ack
fac e
arch it
k new</w>
process ing</w>
情 绪</w>
背 景</w>
成 立</w>
之 外</w>
j une</w>
year- old</w>
el ection</w>
民 主</w>
scienti sts</w>
cor e</w>
消 </w>
理 由</w>
d om</w>
tain ed</w>
杂 志</w>
partic ul
we ap
respon sibility</w>
开 展</w>
um p</w>
更 为</w>
anc ing</w>
yester day</w>
居 民</w>
sk y</w>
val u
ev en
博 士</w>
ro te</w>
19 6
胀 </w>
集 中</w>
迹 </w>
g row</w>
来 到</w>
prot ect</w>
指 数</w>
3 1</w>
t ask</w>
不 管</w>
civi l</w>
途 </w>
camp ai
弟 </w>
dru g</w>
汇 </w>
mechan ism</w>
ann ual</w>
丰 富</w>
engine ering</w>
糖 </w>
某 种</w>
sor ry</w>
z y</w>
pro posed</w>
震 </w>
ve hic
伊 朗</w>
pre vious</w>
脱 </w>
com prehen
bri tain</w>
ob ject</w>
plat form</w>
wash ington</w>
in fr
l un
hi stor
scienti fic</w>
bene fits</w>
mi st
意 大利</w>
谓 </w>
cle an</w>
紧 </w>
上 帝</w>
w rote</w>
元 素</w>
hosp ital</w>
对 此</w>
监 管</w>
l ad
膜 </w>
cer tain
gre ater</w>
节 目</w>
n y</w>
主 题</w>
feder al</w>
以 便</w>
1 %</w>
搜 索</w>
he at</w>
u k</w>
放 弃</w>
下 面</w>
洁 </w>
seas on</w>
欧 </w>
join t</w>
预 期</w>
comple tely</w>
ri age</w>
比 例</w>
ju d
me t
脚 </w>
距 离</w>
池 </w>
over all</w>
al ing</w>
inde x</w>
p ass</w>
估 计</w>
迷 </w>
str ang
t ree</w>
a i</w>
go es</w>
capac ity</w>
f em
li c</w>
普 遍</w>
off ic
伙 伴</w>
h an
streng th</w>
sig ned</w>
3 00</w>
j us
typ es</w>
commer cial</w>
破 坏</w>
desp ite</w>
de ad</w>
x im
gi ving</w>
旅 行</w>
foll ow</w>
exper ts</w>
和 华</w>
耶 和华</w>
r ound</w>
d ele
__ __
cer ti
chall eng
degre e</w>
贝 </w>
裂 </w>
re ach</w>
sp ending</w>
fail ure</w>
dev ice</w>
实 践
莱 </w>
角 度</w>
应 对</w>
at trac
公 布</w>
迫 </w>
play ed</w>
引 发</w>
201 3</w>
服务 器</w>
那 种</w>
i p
址 </w>
sp ent</w>
汗 </w>
既 </w>
小 组</w>
ur ban</w>
适 用</w>
央 </w>
还 要</w>
pro duce</w>
ma ster</w>
上 去</w>
3 5</w>
p ain</w>
鲁 </w>
大 利亚</w>
澳 大利亚</w>
经济 学</w>
统 计</w>
wal k</w>
fi f
首 次</w>
表 面</w>
ass em
ger many</w>
fac tory</w>
bl ue</w>
重 点</w>
any one</w>
institu tions</w>
enc ed</w>
滑 </w>
享 受</w>
上 面</w>
坡 </w>
oper ations</w>
广 </w>
foo t
运 用</w>
pur pose</w>
aliz ation</w>
organiz ations</w>
4 5</w>
thous ands</w>
c row
证 据</w>
st one</w>
ro l
ad es</w>
事 业</w>
中 央</w>
neg ative</w>
部 队</w>
direc tion</w>
i st</w>
联 盟</w>
l ess
国 人</w>
ac cur
默 </w>
提 到</w>
ste el</w>
govern ments</w>
预 算</w>
face book</w>
之 中</w>
思 考</w>
au g
enjo y</w>
叶 </w>
舞 </w>
vo ice</w>
o k
一 半</w>
li ons</w>
c ell</w>
care er</w>
dam age</w>
tu de</w>
农 业</w>
loc ation</w>
pres sion</w>
do g</w>
de e
isra el</w>
re solution</w>
sel y</w>
sec tor</w>
rele ased</w>
po st</w>
kin ds</w>
ac ts</w>
实践 </w>
t ext</w>
竟 </w>
m it</w>
大 脑</w>
反 映</w>
sim ply</w>
人 物</w>
dat ab
颜 色</w>
华 盛
看 来</w>
洛 </w>
就 业</w>
rai se</w>
ap ply</w>
真 实</w>
特 性</w>
助 于</w>
ac ci
mi r
en cies</w>
法 院</w>
洗 </w>
en s
pl us</w>
movi e</w>
心 理</w>
inter nal</w>
议 员</w>
auth orities</w>
in sp
希 腊
fr an
applic ations</w>
私 人</w>
foun dation</w>
部 长</w>
dar k</w>
赢 得</w>
ap ri
烦 </w>
perf ect</w>
m as
w illing</w>
谢 谢</w>
葡 萄
ph il
spiri t</w>
ch am
spee ch</w>
t in</w>
ge or
199 3</w>
sh ment</w>
long- term</w>
ei ght</w>
gre s
2 9</w>
my self</w>
sep tem
easi ly</w>
re serv
人 数</w>
chem ical</w>
ev ents</w>
dom in
接 触</w>
fe atures</w>
打 算</w>
装 置</w>
道 路</w>
回 来</w>
septem ber</w>
差 异</w>
op ini
heal thy</w>
indepen dent</w>
plac ed</w>
con dition</w>
inter ests</w>
胜 </w>
bel ow</w>
- year-old</w>
成 了</w>
associ ation</w>
innov ation</w>
is n</w>
de si
详 细</w>
dem on
3 %</w>
星 期</w>
advant age</w>
mon day</w>
sta ur
利 率</w>
doc tor</w>
c amer
ag ree</w>
re staur
不 错</w>
0 ,000</w>
di e</w>
2 %</w>
i i</w>
quar ter</w>
指 导</w>
particul arly</w>
l t
li ber
怒 </w>
瑞 </w>
ju ly</w>
i b
we ar</w>
毫 无</w>
sc op
n ar
institu te</w>
interest ed</w>
敢 </w>
巧 </w>
给 予</w>
幸 </w>
traff ic</w>
dri ve</w>
car bon</w>
g one</w>
sh op</w>
reas ons</w>
补 充</w>
citi z
squ are</w>
vie ws</w>
ati vely</w>
happ iness</w>
坐 在</w>
生 产
测 量</w>
债 </w>
pi ece</w>
普 通</w>
妇 </w>
ad s</w>
auth or</w>
传 播</w>
独 </w>
雅 </w>
来 看</w>
协 会</w>
who se</w>
as sets</w>
ter ed</w>
o graph
从 事</w>
弄 </w>
协 调</w>
请 求</w>
女 儿</w>
投 入</w>
人 生</w>
想 象</w>
immedi ately</w>
se em
祝 </w>
heav y</w>
固 </w>
答 案</w>
en h
ar my</w>
guar an
高 度</w>
手 术</w>
数据 库</w>
函 数</w>
常 常</w>
uni que</w>
ob serv
mo ving</w>
手 段</w>
虫 </w>
览 </w>
mean ing</w>
出 去</w>
g dp</w>
参 数</w>
依 然</w>
fr ance</w>
asi an</w>
web site</w>
b at
脏 </w>
aliz ed</w>
str ong
marke ting</w>
s old</w>
ch air
男 孩</w>
归 </w>
fas hi
灯 </w>
z ing</w>
兹 </w>
is land</w>
c ali
希腊 </w>
b y
权 力</w>
re t
sm all
m un
华盛 顿</w>
ch en</w>
正 如</w>
m el
spor ts</w>
demon str
综 合</w>
咨 询</w>
维 护</w>
军 队</w>
saf e</w>
teach ers</w>
effici ency</w>
an tly</w>
gg er</w>
d ential</w>
wor ked</w>
a x
寻 求</w>
这 家</w>
play ing</w>
corpor ate</w>
detail s</w>
pur su
ali st</w>
现 有</w>
wee k
飞 </w>
m ol
ru le</w>
li br
运 动
appropri ate</w>
田 </w>
ni a</w>
刺 激</w>
new sp
b ing</w>
顾 客</w>
年 龄</w>
8 .
温 度</w>
electri c</w>
en ly</w>
doc uments</w>
著 名</w>
st ood</w>
有 助于</w>
负 </w>
fi ght</w>
显 然</w>
ex plo
gi ves</w>
痛 苦</w>
th us</w>
递 </w>
ell ing</w>
reli gi
con stitu
st atis
power ful</w>
sus p
fin ance</w>
con gress</w>
anc y</w>
打 开</w>
警 告</w>
happ ened</w>
p hi
feel ing</w>
resp ect</w>
教 师</w>
宗 教</w>
in side</w>
脸 </w>
exper im
犯 罪</w>
对 手</w>
reas on
a war
tele vision</w>
财 务</w>
sp ar
忧 </w>
s ex</w>
apri l</w>
逐 渐</w>
莉 </w>
exp ect</w>
左 右</w>
真 是</w>
进 程</w>
benef it</w>
印 </w>
台 湾</w>
萨 </w>
ad ju
考 试</w>
困 </w>
in j
re fer
老 板</w>
下 去</w>
enti re</w>
car ried</w>
偿 </w>
clo th
inst all
c um
anci ent</w>
al ism</w>
n e</w>
bab y</w>
确 认</w>
英 </w>
悉 </w>
s ent
exerci se</w>
流 行</w>
p ath</w>
上 涨</w>
in ci
oper ating</w>
vi ously</w>
承 担</w>
pre ven
der ed</w>
进 展</w>
谷 歌</w>
car ry</w>
睡 </w>
re vol
r ain
qu ali
b es</w>
hus band</w>
汉 </w>
以 为</w>
强 烈</w>
收 购</w>
com </w>
c ars</w>
ho li
记 得</w>
决 议</w>
k o
肤 </w>
多 个</w>
律 师</w>
st ly</w>
c as
地 产</w>
家 人</w>
依 赖</w>
th ur
同 事</w>
e an</w>
har d
神 经</w>
effor t</w>
sw it
om s</w>
怀 疑</w>
all owed</w>
紧 张</w>
anim als</w>
dec ember</w>
fi gh
tom or
chri st
200 3</w>
con cept</w>
doll ar</w>
dig ital</w>
棒 </w>
mis s</w>
h ood</w>
y er</w>
list en</w>
stru gg
trans fer</w>
pas sed</w>
happ en</w>
mo vement</w>
fe et</w>
bri dge</w>
恶 </w>
a fr
ell ow</w>
能 量</w>
袋 </w>
trad ing</w>
doll ars</w>
苏 </w>
agre ed</w>
tru th</w>
bu s</w>
op ened</w>
effici ent</w>
这 件</w>
inclu des</w>
en ter</w>
官 方</w>
构 成</w>
伟 大</w>
fin e</w>
工 作
sp read</w>
w aste</w>
沙 </w>
9 .
famili es</w>
lear ned</w>
tr ain</w>
m ail</w>
fre ed
丈 夫</w>
li qui
债 券</w>
plan e</w>
爸 </w>
for ced</w>
mar riage</w>
consum er</w>
val ues</w>
西 班
姐 </w>
medic ine</w>
供 应
好 像</w>
tomor row</w>
sh es</w>
哪 里</w>
ro se</w>
recei ve</w>
雪 </w>
jan uary</w>
can di
concer ned</w>
bud get</w>
推 出</w>
云 </w>
go als</w>
f air</w>
fa ult</w>
ste ps</w>
圣 诞
炸 </w>
替 </w>
adv anced</w>
猫 </w>
通 知</w>
consum ers</w>
al g
总 理</w>
l y
or ed</w>
t ty</w>
吸 </w>
加 拿
绕 </w>
afr aid</w>
对 话</w>
comprehen sive</w>
ev ol
z es</w>
par ame
改 进</w>
暴 力</w>
ar rang
ac qui
几 年</w>
接 近</w>
相 反</w>
ad ap
古 </w>
西班 牙</w>
inter view</w>
t le</w>
保 障</w>
加拿 大</w>
美 丽</w>
dest ro
n an
补 </w>
t ent</w>
wind ow</w>
qu e
la ws</w>
毛 </w>
即 将</w>
oc cur
cloth es</w>
russi an</w>
meas u
梦 想</w>
百 万</w>
移 民</w>
收 集</w>
适 应</w>
k ers</w>
ro c
… …</w>
理 学</w>
堡 </w>
increas ing</w>
图 像</w>
封 </w>
mini stry</w>
哦 </w>
~ </w>
这 儿</w>
ab or
chair man</w>
ab ly</w>
ple as
担 任</w>
格 兰</w>
re ached</w>
做 法</w>
埃 </w>
import ance</w>
ch ur
con centr
drin k</w>
过 来</w>
pp ing</w>
周 围</w>
癌 </w>
c ash</w>
面 前</w>
curr ency</w>
年 轻
组 合</w>
缘 </w>
flo or</w>
rele ase</w>
智 能</w>
外 交</w>
克 斯</w>
利 润</w>
st ability</w>
网 上</w>
s on
pati ent</w>
强 大</w>
这 场</w>
签 </w>
分 享</w>
ag ue</w>
datab ase</w>
diffic ul
gr y</w>
l am
e ye</w>
暗 </w>
multi ple</w>
圣 </w>
说 话</w>
re ven
玛 </w>
tu esday</w>
很 少</w>
c ement</w>
we ather</w>
牛 </w>
con fir
批 准</w>
u te</w>
整 体</w>
损 </w>
年轻 人</w>
f ai
十 年</w>
弗 </w>
t ations</w>
安 全
技 能</w>
gl ass</w>
显 著</w>
熟 </w>
ow ned</w>
各 地</w>
re ve
金 属</w>
太 多</w>
g ent</w>
charac ter</w>
ar ies</w>
lab or</w>
n it
净 </w>
lo g
天 气</w>
感 染</w>
民 主
tai wan</w>
x ml</w>
培 养</w>
为 止</w>
sp here</w>
骨 </w>
exc ell
re public</w>
civi li
st able</w>
烧 </w>
manufactur ing</w>
8 %</w>
翻 译</w>
学 会</w>
不 起</w>
丹 </w>
m ur
风 格</w>
si tes</w>
electr onic</w>
co ff
scre en</w>
s ex
圈 </w>
诚 </w>
的 确</w>
sor t</w>
consider ed</w>
缓 </w>
ri sing</w>
荣 </w>
完 美</w>
财 富</w>
7 %</w>
le -
gen cy</w>
桥 </w>
戴 </w>
就 要</w>
小 说</w>
oc to
禁 止</w>
sch em
ic ally</w>
tran si
6 %</w>
fac tor</w>
4 %</w>
tal ks</w>
regul ations</w>
co -
结 婚</w>
fri day</w>
版 本</w>
a di
ac tual</w>
in a</w>
理 想</w>
as ses</w>
想 到</w>
introduc ed</w>
g ni
campai gn</w>
配 置</w>
明 天</w>
part ner</w>
防 止</w>
sl ow
扬 </w>
as n</w>
扎 </w>
修 改</w>
chang ing</w>
能 性</w>
z er
f ol
严 格</w>
蒙 </w>
卷 </w>
批 评</w>
spe aking</w>
ex ce
col um
octo ber</w>
an a</w>
参 考</w>
n ation
dec lar
誉 </w>
身 份</w>
qu anti
s -
不 足</w>
早 期</w>
指 定</w>
输 入</w>
en ge</w>
b ought</w>
lt d</w>
o ther
j av
ec ture</w>
算 法</w>
z e
茨 </w>
tur ns</w>
e th</w>
信 心</w>
to ols</w>
ad a</w>
consum ption</w>
毁 </w>
con serv
粉 </w>
requi res</w>
opport unities</w>
fav or
stu died</w>
confi dence</w>
智 </w>
continu ed</w>
公 园</w>
mar ried</w>
增 </w>
main tain</w>
pay ment</w>
ch ap
谷 </w>
200 1</w>
形 象</w>
d aughter</w>
m es</w>
be y
discus s</w>
恋 </w>
家 里</w>
streng then</w>
ri ch
clear ly</w>
更 新</w>
de p
wor ry</w>
b ar</w>
el ements</w>
bo ss</w>
he ar
阿 拉
地 震</w>
wa iting</w>
人 权</w>
ger man</w>
获 取</w>
所 谓</w>
劳 </w>
宾 </w>
ter nal</w>
日 子</w>
app lied</w>
公 民</w>
hel ped</w>
灭 </w>
freed om</w>
c in
工 资</w>
绿 色</w>
奶 </w>
accor dance</w>
朝 </w>
适 当</w>
star ting</w>
女 士</w>
共和 党</w>
ig nor
do cu
贡 献</w>
re main</w>
出 售</w>
菲 </w>
增 强</w>
打 击</w>
administr ative</w>
分 配</w>
sti c</w>
休 </w>
docu ment</w>
七 </w>
枪 </w>
留 下</w>
展 开</w>
下 午</w>
weal th</w>
gr and
眠 </w>
li e</w>
伤 害</w>
tt on</w>
评 论</w>
寸 </w>
si a</w>
op ening</w>
运 输</w>
tow ards</w>
进 口</w>
s a</w>
脉 </w>
aff ect</w>
y i
担 忧</w>
we ak
指 标</w>
聚 </w>
mi d
央 行</w>
工 艺</w>
械 </w>
b att
associ ated</w>
hou sing</w>
all ows</w>
捕 </w>
事 故</w>
是 不是</w>
nov ember</w>
chall enge</w>
199 5</w>
cri tical</w>
than ks</w>
dr aw</w>
生 态</w>
押 </w>
n on
拍 </w>
cri tici
appe ar</w>
cele br
cri min
r ural</w>
m as</w>
机 器</w>
艺 术
t ori
fail ed</w>
o d
肯 </w>
s ession</w>
it ation</w>
链 </w>
3 2</w>
democr atic</w>
am az
meas ure</w>
看 法</w>
ach es</w>
坛 </w>
kn ows</w>
a h
到 达</w>
ber t</w>
姻 </w>
籍 </w>
sel ling</w>
巴 西</w>
洞 </w>
假 设</w>
提 交</w>
赏 </w>
社 交</w>
wel come</w>
expres sion</w>
时 刻</w>
determin e</w>
appe ared</w>
wed n
瘤 </w>
sust ain
1 ,
t ment</w>
min im
植 </w>
那 时</w>
富 汗</w>
阿 富汗</w>
sol di
全 世界</w>
孔 </w>
bro ther</w>
r ay</w>
太阳 </w>
此 次</w>
等 等</w>
糟 糕</w>
固 定</w>
侧 </w>
tra vel
ph ase</w>
不 用</w>
进 步</w>
estab lish</w>
日 益</w>
潜 在</w>
hy dro
ac </w>
ar ms</w>
pro pos
c ing</w>
麦 </w>
te a</w>
stan ces</w>
num bers</w>
for tun
vari ety</w>
l in</w>
p ic</w>
惊 </w>
潮 </w>
分 布</w>
免 费</w>
wedn esday</w>
curr ently</w>
一 方面</w>
gen e
beau ty</w>
p il
pl ants</w>
阻 止</w>
主 管</w>
2 5
progr ams</w>
cou ple</w>
tre as
famili ar</w>
供 应</w>
谱 </w>
c up</w>
min e</w>
even tually</w>
转 移</w>
requ est</w>
1 :
像 是</w>
well -
es is</w>
罚 </w>
hou se
回 家</w>
等 于</w>
定 性</w>
gir ls</w>
发 言
陷 </w>
t ter</w>
添 加</w>
tran sm
australi a</w>
成 长</w>
创 </w>
prac tical</w>
el ess</w>
anim al</w>
rai sed</w>
妙 </w>
to -
m ent
暖 </w>
conflic t</w>
事 物</w>
w ine</w>
k il
pr ai
reg ar
g or
做 到</w>
s atur
凡 </w>
re ality</w>
mo ved</w>
投 票</w>
转 变</w>
体 育</w>
reco very</w>
re ment</w>
f light</w>
ow ers</w>
道 德</w>
障 碍</w>
bey ond</w>
堆 </w>
上 市</w>
海 外</w>
pe ac
航 </w>
cou ldn</w>
所 需</w>
实 验
bu sh</w>
来 源</w>
t om</w>
shar es</w>
po st
t ool</w>
b om
tr end</w>
et ary</w>
各 个</w>
婚 姻</w>
trans l
一 边</w>
漂 亮</w>
coun ter
adv ice</w>
wid ely</w>
exp ec
沟 通</w>
ph en
歉 </w>
out put</w>
c lic
ap preci
埃 及</w>
aff ected</w>
br az
sig n
tu m
lim it</w>
采 访</w>
临 床</w>
命 令</w>
du le</w>
运 会</w>
唱 </w>
vo te</w>
nam ed</w>
expl ain</w>
m ass</w>
se as</w>
阵 </w>
民主 党</w>
r ati
at ti
ass ess
cle an
tic ally</w>
am ent</w>
ti mi
野 </w>
seem ed</w>
reg ular</w>
缺 </w>
for get</w>
成 果</w>
c tion</w>
tw o-
体 验</w>
机 场</w>
终 于</w>
gh t
realiz e</w>
th m</w>
y ang</w>
aug ust</w>
昨 天</w>
x i</w>
观 众</w>
hi bi
sun day</w>
刚 刚</w>
ag ent</w>
距 </w>
腿 </w>
mor t
consi st
conn ection</w>
loc ated</w>
狱 </w>
对 方</w>
cor respon
high ly</w>
remain s</w>
increas ingly</w>
ke pt</w>
clu b</w>
s en</w>
锁 </w>
细 节</w>
af gh
等 待</w>
ak i
ologi es</w>
构 建</w>
weap ons</w>
gr ade</w>
c oo
di pl
t ch</w>
alg ori
gu id
auth ority</w>
好 处</w>
k es
d ying</w>
某 个</w>
多 种</w>
call s</w>
拜 </w>
更 高</w>
在 线</w>
累 </w>
ven ess</w>
con ver
绝 对</w>
炼 </w>
no tice</w>
rap id</w>
afri can</w>
连 续</w>
bi o
dipl om
diag no
f ed</w>
sti mul
w ang</w>
大 小</w>
梦 </w>
dr y</w>
ira q</w>
gh tly</w>
investi gation</w>
determin ed</w>
证 券</w>
gener ally</w>
no on</w>
ati cally</w>
vill age</w>
至 于</w>
给 出</w>
expen sive</w>
满 意</w>
随 后</w>
可 能性</w>
infl ation</w>
pre tty</w>
a head</w>
prof it</w>
鸟 </w>
代 表
am bi
立 即</w>
sen si
mak ers</w>
f esti
dou ble</w>
becom es</w>
di </w>
注 册</w>
v ac
ari an</w>
w it
不 好</w>
ki ds</w>
becom ing</w>
记 忆</w>
伊 斯
e ating</w>
con sci
aff airs</w>
奋 </w>
distri ct</w>
en em
dri ving</w>
4 00</w>
从 来</w>
i phone</w>
di stance</w>
其 他人</w>
eu </w>
g ent
追 求</w>
high est</w>
电 视
descri bed</w>
n ice</w>
impro ved</w>
论 文</w>
s ong</w>
y o
us eful</w>
货 物</w>
200 2</w>
当 局</w>
蛋 </w>
eng ine</w>
mi cha
s an
优 秀</w>
八 </w>
cali for
矿 </w>
人 才</w>
oc cu
当 中</w>
m p</w>
动 机</w>
en g</w>
strate gic</w>
posi te</w>
玻 璃
d ates</w>
ex ac
secre t</w>
te sting</w>
wind ows</w>
工 程
s day</w>
coll ection</w>
启 动</w>
ca uses</w>
mit ted</w>
爸 爸</w>
busin esses</w>
sl ow</w>
墙 </w>
au l</w>
ex port</w>
不 得</w>
爱 情</w>
日 常</w>
bu re
要 性</w>
r oun
al ter
ne u
combin ation</w>
百 分
预 </w>
issu ed</w>
k en
厚 </w>
奥 运会</w>
n or</w>
co al</w>
201 6</w>
名 称</w>
provi ding</w>
人 群</w>
s ad
ten d</w>
sudd enly</w>
毕 业</w>
这 份</w>
trou ble</w>
evalu ation</w>
assem bly</w>
si r</w>
por ary</w>
迟 </w>
设 立</w>
举 办</w>
要 是</w>
ear th
接 下来</w>
中 间</w>
str ai
experi ment</w>
dru gs</w>
intelli gence</w>
ir an</w>
尺 </w>
all s</w>
19 5
on e-
方 便</w>
for est</w>
wh at
流 程</w>
dynam ic</w>
演 讲</w>
布 什</w>
邀 请</w>
christ mas</w>
g an</w>
er -
多 么</w>
最 初</w>
pl ate</w>
li fe
l eng
9 %</w>
哪 些</w>
foll owed</w>
199 6</w>
ac ked</w>
spo kes
mod els</w>
back ground</w>
咖啡 </w>
b i</w>
op h
micha el</w>
ti vity</w>
proper ties</w>
as ks</w>
program me</w>
报 纸</w>
框 架</w>
re ference</w>
bott om</w>
早 上</w>
种 族</w>
thur sday</w>
mil es</w>
花 费</w>
年 度</w>
概 </w>
视 为</w>
beg in</w>
相 应</w>
bl ed</w>
coff ee</w>
jus tice</w>
惧 </w>
sh oc
貌 </w>
on i
ro o
cr aft</w>
j er
希 </w>
func tions</w>
跳 </w>
ill u
fre sh</w>
thr ough
jo in</w>
顾 问</w>
争 议</w>
person nel</w>
ter y</w>
pre mi
演 员</w>
rel atively</w>
协 助</w>
到 底</w>
emer gency</w>
t ant</w>
加 工</w>
r ain</w>
su me</w>
n ative</w>
透 </w>
inclu ded</w>
穷 </w>
te sts</w>
win ter</w>
v it
存 储</w>
海 洋</w>
an ces</w>
pri mary</w>
e ar</w>
兄 弟</w>
公 平</w>
深 入</w>
秘 密</w>
ab str
mo de</w>
lay er</w>
assi stance</w>
tain s</w>
e k</w>
4 8</w>
股 市</w>
poll ution</w>
easi er</w>
鞋 </w>
neigh b
现 场</w>
关 心</w>
c ra
记 住</w>
否 则</w>
des er
完 善</w>
面 积</w>
re stric
礼 物</w>
现 金</w>
成 就</w>
tou ri
requi re</w>
l en
u tili
麽 </w>
晨 </w>
妮 </w>
inde ed</w>
monit oring</w>
hun dre
discus sed</w>
发 行</w>
re turned</w>
基 地</w>
i tion</w>
稣 </w>
针 </w>
一 部</w>
一 座</w>
b loc
说 法</w>
游 客</w>
成 绩</w>
libr ary</w>
ay ed</w>
决 策</w>
vol un
ke ts</w>
eg y
vir us</w>
推 </w>
审 查</w>
kore an</w>
b order</w>
ch ain</w>
职 位</w>
ru p
tur ning</w>
play ers</w>
信 任</w>
patter n</w>
发言 人</w>
合 适</w>
infr a
qu o
bro ken</w>
折 </w>
本 周</w>
cre ating</w>
完 整</w>
ab road</w>
califor nia</w>
消 失</w>
comp ens
form ul
excell ent</w>
耶 稣</w>
viol ence</w>
团 体</w>
10 %</w>
ph ones</w>
conclu sion</w>
f ill</w>
监 督</w>
大 陆</w>
s ar
t t</w>
季 度</w>
别 的</w>
少 年</w>
交 易
fac es</w>
br u
al ed</w>
en ting</w>
par ti
尊 重</w>
produc ed</w>
红 色</w>
体 现</w>
那 儿</w>
tou ch</w>
speci es</w>
ordin ary</w>
ad ditional</w>
b un
统 一</w>
p al</w>
摄 </w>
k er
investi g
conven i
年 来</w>
expres s</w>
geor ge</w>
宣 传</w>
w oo
发 达</w>
v ali
fashi on</w>
lead ership</w>
p aki
盛 </w>
un less</w>
si t</w>
看 着</w>
din ner</w>
el er
so il</w>
r am
li ghts</w>
leg isl
掌 握</w>
us ual</w>
ve ge
数 学</w>
in -
巴 基
r an</w>
图 片</w>
所 说</w>
in struc
mou th</w>
杆 </w>
接 着</w>
dec ade</w>
吁 </w>
重 视</w>
reason able</w>
fem ale</w>
hu </w>
巴基 斯坦</w>
有 的</w>
gui de</w>
超 </w>
moun tain</w>
期 待</w>
be ar</w>
thre at</w>
马 上</w>
ri </w>
作 家</w>
新 兴</w>
上 周</w>
war m</w>
dis play</w>
won der
brow n</w>
期 望</w>
刺 </w>
z z
w are</w>
eli min
resour ce</w>
clin ical</w>
d ary</w>
清 单</w>
low -
该 国</w>
投 </w>
支 出</w>
陷 入</w>
def ense</w>
撒 </w>
伙 </w>
美 联
共和 国</w>
农 村</w>
碎 </w>
出 生</w>
pp er</w>
收 益</w>
克 尔</w>
生 存</w>
商 务</w>
over seas</w>
帕 </w>
专 门</w>
井 </w>
prepar ed</w>
fu el</w>
地 点</w>
laun ched</w>
d an</w>
ir on</w>
转 换</w>
hundre ds</w>
dec ades</w>
cri me</w>
垃 圾
de posi
3 3</w>
sustain able</w>
分析 师</w>
有 用</w>
ma xim
str ation</w>
承 </w>
dr .</w>
在 内</w>
sh ape</w>
所 在</w>
certi fic
s an</w>
infra structure</w>
房 地产</w>
大 规模</w>
tu red</w>
遭 到</w>
主 任</w>
sy ri
hand le</w>
eng land</w>
ho st</w>
释 放</w>
加 上</w>
私 </w>
lin k</w>
森 林</w>
gu ang
d b
优 化</w>
we ak</w>
娘 </w>
援 </w>
comfor table</w>
olym pic</w>
营 销</w>
fiel ds</w>
得 出</w>
tre es</w>
l a</w>
sou thern</w>
ang le</w>
编 辑</w>
四 个</w>
mo on</w>
少 数</w>
保 留</w>
j ac
途 径</w>
3 0
不 够</w>
标 志</w>
impl ement</w>
comple ted</w>
相 似</w>
仪 </w>
影 片</w>
下 跌</w>
tri bu
impro vement</w>
bus y</w>
前 景</w>
differ ences</w>
机 械</w>
shop ping</w>
fle xi
商 店</w>
challeng es</w>
执 行
mat ch</w>
胶 </w>
d red</w>
leav ing</w>
麻 烦</w>
除 非</w>
ri ce</w>
害 怕</w>
li ved</w>
甲 </w>
夫 人</w>
呼 吁</w>
条 款</w>
clai m</w>
耗 </w>
appe ars</w>
预 防</w>
in k</w>
制造 商</w>
循 环</w>
sub si
民 众</w>
abili ties</w>
ti red</w>
ma p</w>
impro ving</w>
accoun ting</w>
kee ping</w>
small er</w>
f illed</w>
周 末</w>
r ou
fi xed</w>
骤 </w>
群 体</w>
techn ologies</w>
sig nal</w>
emer ging</w>
agri cultural</w>
硬 </w>
it ter</w>
c ab
ex ternal</w>
ad vis
app ed</w>
g in</w>
3 6</w>
f at</w>
一 块</w>
mag az
wor l
happ ens</w>
dang erous</w>
f ying</w>
欧 元</w>
f ly</w>
s .
地 址</w>
am ed</w>
ji ang</w>
ici al</w>
同 一</w>
皮 肤</w>
狂 </w>
削 减</w>
th i
c ate
黎 </w>
it ems</w>
four th</w>
acc eler
tri p</w>
ha ven</w>
pl ays</w>
m ad
秘 书
建 造</w>
借 </w>
advant ages</w>
ev ening</w>
coun t</w>
adverti sing</w>
消 除</w>
关 闭</w>
准 确</w>
bri ght</w>
聪 明</w>
si x
周 一</w>
房 屋</w>
con vers
p aci
clo sed</w>
a g</w>
hol ding</w>
看 上去</w>
理 事会</w>
am m
选 人</w>
chur ch</w>
证 实</w>
灾 </w>
fr ame
micro soft</w>
c ast</w>
疫 </w>
g al
常 见</w>
asp ects</w>
紧 急</w>
ti ves</w>
见 到</w>
aw are</w>
墨 西
从 未</w>
s at
dev ices</w>
袖 </w>
certain ly</w>
ob li
驶 </w>
妹 </w>
诊 断</w>
reduc ed</w>
concer n</w>
怨 </w>
pass eng
这 部</w>
ro ck</w>
play er</w>
est ate</w>
不 久</w>
wor se</w>
m enti
日 期</w>
平 等</w>
判 断</w>
b oun
衰 退</w>
符 </w>
表 演</w>
w ave</w>
依 据</w>
i v
d na</w>
独 特</w>
in sul
dis ci
密 切</w>
ten ance</w>
discus sion</w>
取 消</w>
倾 向</w>
s co
南 部</w>
prac tic
eff ectively</w>
茶 </w>
胎 </w>
以 外</w>
k it
hel ps</w>
hun dred</w>
sh ot</w>
识 别</w>
at mo
俱 乐
中 国人</w>
规 范</w>
minu te</w>
chap ter</w>
pu sh</w>
lo ad
fe ature</w>
俱乐 部</w>
festi val</w>
实验 室</w>
怎 么样</w>
属 性</w>
jour nal</w>
签 署</w>
t ol
警 方</w>
li sted</w>
p uni
deci sions</w>
驻 </w>
dec line</w>
炎 </w>
mil lions</w>
restaur ant</w>
spe ak
ent ary</w>
cl int
介 </w>
ac tor</w>
att acks</w>
美 好</w>
imag ine</w>
吉 </w>
患 </w>
u k
通 用</w>
动 作</w>
form ing</w>
ex cept</w>
每 次</w>
推 进</w>
cy cle</w>
g on
r ail
虎 </w>
模 拟</w>
熟 悉</w>
se tting</w>
concer ns</w>
po ver
国 务
resi stance</w>
效 应</w>
cir cum
p y
颗 </w>
audi ence</w>
健 </w>
显 得</w>
返 回</w>
医 学</w>
fi gu
ec tor</w>
步 骤</w>
buil dings</w>
n as
sal e</w>
op s</w>
vi a</w>
securi ties</w>
奏 </w>
理 念</w>
竞 选</w>
cont ains</w>
ph </w>
divi ded</w>
长 的</w>
cli ent</w>
re -
作 业</w>
r ying</w>
将 来</w>
n a
bu ying</w>
叙 利亚</w>
citiz ens</w>
friend ly</w>
tr ack</w>
sugge sts</w>
n ur
op timi
analy sts</w>
胜 利</w>
额 外</w>
峰 </w>
出 版</w>
auth or
di men
op tim
inter pre
adop ted</w>
jav a</w>
newsp aper</w>
sp an</w>
做 好</w>
荡 </w>
er a</w>
laun ch</w>
j es
ac king</w>
po ses</w>
ter ia</w>
what ever</w>
居 住</w>
婴 儿</w>
之 下</w>
r ace</w>
后 面</w>
scop e</w>
solu tions</w>
vi su
伊斯 兰</w>
radi o</w>
pop ul
ing -
stre am</w>
correc t</w>
di ty</w>
jour n
av es</w>
re la
九 </w>
k ill</w>
西 亚</w>
foot ball</w>
after noon</w>
刀 </w>
crimin al</w>
bo at</w>
clint on</w>
验 证</w>
pu ts</w>
指 控</w>
i an</w>
员 国</w>
com b
ast ing</w>
main tenance</w>
汇 率</w>
coll ap
con sequ
拍 摄</w>
轴 </w>
重 复</w>
亦 </w>
indi an</w>
el ement</w>
con nec
integr ation</w>
议 会</w>
w w
生 成</w>
父 </w>
纹 </w>
phil os
y al</w>
chan nel</w>
损 害</w>
fun </w>
燃 料</w>
生 长</w>
pr en
h an</w>
香 </w>
革 命</w>
彼 此</w>
探 索</w>
法 案</w>
abstr act</w>
劲 </w>
n ine</w>
pres sed</w>
part ners</w>
holi day</w>
g ain</w>
ri er</w>
l o</w>
非 法</w>
analy zed</w>
stop ped</w>
n ic
wat ching</w>
k y
cap it
及 时</w>
dro p</w>
y ers</w>
ag ues</w>
磨 </w>
com man
om en
m er</w>
in c
英 里</w>
乡 </w>
larg er</w>
魂 </w>
opini on</w>
see k</w>
慧 </w>
nor thern</w>
per sp
呆 </w>
im migr
thre e-
tre at</w>
ap par
有 时候</w>
旨 在</w>
饮 食</w>
ur ation</w>
err or</w>
混 合</w>
comp lic
ber g</w>
不 多</w>
ini tial</w>
im possible</w>
ach ing</w>
re sc
paci fic</w>
re serve</w>
s ac
fini shed</w>
跃 </w>
1 000</w>
m ex
st on</w>
tu be</w>
appe ar
al d</w>
法 庭</w>
巴 黎</w>
fe br
农 民</w>
deb ate</w>
f al
富 有</w>
ab sor
febr uary</w>
6 00</w>
s y</w>
是 从</w>
原 来</w>
gar den</w>
mex ic
扩 展</w>
thous and</w>
stor age</w>
同 学</w>
exp and</w>
algori thm</w>
雄 </w>
ris ks</w>
国 外</w>
v oc
候 选人</w>
transpor t</w>
抱 </w>
offic er</w>
hur t</w>
大 概</w>
through out</w>
炉 </w>
p aul</w>
延 </w>
f aster</w>
不 在</w>
实 行</w>
fru it</w>
士 兵</w>
粒 </w>
al y</w>
im ages</w>
sam ple</w>
fall ing</w>
sh oo
购 物</w>
男 子</w>
】 </w>
frequ ency</w>
遭 受</w>
大 幅</w>
fl owers</w>
p it
qu es</w>
multi -
extre m
thre at
doub t</w>
me tal</w>
represent ative</w>
c k
声 称</w>
de plo
20 %</w>
bir th</w>
exac tly</w>
es cap
menti oned</w>
公 里</w>
ris m</w>
is on</w>
义 务</w>
鸡 </w>
li ance</w>
shor t
ar ity</w>
ster ed</w>
ol der</w>
微 软</w>
运动 员</w>
st ars</w>
飞 行</w>
惠 </w>
穿 着</w>
研 </w>
earth qu
in ed</w>
ju dge</w>
signific antly</w>
即 便</w>
f ing
江 </w>
mi ts</w>
p c</w>
academ ic</w>
histor ical</w>
克 里
包 装</w>
air port</w>
公 </w>
ag encies</w>
strang e</w>
encour age</w>
tor ies</w>
nu tri
e ding</w>
and a</w>
阿拉 伯</w>
惑 </w>
谈 论</w>
排 放</w>
典 型</w>
壤 </w>
scen e</w>
mil k</w>
fun dam
ab solu
ban king</w>
爆 炸</w>
sh el
phen omen
设 计
议 院</w>
隔 </w>
s a
manag ers</w>
y ellow</w>
facili ties</w>
te ch</w>
ro b
m s.</w>
英 文</w>
or ders</w>
rati o</w>
gu y</w>
w ou
ent ure</w>
incre ases</w>
th -
bo dies</w>
钢 </w>
si ster</w>
武 装</w>
dr aft</w>
form al</w>
竞 争
ther ap
ad ding</w>
羊 </w>
yi el
7 5</w>
for ec
男 </w>
恐 惧</w>
通 信</w>
总 部</w>
玻璃 </w>
文 档</w>
北 部</w>
un to</w>
一 片</w>
sig ns</w>
球 员</w>
th esis</w>
图 书
ing u
回 应</w>
文 学</w>
control led</w>
摩 </w>
b lock</w>
供应 商</w>
推 广</w>
su itable</w>
maj ority</w>
suc ce
believ ed</w>
an gry</w>
热 情</w>
sym bo
l ou
含 量</w>
appro ved</w>
en ty</w>
背 </w>
动 态</w>
s at</w>
印 象</w>
懂 </w>
commer ce</w>
情 感</w>
耶 </w>
at tr
me ters</w>
秘书 长</w>
pic tures</w>
奇 怪</w>
sen s
忘 记</w>
抗 议</w>
不 仅仅</w>
球 队</w>
compon ent</w>
荷 </w>
techni que</w>
industri es</w>
圆 </w>
发 明</w>
me at</w>
岩 </w>
ob vious</w>
提 醒</w>
extrem ely</w>
自 从</w>
尾 </w>
appro val</w>
cor ru
lu x
ul tim
ur </w>
eu m</w>
frame work</w>
探 </w>
mis si
气 体</w>
3 4</w>
融 资</w>
发 送</w>
读 者</w>
宗 </w>
样 子</w>
学 者</w>
colle agues</w>
leng th</w>
技 巧</w>
3 7</w>
n om
princi ples</w>
ye ah</w>
sch ol
ver ed</w>
see ing</w>
tou rism</w>
cli ents</w>
compon ents</w>
蛋 白</w>
俗 </w>
streng th
bi ts</w>
pic k</w>
低 于</w>
. com</w>
bl ing</w>
周 二</w>
tion ary</w>
检 验</w>
pl astic</w>
运 营</w>
as king</w>
翻 </w>
外 部</w>
5 0
豪 </w>
信 贷</w>
c c
ti </w>
cont ext</w>
si tting</w>
国 王</w>
oper ate</w>
重 要性</w>
chri sti
对 待</w>
199 2</w>
庆 祝</w>
荐 </w>
年 人</w>
刑 </w>
acci dent</w>
ac id</w>
k a</w>
最 低</w>
隆 </w>
头 发</w>
provi sions</w>
har mon
成 熟</w>
领 袖</w>
vol u
cre te</w>
镑 </w>
餐 厅</w>
favor ite</w>
交 换</w>
resi dents</w>
营 养</w>
pover ty</w>
nam es</w>
美联 储</w>
c ross</w>
4 9</w>
com modi
这 本</w>
figh ting</w>
ent re
暴 </w>
讲 话</w>
周 期</w>
代 理</w>
u g
or ation</w>
ap ers</w>
be d
smar t</w>
gr an
p on
ob jects</w>
un its</w>
赫 </w>
su ggest</w>
ar ily</w>
众 多</w>
separ ate</w>
wil li
图书 馆</w>
d ad</w>
poli tics</w>
thin ks</w>
运 作</w>
ex clu
保 存</w>
no tes</w>
b ond</w>
gradu ate</w>
mon etary</w>
centr e</w>
旁 </w>
o v
em ail</w>
禁 </w>
品 质</w>
力 于</w>
小 心</w>
ex hibi
时 尚</w>
wal king</w>
sm ile</w>
瓶 </w>
加 州</w>
i sts</w>
具 备</w>
打 电话</w>
睡 眠</w>
ain t</w>
s mi
adv ance</w>
econom ies</w>
m ale</w>
精 </w>
identi fy</w>
ba g</w>
f it</w>
k u
foc used</w>
利 于</w>
guaran tee</w>
盾 </w>
slow ly</w>
ab les</w>
cate g
off ers</w>
lo ans</w>
劳 动</w>
j un
柱 </w>
3 8</w>
lin ed</w>
re fu
ro bo
宽 </w>
喜 </w>
il ed</w>
p li
挂 </w>
足 球</w>
持 有</w>
dis covered</w>
原 理</w>
博 物
机 器
夺 </w>
6 5</w>
【 </w>
壁 </w>
establi shment</w>
regi ons</w>
仰 </w>
避 </w>
漫 </w>
- based</w>
法 官</w>
授 权</w>
电 力</w>
优 先</w>
hel ping</w>
话 题</w>
致 力于</w>
可 靠</w>
liter ature</w>
聘 </w>
案 件</w>
r are</w>
er o
取 决
取决 于</w>
foo t</w>
有 权</w>
week end</w>
deli very</w>
诗 </w>
c lock</w>
传 递</w>
浪 费</w>
物 品</w>
呀 </w>
cir cul
wor st</w>
友 好</w>
前 往</w>
本 地</w>
不 幸</w>
particip ate</w>
感 情</w>
机器 人</w>
氧 化
other wise</w>
1 50</w>
arri ved</w>
v ul
st ence</w>
浪 </w>
hol ders</w>
clo sely</w>
ap ar
ang el
sur roun
g am
inter face</w>
is sions</w>
care fully</w>
par is</w>
是 说</w>
can ada</w>
soldi ers</w>
此 前</w>
dis aster</w>
al le
rel ation</w>
fi sc
tw itter</w>
股 份</w>
leav es</w>
ea stern</w>
purch ase</w>
believ es</w>
con crete</w>
clic k</w>
stor ies</w>
鬼 </w>
recor ds</w>
大 卫</w>
ob tained</w>
莎 </w>
扮 演</w>
认 真</w>
le ts</w>
b n</w>
本 人</w>
bi gger</w>
ke y
deci de</w>
流 动</w>
小 姐</w>
j ames</w>
高 速</w>
mean while</w>
i ed</w>
poli tici
d r</w>
sh are
defin ed</w>
抱 怨</w>
垃圾 </w>
得 以</w>
ter i
一 代</w>
氏 </w>
论 是</w>
前 面</w>
监 测</w>
总 体</w>
ac ting</w>
bir th
2 4
促 </w>
0. 0
spokes man</w>
博物 馆</w>
por tion</w>
di versi
汤 姆</w>
no ise</w>
extr a</w>
财 产</w>
ast y</w>
em pt</w>
乘 </w>
jes us</w>
har v
pe ter</w>
措 </w>
bon ds</w>
tow ard</w>
遵 守</w>
ali sts</w>
entre pren
tri al</w>
短 期</w>
l ying</w>
ong s</w>
as sum
敬 </w>
创 作</w>
苗 </w>
gi es</w>
卫 星</w>
伍 </w>
刷 </w>
输 出</w>
癌 症</w>
呈 现</w>
sh ad
shi r
s in</w>
明 年</w>
mus eum</w>
tab les</w>
w asn</w>
hop es</w>
r y
川 </w>
satur day</w>
老 人</w>
思 维</w>
care ful</w>
酬 </w>
高 于</w>
公 路</w>
智 慧</w>
爆 发</w>
呼 吸</w>
you th</w>
dr ag
re move</w>
先 进</w>
dri ver</w>
fisc al</w>
环 保</w>
transpor tation</w>
f it
su gg
per man
accoun ts</w>
comm and</w>
clai ms</w>
宇 宙
religi ous</w>
il legal</w>
su it</w>
th u
定 位</w>
individu als</w>
ul ts</w>
gre en
su s</w>
sol ved</w>
引 力</w>
sour ces</w>
叫 做</w>
服 装</w>
f ro
感 受</w>
工程 师</w>
j ack</w>
捷 </w>
齐 </w>
刊 </w>
promo tion</w>
cre ative</w>
协 定</w>
h oll
appear ance</w>
et ings</w>
休 息</w>
archit ecture</w>
ver i
秒 </w>
smo o
新 加
z en</w>
ru b
grad ually</w>
新加 坡</w>
义 者</w>
身 边</w>
volu me</w>
farm ers</w>
有 力</w>
sugg es
conduc ted</w>
周 五</w>
equ ity</w>
fac ing</w>
si onal</w>
新 型</w>
main land</w>
盐 </w>
k ar
conn ected</w>
cau ght</w>
透 露</w>
pol y
fin ding</w>
杰 </w>
撞 </w>
推 荐</w>
rec ession</w>
man age</w>
sp on
mar ks</w>
confir med</w>
页 面</w>
l -
great ly</w>
锻 炼</w>
研 发</w>
introduc es</w>
reduc ing</w>
h all</w>
伯 特</w>
现 状</w>
statis tics</w>
繁 荣</w>
主 义者</w>
cer em
彻 底</w>
top ic</w>
par ag
太 太</w>
合 物</w>
ed ge</w>
sho es</w>
会 计</w>
最 多</w>
听 说</w>
性 质</w>
寻 </w>
insp ection</w>
受 伤</w>
sh ap
本 上</w>
含 有</w>
意 外</w>
股 东</w>
两 年</w>
变 量</w>
乐 观</w>
combin ed</w>
才 是</w>
phi li
di alo
fortun ately</w>
全 球
逻 辑</w>
啦 </w>
spo t</w>
h ole</w>
stat e-
激 烈</w>
po ol</w>
强 度</w>
为 此</w>
conduc t</w>
总 结</w>
冰 </w>
体 制</w>
mar i
as set</w>
exam ination</w>
实 在</w>
bure au</w>
小 型</w>
reduc tion</w>
宅 </w>
braz il</w>
此 类</w>
dise ases</w>
临 时</w>
expan sion</w>
控 制
呼 </w>
割 </w>
ali an</w>
区 别</w>
翼 </w>
一 生</w>
脂 </w>
pro to
英 镑</w>
cro ss
朵 </w>
侣 </w>
ga ther
autom atic</w>
c at</w>
恨 </w>
尤 其</w>
影 响
未 能</w>
秘 </w>
阳 光</w>
诉 讼
渴 望</w>
ow ner</w>
wou ldn</w>
m m</w>
expres sed</w>
部 署</w>
tw ice</w>
观 念</w>
at eral</w>
relation ships</w>
分 类</w>
st am
电 池</w>
几 天</w>
fil es</w>
抑 制</w>
sever e</w>
影响 力</w>
面 试</w>
对 比</w>
关 联</w>
墨西 哥</w>
l ake</w>
车 辆</w>
豆 </w>
怀 </w>
pre -
愉 快</w>
登 记</w>
op position</w>
fir ms</w>
competi tive</w>
at tribu
ag s</w>
d ated</w>
梯 </w>
lo ved</w>
糊 </w>
sol ar</w>
mag ne
广 播</w>
199 7</w>
黄 金</w>
这 座</w>
lab or
立 法</w>
fi re
assess ment</w>
银 </w>
超 级</w>
zh ang</w>
tion ing</w>
summ it</w>
suff ici
练 习</w>
figu res</w>
第 四</w>
liqui d</w>
vehic le</w>
不 少</w>
reven ue</w>
ag e
un g</w>
sing ap
oc ean</w>
s lo
复 苏</w>
尚 未</w>
gi ant</w>
par li
违 反</w>
琴 </w>
the tic</w>
假 如</w>
宁 </w>
ri c</w>
后 果</w>
certific ate</w>
sh en
足 以</w>
prote in</w>
sel ect</w>
组 件</w>
5 0%</w>
air craft</w>
宇宙 </w>
共 享</w>
desi re</w>
afgh ani
view ed</w>
纷 </w>
分 离</w>
suppor ted</w>
pri son</w>
4 7</w>
se at</w>
基 金
3 9</w>
mor al</w>
搞 </w>
家 族</w>
human s</w>
查 询</w>
atmo sphere</w>
零 </w>
intro duce</w>
酷 </w>
症 状</w>
mol ec
re al
coun ty</w>
occu p
ous ness</w>
larg ely</w>
estim ated</w>
afghani stan</w>
tre ated</w>
shi ft</w>
仔 细</w>
t ac
zer o</w>
能 否</w>
有 没有</w>
覆 盖</w>
始 终</w>
物 理</w>
已 有</w>
pro ve</w>
总 裁</w>
v ice</w>
深 刻</w>
异 常</w>
enem y</w>
慎 </w>
charac ters</w>
id ly</w>
dd en</w>
ac ted</w>
大 众</w>
经济 体</w>
k es</w>
各 项</w>
typ ical</w>
贝 尔</w>
part ner
愤 怒</w>
膨 胀</w>
罗 马</w>
却 是</w>
is ing</w>
写 道</w>
b ol
ok ay</w>
4 2</w>
s now</w>
幸 运</w>
ga p</w>
g ment</w>
寄 </w>
gu ard</w>
贫 困</w>
白 色</w>
disci pl
pres ented</w>
舍 </w>
it aly</w>
sett l
万 人</w>
199 9</w>
mo tiv
employe e</w>
提 议</w>
te en
expl ore</w>
gon na</w>
in put</w>
no vel</w>
compu ters</w>
s si
sp ac
detail ed</w>
paki stan</w>
fini sh</w>
atti tude</w>
remo te</w>
conven tion</w>
司 法</w>
脂 肪
hou ses</w>
democr acy</w>
ex ports</w>
屏 幕</w>
微 笑</w>
何 人</w>
肥 </w>
首 都</w>
l au
放 松</w>
mu tual</w>
propos al</w>
指 责</w>
an xi
soli d</w>
近 年</w>
b ound</w>
stor es</w>
性 别</w>
cr y
cat ch</w>
ib m</w>
编 </w>
轻 松</w>
ne i
ve -
tro ops</w>
v or
sh owing</w>
mo stly</w>
乔 治</w>
缺 陷</w>
exper t</w>
eur o</w>
李 </w>
撑 </w>
isl am
n ings</w>
机 关</w>
发 射</w>
行 车</w>
rel ative</w>
基金 会</w>
sym p
支 持
cre ation</w>
争 论</w>
粮 食</w>
pe t</w>
警 </w>
人 力</w>
代表 团</w>
enter ed</w>
gi ft</w>
trans formation</w>
philos oph
di vision</w>
v enti
sp r
ing ing</w>
cl oud</w>
con fig
camer a</w>
县 </w>
as ing</w>
吨 </w>
mem ber
s sing</w>
promo ting</w>
资 格</w>
产 量</w>
p are</w>
吸 收</w>
o li
c ool</w>
过 于</w>
订 单</w>
fr ag
醇 </w>
wed ding</w>
ess ential</w>
琳 </w>
到 来</w>
教 堂</w>
s ad</w>
du </w>
parame ters</w>
inter ven
ide al</w>
electri city</w>
疑 问</w>
源 于</w>
阅 </w>
u t
re action</w>
li f
en ess</w>
n ic</w>
决 心</w>
敌 人</w>
i ous</w>
明 星</w>
8 00</w>
th or
- up</w>
cop y</w>
int ell
二 次</w>
tain ing</w>
ap p</w>
t aste</w>
极 大</w>
so -
壳 </w>
地 面</w>
小 孩</w>
doc tors</w>
晰 </w>
2 6
最 为</w>
ec es</w>
栏 </w>
cl asses</w>
al ty</w>
治 理</w>
慢 慢</w>
bir d</w>
pu s</w>
一 周</w>
rap idly</w>
带 有</w>
consist ent</w>
统 治</w>
ne ar
contin ues</w>
齿 </w>
特 色</w>
娱 乐</w>
exi st</w>
t ari
persp ective</w>
strai ght</w>
is ation</w>
reg ulation</w>
man i
周 三</w>
pre pare</w>
stu dying</w>
process es</w>
成 分</w>
英 尺</w>
过 度</w>
sou l</w>
采 </w>
revol ution</w>
t asks</w>
开 支</w>
im port</w>
ren e
两 人</w>
thou ghts</w>
泡 </w>
地 图</w>
magaz ine</w>
扣 </w>
pro fits</w>
任 何人</w>
sim ul
精 力</w>
wonder ful</w>
论 坛</w>
h ang
税 收</w>
a de
j um
serv ed</w>
universi ties</w>
ro ot</w>
be t</w>
in her
e over</w>
har ry</w>
sel ection</w>
p a</w>
b le
qu ick</w>
te ach</w>
identi ty</w>
互 相</w>
prin t</w>
swe et</w>
we aring</w>
克 林
博 客</w>
依 靠</w>
| </w>
cont ain</w>
no ted</w>
smi th</w>
sug ar</w>
wh om</w>
defin ition</w>
in ju
协 商</w>
plan ned</w>
生 意</w>
4 4</w>
appoin ted</w>
t ate</w>
突 出</w>
cu tting</w>
descri be</w>
f ans</w>
sat elli
fer red</w>
ti s</w>
租 </w>
文 本</w>
proce d
信 仰</w>
合 法</w>
欲 </w>
擎 </w>
骗 </w>
夏 天</w>
sensi tive</w>
克 兰</w>
学 位</w>
cir cu
shar ed</w>
可 怕</w>
wal ked</w>
ti tle</w>
单 独</w>
f are</w>
迹 象</w>
th ro
wat er
compens ation</w>
z o
sli ghtly</w>
199 0</w>
con stant</w>
立 场</w>
下 载</w>
s and
履 行</w>
不 良</w>
ap s</w>
廉 </w>
op tions</w>
极 端</w>
earthqu ake</w>
un able</w>
付 出</w>
econom ics</w>
跟 踪</w>
跨 </w>
gg ing</w>
开 心</w>
h t
诉讼 </w>
串 </w>
心 里</w>
on ing</w>
per form</w>
w o
quar ters</w>
min ing</w>
call ing</w>
wri ter</w>
pack age</w>
contr ast</w>
integr ated</w>
respon d</w>
dri ven</w>
负 责
文 明</w>
wi s
hom es</w>
国 有</w>
v es
ell ed</w>
5 5</w>
案 例</w>
铁 路</w>
achiev ed</w>
桶 </w>
em issions</w>
发 言</w>
退 休</w>
tr ump</w>
me d
in stance</w>
保 罗</w>
gre w</w>
ro bert</w>
di et</w>
灾 难</w>
引 擎</w>
lad y</w>
出 席</w>
执行 官</w>
回 报</w>
great est</w>
war ning</w>
hy dr
app ing</w>
曲 线</w>
失 望</w>
lik es</w>
convers ation</w>
parag rap
青 年</w>
振 </w>
纤 维</w>
泥 </w>
h a</w>
rec ru
re vi
j ected</w>
inv est</w>
emo tional</w>
hol ds</w>
stoc ks</w>
le e</w>
commit ted</w>
preven tion</w>
西 部</w>
y a</w>
瑟 </w>
会 儿</w>
ger y</w>
jour ney</w>
pre gn
福 利</w>
s ounds</w>
采 购</w>
wh er
s anc
ch u
文 字</w>
谐 </w>
re pu
ce o</w>
土 耳
南 非</w>
in ner</w>
主 权</w>
土耳 其</w>
feel ings</w>
sil ver</w>
这 时</w>
不 必</w>
b bc</w>
虚 拟</w>
火 车</w>
bran ch</w>
渡 </w>
2 8
氧 </w>
负责 人</w>
战 斗</w>
c n
兴 奋</w>
vehic les</w>
h i</w>
促 使</w>
ess ed</w>
l em
照 顾</w>
car ds</w>
bili ties</w>
z a</w>
什 么样</w>
纪 录</w>
白 宫</w>
entrepren eur
off ered</w>
cham pi
me etings</w>
depen ds</w>
负 担</w>
滩 </w>
mort g
储 备</w>
our selves</w>
冠 军</w>
land sc
comm ents</w>
为 何</w>
代 价</w>
沃 </w>
瓜 </w>
主 人</w>
spo ke</w>
抓 住</w>
青 少年</w>
瑞 士</w>
singap ore</w>
de fault</w>
标 签</w>
不 安</w>
f air
调 用</w>
gni tion</w>
f ail</w>
生 日</w>
sugge sted</w>
k is
4 6</w>
美 洲</w>
im f</w>
pain ting</w>
surpri sed</w>
de ad
ec </w>
wil d</w>
c ket</w>
k ing
d ness</w>
n asty</w>
agri culture</w>
sex ual</w>
ch ick
experim ental</w>
克林 顿</w>
stic k</w>
厌 </w>
各 自</w>
pic s</w>
intell ec
选 民</w>
val ent</w>
赢 </w>
fall en</w>
it em</w>
schem e</w>
regi stration</w>
bir ds</w>
驱 动</w>
o xi
升 级</w>
激 励</w>
al co
valu able</w>
cor ner</w>
r o</w>
bo ys</w>
偷 </w>
cul tiv
presi dential</w>
晶 </w>
析 </w>
199 8</w>
ti ous</w>
缝 </w>
伸 </w>
艰 难</w>
un employment</w>
形 势</w>
灵 魂</w>
公 约</w>
particip ants</w>
di sh</w>
重 建</w>
路 上</w>
fun ding</w>
difficul ties</w>
裔 </w>
fai th</w>
volun te
中 文</w>
哪 个</w>
r am</w>
遭 遇</w>
开 发
is o
li sting</w>
lo s</w>
愈 </w>
the ore
世 界
中 华</w>
terr ori
反 对
min us</w>
bro ke</w>
ob viously</w>
嘴 </w>
v an
ma them
be at</w>
photo graph
emp ty</w>
p air</w>
清 晰</w>
end a</w>
dr am
大 楼</w>
x ing</w>
f ast
r and
nei ther</w>
d ul
取 代</w>
hor se</w>
定 期</w>
清 洁</w>
gol den</w>
信 用
ti s
泳 </w>
现 代
并 未</w>
法 规</w>
con vin
au ght</w>
贸 </w>
bor row
许 可</w>
要 么</w>
pi eces</w>
coll abor
ch ea
lab our</w>
exam ples</w>
ste ad
re publi
si bilities</w>
si </w>
就 是说</w>
lead s</w>
z i
淡 </w>
lin ked</w>
speci fic
年 内</w>
学 术</w>
mist ake</w>
ra w</w>
冒 </w>
pho to</w>
kn ess</w>
ak ed</w>
accep ted</w>
旗 </w>
vir tual</w>
maxim um</w>
4 1</w>
玛 丽</w>
湿 </w>
off ering</w>
艺术 家</w>
3 d</w>
加 以</w>
no tic
湖 </w>
矛 盾</w>
pu tting</w>
臂 </w>
自 行车</w>
mak er</w>
cerem ony</w>
si ght</w>
depart ments</w>
list ening</w>
shar ing</w>
arm ed</w>
dee ply</w>
correspon ding</w>
难 民</w>
场 景</w>
batt le</w>
蓝 色</w>
阐 述</w>
一 本</w>
sim ulation</w>
如 下</w>
ad dre
后 者</w>
召 开</w>
旋 </w>
黑 暗</w>
黑 色</w>
fif th</w>
ro ll</w>
su e</w>
ath le
顺 利</w>
酶 </w>
emp ha
birth day</w>
qui et</w>
导 弹</w>
可 持续</w>
experi enced</w>
republi can</w>
ec tions</w>
pos sibility</w>
公 寓
b one</w>
b o</w>
egy pt</w>
techni ques</w>
tu m</w>
cont ain
年 后</w>
孕 </w>
a str
销 售
z er</w>
研究 所</w>
stre ets</w>
役 </w>
p ounds</w>
ch el
今 后</w>
出 于</w>
t ells</w>
欧 元
诸 如</w>
clo ser</w>
pri ority</w>
pres ence</w>
pal est
写 作</w>
sc ar
欧元 区</w>
妻 </w>
de fic
re place</w>
thu si
设 定</w>
bl es</w>
ro yal</w>
乙 方</w>
an ni
shou l
纯 </w>
姆 斯</w>
会 谈</w>
de pression</w>
便 宜</w>
surpri se</w>
可 用</w>
勃 </w>
co ast</w>
观 看</w>
免 疫</w>
h ate</w>
gr av
时 报</w>
猪 </w>
耀 </w>
甲 方</w>
monit or</w>
hu a</w>
ton ight</w>
th ly</w>
注 意
认 知</w>
visu al</w>
注意 力</w>
stan tly</w>
sur gery</w>
c el
宪 法</w>
讲 述</w>
en thusi
bu ff
h in
内 外</w>
提 前</w>
谈 话</w>
fr ame</w>
m om</w>
enh ance</w>
x es</w>
资 助</w>
干 预</w>
胖 </w>
u pper</w>
adju st
艘 </w>
seri ously</w>
in spi
th om
my ster
周 四</w>
肿 瘤</w>
plan et</w>
commit ment</w>
vic tory</w>
est er</w>
4 3</w>
mexic o</w>
ha i
频 率</w>
较 高</w>
ail s</w>
条 例</w>
抱 歉</w>
排 名</w>
tax es</w>
exhibi tion</w>
perman ent</w>
sch e
乌 克兰</w>
op tion</w>
t elling</w>
mis sing</w>
g un
ang er</w>
p aying</w>
殖 </w>
to x
名 为</w>
响 应</w>
心 理学</w>
形 态</w>
friend ship</w>
转 向</w>
fe ed</w>
场 所</w>
lo an</w>
番 </w>
cour ses</w>
名 单</w>
bl ack
至 今</w>
色 彩</w>
自 信</w>
冲 击</w>
多 次</w>
f ab
e .
e ag
体 重</w>
账 户</w>
今 日</w>
爱 的</w>
亲 爱的</w>
嗯 </w>
is ol
ti m</w>
证 书</w>
杰 克</w>
expl ained</w>
fin ancing</w>
war ds</w>
泽 </w>
辩 论</w>
d ency</w>
桌 </w>
thou </w>
外 面</w>
th in</w>
l or
won der</w>
阶 级</w>
付 款</w>
manag ed</w>
enter tain
ri d</w>
人 体</w>
k no
ty -
smo king</w>
du res</w>
acc um
stor m</w>
dre ams</w>
realiz ed</w>
jo y</w>
第二 个</w>
le ague</w>
饼 </w>
泰 国</w>
婚 礼</w>
medi um</w>
signific ance</w>
b ay</w>
ani sh</w>
巴 勒
com ment</w>
尽 可能</w>
通 讯</w>
r at
客 人</w>
communic ate</w>
近 期</w>
shor t-
蓝 </w>
圣诞 </w>
mechan ical</w>
3 0%</w>
te en</w>
x in
两 次</w>
袭 </w>
lo sses</w>
comm uni
内 心</w>
prom ise</w>
gre ece</w>
patter ns</w>
proced ure</w>
mathem ati
擦 </w>
回 忆</w>
b ad
o es</w>
g ates</w>
2 7
专 利</w>
recomm end
basi cally</w>
so ver
实 例</w>
布 斯</w>
expec tations</w>
华 尔
因 而</w>
sh an</w>
introduc tion</w>
一 面</w>
司 机</w>
grap h</w>
op posite</w>
or dered</w>
he ight</w>
黄 </w>
g ro
sover ei
rai sing</w>
spor t</w>
本 书</w>
tal ked</w>
列 表</w>
走 向</w>
lo sing</w>
土 壤</w>
mo tor</w>
mar ine</w>
ag enda</w>
ho t
coun ter</w>
医 </w>
que en</w>
accur ate</w>
ar re
tu s</w>
ap pl
hom e
gu ess</w>
草 案</w>
reg ard</w>
phenomen on</w>
1 -
人 工</w>
沫 </w>
in c</w>
引 导</w>
arti cles</w>
att empt</w>
不 知</w>
认 可</w>
gol d
箭 </w>
circum stances</w>
敏 感</w>
本 质</w>
transl ation</w>
refl ect</w>
bar ack</w>
or al</w>
reli ef</w>
gene tic</w>
格 式</w>
更 改</w>
扩 张</w>
k -
wor ried</w>
太 空</w>
两 者</w>
reli able</w>
ach e</w>
bro thers</w>
du m
涉 </w>
der ly</w>
设计 师</w>
de ar</w>
创 造
轨 道</w>
挤 </w>
ju di
all owing</w>
层 次</w>
represent atives</w>
较 大</w>
sal ary</w>
无 论是</w>
g a</w>
佩 </w>
tal ent</w>
bu b
加 快</w>
尔 兰</w>
execu tives</w>
te sted</w>
大 大</w>
困 境</w>
foun ded</w>
a f</w>
俩 </w>
合 并</w>
te ams</w>
o be
per si
it arian</w>
prin ce</w>
st o
drin king</w>
proce dures</w>
fil ms</w>
stor ed</w>
悦 </w>
chea p</w>
0 -
仪 式</w>
查 看</w>
仿 </w>
draw ing</w>
是 以</w>
sel ected</w>
uni vers
val ley</w>
梁 </w>
2 :
爱 尔兰</w>
裕 </w>
sche dule</w>
睡 觉</w>
continu ous</w>
moun tains</w>
流 感</w>
复 制</w>
度 过</w>
r out
t ance</w>
吹 </w>
黑 人</w>
tem porary</w>
swit ch</w>
英 格兰</w>
evi l</w>
ke t
s ons</w>
pri ze</w>
li u</w>
p ure</w>
olym pics</w>
汁 </w>
今 晚</w>
c ry</w>
音 乐
引 入</w>
哭 </w>
recogn ize</w>
血 管</w>
boo st</w>
corru ption</w>
si zed</w>
de aling</w>
公寓 </w>
线 性</w>
h am</w>
success fully</w>
attrac tive</w>
理 性</w>
t une</w>
薪 </w>
w ing</w>
dang er</w>
基 本上</w>
活 性</w>
strong er</w>
活 力</w>
国 民</w>
大 学生</w>
尖 </w>
随 时</w>
pre ce
her self</w>
re min
tion ally</w>
str ing</w>
与 其</w>
受 害
pro p
di um</w>
g y
ar en</w>
custom s</w>
tran spar
join ed</w>
那 天</w>
驾 驶</w>
中 东</w>
漏 </w>
领 土</w>
混 乱</w>
il ing</w>
uk rain
远 远</w>
luc ky</w>
resc ue</w>
金 钱</w>
visi tors</w>
引 用</w>
职 责</w>
con ce
腺 </w>
k id
目 录</w>
em bar
r m
cu ts</w>
夫 妇</w>
庄 </w>
sus pen
参 观</w>
q i</w>
mi d-
几 十</w>
ain ts</w>
故 障</w>
suppor ting</w>
sav ing</w>
破 产</w>
doc um
惜 </w>
简 </w>
satis fied</w>
可 以
由 此</w>
mar k
主 动</w>
英 雄</w>
象 征</w>
否 认</w>
最 有</w>
co ol
mr s.</w>
可以 说</w>
局 势</w>
生 物
闲 </w>
m al</w>
约 会</w>
war ned</w>
f an</w>
shar p</w>
th ri
sp ain</w>
尽 量</w>
de vi
衫 </w>
以 往</w>
涯 </w>
ti an</w>
stri ct</w>
suffici ent</w>
糟 </w>
申 请
加 速</w>
争 取</w>
多 样
bi a</w>
荷 兰</w>
har der</w>
华尔 街</w>
规 律</w>
部 件</w>
谈 到</w>
雇 员</w>
lun ch</w>
出 版
天 然
person ality</w>
is ms</w>
ret ail</w>
首 相</w>
聊 </w>
至 关</w>
检 </w>
谊 </w>
而 已</w>
视 觉</w>
am ing</w>
耳 </w>
本 来</w>
gen e</w>
点 儿</w>
refu ge
有 利于</w>
命 运</w>
监 控</w>
acqui si
剩 下</w>
de struc
v ast</w>
organ ic</w>
r or</w>
colum n</w>
d ong</w>
them e</w>
脂肪 </w>
衡 量</w>
f ar
descri ption</w>
雾 </w>
w ai
v acc
各 方</w>
疫 苗</w>
lin ear</w>
del ay</w>
pi d</w>
巴勒 斯坦</w>
repres ent</w>
对 外</w>
监 狱</w>
讶 </w>
背 后</w>
regi stered</w>
pr oud</w>
l ands</w>
transi tion</w>
会 上</w>
领 先</w>
单 元</w>
津 </w>
蓄 </w>
chr on
惊 讶</w>
cross -
fl at</w>
乘 客</w>
下 滑</w>
怎 么
此 时</w>
委 </w>
吻 </w>
require ment</w>
br ands</w>
围 绕</w>
radi ation</w>
和 谐</w>
肠 </w>
candi date</w>
ag gres
馈 </w>
practic es</w>
q ing</w>
p el
边 界</w>
communic ations</w>
ac le</w>
repres ents</w>
d or
n one</w>
吸 引力</w>
基 督
家 长</w>
re in
国务 院</w>
替 代</w>
谋 </w>
贫 穷</w>
assi stant</w>
acti vely</w>
isl ands</w>
pre viously</w>
标 记</w>
bu tton</w>
研究 者</w>
on e
斗 争</w>
暗 示</w>
r ational</w>
v enture</w>
不 见</w>
憾 </w>
理 会</w>
cap tain</w>
喜 爱</w>
点 击</w>
敏 </w>
打 破</w>
腐 败</w>
艾 滋
photo s</w>
mat ters</w>
ri o
昂 </w>
周 日</w>
entertain ment</w>
天然 气</w>
股 价</w>
me ter</w>
cry st
tin y</w>
degre es</w>
这 会</w>
be sides</w>
谨 慎</w>
9 9</w>
fundam ental</w>
情 形</w>
sc o</w>
创 业</w>
t n
landsc ape</w>
常 规</w>
atten d</w>
beg un</w>
transm ission</w>
es h</w>
ul es</w>
ch air</w>
链 接</w>
c ks</w>
do gs</w>
hard ware</w>
fac tion</w>
de pu
莫 </w>
sch ed
own ers</w>
爬 </w>
海 军</w>
两 位</w>
vic tim
head s</w>
con cep
动 性</w>
lo ts</w>
is es</w>
忽 视</w>
foo ds</w>
手 中</w>
hosp it
展 现</w>
minim um</w>
hor iz
bre a
smo ke</w>
t ons</w>
ro oms</w>
极 其</w>
失 业</w>
边 缘</w>
strate gies</w>
alco ho
sal t</w>
consider ing</w>
企 业
使 用
究 </w>
di r
swi m
n av
aw ard</w>
d ged</w>
成 员国</w>
paragrap h</w>
negoti ations</w>
fl ying</w>
装 饰</w>
for ever</w>
per ce
合 成</w>
之 所以</w>
mess ages</w>
三 年</w>
出 发</w>
see king</w>
per cent
discus ses</w>
ques tion
det ail</w>
高 管</w>
峰 会</w>
posi tions</w>
d a
eth nic</w>
fac ts</w>
施 工</w>
廷 </w>
net works</w>
ex tent</w>
ex plan
pleas ure</w>
支 撑</w>
经 典</w>
indepen dence</w>
l ay</w>
partner ship</w>
vi sible</w>
发 起</w>
em pi
m ass
窗 </w>
analy zes</w>
terri tory</w>
如 同</w>
减 轻</w>
地 上</w>
很 高</w>
尺 寸</w>
g ations</w>
ex am</w>
保 健</w>
victim s</w>
attr act</w>
prepar ation</w>
ograph y</w>
b ow
启 </w>
f icial</w>
ox y
j am
质 疑</w>
情 报</w>
以 此</w>
郁 </w>
langu ages</w>
比 尔</w>
it alian</w>
lux ury</w>
躺 </w>
斯 林</w>
选 项</w>
develop ers</w>
尼 斯</w>
th row</w>
pe ak</w>
de al
gu il
em br
优 </w>
autom atically</w>
strugg le</w>
蚀 </w>
en tr
辞 </w>
天 空</w>
dialo gue</w>
中 方</w>
mat ure</w>
岗 位</w>
旁 边</w>
pro of</w>
config uration</w>
对 不起</w>
哪 儿</w>
艇 </w>
实 体</w>
心 脏</w>
elec tro
辐 射</w>
立 刻</w>
姓 </w>
一 支</w>
疯 狂</w>
guid ance</w>
主 意</w>
op en
circu it</w>
equi valent</w>
au t
泡 沫</w>
bro ad</w>
po st-
acc used</w>
又 是</w>
雇 主</w>
节 日</w>
饿 </w>
199 1</w>
pro per</w>
re ti
f on
hel lo</w>
通 胀</w>
run s</w>
collap se</w>
deli ver</w>
条 约</w>
estim ate</w>
consequ ences</w>
纪 念</w>
资 讯</w>
repu tation</w>
exi stence</w>
we i</w>
fe e</w>
蛋 白
ad vi
politici ans</w>
拉 里</w>
proper ly</w>
种 类</w>
conveni ent</w>
palest ini
ar bit
形 状</w>
迄 今</w>
dy nasty</w>
制 品</w>
人 道</w>
suppor ts</w>
plac ement</w>
r ac
syst em
主 张</w>
vul ner
蔬 菜</w>
出 色</w>
掘 </w>
chil d
海 岸</w>
再 也</w>
表 格</w>
suff ering</w>
vi br
住 宅</w>
整 合</w>
高 效</w>
grow n</w>
偶 </w>
简 直</w>
肌 肉</w>
家 伙</w>
相 当
相当 于</w>
secon ds</w>
im m
鉴 于</w>
1 st</w>
g un</w>
没 什么</w>
peri o
an o</w>
char ges</w>
那 位</w>
摆 脱</w>
逐 步</w>
队 伍</w>
物 种</w>
hy po
ki m</w>
创 意</w>
organiz ed</w>
foll ows</w>
joh n
泰 </w>
man ner</w>
阔 </w>
poin ted</w>
w ol
分 为</w>
c asi
star ts</w>
zh en</w>
let ters</w>
管 制</w>
secre tar
en try</w>
concentr ation</w>
水 果</w>
延 长</w>
言 论</w>
s la
留 在</w>
contribu tion</w>
gen der</w>
配 合</w>
国 际
住 房</w>
e pi
夹 </w>
dep th</w>
梅 </w>
ingu i
h em
stan ds</w>
遗 憾</w>
r a</w>
clai med</w>
穿 过</w>
fal se</w>
一 道</w>
v als</w>
原 始</w>
薄 </w>
承 受</w>
穆 斯林</w>
模 块</w>
clo thing</w>
之 际</w>
调 节</w>
讨 厌</w>
he aring</w>
be l</w>
car rying</w>
暂 时</w>
哈 利</w>
in ev
ca using</w>
fl ower</w>
reco gnition</w>
7 00</w>
communi st</w>
visi ted</w>
de fe
5 2</w>
for e
kit chen</w>
忍 </w>
性 格</w>
tol er
处 在</w>
theore tical</w>
ac comp
架 构</w>
t elec
扫 </w>
tic ket</w>
对 抗</w>
wis dom</w>
秘 书</w>
ai m</w>
t s
li t</w>
稳 </w>
t aught</w>
参 与
逐 </w>
玩 具</w>
进 来</w>
peac eful</w>
si ck</w>
审 </w>
细 菌</w>
l as
六 个</w>
sent ence</w>
n avi
intellec tual</w>
h ill</w>
大 选</w>
转 化</w>
struc tural</w>
生 涯</w>
期 限</w>
cir cle</w>
compar ison</w>
psych ological</w>
主 导</w>
cam pus</w>
聚 集</w>
究 竟</w>
an tic</w>
re ci
so- called</w>
密 度</w>
词 汇</w>
pul l</w>
argu ment</w>
p ages</w>
饮 料</w>
血 液</w>
particip ation</w>
接 收</w>
s q
escap e</w>
bl an
flexi ble</w>
ex po
制 裁</w>
铺 </w>
se es</w>
stu ff</w>
信 用</w>
布 朗</w>
有 机</w>
扫 描
the ast</w>
本 国</w>
空 中</w>
斯 特</w>
ob tain</w>
mist akes</w>
char ged</w>
defin e</w>
on to</w>
女 子</w>
腔 </w>
calcul ation</w>
an e</w>
func tional</w>
trans action</w>
win ning</w>
一 方</w>
竞争 力</w>
御 </w>
尔 斯</w>
f arm</w>
uc k</w>
tru ly</w>
te dly</w>
层 面</w>
mus li
don e
att emp
ash ed</w>
力 学</w>
可 爱</w>
me al</w>
长 大</w>
oxi de</w>
sec ure</w>
e gg
contro ls</w>
股 权</w>
identi fied</w>
修 复</w>
克 力</w>
2 ,
labor atory</w>
implem ented</w>
举 措</w>
绘 </w>
pri son
q i
芬 </w>
渠 道</w>
foun der</w>
un like</w>
in al</w>
arbit r
candi dates</w>
赶 </w>
4 0%</w>
tra dition</w>
u ri
网 页</w>
提 取</w>
syri a</w>
慰 </w>
fac ed</w>
摸 </w>
sup pl
不 如</w>
被 迫</w>
号 码</w>
percent age</w>
touri sts</w>
worl d
ann a</w>
循 </w>
ban k
初 步</w>
analy ze</w>
p in
extre me</w>
胆 </w>
re turns</w>
comfor t</w>
gu ests</w>
招 聘</w>
ch oc
ter ing</w>
govern or</w>
名 叫</w>
面 向</w>
pro secu
techn ological</w>
gener ated</w>
消 耗</w>
姑 娘</w>
in done
bl u
宣 称</w>
巧 克力</w>
ri min
马 克</w>
oc casi
融 合</w>
样 本</w>
australi an</w>
spec tr
死 了</w>
br ings</w>
准 则</w>
尽 快</w>
prof ile</w>
其 次</w>
匹 配</w>
厨 房</w>
h tt
fu sion</w>
y u</w>
节 点</w>
ad just</w>
symp tom
i ved</w>
返 </w>
rep lied</w>
appe al</w>
ph arm
1 ,000</w>
左 </w>
冒 险</w>
law yer</w>
喊 </w>
年 底</w>
ologi st</w>
五 年</w>
5 1</w>
劳 动力</w>
编 写</w>
冠 </w>
g all
浆 </w>
始 人</w>
药 品</w>
早 晨</w>
面 包</w>
事 项</w>
vari able</w>
韩 </w>
遭 </w>
inf ection</w>
帝 国</w>
sam ples</w>
cur ve</w>
bo y
沃 尔
百分 之</w>
可 见</w>
史 密
sc or
gh ten
潜 力</w>
哲 学</w>
k illing</w>
l augh
d ust</w>
ar ts</w>
赤 字</w>
bil ateral</w>
早 些</w>
rich ard</w>
甸 </w>
quanti ty</w>
willi am</w>
l l
mor eover</w>
2 -
t ough</w>
钮 </w>
地 理</w>
ol ate</w>
de als</w>
parli ament</w>
财 </w>
教 练</w>
mo od</w>
ro id</w>
kil ome
d un
every body</w>
succe ed</w>
舒 适</w>
熊 </w>
chick en</w>
tele phone</w>
将 要</w>
政 治
w er</w>
der ing</w>
欣 赏</w>
per su
攻 </w>
呈 </w>
d ol
depu ty</w>
t ower</w>
reve aled</w>
conn ect</w>
紧 密</w>
铜 </w>
du ty</w>
4 0
draw n</w>
as is</w>
sum mar
satelli te</w>
3 :
泵 </w>
adv oc
高 中</w>
aut onom
一 会儿</w>
fin dings</w>
柜 </w>
裤 </w>
r on</w>
业 化</w>
un fortunately</w>
y- general</w>
享 有</w>
枚 </w>
ad ults</w>
份 额</w>
每 周</w>
3 -
measu rement</w>
settl ement</w>
到 处</w>
fi sh
干 扰</w>
太 平
therap y</w>
生 气</w>
su </w>
movi es</w>
地 下</w>
起 到</w>
experi ences</w>
chin a-
we igh
恒 </w>
complic ated</w>
e ds</w>
fer tili
tori al</w>
申 </w>
begin s</w>
董 事会</w>
mo tion</w>
cam p</w>
产 权</w>
二 十</w>
rene w
im por
删 除</w>
don ald</w>
古 老</w>
长 度</w>
学 科</w>
bi d</w>
pi pe</w>
附 </w>
inv ited</w>
struc tures</w>
测 定</w>
mor gan</w>
用 途</w>
稿 </w>
缺 少</w>
春 </w>
dele gation</w>
cra zy</w>
单 词</w>
集 成</w>
ai med</w>
超 越</w>
treas ury</w>
自 杀</w>
命 名</w>
实 力</w>
ali ve</w>
r ent</w>
pre fer</w>
无 疑</w>
s al</w>
sh r
me ant</w>
pl ing</w>
ec ological</w>
魅 力</w>
fe ed
rep air</w>
ar di
prom ised</w>
gl ad</w>
利 比亚</w>
j ack
友 谊</w>
之 内</w>
ac tors</w>
阀 </w>
粹 </w>
克 服</w>
构 造</w>
布 鲁
passeng ers</w>
st ro
不 满</w>
speci fied</w>
disc rimin
不 可
govern ance</w>
se l</w>
活 跃</w>
傲 </w>
satis faction</w>
新 鲜</w>
忘 了</w>
进 去</w>
te ars</w>
pan el</w>
模 糊</w>
政 党</w>
blo g</w>
ser vers</w>
创 始人</w>
on er</w>
destro yed</w>
per formed</w>
难 道</w>
助 理</w>
formul a</w>
p ace</w>
super vision</w>
好 好</w>
pro portion</w>
去 世</w>
金 额</w>
sub stan
勤 </w>
c m</w>
噢 </w>
改 造</w>
传 输</w>
室 内</w>
p un
lic ense</w>
支持 者</w>
cont em
阻 碍</w>
exec ution</w>
缓 慢</w>
广 场</w>
越 南</w>
and re
毕 业
当 今</w>
tur key</w>
占 据</w>
regul atory</w>
vo ters</w>
diagno sis</w>
摆 </w>
remo ved</w>
um s</w>
某 人</w>
9 5</w>
academ y</w>
集 体</w>
tem ple</w>
前 进</w>
漠 </w>
cho sen</w>
接 口</w>
每 日</w>
wh it
一 大</w>
回 归</w>
同 性
同性 恋</w>
inter action</w>
歧 视</w>
看 出</w>
迈 克尔</w>
聚 会</w>
econom ist</w>
disp ute</w>
bri ef
管 道</w>
a o
coordin ation</w>
symptom s</w>
ap art</w>
uni verse</w>
搬 </w>
ai ds</w>
斯 科</w>
上 午</w>
ner v
零 售
det ection</w>
crow d</w>
v ements</w>
矶 </w>
hon est</w>
ali ties</w>
secretar y-general</w>
斥 </w>
老 鼠</w>
生 素</w>
f ts</w>
人 和</w>
惩 罚</w>
旋 转</w>
luc k</w>
抵 押</w>
rail way</w>
框 </w>
太平 洋</w>
拔 </w>
寿 命</w>
produc tive</w>
硬 件</w>
pro b
有 利</w>
philosoph y</w>
ar ab
pl u
every where</w>
invest ments</w>
ref ers</w>
涂 </w>
inci dent</w>
浓 度</w>
lin ks</w>
界 面</w>
equ ation</w>
se ven
阳 </w>
be an</w>
告 知</w>
reserv es</w>
d ay
伐 </w>
慈 善</w>
confi dent</w>
pow ers</w>
hy per
庞 大</w>
fre e
密 码</w>
bi ological</w>
con str
迫 使</w>
退 出</w>
ex changes</w>
现代 化</w>
lo g</w>
critici sm</w>
to ky
通 道</w>
下 列</w>
re gre
machin es</w>
马 斯</w>
加 大</w>
级 别</w>
高 达</w>
史密 斯</w>
摘 </w>
hi v</w>
coll ect</w>
系 数</w>
方 程</w>
gre ek</w>
桌 子</w>
差 不多</w>
多 大</w>
oper ative</w>
sc ore</w>
物 体</w>
mas sive</w>
su res</w>
inj ury</w>
offic ers</w>
ade qu
指 示</w>
alter native</w>
8 5</w>
精 确</w>
年 中</w>
deposi t</w>
y l
蠢 </w>
harv ard</w>
di vor
塑 料</w>
achiev ements</w>
设 法</w>
in str
acti v
for th</w>
gener ate</w>
时 光</w>
忘 </w>
mi xed</w>
illu str
for cement</w>
十 二
盈 利</w>
ex posed</w>
w ake</w>
彼 得</w>
install ation</w>
ti le</w>
更 是</w>
境 内</w>
pu tin</w>
resp ectively</w>
ou </w>
想 起</w>
be ach</w>
共 有</w>
1. 5</w>
sav ings</w>
inv ent
专 注</w>
determin ation</w>
五 个</w>
千 万</w>
年 间</w>
神 秘</w>
and -
前 提</w>
外 汇</w>
填 </w>
gg ed</w>
sel s</w>
evol ution</w>
绿 </w>
gr ass</w>
蛋白 质</w>
eng aged</w>
予 以</w>
bre ad</w>
difficul ty</w>
高 等</w>
史 蒂
受害 者</w>
2. 5</w>
ch ic
en e</w>
郎 </w>
行 星</w>
con stantly</w>
dom ain</w>
heav en</w>
up date</w>
个 体</w>
ar k</w>
terri ble</w>
损 伤</w>
l ers</w>
毕 竟</w>
随 机</w>
通 货</w>
sle e
炭 </w>
忽 略</w>
歧 </w>
under stood</w>
麻 </w>
appoin tment</w>
议 程</w>
恶 化</w>
adjust ment</w>
e e
descri bes</w>
he y</w>
浏 览
业 绩</w>
sched ul
men tion</w>
花 园</w>
she et</w>
w ill
stu di
val ve</w>
k ni
ar gue</w>
洛 杉
r ar
econom ists</w>
必 然</w>
regi me</w>
危 害</w>
拿 到</w>
反 馈</w>
toky o</w>
文 献</w>
东 京</w>
东 部</w>
bel t</w>
存 款</w>
suff er</w>
补 偿</w>
li p
青 </w>
庆 </w>
6 4</w>
吓 </w>
in duc
exten d</w>
毕业 生</w>
ad ed</w>
苏 格兰</w>
ang e</w>
扩 散</w>
mar tin</w>
既 然</w>
log istics</w>
deli vered</w>
丧 </w>
an -
伏 </w>
fi es</w>
house hold</w>
su m</w>
制造 业</w>
answ ered</w>
心 情</w>
a .
dec or
isra eli
ty pic
罩 </w>
terr or
inten ded</w>
1 20</w>
济 </w>
磁 </w>
exc use</w>
smoo th</w>
刚 才</w>
负 面</w>
conserv ative</w>
ti me
昂 贵</w>
种 植</w>
at om
measu red</w>
electri cal</w>
单 一</w>
如 说</w>
心 中</w>
pe tro
廊 </w>
af ford</w>
th row
re public
c able</w>
各 样</w>
伴 侣</w>
al leg
找 出</w>
ei gh
symbo l</w>
sugges tions</w>
代 替</w>
col or
附 件</w>
互 动</w>
ip ad</w>
pers ons</w>
10 .
s and</w>
pow der</w>
局 面</w>
洛杉 矶</w>
out standing</w>
tan e
ha bit
一 台</w>
5 3</w>
fe es</w>
差 距</w>
护 理</w>
味 道</w>
最 小</w>
盗 </w>
n is</w>
as m</w>
上 班</w>
终 止</w>
赔 偿</w>
fil ter</w>
te eth</w>
观 察
哈 佛</w>
typic ally</w>
燃 烧</w>
团 结</w>
shi pping</w>
con firm</w>
激 动</w>
ar ab</w>
legisl ation</w>
pu mp</w>
游 泳</w>
缓 解</w>
书 面</w>
po t
cal m</w>
天 然</w>
牺 牲
initi ative</w>
街 道</w>
公 正</w>
疾 </w>
work er</w>
会 员</w>
侵 犯</w>
ha bits</w>
路 径</w>
k o</w>
shor e</w>
r ab
话 说</w>
安 理会</w>
优 点</w>
dic tion</w>
太阳 能</w>
s op
en able</w>
t age</w>
supp lies</w>
mi ke</w>
bur den</w>
布 莱
youn ger</w>
constitu tion</w>
d ant</w>
放 缓</w>
i e</w>
prom p
对 应</w>
i al</w>
5 6</w>
不 论</w>
骑 </w>
体 内</w>
爵 </w>
价 值
装 备</w>
灵 活</w>
ri gh
走 进</w>
救 援</w>
disp u
tan k</w>
多 人</w>
neigh bor
吃 饭</w>
政 权</w>
de dic
感 器</w>
拯 救</w>
同 步</w>
按 钮</w>
form at</w>
询 问</w>
univers al</w>
盒 </w>
manufactur ers</w>
从 中</w>
圣诞 节</w>
t our</w>
secon dary</w>
认 证</w>
王 子</w>
ab e
h oo
市 民</w>
平 面</w>
赋 予</w>
j in</w>
纵 </w>
约 束</w>
near by</w>
consider ation</w>
泪 </w>
di spo
elec tions</w>
较 为</w>
d ating</w>
li a</w>
2 9
gr and</w>
suff ered</w>
ref used</w>
in stru
乳 </w>
estim ates</w>
hol der</w>
暂 </w>
f at
舱 </w>
农 </w>
in ated</w>
w alls</w>
尼 尔</w>
manag ing</w>
c and
煤 </w>
勇 气</w>
回 顾</w>
j in
instru ment</w>
无 线</w>
灰 </w>
all -
program ming</w>
a sts</w>
听 见</w>
alcoho l</w>
高 层</w>
全球 化</w>
oun ded</w>
ha z
tri c</w>
为 主</w>
notic ed</w>
gen es</w>
开 车</w>
st ages</w>
edi tor</w>
st ations</w>
t all</w>
严 </w>
审 议</w>
vi et</w>
c d</w>
教 会</w>
b in</w>
ill er</w>
shoc k</w>
li by
defic it</w>
耐 </w>
strength ening</w>
in o</w>
各 类</w>
p es</w>
arre sted</w>
recogn ized</w>
餐 馆</w>
波 动</w>
dis co
摇 </w>
le gi
溃 </w>
awar eness</w>
t an</w>
w u</w>
肌 </w>
分 歧</w>
知 名</w>
j ump</w>
普 京</w>
sav ed</w>
n t</w>
produc tivity</w>
物 流</w>
啤 酒</w>
sp anish</w>
沿 着</w>
惊 人</w>
exten ded</w>
att ached</w>
幅 度</w>
recomm ended</w>
滴 </w>
苏 联</w>
w aves</w>
re u
实 用</w>
si vely</w>
滚 </w>
br inging</w>
mag ic</w>
任 命</w>
2 50</w>
al i</w>
全 新</w>
想 想</w>
iz ing</w>
电 站</w>
king dom</w>
w age</w>
一 批</w>
恼 </w>
烂 </w>
ough ly</w>
mat ri
进 化</w>
sanc tions</w>
燥 </w>
fi x</w>
su ici
失 业
审 判</w>
arti ficial</w>
珠 </w>
declar ation</w>
dro pped</w>
叉 </w>
扔 </w>
en ni
share holders</w>
el ected</w>
un t</w>
每 月</w>
邻 居</w>
阿 尔
w u
over come</w>
补 贴</w>
坚 定</w>
导 演</w>
neu ro
8 0%</w>
第二 天</w>
distribu ted</w>
内 地</w>
pro ved</w>
gu ys</w>
不 大</w>
牛 奶</w>
state- owned</w>
sac ri
lo gic</w>
男 女</w>
可 行</w>
昨 日</w>
apar tment</w>
human itarian</w>
原 子</w>
survi ve</w>
协 </w>
hi dden</w>
机 遇</w>
cl ou
sen ate</w>
st atic</w>
sm ell</w>
shop s</w>
sub jects</w>
magne tic</w>
tar gets</w>
g ul
terror ism</w>
嘛 </w>
recei ving</w>
航 班</w>
透 明</w>
不 敢</w>
sh ell</w>
20 20</w>
l ending</w>
pu ri
当 作</w>
数 目</w>
prin ting</w>
阻 </w>
焦 虑</w>
周 六</w>
break fast</w>
震 惊</w>
c ast
c ook</w>
劣 </w>
di a</w>
效 益</w>
极 为</w>
凭 </w>
electr on
bu dd
俄 </w>
疼 痛</w>
investi gate</w>
拓 </w>
cont ents</w>
ad ult</w>
ri de</w>
immedi ate</w>
董 事</w>
t ants</w>
说 服</w>
bre aking</w>
瑞 典</w>
i p</w>
des k</w>
书 籍</w>
re di
diplom atic</w>
醉 </w>
sub mit</w>
g ers</w>
imp lic
谴 责</w>
加 剧</w>
基 督</w>
销 量</w>
离 子</w>
un likely</w>
展 览</w>
电视 台</w>
fur nit
扫描 </w>
舒 服</w>
赚 </w>
事 处</w>
adop t</w>
disco very</w>
ha bit</w>
愿 望</w>
y n
脸 上</w>
t el
远 离</w>
ch er</w>
i -
复 合</w>
传 感器</w>
ste ve</w>
expen ses</w>
5 -
提 示</w>
家 具</w>
5 4</w>
chu an</w>
浏览 器</w>
un k</w>
lat in</w>
变 革</w>
so viet</w>
fl av
之 类</w>
su pre
v an</w>
ex por
no ti
bu t
作 物</w>
furnit ure</w>
安 德
fe wer</w>
排 除</w>
shad ow</w>
kn owing</w>
浪 漫</w>
corpor ation</w>
假 期</w>
refl ects</w>
d le</w>
d il
fall s</w>
t oo
石 头</w>
提 名</w>
乔 </w>
cour age</w>
sh i</w>
any way</w>
smar t
当 代</w>
筒 </w>
浏 览</w>
沿 </w>
奥 运</w>
d less</w>
om a</w>
pas sing</w>
pal ace</w>
forei gn
等 级</w>
bo ttle</w>
保 守</w>
交 谈</w>
坞 </w>
re forms</w>
bac teria</w>
strong ly</w>
islam ic</w>
treat y</w>
bl ind</w>
路 线</w>
ecti ves</w>
d ani
分 裂</w>
mar ry</w>
guid el
mis sed</w>
冻 </w>
哥 伦
enti rely</w>
dec lined</w>
演 出</w>
m p
st ake</w>
ori ented</w>
stre ssed</w>
dem ands</w>
e- mail</w>
新 年</w>
城 镇</w>
arti st</w>
con venti
read ers</w>
th ick</w>
b en</w>
槽 </w>
舰 </w>
sup posed</w>
cho se</w>
den sity</w>
ou ri
舞 台</w>
aliz e</w>
农 场</w>
s wee
expan ding</w>
egg s</w>
审 计</w>
葡萄 酒</w>
feed back</w>
n ai
办 理</w>
深 圳
sen ding</w>
分 之</w>
v a</w>
经 费</w>
199 0s</w>
酒 吧</w>
shen zhen</w>
vac ation</w>
tis sue</w>
mou se</w>
ma th</w>
心 灵</w>
ex tra
analy st</w>
阶 </w>
li mits</w>
之 上</w>
bur n</w>
stri ke</w>
boo k
沉 </w>
诚 实</w>
大 声</w>
携 带</w>
幻 </w>
sub mitted</w>
不 停</w>
迁 </w>
秩 序</w>
amaz ing</w>
拉 斯</w>
s mil
b ell</w>
re placed</w>
y wood</w>
外 交
枝 </w>
intelli gent</w>
survi val</w>
怜 </w>
挺 </w>
col ors</w>
歌 曲</w>
c ell
参与 者</w>
ri ers</w>
k ne
ch art</w>
辱 </w>
奥 斯
打 造</w>
rul ing</w>
character istic</w>
it ely</w>
swim ming</w>
off ices</w>
mi x</w>
遗 传</w>
hel p
dam aged</w>
bl ame</w>
inv o
angel es</w>
rou te</w>
enc ing</w>
兼 </w>
强 劲</w>
cul ar</w>
糖 尿
希 拉里</w>
ultim ately</w>
敌 </w>
appreci ate</w>
签 订</w>
el ev
necess arily</w>
ear nings</w>
艾滋 病</w>
wi re</w>
宠 物</w>
phili pp
综 合
高 校</w>
平 静</w>
深 度</w>
asi de</w>
at a</w>
拖 </w>
1 5%</w>
二 氧化
innov ative</w>
里 克</w>
gri d</w>
scri pt</w>
il s</w>
发 动机</w>
ph r
主 体</w>
黄 色</w>
匙 </w>
教 训</w>
accur acy</w>
expo sure</w>
糖尿 病</w>
si lic
詹 姆斯</w>
hop ing</w>
vege tables</w>
p ill
r ad
commodi ty</w>
assi st</w>
exc iting</w>
依 </w>
课 堂</w>
办公 </w>
go tten</w>
de ep
comp are</w>
ab and
shu t</w>
emo tions</w>
wat ers</w>
bri ef</w>
囊 </w>
卡 尔</w>
感 激</w>
5 8</w>
透 过</w>
日 报</w>
菲 律
缅 甸</w>
fo x</w>
ef s</w>
com position</w>
菲律 宾</w>
choc olate</w>
fi shing</w>
comm unities</w>
吸 烟</w>
ro ads</w>
ologi sts</w>
样 品</w>
produc ing</w>
符 号</w>
hon or</w>
evalu ate</w>
叠 </w>
隐 藏</w>
con sen
cre am</w>
芝 加
par tly</w>
k el
无 关</w>
sil k</w>
ir ation</w>
遵 循</w>
in qui
bu yers</w>
ful l-
赛 季</w>
乡 村</w>
respon sibilities</w>
6 6</w>
classi c</w>
declar ed</w>
ht ml</w>
个 月</w>
上 个月</w>
视 图</w>
靠 近</w>
校 园</w>
安 静</w>
窗 口</w>
自 主</w>
译 文</w>
coll ected</w>
and roid</w>
a es
滤 </w>
不 利</w>
一 句</w>
恐 怕</w>
exc ited</w>
燃 </w>
刑 事</w>
4 -
ris en</w>
场 合</w>
fr ac
比 如说</w>
富 裕</w>
opini ons</w>
mon thly</w>
co at</w>
港 口</w>
办 事处</w>
es sions</w>
2 5%</w>
商 人</w>
j i</w>
st om
繁 </w>
帮 忙</w>
t ail</w>
diversi ty</w>
regul arly</w>
g m
崩 溃</w>
e ase</w>
本 月</w>
d v
ob st
oxy gen</w>
一 把</w>
p .
f loo
逮 捕</w>
republic ans</w>
sequ ence</w>
旅 游
万 亿</w>
更 快</w>
pur poses</w>
人 为</w>
program mes</w>
浮 </w>
披 露</w>
h it
sol ving</w>
el derly</w>
occur </w>
暴 露</w>
ar c
原 料</w>
病 例</w>
fe els</w>
仿 真</w>
核 武器</w>
电 路</w>
马 里</w>
di am
塑 </w>
t te</w>
一 度</w>
g az
head quarters</w>
class room</w>
ukrain e</w>
on a</w>
突 破</w>
ag ents</w>
conventi onal</w>
嫩 </w>
destro y</w>
般 的</w>
有 益</w>
纪 念
less on</w>
相 机</w>
foc uses</w>
d d</w>
ap i</w>
辅 助</w>
超 出</w>
chic ago</w>
注 重</w>
优 质</w>
world wide</w>
elimin ate</w>
巴 巴</w>
cop e</w>
自 由
kilome ters</w>
sudd en</w>
is si
y a
编 程</w>
desig ner</w>
quali fied</w>
芝加 哥</w>
差 别</w>
hen ry</w>
锋 </w>
tur ing</w>
何 时</w>
烤 </w>
bre ast</w>
consci ousness</w>
scen ari
疗 法</w>
co l</w>
tar ge
fin ite</w>
泉 </w>
节 省</w>
dec reas
编 码</w>
列 出</w>
这 点</w>
寻 常</w>
ch ann
cap able</w>
南 方</w>
甚 </w>
cust om</w>
第 五</w>
ou red</w>
explan ation</w>
7 2</w>
der iv
ten sion</w>
什 麽</w>
干 净</w>
厉 </w>
绝 大</w>
nec k</w>
磅 </w>
coo king</w>
i m</w>
国 内外</w>
大 多</w>
y ment</w>
d am</w>
d est</w>
交易 所</w>
ex ha
头 脑</w>
di abe
离 婚</w>
bur ning</w>
um -
此 事</w>
w .
零 售</w>
it er
al es</w>
一 人</w>
r he
上 学</w>
nerv ous</w>
vers ary</w>
gradu ates</w>
整 理</w>
hi de</w>
ten s</w>
杀 死</w>
缺 点</w>
似 的</w>
her e
见 面</w>
誓 </w>
pat ent</w>
因 子</w>
contribu te</w>
蛇 </w>
to t
无 人</w>
in k
h at
发 动</w>
便 是</w>
屿 </w>
yiel d</w>
参 议员</w>
gr ain</w>
x x</w>
sk ill</w>
里 斯</w>
prom in
远 程</w>
certain ty</w>
stimul us</w>
beli ef</w>
流 量</w>
db 2</w>
repor ting</w>
vo ted</w>
democr ats</w>
ob serve</w>
请 问</w>
wel fare</w>
har m</w>
犹 太
再 生</w>
ed ly</w>
维 修</w>
夏 </w>
leg s</w>
从 不</w>
tim ate</w>
说 是</w>
中 学</w>
回 复</w>
oi d</w>
塞 尔</w>
fe asi
膀 </w>
此 举</w>
so a</w>
psych ology</w>
christi an</w>
a x</w>
tn am</w>
关 键
强 化</w>
short- term</w>
no se</w>
ti an
兽 </w>
交 给</w>
mir ror</w>
ag ers</w>
多 久</w>
脱 离</w>
ab led</w>
ow ns</w>
cri tics</w>
pres ents</w>
mun ici
wher e
gold man</w>
clean ing</w>
absolu tely</w>
企业 家</w>
si an</w>
一 杯</w>
fi ber</w>
挡 </w>
尘 </w>
w ash</w>
sq l</w>
掌 </w>
毫 不</w>
do ors</w>
回 去</w>
re jected</w>
neu tr
mo dule</w>
斜 </w>
au to</w>
s ongs</w>
外 界</w>
古 巴</w>
ch ol
信用 卡</w>
employ ed</w>
品 种</w>
y an</w>
m ly</w>
li ft</w>
pl enty</w>
ac cess
ho ly</w>
保 险
terrori st</w>
监 </w>
遣 </w>
各 位</w>
容 器</w>
busin ess
追 踪</w>
d c</w>
第 三
whe el</w>
low est</w>
mal ay
kee ps</w>
lic en
野 生</w>
re fer</w>
闹 </w>
mo ves</w>
dist ingui
保 护
shir t</w>
au d</w>
电 机</w>
乌 </w>
wh en
选 手</w>
牺牲 </w>
t wi
categ ory</w>
cho ices</w>
stat ements</w>
guaran te
据 说</w>
situ ations</w>
奖 励</w>
很 小</w>
伯 格</w>
愿 者</w>
re solve</w>
experim ents</w>
中 美</w>
汤 </w>
ji m</w>
compe te</w>
t one</w>
一 对</w>
wat ched</w>
用 品</w>
只 不过</w>
vol tage</w>
an ce
su peri
t led</w>
hu ang</w>
h at</w>
子 女</w>
威 廉</w>
周 年</w>
稳 定性</w>
佣 </w>
雇 </w>
向 前</w>
for tune</w>
reu ters</w>
顺 </w>
recomm end</w>
个 性</w>
1 1
moder n
install ed</w>
eff ecti
pursu e</w>
尼 亚
隔 离</w>
institu tion</w>
vie tnam</w>
壮 </w>
no body</w>
诸 </w>
种 子</w>
5 7</w>
l aid</w>
mortg age</w>
古 代</w>
inju red</w>
recor ded</w>
炸 弹</w>
di an</w>
se y</w>
destruc tion</w>
prepar ing</w>
jan e</w>
pul led</w>
播 放</w>
ac knowle
it es</w>
lab </w>
覆 </w>
bat tery</w>
凝 土</w>
混 凝土</w>
度 假</w>
看 待</w>
exten sion</w>
shou ldn</w>
意 愿</w>
化 合物</w>
种 种</w>
内 存</w>
child hood</w>
过 渡</w>
pl as
ch at</w>
ad mit</w>
de -
fl ows</w>
猜 </w>
im ports</w>
re mark
promo ted</w>
observ ed</w>
称 之
cover s</w>
储 存</w>
胺 </w>
称之 为</w>
ill ary</w>
持 久</w>
au tum
很 久</w>
b ang
乘 以</w>
殿 </w>
旗 下</w>
恐 </w>
o sc
cop per</w>
sk y
heav ily</w>
工 会</w>
mar ked</w>
co ach</w>
事 务
audi </w>
pain t</w>
restric tions</w>
down load</w>
ici ous</w>
原 本</w>
char les</w>
dist ur
论 述</w>
pri or</w>
forec ast</w>
contain er</w>
robo t</w>
am i</w>
钢 铁</w>
fir st-
comm issi
w et</w>
fi red</w>
b ic
we i
放 到</w>
air lines</w>
欠 </w>
激 进</w>
g -
pic ked</w>
稍 </w>
皇 家</w>
温 暖</w>
建筑 物</w>
tri l
积 累</w>
罗 伯特</w>
fe ars</w>
s p</w>
the e</w>
一 小</w>
her o</w>
inv en
an no
不 住</w>
agre ements</w>
t ative</w>
手 指</w>
____ ____
万 元</w>
b ai
un usual</w>
5 ,000</w>
electron ics</w>
抵 达</w>
可 怜</w>
supre me</w>
mr s</w>
w en</w>
direc tors</w>
边 境</w>
bas ket
be er</w>
enti ally</w>
p ath
你 好</w>
sc and
contr acts</w>
在 家</w>
f li
arrang ement</w>
翁 </w>
tum or</w>
rel ess</w>
em per
数 值</w>
appar ently</w>
pre scri
n d</w>
只 需</w>
碑 </w>
宿 </w>
sh ine</w>
qu ery</w>
vir tu
norm ally</w>
guidel ines</w>
b ow</w>
e ye
无 需</w>
pl ed</w>
be aring</w>
lat eral</w>
玩 笑</w>
nar row</w>
mo del
j ones</w>
过 多</w>
touri st</w>
将 军</w>
spo ken</w>
肃 </w>
浅 </w>
li ver</w>
fac tories</w>
若 干</w>
priv acy</w>
el se
remain ing</w>
u x</w>
弹 性</w>
志 愿者</w>
乐 队</w>
隙 </w>
失业 率</w>
勇 敢</w>
s or</w>
毒 品</w>
初 始</w>
f ant
价值 观</w>
hand ling</w>
asp ect</w>
effecti veness</w>
invol ves</w>
重 组</w>
g as
jud gment</w>
邻 </w>
fu </w>
parame ter</w>
鈥 </w>
cor n</w>
prosp er
字 母</w>
consci ous</w>
四 年</w>
sco t
thom as</w>
al liance</w>
imm une</w>
签 证</w>
cre ates</w>
6 8</w>
def ence</w>
read er</w>
di c</w>
慌 </w>
comb at</w>
al lo
th ail
g ay</w>
一 轮</w>
autum n</w>
ti ally</w>
main taining</w>
无 数</w>
sun g</w>
素 质</w>
happ ening</w>
meas uring</w>
重 量</w>
lau gh</w>
par ent</w>
裹 </w>
参 议院</w>
玩 家</w>
pil ot</w>
有 害</w>
en forcement</w>
不 变</w>
immigr ation</w>
sh in
权 益</w>
li on
将 近</w>
celebr ate</w>
las er</w>
anni versary</w>
dimen sional</w>
愚 蠢</w>
总 会</w>
thail and</w>
激 发</w>
婆 </w>
薪 酬</w>
7 7</w>
y an
侵 </w>
生 育</w>
艾 </w>
公 式</w>
t z</w>
困 扰</w>
ac compan
世界 杯</w>
海 上</w>
沮 丧</w>
vit am
ra dic
ke ys</w>
instr uments</w>
请 你</w>
own ership</w>
op pon
ke l</w>
抓 </w>
序 列</w>
ci g
u tionary</w>
ori gin</w>
missi le</w>
纷 纷</w>
d f</w>
jo e</w>
er ies</w>
移 植</w>
国 防</w>
焦 点</w>
secon d-
仅 有</w>
成 人</w>
bre ath</w>
增 长
basket ball</w>
脆 弱</w>
ab use</w>
当 选</w>
ch i</w>
at en</w>
professi on
6 0
p en</w>
大 国</w>
auth ors</w>
sh ak
ro of</w>
意 志</w>
re sume</w>
韦 </w>
frequ ently</w>
har m
restaur ants</w>
第 十
serv ing</w>
赞 </w>
冬 天</w>
收 费</w>
g ently</w>
am bas
7 0%</w>
matri x</w>
cop y
维 亚</w>
pharm ac
amaz on</w>
二 十
tr ends</w>
prosper ity</w>
飞 行
剩 </w>
when ever</w>
ing redi
生物 学</w>
consen sus</w>
sim pli
lo gical</w>
y i</w>
k i</w>
赠 </w>
in ser
骄 傲</w>
顺 序</w>
概 率</w>
ad mitted</w>
苏 丹</w>
这 笔</w>
m ice</w>
engine er</w>
ul ate</w>
氧 化</w>
fo li
d .
臣 </w>
continu ing</w>
2 3
能 为</w>
液 体</w>
mini sters</w>
dem an
g m</w>
ambas sad
es sive</w>
co tton</w>
w ages</w>
less ons</w>
6 3</w>
椅 </w>
清 理</w>
v ector</w>
巨 头</w>
家 中</w>
indone sia</w>
li ers</w>
atten ded</w>
剪 </w>
推 迟</w>
israeli </w>
敦 促</w>
cap ture</w>
bu yer</w>
6 0%</w>
t ings</w>
t ang
莱 坞</w>
好 莱坞</w>
f ate</w>
fi ve-
辞 职</w>
d ai
interven tion</w>
忍 受</w>
dri vers</w>
蜜 </w>
发 放</w>
a ths</w>
安全 性</w>
考 察</w>
refer red</w>
动 脉</w>
划 分</w>
h o</w>
ji ang
le g</w>
中 期</w>
el ed</w>
stu pid</w>
担 保</w>
fran k</w>
g al</w>
religi on</w>
马 来
g il
沙 特</w>
l es
双 边</w>
audi t</w>
诊 </w>
si bly</w>
ati vity</w>
he ating</w>
cen ters</w>
环 节</w>
r on
rar ely</w>
玉 米</w>
较 小</w>
remain ed</w>
皇 </w>
bl ow</w>
ret ail
suici de</w>
can adi
严 厉</w>
han ded</w>
depen dent</w>
诸 多</w>
轨 </w>
read s</w>
走 出</w>
engine ers</w>
4 :
nas a</w>
ast ed</w>
gather ed</w>
c ake</w>
depen ding</w>
电 信</w>
账 </w>
最 早</w>
平 民</w>
ple ased</w>
all ed</w>
else where</w>
re bel
丧 失</w>
st airs</w>
热 爱</w>
部 位</w>
sn ow
反 复</w>
hi re</w>
load ing</w>
长 达</w>
处 理
8 8</w>
gir l
生产 商</w>
ci ous</w>
银 行
大 气</w>
ci a</w>
help ful</w>
句 子</w>
地 板</w>
su red</w>
锡 </w>
natur ally</w>
窗 户</w>
expan ded</w>
answ ers</w>
prai se</w>
逃 </w>
- year</w>
adverti s
tex as</w>
贯 </w>
cru cial</w>
occur red</w>
h ang</w>
dre w</w>
怎么 办</w>
ur gent</w>
一 类</w>
变 换</w>
回 收</w>
holl ywood</w>
教 徒</w>
画 面</w>
cover ing</w>
狼 </w>
inspi red</w>
f i</w>
prot ected</w>
榜 </w>
regul ators</w>
pu shed</w>
attrac ted</w>
pe ar
incre di
ol es
ci an</w>
guang zhou</w>
calcul ated</w>
chann els</w>
ant a</w>
悲 伤</w>
5 000</w>
mus cle</w>
ti ght</w>
尝 </w>
_ </w>
发 育</w>
john son</w>
refuge es</w>
主 持</w>
注 入</w>
vulner able</w>
r as
ch rom
怀 孕</w>
犬 </w>
car di
achiev ement</w>
pleas ant</w>
耐 心</w>
尊 敬</w>
常 用</w>
要 素</w>
激 情</w>
shar ply</w>
旅 馆</w>
ic a</w>
紧 缩</w>
评 级</w>
in no
tre ss</w>
频 繁</w>
帐 </w>
palestini an</w>
recommend ations</w>
政 部</w>
ho o</w>
6 2</w>
predic t</w>
y ard</w>
尔 夫</w>
tr ained</w>
起 诉</w>
bub ble</w>
bal anced</w>
不 对</w>
lic ate</w>
维 尔</w>
大 使</w>
主 流</w>
bo b</w>
安 娜</w>
剑 </w>
announ cement</w>
油 价</w>
stead y</w>
sign als</w>
任 意</w>
午 餐</w>
un known</w>
drag on</w>
储 蓄</w>
n an</w>
contem porary</w>
par alle
oper ator</w>
汽 </w>
under ground</w>
g ained</w>
expl oration</w>
sup er</w>
j et</w>
丢 </w>
哥伦 比亚</w>
har dly</w>
栋 </w>
祝 福</w>
加 利
e ded</w>
le gen
全 体</w>
d ur
商 学院</w>
菲 尔</w>
pas sion</w>
印 度
concep ts</w>
示 例</w>
st em</w>
柔 </w>
谅 </w>
5 9</w>
mi x
加利 福
道 理</w>
po e
mean ing
pay ments</w>
out look</w>
科 研</w>
巾 </w>
re ply</w>
漆 </w>
e ties</w>
自 动
com posite</w>
g ant</w>
ti p</w>
deli ber
德 里</w>
discipl ine</w>
仪 器</w>
ignor e</w>
岩 石</w>
火 箭</w>
内 在</w>
职 员</w>
10 ,000</w>
激 素</w>
玫 瑰
焦 </w>
半 年</w>
inte gri
v il
地 带</w>
arti sts</w>
实 时</w>
acquisi tion</w>
disc lo
ir ri
surroun ding</w>
赋 </w>
sop hi
sil ent</w>
认 同</w>
198 9</w>
上 万</w>
蛋 糕</w>
obli gations</w>
救 助</w>
198 0</w>
车 站</w>
instruc tions</w>
en a</w>
当 天</w>
沉 默</w>
私 营</w>
仿 佛</w>
廉 价</w>
宏 观</w>
ge -
酱 </w>
th west</w>
lat ter</w>
bac ked</w>
爆 </w>
dep end</w>
subsi di
ess ence</w>
例 外</w>
p m</w>
送 到</w>
foc using</w>
em entary</w>
压 缩</w>
resul ting</w>
u t</w>
变 形</w>
integri ty</w>
re verse</w>
p -
旅 </w>
govern mental</w>
cl as
car rier</w>
conclu ded</w>
histor ic</w>
proto col</w>
op posed</w>
桩 </w>
gu est</w>
equ ally</w>
交 往</w>
re al-
卢 </w>
妹 妹</w>
为 期</w>
二氧化 碳</w>
堪 </w>
b ags</w>
ligh ting</w>
out come</w>
ad ds</w>
同 一个</w>
致 命</w>
图 形</w>
ver tical</w>
跨 国</w>
早 餐</w>
trans form</w>
9 0%</w>
spiri tual</w>
锐 </w>
00 :
匀 </w>
ther mal</w>
鉴 </w>
tra di
sel ler</w>
preci ous</w>
平 方</w>
悔 </w>
p ap
ti l
expl ains</w>
策 划</w>
chri st</w>
应 力</w>
氛 </w>
ear n</w>
fun ny</w>
遗 产</w>
n esses</w>
违 约</w>
季 节</w>
奢 侈
强 制</w>
re l</w>
00 ,000</w>
princi pal</w>
ren min
权 威</w>
马来 西亚</w>
vol ati
白 人</w>
cap abilities</w>
定 制</w>
f illing</w>
exce ption</w>
organiz e</w>
gre e
夏 季</w>
谎 </w>
rom antic</w>
e ing</w>
struc k</w>
en i
尸 体</w>
合 约</w>
挑 选</w>
ur a</w>
高 盛</w>
墨 </w>
自动 化</w>
mechan isms</w>
摄 影</w>
pre fer
滞 </w>
丰 </w>
z he
脏 病</w>
阿 里
以 至于</w>
懂 得</w>
po t</w>
bo om</w>
bab a</w>
adequ ate</w>
威 尔</w>
市 长</w>
cou ples</w>
wi reless</w>
年 级</w>
简 化</w>
b al</w>
con soli
sing er</w>
consul tation</w>
tw enty</w>
arri ve</w>
9 8</w>
mo sc
statis tical</w>
con ve
判 决</w>
man ual</w>
难 题</w>
军 方</w>
speak er</w>
对 冲</w>
氢 </w>
信 念</w>
编 制</w>
看 作</w>
anxi ety</w>
a .</w>
灾 害</w>
晚 餐</w>
to il
comp rom
统 计
应 付</w>
con tra
银 行业</w>
肥 胖</w>
6 7</w>
sub sequ
外 国人</w>
pursu it</w>
ti er</w>
newsp apers</w>
热 量</w>
集 合</w>
标 题</w>
表 情</w>
cr ash</w>
开 关</w>
c .</w>
娃 </w>
pos s
m .</w>
砖 </w>
trans actions</w>
ti sm</w>
把 握</w>
魔 </w>
进 而</w>
乔 布斯</w>
cri mes</w>
encour aged</w>
bom b</w>
b bs</w>
vis a</w>
be ings</w>
in ary</w>
sing ing</w>
tr y
雇 佣</w>
队 员</w>
分 散</w>
ri val</w>
术 语</w>
变 更</w>
事 长</w>
咬 </w>
气 氛</w>
sur ing</w>
g ross</w>
po or
功 率</w>
z ens</w>
乐 趣</w>
prof ound</w>
帽 </w>
rol ling</w>
ast ro
电 流</w>
天 堂</w>
k in</w>
po sted</w>
p ir
sil ence</w>
refl ected</w>
pu </w>
继 </w>
7 6</w>
invest or</w>
蹈 </w>
modi fied</w>
fl u</w>
sub scri
重 申</w>
educ ational</w>
ba i</w>
亚 太</w>
心 脏病</w>
w are
福 特</w>
cl er
ber ry</w>
ge ograph
ai ms</w>
共 识</w>
明 智</w>
a e
consul ting</w>
有 效
虽 </w>
哥 哥</w>
成 年</w>
真 相</w>
flu id</w>
fl ash</w>
rel uc
占 领</w>
supp lier</w>
interpre tation</w>
弯 </w>
厦 </w>
7 1</w>
absolu te</w>
圣 经</w>
生 效</w>
enter ing</w>
独 自</w>
屏 </w>
b p</w>
se ats</w>
粒 子</w>
vali d</w>
compu ting</w>
st abili
mosc ow</w>
分 开</w>
房 价</w>
control ler</w>
j or
civili zation</w>
调 查
成 千</w>
im pres
ww w.
eg g</w>
8 0
promin ent</w>
道 歉</w>
ze al
p apers</w>
档 案</w>
6 1</w>
s au
d ges</w>
钉 </w>
saf e
修 正</w>
ul ated</w>
dani el</w>
shoul der</w>
ce l</w>
大 于</w>
协 作</w>
inst all</w>
感 觉
pack aging</w>
ag ement</w>
ar range</w>
类 别</w>
al lies</w>
感觉 到</w>
supp liers</w>
粉 丝</w>
座 位</w>
拿 出</w>
即 可</w>
home work</w>
好 几</w>
indic ates</w>
设 想</w>
as sume</w>
教 育
slee ping</w>
人 人</w>
收 获</w>
rand om</w>
reco ver</w>
汀 </w>
保 守
ari a</w>
deser t</w>
l ap
- to-
g 20</w>
m in</w>
总 值</w>
之 地</w>
pat ri
h asn</w>
lo b
cover age</w>
未 经</w>
paralle l</w>
viol ent</w>
renmin bi</w>
没 错</w>
wi des
目 光</w>
活 着</w>
扇 </w>
produc es</w>
sh a</w>
菜 单</w>
聊 天</w>
亲 密</w>
cor relation</w>
优 惠</w>
bran ches</w>
awar ds</w>
一 同</w>
s ail
激 光</w>
co ast
ac com
窄 </w>
cri ed</w>
延 伸</w>
visi ting</w>
食 用</w>
女 王</w>
日 前</w>
i rel
本 次</w>
手 里</w>
h ob
帽 子</w>
其 余</w>
dre ssed</w>
阶 层</w>
5 :
南 亚</w>
作 战</w>
y l</w>
指 南</w>
腾 </w>
主 教</w>
repe at
emper or</w>
精 度</w>
ba th
落 后</w>
民 间</w>
passeng er</w>
aff ects</w>
电 影
推 行</w>
歌 手</w>
10 0%</w>
企 图</w>
春 天</w>
repe at</w>
爱 好</w>
li ps</w>
in et</w>
z u
dest ination</w>
ver ing</w>
回 事</w>
涛 </w>
目 的
contro versi
本 土</w>
椅 子</w>
f ellow</w>
吵 </w>
adap t</w>
绩 效</w>
英 寸</w>
indic ate</w>
prote sts</w>
ne ed
ell a</w>
accep table</w>
受 益</w>
国 债</w>
t less</w>
f lood</w>
肝 </w>
含 义</w>
trac king</w>
em an</w>
s pl
名 人</w>
ak s</w>
客 观</w>
y cle</w>
温 和</w>
脚 本</w>
动 荡</w>
he dge</w>
ess entially</w>
景 观</w>
执 </w>
w to</w>
cor p</w>
0.0 5</w>
employ ers</w>
阿里 巴巴</w>
运 转</w>
短 暂</w>
亨 利</w>
奴 隶
解 除</w>
identi fication</w>
9 00</w>
卡 车</w>
莫 斯科</w>
纳 入</w>
戈 </w>
wides pre
z ab
p ac
得 知</w>
irel and</w>
我 方</w>
募 </w>
伟 </w>
n es</w>
区 分</w>
tril lion</w>
ya hoo</w>
d al</w>
颇 </w>
星期 五</w>
# </w>
风 暴</w>
深圳 </w>
widespre ad</w>
ate ful</w>
sci ences</w>
judi cial</w>
分 解</w>
sp are</w>
regar ded</w>
studi o</w>
器 官</w>
不 但</w>
报 价</w>
整 天</w>
premi er</w>
de aths</w>
suppor ters</w>
silic on</w>
re member
exten sive</w>
桑 </w>
10 0
理 论
real istic</w>
rela x</w>
strugg ling</w>
等 到</w>
提 案</w>
i on</w>
re aching</w>
i de</w>
optim istic</w>
sli de</w>
一 刻</w>
ti ed</w>
代 理
high way</w>
provi sion</w>
num er
al ex
揭 示</w>
祷 </w>
读 书</w>
gent lem
schedul ed</w>
x -
相 处</w>
em ph
su rely</w>
journ alists</w>
报 导</w>
ab s
err ors</w>
服 用</w>
whe at</w>
encour aging</w>
反 而</w>
ar chi
2 ,000</w>
门 口</w>
ste ph
在 乎</w>
ent -
海 关</w>
c asting</w>
患 有</w>
8 6</w>
optimi zation</w>
ac les</w>
毯 </w>
mac </w>
矩 阵</w>
巨 </w>
propos als</w>
m ba</w>
管理 局</w>
b loo
control ling</w>
ru pt</w>
appl ying</w>
仁 </w>
着 手</w>
向 量</w>
跟 着</w>
jo se
带 领</w>
偏 </w>
群 众</w>
p r</w>
surpri sing</w>
算 是</w>
roo ts</w>
委 会</w>
classi fication</w>
new ly</w>
总 额</w>
血 压</w>
defin itely</w>
ol a</w>
越 多</w>
ar g
小 学</w>
精 彩</w>
mo tor
he si
brow ser</w>
m ad</w>
co ali
@ </w>
课 题</w>
描 绘</w>
con gr
标 识</w>
mis sions</w>
北 方</w>
污 </w>
研究 生</w>
coll ective</w>
热 带</w>
so ap</w>
198 0s</w>
gi a</w>
athle tes</w>
contribu tions</w>
就 算</w>
d an
ti e</w>
犹太 人</w>
repe ated</w>
war ming</w>
li ty</w>
physi cs</w>
sec tors</w>
regi ster</w>
fr anci
im pression</w>
提 及</w>
错 过</w>
转 让</w>
孤 独</w>
正 好</w>
混 </w>
严 肃</w>
模 仿</w>
re viewed</w>
observ ation</w>
accomp li
消 极</w>
discrimin ation</w>
shap ed</w>
交 付</w>
fi er
ill ness</w>
8 7</w>
in form</w>
repor ters</w>
load ed</w>
canadi an</w>
tem p
co gni
基督 教</w>
来 讲</w>
r en</w>
she ep</w>
升 值</w>
lin ing</w>
拍 卖</w>
shoo ting</w>
清 除</w>
流 动性</w>
咱 们</w>
un certainty</w>
a ws</w>
rel atives</w>
亚 马
无 限</w>
反 应
p c
may or</w>
chr onic</w>
简 称</w>
马 丁</w>
categ ories</w>
真 诚</w>
eag er</w>
ali baba</w>
chi p</w>
parti cles</w>
oc ity</w>
东 方</w>
mo thers</w>
丑 闻</w>
大 战</w>
藉 </w>
hospit als</w>
浴 </w>
情 人</w>
吃 惊</w>
当 年</w>
西 兰</w>
se ed</w>
repres ented</w>
引 人</w>
董 事长</w>
早 已</w>
依 照</w>
sen ator</w>
带 给</w>
琼 斯</w>
str ain</w>
gl asses</w>
充 足</w>
l ec
it ted</w>
di m
截 至</w>
po sing</w>
广 州</w>
1. 2</w>
preci sion</w>
原 油</w>
所 得</w>
一 番</w>
管理 者</w>
偶 尔</w>
resi dential</w>
周 边</w>
om ing</w>
佛 罗
大 力</w>
谈 谈</w>
origin ally</w>
电 器</w>
劳 工</w>
时 机</w>
g ains</w>
宝 贵</w>
烯 </w>
说 出</w>
ip o</w>
re store</w>
语 法</w>
早 就</w>
requ ests</w>
ambassad or</w>
con dem
髓 </w>
st y</w>
兑 </w>
rub ber</w>
大 厦</w>
entr ance</w>
us age</w>
提 起</w>
compl ex
pres entation</w>
指 令</w>
监 视</w>
不 了</w>
地 铁</w>
爵 士</w>
prosp ect</w>
供 给</w>
invol ving</w>
chan ces</w>
co s
or ange</w>
min ority</w>
舶 </w>
k ings</w>
旨 </w>
hear ts</w>
斯 特
men u</w>
des per
9 6</w>
inter ior</w>
西 藏</w>
d enti
确 信</w>
re fin
垫 </w>
诞 生</w>
di str
上 来</w>
argu es</w>
ti ps</w>
数 百</w>
att acked</w>
appro aches</w>
摧 毁</w>
regar dless</w>
库 存</w>
prob ability</w>
specific ally</w>
星期 一</w>
puni shment</w>
暂 停</w>
从 前</w>
v y</w>
k m</w>
e quality</w>
m i</w>
注 射</w>
clo th</w>
一 日</w>
any where</w>
阁 </w>
天 使</w>
s quar
辛 </w>
hun gry</w>
百 姓</w>
s audi</w>
r ating</w>
眼 镜</w>
ex trac
积 分</w>
dis count</w>
wid th</w>
perf ec
多样 性</w>
增长 率</w>
rec k
北 美</w>
pl ain</w>
cryst al</w>
ge ar</w>
cele bri
refl ection</w>
封 信</w>
mar gin
concer ning</w>
振 动</w>
the ories</w>
manufactur er</w>
cont ained</w>
胃 </w>
修 订</w>
to b
芯 片</w>
船 舶</w>
po p</w>
职 务</w>
bin ding</w>
碗 </w>
抽 </w>
speci fy</w>
tri gg
上 网</w>
chem i
musli m</w>
tre m
fi li
wri ters</w>
abo li
夫 妻</w>
jus ti
or m
买 家</w>
ar ray</w>
印 尼</w>
一 月</w>
ani an</w>
6 :
sol e</w>
送 给</w>
卫 生
继 承</w>
sub -
lam p</w>
cro ps</w>
br on
宣 言</w>
cab inet</w>
schol ars</w>
防 御</w>
port foli
sp lit</w>
fl ori
diabe tes</w>
下 周</w>
arrang ed</w>
插 入</w>
埋 </w>
exi sts</w>
lo ves</w>
neighb ors</w>
soci alist</w>
20 th</w>
发 电</w>
踢 </w>
许 可
un cle</w>
d ently</w>
cont aining</w>
罐 </w>
铝 </w>
abs ence</w>
猎 </w>
al er
ca p</w>
缆 </w>
诈 </w>
关 节</w>
cri teria</w>
stre t
divor ce</w>
倦 </w>
separ ation</w>
p ack</w>
温 室</w>
看 过</w>
亚马 逊</w>
wor thy</w>
st al
accep tance</w>
两 天</w>
交 互</w>
挖 掘</w>
broad er</w>
有 者</w>
scienti st</w>
议 题</w>
护 士</w>
局 部</w>
no de</w>
de par
先 前</w>
转 型</w>
f eng</w>
凉 </w>
invest ed</w>
d .</w>
threat ened</w>
t ted</w>
consi sts</w>
削 弱</w>
旅 客</w>
coali tion</w>
comb ine</w>
fin ds</w>
f s</w>
pos sibly</w>
hydro gen</w>
7 3</w>
篮 球</w>
chem ic
北 约</w>
gi fts</w>
简 历</w>
牧 师</w>
w er
dist in
裙 </w>
薪 水</w>
尽 力</w>
appro xim
穷 人</w>
empi re</w>
升 高</w>
lin ux</w>
老 年人</w>
you t</w>
tic kets</w>
some body</w>
标 准
cul tures</w>
0 8</w>
正 义</w>
entrepreneur s</w>
记 本</w>
att le</w>
pu shing</w>
eng age</w>
cap ability</w>
sens or</w>
制 成</w>
fic ations</w>
签 名</w>
nutri tion</w>
sp ir
cl ing</w>
r hy
comm only</w>
stom ach</w>
prot ecting</w>
remark able</w>
law yers</w>
第三 方</w>
all ow
电 压</w>
ri o</w>
举 动</w>
威 尔
li min
误 差</w>
ap h
coordin ate</w>
外 科</w>
球 场</w>
计 划
盖 茨</w>
闪 </w>
喻 </w>
授 予</w>
fair ly</w>
会 见</w>
girl friend</w>
饮 </w>
落 实</w>
ha o</w>
入 侵</w>
hot els</w>
巴 拉克</w>
7 -
inf ected</w>
函 </w>
新 西兰</w>
q ing
岛 屿</w>
t am
礼 貌</w>
al arm</w>
晓 </w>
体 化</w>
num erous</w>
chemi stry</w>
目的 地</w>
行 李</w>
教 室</w>
收 益
赐 </w>
忌 </w>
印 刷</w>
conserv ation</w>
上 下</w>
tim ely</w>
1 /
ira qi</w>
纱 </w>
ligh t
意 图</w>
耳 朵</w>
inj ection</w>
兄 </w>
drin ks</w>
荣 誉</w>
d ented</w>
li ked</w>
dir ty</w>
银行 家</w>
融 入</w>
kni fe</w>
some where</w>
desig n
成 年人</w>
y en</w>
ul tr
gl u
li ability</w>
machin ery</w>
impor ted</w>
4 8
inten se</w>
boun dary</w>
年 初</w>
引 进</w>
沙 漠</w>
vel ocity</w>
hop ed</w>
势 力</w>
人 心</w>
正 面</w>
controversi al</w>
rom an</w>
尼 日
原 谅</w>
默 认</w>
re ward</w>
维 生素</w>
实 习</w>
擅 长</w>
拓 展</w>
接 到</w>
i er</w>
vari ables</w>
ve ter
ten nis</w>
分 支</w>
re ver
occur s</w>
镜 头</w>
祈 祷</w>
眼 前</w>
3 ,
附 加</w>
pregn ant</w>
enthusi asm</w>
en orm
游 行</w>
bed room</w>
cogni tive</w>
eli zab
添 </w>
initi ally</w>
con vic
恰 当</w>
repor ter</w>
cig are
ag u
州 长</w>
对 付</w>
委 托</w>
p tions</w>
矩 </w>
n on</w>
大 胆</w>
ab un
干 燥</w>
6 9</w>
termin al</w>
仑 </w>
migr ation</w>
政 客</w>
sp her
真 理</w>
传 达</w>
数 百万</w>
工 作者</w>
super vis
一 头</w>
al a</w>
dri l
普 通
conflic ts</w>
fr aud</w>
姓 名</w>
ax is</w>
商 标</w>
ch est</w>
开 启</w>
applic able</w>
regar ding</w>
ec o
por tu
孙 </w>
franci sco</w>
街 头</w>
映 射</w>
aband oned</w>
chemic als</w>
3 000</w>
更 换</w>
务 员</w>
生 理</w>
benef icial</w>
deplo yment</w>
确 切</w>
elizab eth</w>
访 者</w>
qui e
alter n
requ est
sig ning</w>
公 主</w>
bu ried</w>
汉 语</w>
牙 齿</w>
en z
guang dong</w>
provin cial</w>
雅 虎</w>
蜂 </w>
dr ama</w>
奈 </w>
b our
n ow
ultim ate</w>
en der</w>
领导 者</w>
ali a</w>
invest ing</w>
al bu
lo y
tal ents</w>
c c</w>
mac ro
un expected</w>
彻 </w>
jack son</w>
阿 尔</w>
jum ped</w>
u ps</w>
村 庄</w>
平 板</w>
che aper</w>
navi gation</w>
s d
cen tu
pro li
捉 </w>
mem ories</w>
研 制</w>
horiz on
猜 测</w>
想 你</w>
旅 行
广 大</w>
决 赛</w>
re mind</w>
制 订</w>
gh o
称 作</w>
influ enced</w>
b ou
得 了</w>
莓 </w>
gran ted</w>
膏 </w>
图 案</w>
行 性</w>
合 格</w>
珊 </w>
十 亿</w>
搭 </w>
v ital</w>
销 商</w>
chr is</w>
化 妆
永 久</w>
合 金</w>
操 纵</w>
pain ful</w>
ur ged</w>
鼓 舞</w>
豪 华</w>
ri ous</w>
船 只</w>
syn chron
全 力</w>
筋 </w>
隐 私</w>
ad mi
疯 </w>
d ancing</w>
ad d
幻 想</w>
con c
锅 </w>
打 印</w>
d or</w>
笔 记本</w>
calcul ate</w>
夜 晚</w>
ab e</w>
liber al</w>
fl ag</w>
guil ty</w>
per forming</w>
sou ght</w>
产 物</w>
共 产
direc tory</w>
共产 党</w>
at ri
det ect</w>
fav or</w>
amoun ts</w>
fran k
力 度</w>
bab ies</w>
et te</w>
imag ination</w>
匹 </w>
合 资</w>
facili ty</w>
view ing</w>
跳 舞</w>
dis k</w>
联 络</w>
1 2.
prin ted</w>
7 8</w>
op tical</w>
招 </w>
collabor ation</w>
昨 晚</w>
奖 金</w>
带 到</w>
爷 </w>
逝 </w>
6 -
屋 子</w>
帐 户</w>
形 容</w>
tr uck</w>
produc er</w>
le af</w>
hi red</w>
en tic
插 </w>
谨 </w>
营 商</w>
ou ter</w>
weap on</w>
比 率</w>
b ail
dispu tes</w>
一 无
stu ck</w>
inten sity</w>
洪 水</w>
慨 </w>
酪 </w>
m ic</w>
extra ordinary</w>
许可 证</w>
异 性</w>
米 尔</w>
正 当</w>
1 1.
损 坏</w>
short age</w>
ch ester</w>
repeat edly</w>
uni form</w>
di oxide</w>
en sive</w>
re construction</w>
bor ne</w>
局 长</w>
审 核</w>
收益 率</w>
st ayed</w>
comp ound</w>
cham ber</w>
星 球</w>
饭 店</w>
必 需</w>
m ate</w>
break s</w>
确 定性</w>
bi ology</w>
li sts</w>
cre w</w>
gener ations</w>
反 射</w>
li ke
答 应</w>
pass word</w>
dis cover</w>
减 肥</w>
执 政</w>
than k
过 分</w>
那 边</w>
syri an</w>
点 点</w>
模 板</w>
酯 </w>
中 产</w>
ag ger
限 于</w>
stro ke</w>
awar ded</w>
gal ax
检 察
精 英</w>
al em</w>
有 意思</w>
pre limin
西 洋</w>
信 息
考 验</w>
视 角</w>
甜 </w>
dee per</w>
酒 精</w>
使用 者</w>
zeal and</w>
而 易
loc ked</w>
挖 </w>
aggres sive</w>
部 落</w>
arrang ements</w>
po cket</w>
轻 易</w>
上 次</w>
volunte ers</w>
奇 迹</w>
er n
equi pped</w>
a qu
航 天</w>
na to</w>
: (</w>
寨 </w>
罪 行</w>
出 台</w>
盯 </w>
p i</w>
our ing</w>
舞 蹈</w>
长 久</w>
jer us
kis s</w>
动 画</w>
inter n
迁 移</w>
m g</w>
be am</w>
bri l
弦 </w>
qu it</w>
欲 望</w>
零售 商</w>
mur der</w>
波 特</w>
控制 器</w>
row s</w>
n in
株 </w>
路 撒
耶 路撒
树 木</w>
开 设</w>
i ii</w>
cool ing</w>
gr as
mem or
鸡 蛋</w>
阿 根
ha ir
阿根 廷</w>
沟 </w>
do zen</w>
jerus alem</w>
马 克
an ch
扮 </w>
ce -
下 次</w>
不 行</w>
颈 </w>
涵 </w>
偿 还</w>
col li
si chuan</w>
金 山</w>
liter ary</w>
la sting</w>
a j
dedic ated</w>
海 滩</w>
耶路撒 冷</w>
0 1</w>
情 景</w>
鼻 子</w>
德 尔</w>
弥 补</w>
fail s</w>
小 小
thre w</w>
小小 的</w>
宽 松</w>
exp ects</w>
rul ed</w>
情 节</w>
贺 </w>
lon ely</w>
节 约</w>
ash es</w>
acc o</w>
at lan
provi der</w>
s am</w>
explo sion</w>
ex act</w>
总 经理</w>
c ked</w>
恰 </w>
群 岛</w>
win ner</w>
斤 </w>
近 日</w>
h s</w>
oper ational</w>
首 要</w>
演 示</w>
t es
clou ds</w>
w ars</w>
增 大</w>
n ba</w>
政治 家</w>
gr ams</w>
在 下</w>
奉 </w>
woo den</w>
hy bri
main tained</w>
宝 宝</w>
expl or
k g</w>
ox id
欢 乐</w>
inev itable</w>
author ized</w>
神 奇</w>
碰 到</w>
c d
辉 </w>
min ds</w>
foreign ers</w>
校 长</w>
pro j
co operate</w>
辩 </w>
prop ag
discus sions</w>
一 百
rout ine</w>
bo ston</w>
亲 自</w>
r aci
e ars</w>
对 面</w>
方 米</w>
wor e</w>
simil arly</w>
frequ ent</w>
avi ation</w>
end ers</w>
dec re
implem enting</w>
河 流</w>
虚 </w>
绝 不</w>
egy p
自 愿</w>
j on
emph asis</w>
ti ger</w>
宇 </w>
ni ght
7 4</w>
lo vely</w>
nav y</w>
放 置</w>
地 质</w>
切 尔
容 量</w>
sou theast</w>
逾 </w>
ing er</w>
葡萄 牙</w>
sem in
gul f</w>
尤 </w>
7 :
ast ers</w>
ai red</w>
am pli
分 区</w>
connec tions</w>
唇 </w>
提 供
tor al</w>
反对 派</w>
比 起</w>
desig ners</w>
web sites</w>
bur g</w>
ent ally</w>
痕 </w>
灵 感</w>
销售 额</w>
超 市</w>
el and</w>
col on
图 表</w>
体 积</w>
安 慰</w>
be i</w>
pr on
rol led</w>
par tial</w>
该 项</w>
鹿 </w>
speci alized</w>
卿 </w>
conveni ence</w>
popul arity</w>
con ci
s ke
i .
org ans</w>
du al</w>
有 意</w>
tob acco</w>
sam sung</w>
思 路</w>
买 卖</w>
mathemati cal</w>
ti se</w>
待 遇</w>
麦 克
soverei gn</w>
嫁 </w>
ti veness</w>
变 动</w>
coun try
纽 约
d ding</w>
convin ced</w>
cn n</w>
蔓 延</w>
hydr au
波 兰</w>
煤 炭</w>
好 事</w>
arti stic</w>
gr ateful</w>
9 2</w>
comp ati
camer on</w>
un prece
dv d</w>
alu min
o dy</w>
gr ant</w>
数 十</w>
fing er</w>
cy lin
ess ing</w>
吐 </w>
创 立</w>
缩 小</w>
站 点</w>
appreci ation</w>
军 人</w>
c av
定 价</w>
宴 </w>
半 岛</w>
出 口
ter -
advis ory</w>
最 快</w>
叹 </w>
institu tional</w>
次 数</w>
ec lip
三 星</w>
wh el
煮 </w>
diag ram</w>
短 信</w>
火 星</w>
w en
赚 钱</w>
commodi ties</w>
同 情</w>
reli ability</w>
财 政部</w>
自 行</w>
依 旧</w>
prin cess</w>
总 监</w>
ju ice</w>
复 杂
拒 </w>
m atic</w>
故 意</w>
t ang</w>
re tri
n i</w>
滥 用</w>
2 1st</w>
sc an
p ile</w>
develop er</w>
ac ute</w>
top ics</w>
事 宜</w>
ul l</w>
墓 </w>
ep iso
broad cast</w>
l ac
鹅 </w>
纳 米</w>
死 去</w>
竞 赛</w>
诗 人</w>
flori da</w>
他 用</w>
斯 坦
ti vely</w>
跑 步</w>
很 棒</w>
企 </w>
摄 影
copy right</w>
inven tion</w>
swi ss</w>
执 法</w>
archit ec
hi b
不 管
线 路</w>
col our</w>
tro p
t ape</w>
支 票</w>
reti rement</w>
清 洗</w>
不管 是</w>
ro les</w>
屋 顶</w>
采 集</w>
短 缺</w>
坝 </w>
prot est</w>
speci fication</w>
clu ster</w>
休 闲</w>
gr ace</w>
si on-
8 1</w>
philipp ines</w>
le ather</w>
gr ay</w>
炮 </w>
9 :
st ated</w>
establi shing</w>
欺 骗</w>
使 命</w>
ass ess</w>
唐 </w>
数 千</w>
爱 德
前 任</w>
divi de</w>
仆 人</w>
prai sed</w>
旱 </w>
ev a</w>
0 9</w>
ban kers</w>
pri de</w>
a sion</w>
蔽 </w>
对 策</w>
regre t</w>
en tum</w>
0 5</w>
ic ked</w>
sy l
年 纪</w>
produc ers</w>
tot ally</w>
grav ity</w>
美 军</w>
动 物
col leg
flexi bility</w>
胡 </w>
autonom ous</w>
f old</w>
鹰 </w>
wash ing</w>
ex it</w>
aw n</w>
jose ph</w>
f ake</w>
ma ster
bo s
in formed</w>
ti ll</w>
媒 </w>
he lic
克 莱</w>
家 乡</w>
赴 </w>
serv ant</w>
为 人</w>
unprece dented</w>
sin cer
^ </w>
出 租
塑 造</w>
pres sing</w>
tion ed</w>
al ties</w>
肩 </w>
congr at
均 匀</w>
malay sia</w>
一 体</w>
g eri
渐 渐</w>
感 受到</w>
0 1:
a e</w>
几 种</w>
迈 </w>
every day</w>
8 9</w>
stand ardi
杰 出</w>
挪 威</w>
reve al</w>
rm b</w>
8 2</w>
邮 </w>
exp lic
wit ness</w>
tr age
罕 见</w>
fi er</w>
ton y</w>
专 员</w>
腰 </w>
h illary</w>
her it
b ath</w>
大 宗</w>
for cing</w>
lion ai
fru str
bor ing</w>
an der</w>
org an</w>
节 奏</w>
社 会
complex ity</w>
随 意</w>
v ar
搭 配</w>
中 断</w>
澳 门</w>
约 定</w>
mom entum</w>
munici pal</w>
延 续</w>
ken ne
fre sh
classi cal</w>
嫌 </w>
猛 </w>
colleg es</w>
atlan tic</w>
过 后</w>
nar r
r oughly</w>
sc at
ste am</w>
辈 </w>
拾 </w>
wi shes</w>
延 迟</w>
保 密</w>
as le
fing ers</w>
life time</w>
bloc ks</w>
transpar ent</w>
in cen
涌 </w>
sem i-
pi pel
b ills</w>
垒 </w>
you tube</w>
iz es</w>
者 说</w>
钩 </w>
trans ferred</w>
lab el</w>
ri vals</w>
u l</w>
ou l</w>
频 道</w>
se al</w>
姐 姐</w>
分 辨
赞 成</w>
查 德</w>
同 期</w>
attemp ts</w>
钥 匙</w>
众 议院</w>
r ail</w>
al t</w>
抹 </w>
解 放</w>
人 均</w>
关键 词</w>
或 者说</w>
mer ely</w>
def end</w>
代 谢</w>
deli cious</w>
harm ful</w>
老 年</w>
船 长</w>
le h
clo sing</w>
月 球</w>
尬 </w>
stric tly</w>
专 </w>
电 台</w>
三 维</w>
e fully</w>
街 上</w>
y un
separ ated</w>
be half</w>
克 逊</w>
委 员</w>
t ating</w>
进 攻</w>
乐 意</w>
肺 </w>
8 3</w>
medi um-
关 税</w>
car go</w>
依 法</w>
st ure</w>
t .</w>
susp ect</w>
r ough</w>
andre w</w>
on ally</w>
epi dem
fr anc
du ties</w>
sor ts</w>
en suring</w>
e y
尊 </w>
高 尔夫</w>
ignor ed</w>
赞 同</w>
垂 直</w>
serv ants</w>
im posed</w>
娅 </w>
疼 </w>
ban ned</w>
s ach
姐 妹</w>
尴 尬</w>
vacc ine</w>
拨 </w>
崛 起</w>
aff ecting</w>
vic tim</w>
liby a</w>
巢 </w>
inter medi
clas sm
自 豪</w>
导 航</w>
in spec
房 产</w>
r aft</w>
th read</w>
dram atic</w>
弟 弟</w>
i di
shi pment</w>
凭 借</w>
解 析</w>
厂 商</w>
电 源</w>
拉 夫</w>
sou p</w>
com posed</w>
le f
fun ded</w>
党 派</w>
reduc es</w>
便 利</w>
inv ite</w>
la yout</w>
ar gent
six th</w>
邮 政</w>
circul ation</w>
sum mary</w>
accompan ied</w>
life style</w>
派 对</w>
喂 </w>
gr am</w>
泊 </w>
任 期</w>
冷 却</w>
ver age</w>
sk ir
poten tially</w>
den ied</w>
电 动</w>
裁 决</w>
harmon y</w>
employ er</w>
euro zone</w>
众 人</w>
索 马里</w>
穴 </w>
竟 然</w>
沉 重</w>
asle ep</w>
战 胜</w>
悲 剧</w>
cat aly
pho sp
201 7</w>
198 8</w>
胸 </w>
ti de</w>
卧 室</w>
争 端</w>
微 生物</w>
问 道</w>
prosp ects</w>
bank rup
stam p</w>
recor ding</w>
del ayed</w>
鸣 </w>
维 斯</w>
enjo yed</w>
摄 像
h k</w>
proli fer
克里 斯</w>
immigr ants</w>
喜 剧</w>
o ir</w>
im pe
祸 </w>
二 战</w>
击 败</w>
g li
旧 金山</w>
杀 害</w>
观 测</w>
desig ns</w>
克 萨
每 当</w>
c ow
r d</w>
希 尔</w>
bru sh</w>
choo sing</w>
效 力</w>
收 取</w>
t ail
ca tho
h ell</w>
指 挥</w>
主 角</w>
char ity</w>
撰 写</w>
ff s</w>
lar ge-
伊 丽
atom ic</w>
尼亚 州</w>
仔 </w>
光 线</w>
停 留</w>
新 闻
士 顿</w>
强 迫</w>
cal end
an k</w>
纽 </w>
风 景</w>
for um</w>
compe tent</w>
e- commerce</w>
scri p
arri val</w>
伊丽 莎
sub stitu
激 活</w>
手 表</w>
tox ic</w>
闻 名</w>
slo pe</w>
智 力</w>
au to
学 到</w>
pa ul
电 气</w>
橄 榄
prelimin ary</w>
invent ory</w>
截 </w>
wa it
diam ond</w>
feder ation</w>
填 写</w>
lun g</w>
图 书</w>
8 4</w>
巩 固</w>
m ess</w>
修 建</w>
oc curr
绝 望</w>
灭 绝</w>
analy zing</w>
roc ks</w>
全 都</w>
mem bran
不 一定</w>
z zy</w>
legisl ative</w>
tem por
al an</w>
几 率</w>
ai g</w>
susp ected</w>
波 士顿</w>
graph ic</w>
小 镇</w>
budd hi
al isation</w>
e ption</w>
初 期</w>
wor n</w>
抵 抗</w>
t ack
如 图</w>
sur plus</w>
骂 </w>
satis fy</w>
凯 特</w>
hal f-
ha th</w>
9 3</w>
营 业</w>
hon ey</w>
ann e</w>
颗 粒</w>
bor row</w>
和 解</w>
auth entic
h il
pro gres
ti t
du tch</w>
ed -
hydrau lic</w>
丹 麦</w>
郡 </w>
ear ned</w>
长 远</w>
tu des</w>
pri mar
学 期</w>
sk i</w>
斑 </w>
萧 条</w>
prote sters</w>
comple tion</w>
一 阵</w>
mo i
p p</w>
葡萄 </w>
r um
玫瑰 </w>
杰 夫</w>
scor es</w>
仓 库</w>
r is</w>
d able</w>
鞋 子</w>
l u</w>
并 购</w>
wel ding</w>
光 明</w>
sc ru
场 地</w>
sett led</w>
tax i</w>
g ang</w>
mon go
大 批</w>
tw el
um es</w>
文 摘</w>
剩 余</w>
horizon tal</w>
加 热</w>
indic ated</w>
cr ack</w>
soldi er</w>
9 4</w>
ga ther</w>
相 关
shi f
harmon ious</w>
purch asing</w>
双 手</w>
球 迷</w>
ref use</w>
窃 </w>
wel com
戏 剧</w>
后 续</w>
over whel
f ice</w>
有 望</w>
b age</w>
bi ke</w>
神 经
li an</w>
superi or</w>
7 9</w>
z i</w>
乙 </w>
布 局</w>
subsi dies</w>
surroun ded</w>
demonstr ate</w>
意 料</w>
sty les</w>
ru sh</w>
dro ve</w>
pen sion</w>
di stor
关 切</w>
啸 </w>
facili tate</w>
bankrup t
syn dr
ti bet</w>
佛罗 里
0 7</w>
贬 值</w>
member ship</w>
认 定</w>
p acking</w>
exam ine</w>
s word</w>
m ation</w>
走 过</w>
讽 刺</w>
产 出</w>
ton gue</w>
ro gen</w>
处理 器</w>
com e
雷 达</w>
profession als</w>
横 </w>
l aughter</w>
时 说</w>
el abor
日 志</w>
物 理学</w>
秋 </w>
in tu
绳 </w>
of -
生 人</w>
ge l</w>
shoo t</w>
穿 上</w>
acceler ate</w>
亏 损</w>
conclu sions</w>
du m</w>
as signed</w>
fro zen</w>
干 什么</w>
gre y</w>
ta g</w>
演 奏</w>
ingredi ents</w>
运 营商</w>
re turning</w>
oper ators</w>
邻 国</w>
si zes</w>
塌 </w>
lin col
k an
柄 </w>
gradu ation</w>
suspen ded</w>
18 0</w>
sp in
ele gant</w>
来 临</w>
p ink</w>
人 家</w>
y ang
申请 人</w>
前 后</w>
间 接</w>
dic tionary</w>
fru its</w>
toil et</w>
丰 田</w>
奋 斗</w>
sur ge</w>
defe at</w>
brief ly</w>
pharmac eu
租 赁
do zens</w>
国务 卿</w>
thre ats</w>
逆 </w>
th ful</w>
利 息</w>
citiz en</w>
herit age</w>
ang el</w>
compl ain</w>
e tr
马 拉
医 药</w>
welcom ed</w>
墙 上</w>
削 </w>
理 工</w>
忧 虑</w>
im peri
provin ces</w>
bil lions</w>
rec y
pi one
窝 </w>
fur </w>
hol es</w>
dest in
integr al</w>
ves sels</w>
大 地</w>
仲 裁</w>
不 然</w>
头 上</w>
拥 抱</w>
十 五</w>
ele ph
向 上</w>
bad ly</w>
myster y</w>
ak ers</w>
演 变</w>
吉 姆</w>
ac u
尼日 利亚</w>
不 止</w>
boy friend</w>
罚 款</w>
cre ativity</w>
剂 量</w>
domin ant</w>
s ake</w>
坚 决</w>
differ enti
ho sti
au ction</w>
较 少</w>
汽 油</w>
疗 效</w>
戒 </w>
p lic
quie tly</w>
施 加</w>
灰 色</w>
大 门</w>
offici ally</w>
杰 克逊</w>
ha w
幽 默</w>
f a</w>
shi el
trad em
app lies</w>
完 了</w>
硕 士</w>
路 易
p y</w>
e .</w>
当 事
职 能</w>
sus an</w>
ner ve</w>
卡 梅
人 际</w>
棵 </w>
富 翁</w>
潮 流</w>
high- tech</w>
co efficient</w>
赔 </w>
穆 </w>
ex cess</w>
direc ted</w>
祭 </w>
斯 蒂
cle ver</w>
comm it</w>
艾 伦</w>
指 挥
squ ee
hur ry</w>
emer ged</w>
wri tes</w>
an ticip
消 化</w>
st ones</w>
l ecture</w>
精 心</w>
ori al</w>
motiv ation</w>
e dition</w>
火 山</w>
am id</w>
for gotten</w>
perfec tly</w>
知 情</w>
诺 贝尔</w>
har b
瓷 </w>
用 作</w>
可 乐</w>
quanti tative</w>
神 圣</w>
爱 上</w>
美 味</w>
exper tise</w>
节 能</w>
farm er</w>
抽 象</w>
列 入</w>
fi x
一 封</w>
迎 接</w>
要 说</w>
探 测</w>
vac u
peo ples</w>
8 :
b ach
shi re</w>
涵 盖</w>
ex cep
一 路</w>
建 模</w>
sophi stic
高 端</w>
optim al</w>
浸 </w>
都 市</w>
废 </w>
塔 利
塔利 班</w>
min es</w>
ta i</w>
liqui dity</w>
折 磨</w>
four -
碰 </w>
gu ards</w>
饥 饿</w>
追 溯
em bas
ch eng</w>
isol ated</w>
指 望</w>
ch lor
competi tors</w>
弊 </w>
travel ing</w>
捐 赠</w>
publi shing</w>
leg ally</w>
粗 </w>
使 馆</w>
极 了</w>
sh ake</w>
rad ar</w>
诗 歌</w>
tow ns</w>
dis charge</w>
9 1</w>
helic op
nec essi
建 成</w>
h s
mer ch
eli te</w>
迈 克</w>
integr ate</w>
ad o</w>
vo tes</w>
soverei gn
sh er</w>
sc ul
上 课</w>
cop ies</w>
car ol
冷 静</w>
molec ular</w>
b ones</w>
adju sted</w>
gen ous</w>
筹 </w>
poe try</w>
fil ed</w>
开 采</w>
ad ing</w>
会 员国</w>
不 该</w>
ev </w>
vitam in</w>
ni geri
奥斯 卡</w>
时 间
spectr um</w>
li ant</w>
定 量</w>
电 厂</w>
大 街</w>
b old</w>
新 生</w>
197 0s</w>
盟 友</w>
遇 见</w>
indic ators</w>
违 法</w>
cor ro
ec t
麦 克</w>
weak ness</w>
冬 季</w>
per mission</w>
j en
ap ologi
perce ption</w>
除 此</w>
衷 </w>
c ence</w>
dis order</w>
bel ong</w>
lincol n</w>
分 数</w>
e able</w>
stan ley</w>
main stream</w>
che ese</w>
coast al</w>
t ancy</w>
珀 </w>
事 先</w>
单 身</w>
tou ched</w>
用 水</w>
天 才</w>
体 育
green house</w>
此 后</w>
co operative</w>
自 然
陪 </w>
graph y</w>
d ong
scenari o</w>
cl ari
噪 音</w>
结 构
negoti ation</w>
u de</w>
漫 长</w>
en do
applic ant</w>
ur ban
t esti
dar kness</w>
ac tress</w>
bo xes</w>
皆 </w>
兆 </w>
t ali
b am
报 表</w>
pass age</w>
predic ted</w>
par king</w>
乘 坐</w>
loo se</w>
残 </w>
ves sel</w>
恋 爱</w>
enorm ous</w>
gl ory</w>
disc our
人 文</w>
k id</w>
to yo
sti pul
argu ed</w>
process ed</w>
reven ues</w>
fol k</w>
拉 德</w>
plat forms</w>
0 6</w>
氮 </w>
priv il
克 莱
ma x</w>
plo t</w>
柏 林</w>
cur ri
角 落</w>
极 限</w>
死 亡
叔 </w>
f ool</w>
no bel</w>
scho ol
compl aints</w>
可 靠
淋 </w>
更 具</w>
portfoli o</w>
c af
肯 尼亚</w>
valu ed</w>
唤 </w>
b acks</w>
辩 护</w>
desig ning</w>
寒 冷</w>
烦 恼</w>
可靠 性</w>
阴 影</w>
curr encies</w>
s enti
原 子
model ing</w>
emo tion</w>
急 剧</w>
inst ant</w>
屠 杀</w>
邪 恶</w>
题 目</w>
研 讨
预 定</w>
j uni
废 物</w>
ke en</w>
滨 </w>
inter nation
br ave</w>
联 赛</w>
版 权</w>
net working</w>
o tic</w>
电 子
inci dence</w>
典 礼</w>
r ome</w>
behavi our</w>
花 旗</w>
thir d-
l or</w>
总 数</w>
稍 微</w>
su its</w>
enem ies</w>
rec all</w>
人 格</w>
钢 琴</w>
civili an</w>
correc tly</w>
空 军</w>
支 助</w>
海 水</w>
绘 画</w>
c ents</w>
立 法
一 流</w>
l oud</w>
一 体化</w>
mi chel
此 项</w>
wil d
困 惑</w>
瘾 </w>
sh ow
fab ric</w>
邮 票</w>
k a
健 身</w>
公 务员</w>
陌 生人</w>
一 眼</w>
醒 来</w>
vibr ation</w>
trop ical</w>
抑 郁</w>
豫 </w>
hu i</w>
散 步</w>
centu ries</w>
grow s</w>
无 可</w>
追 </w>
g ated</w>
切尔 西</w>
钻 石</w>
法 定</w>
s qui
steph en</w>
acci dents</w>
脉 冲</w>
di shes</w>
缸 </w>
meaning ful</w>
plac ing</w>
名 义</w>
衬 衫</w>
z ar
研究 员</w>
contin ent</w>
尔 德</w>
浦 </w>
1 30</w>
查 尔斯</w>
专 用</w>
see ds</w>
mom ents</w>
tt a</w>
中 部</w>
attribu te</w>
伞 </w>
大 臣</w>
un happy</w>
嘿 </w>
occu pi
pi g</w>
党 的</w>
星期 二</w>
plan es</w>
ed ward</w>
rec ep
瞬 间</w>
融 </w>
感 知</w>
utili zation</w>
近 来</w>
develop ments</w>
cast le</w>
chel sea</w>
第 四
gr ounds</w>
weal thy</w>
expen di
过 滤</w>
f ought</w>
听 众</w>
flo ating</w>
bur st</w>
ach ment</w>
五 十</w>
p an</w>
罪 犯</w>
卜 </w>
高 科技</w>
predic tion</w>
public ly</w>
数 码</w>
invol ve</w>
con fron
op o
midd le-
列 车</w>
中 小</w>
媒 介</w>
jo ke</w>
e a</w>
僚 </w>
bi ble</w>
1 3.
pen alty</w>
inter ference</w>
mari time</w>
管理 层</w>
public ation</w>
包 裹</w>
ch er
dis played</w>
索 引</w>
exc essive</w>
善 于</w>
competi tiveness</w>
操 </w>
p df</w>
终 端</w>
分 割</w>
2. 0</w>
语 音</w>
fier ce</w>
遥 远</w>
租赁 </w>
oper a</w>
手 册</w>
xin hua</w>
肿 </w>
tex t
autom ob
伊丽莎 白</w>
迫 切</w>
x y</w>
exam ined</w>
hi ring</w>
sach s</w>
× </w>
mani pul
增 多</w>
woo ds</w>
f ati
嘉 </w>
ag gre
芽 </w>
克 利</w>
t ay
domin ated</w>
sear ching</w>
tru sted</w>
饪 </w>
pr ay
ambi tious</w>
g ary</w>
破 裂</w>
gr oun
口 袋</w>
enti ty</w>
烹 饪</w>
bankrupt cy</w>
concer t</w>
for give</w>
马克 思</w>
外 观</w>
好 消息</w>
r ation
insi sted</w>
cl am
restric ted</w>
疆 </w>
join tly</w>
ell er</w>
lan ding</w>
借 鉴</w>
targe ted</w>
规 格</w>
dis appeared</w>
re d
峻 </w>
al ice</w>
特 里</w>
抛 弃</w>
会 面</w>
直 线</w>
倾 听</w>
gather ing</w>
your s</w>
管理 员</w>
忠 诚</w>
preven ting</w>
de teri
lo on</w>
泣 </w>
z hen
vi vi
盆 </w>
变 为</w>
巨 额</w>
moun t</w>
vil le</w>
恐 慌</w>
d are</w>
19 th</w>
竭 </w>
支 援</w>
总 量</w>
re sort</w>
奥 林
做 成</w>
ste in</w>
av en
总 之</w>
实 质
尿 </w>
syndr ome</w>
焰 </w>
月 内</w>
切 实</w>
cu b
负 债</w>
方 针</w>
三 十</w>
ste pped</w>
cour ts</w>
百分 点</w>
身 材</w>
业 者</w>
优 雅</w>
恒 星</w>
o t
售 价</w>
sett ings</w>
versi ons</w>
耍 </w>
控 股</w>
霍 </w>
lo ver</w>
宇 航
偶 然</w>
狮 子</w>
约 合</w>
d augh
inv itation</w>
见 证</w>
recru it
tri gger</w>
报 酬</w>
le is
底 部</w>
bar rier</w>
fas cin
腐 </w>
utili ty</w>
pul se</w>
无 聊</w>
坑 </w>
fle w</w>
resi st</w>
ware house</w>
min or</w>
brea thing</w>
研讨 会</w>
大 师</w>
b ars</w>
拜 访</w>
prot ective</w>
奴隶 </w>
ul ous</w>
理论 上</w>
w ings</w>
砂 </w>
bow l</w>
pol l</w>
legi timate</w>
双 重</w>
复 兴</w>
问 卷</w>
有效 性</w>
美 金</w>
p .</w>
组 建</w>
m ill
折 扣</w>
林 肯</w>
syn thesis</w>
reluc tant</w>
mar s</w>
预 订</w>
星期 六</w>
开 玩笑</w>
viol ation</w>
pregn ancy</w>
垄 断</w>
基 准</w>
喷 </w>
未 有</w>
under lying</w>
迟 到</w>
m apping</w>
澳 洲</w>
tali ban</w>
sig nature</w>
cru de</w>
中 国
机 理</w>
谋 杀</w>
enh anced</w>
as ser
永 恒</w>
慕 </w>
生 病</w>
pi ano</w>
二 零
流 入</w>
b all
就 此</w>
xi a
cont am
av ing</w>
抵 制</w>
agre es</w>
tr ace</w>
ten tion</w>
ch e</w>
ak er</w>
ec tors</w>
ori entation</w>
花 钱</w>
衍 生</w>
好 奇</w>
钻 </w>
联 想</w>
拉 丁</w>
l an</w>
旅 程</w>
a us
搜 寻</w>
spo ts</w>
uni fied</w>
化 石</w>
comman der</w>
应 急</w>
再 见</w>
处 境</w>
户 外</w>
ir anian</w>
m our
bel ongs</w>
出租 车</w>
arbitr ation</w>
sup pose</w>
any more</w>
shor tly</w>
vic tori
世 上</w>
est y</w>
bas in</w>
it ations</w>
at oes</w>
格 林</w>
盒 子</w>
理 查德</w>
何 种</w>
8 -
编 译</w>
富 人</w>
am end
ent y-
sp ati
ni e</w>
当事 人</w>
glob alization</w>
ci ans</w>
火 灾</w>
影 像</w>
ten dency</w>
eclip se</w>
resi stant</w>
leis ure</w>
占 有</w>
c s
资 深</w>
n est</w>
comp liance</w>
mor s</w>
embar ras
pear l</w>
外 表</w>
h p</w>
期 刊</w>
st ent</w>
毁 灭</w>
黑 客</w>
di ame
et t</w>
der ived</w>
三 角
jud ges</w>
molec ules</w>
峡 </w>
hang ing</w>
c ure</w>
subsequ ent</w>
票 房</w>
恶 劣</w>
transpar ency</w>
extr act</w>
sco tt</w>
法 语</w>
pre ferred</w>
指 引</w>
歇 尔</w>
ph p</w>
bar riers</w>
p ole</w>
二 大</w>
po is
字 符
工作 组</w>
纯 粹</w>
替 换</w>
sin c
as y</w>
conf used</w>
惊 奇</w>
样 式</w>
er ic</w>
首 脑</w>
pl ates</w>
st in</w>
gent le</w>
失 踪</w>
0 4</w>
roc ket</w>
calend ar</w>
bl in
尼 克</w>
investig ated</w>
均 衡</w>
ob </w>
共 同
on ym
sugge sting</w>
de duc
ter ies</w>
造 型</w>
alumin um</w>
arc tic</w>
创造 力</w>
责 任
there by</w>
al location</w>
decre ase</w>
euro s</w>
i ri
il er</w>
st ol
冈 </w>
sim pl
an thro
sovereign ty</w>
inno cent</w>
fo ssi
迷 人</w>
ini a</w>
掌 控</w>
flu or
热 烈</w>
telec om
线 程</w>
u a</w>
trad ers</w>
re placement</w>
投 诉</w>
em ma</w>
约翰 逊</w>
可 行性</w>
se ttle</w>
航 行</w>
制 备</w>
外 资</w>
sinc ere</w>
par ticle</w>
桃 </w>
童 年</w>
克 里</w>
纳 税
截 止</w>
re stor
水 中</w>
新 华
晤 </w>
po em</w>
poll u
pri cing</w>
person ally</w>
传 说</w>
直 至</w>
week ly</w>
tre ating</w>
借 助</w>
end or
深 化</w>
9 7</w>
这 块</w>
1. 1</w>
organ isation</w>
moder ate</w>
霜 </w>
危 </w>
obe sity</w>
步 伐</w>
v o</w>
摩 根</w>
cer e
指 向</w>
视 野</w>
肢 </w>
法 则</w>
干 涉</w>
兰 克</w>
afgh an</w>
prom ising</w>
t ex</w>
计划 署</w>
man n</w>
ur l</w>
不 时</w>
葬 </w>
增 速</w>
obj ectives</w>
鼓 </w>
达 州</w>
天 赋</w>
高 温</w>
热 门</w>
v i</w>
王 国</w>
院 校</w>
no .
ra p</w>
那 次</w>
aes thetic</w>
dis appointed</w>
3 ,000</w>
t ability</w>
慢 性</w>
字 符</w>
occupi ed</w>
challeng ing</w>
x u</w>
ag er</w>
同 行</w>
走 上</w>
笑 话</w>
scot land</w>
钙 </w>
indic ator</w>
mee ts</w>
design ated</w>
大 西洋</w>
口 语</w>
c ad
contr ary</w>
prof itable</w>
cap tured</w>
accur ately</w>
魔 法</w>
负 载</w>
篷 </w>
pen etr
as cular</w>
ug ly</w>
1 10</w>
radic al</w>
doub le-
借 口</w>
民 意</w>
成 效</w>
死亡 率</w>
deci sion-
偏 见</w>
罢 工</w>
remember ed</w>
康 复</w>
著 作</w>
serv es</w>
hol dings</w>
瞧 </w>
dis asters</w>
premi um</w>
loo p</w>
foll ow
现 行</w>
wol f</w>
b ag
文 中</w>
mar gin</w>
di stant</w>
妥 协</w>
sub way</w>
ch eng
合 伙
repres entation</w>
scand al</w>
印 第
一 级</w>
选 票</w>
mo vements</w>
强 有力</w>
the -
inten tion</w>
熟 练</w>
隐 </w>
会 晤</w>
lou is</w>
spon sor
pu zz
ster e
sacri fice</w>
su dan</w>
eth ics</w>
顶 级</w>
古 典</w>
vo ting</w>
处 罚</w>
sk illed</w>
resp ective</w>
a a</w>
10 0,000</w>
le ban
1. 3</w>
ed a</w>
on going</w>
行 走</w>
再 度</w>
反 弹</w>
fe eding</w>
反应 堆</w>
b .</w>
can cel</w>
生产 力</w>
金 正
创造 性</w>
gl y
po sts</w>
单 个</w>
期 货</w>
revi sed</w>
ly n
交 叉</w>
劫 </w>
influ ential</w>
bo ards</w>
介 入</w>
al ised</w>
prolifer ation</w>
赞 扬</w>
极 度</w>
to ys</w>
tun nel</w>
htt p
sub stance</w>
fe at
4 ,
一 句
事务 所</w>
up dated</w>
十 字</w>
negoti ate</w>
sal es
不 及</w>
陈 述</w>
获 胜</w>
v ent</w>
公 斤</w>
ar rest</w>
ad di
secre ts</w>
行 使</w>
十 二</w>
谍 </w>
生 于</w>
虐 待</w>
smart phone</w>
el ing</w>
ou se</w>
一句 话</w>
大 海</w>
trou bled</w>
买 方</w>
p ound</w>
波 斯
out door</w>
re fri
飞行 员</w>
护 照</w>
氛 围</w>
不 上</w>
叙 述</w>
198 6</w>
被 告</w>
min eral</w>
hybri d</w>
a ult</w>
gol f</w>
睹 </w>
architec tural</w>
焊 接</w>
解 雇</w>
pan ic</w>
上 月</w>
ir s</w>
refri ger
席 位</w>
mix ture</w>
bath room</w>
phr ase</w>
n 1</w>
煌 </w>
一 行</w>
swit zer
空 调</w>
星期 天</w>
禁 令</w>
car to
迦 </w>
grad es</w>
vacu um</w>
publi sh</w>
防 治</w>
clim b</w>
ti ble</w>
体 会</w>
强 硬</w>
殖 民
toyo ta</w>
m ill</w>
召 </w>
随 便</w>
braz ili
0 2</w>
fe ver</w>
im aging</w>
dis ney</w>
acqui red</w>
achiev ing</w>
难 度</w>
borrow ing</w>
join ing</w>
卓 越</w>
性 化</w>
ri e</w>
议 者</w>
c ats</w>
多 边</w>
供应 链</w>
推 翻</w>
be ans</w>
d ao</w>
re views</w>
gr in
大 致</w>
少 量</w>
总 的</w>
口 气</w>
硅 </w>
ast er
登 上</w>
很 强</w>
cin em
传 染
确 立</w>
obst acles</w>
受 访者</w>
速 率</w>
ef f</w>
research er</w>
dynam ics</w>
af for
疲 劳</w>
黎 巴
u i</w>
黎巴 嫩</w>
strength ened</w>
char ter</w>
pain ted</w>
拥 挤</w>
impres sive</w>
mus cles</w>
信 托</w>
the at
ro pe</w>
奥林 匹
be ef</w>
隧 道</w>
vari ation</w>
some what</w>
med al</w>
curri cul
工 商</w>
stri p</w>
inter active</w>
switzer land</w>
桥 梁</w>
re tired</w>
me te
前 来</w>
am y</w>
小 于</w>
func tion
吉 尔</w>
1 4.
wal ks</w>
sensi tivity</w>
没 法</w>
demonstr ated</w>
ch ong
treas ure</w>
东 南亚</w>
广 阔</w>
救 济</w>
排 列</w>
can e</w>
vol can
畏 </w>
j as
熊 猫</w>
慷 慨</w>
多 元
preci se</w>
现 任</w>
晒 </w>
fon t</w>
咐 </w>
work shop</w>
俄 国</w>
可 供</w>
arab ia</w>
行 事</w>
nam ely</w>
麦 当
co ating</w>
perio ds</w>
用 以</w>
全球 性</w>
逃 离</w>
bloc ked</w>
牛 津</w>
consider able</w>
loc ations</w>
th y
el f</w>
crow ded</w>
surve ill
us a</w>
es -
战 士</w>
匠 </w>
appe ti
rela xed</w>
m ar</w>
丧 生</w>
泄 漏</w>
inv ented</w>
钠 </w>
char ging</w>
一 点点</w>
st a</w>
re struc
驰 </w>
large- scale</w>
寿 </w>
ne ver
卸 </w>
ten der</w>
d av
scen es</w>
sophistic ated</w>
arg uments</w>
bur ned</w>
ne ther
discus sing</w>
ghten ed</w>
小 麦</w>
叛 </w>
hun ger</w>
星期 三</w>
assi on
well- known</w>
和 国际</w>
手 续</w>
li est</w>
托 马斯</w>
纠 纷</w>
g au
st even</w>
手 工</w>
197 9</w>
烟 草</w>
分 泌
l um
sch e</w>
负 荷</w>
美 食</w>
中 等</w>
wor ries</w>
提 问</w>
爽 </w>
畅 </w>
传 送</w>
thre sh
primar ily</w>
合伙 人</w>
ar sen
大 城市</w>
pro -
黛 </w>
cal ci
即 时</w>
surveill ance</w>
分 成</w>
配 备</w>
cro p</w>
prom ises</w>
em bed
姿 态</w>
不 定</w>
combin ing</w>
凯 </w>
qu an
re solved</w>
gr ati
execu ted</w>
jor dan</w>
vir g
税 务</w>
fit ness</w>
确 性</w>
对 称</w>
上 诉</w>
mod est</w>
停 下来</w>
评 论
那 条</w>
一 事</w>
气 味</w>
登 录</w>
occasi onally</w>
零 件</w>
酮 </w>
dr ag</w>
con qu
sing le-
associ ate</w>
放 入</w>
vill ages</w>
挣 扎</w>
ber lin</w>
incredi ble</w>
来 源于</w>
substan tial</w>
污 染
acknowle dged</w>
ab ul
tane ous</w>
祖 国</w>
myster ious</w>
开发 商</w>
昆 虫</w>
闷 </w>
human ity</w>
k ate</w>
execu te</w>
术 后</w>
后 期</w>
stoc k
pr ay</w>
卡 扎
卡扎 菲</w>
示 威</w>
学 金</w>
已 知</w>
德 拉</w>
comprom ise</w>
无 效</w>
198 5</w>
下 一步</w>
烷 </w>
三 天</w>
抖 </w>
hi er
ch -
难 过</w>
寒 </w>
membran e</w>
ab c</w>
四 周</w>
en ables</w>
pain tings</w>
穿 越</w>
grap her</w>
c us</w>
升 机</w>
tax pay
ur s</w>
收 缩</w>
request ed</w>
up grade</w>
哪 种</w>
行 的</w>
prison ers</w>
直 升机</w>
沿 海</w>
deposi ts</w>
spati al</w>
fic tion</w>
exerci ses</w>
水 泥</w>
船 上</w>
purch ases</w>
只 好</w>
着 重</w>
白 天</w>
透 明
弯 曲</w>
bu g</w>
el a</w>
respon ded</w>
ju ris
ch ang</w>
摩 擦</w>
st le</w>
牢 </w>
得 分</w>
chec king</w>
灯 光</w>
污 水</w>
inten sive</w>
鉴 定</w>
un ic
个 别</w>
p es
纳税 人</w>
劳 动
行 驶</w>
ox ford</w>
audi o</w>
客 户
内 阁</w>
diame ter</w>
深 处</w>
四 处</w>
易 于</w>
for got</w>
tri als</w>
无 力</w>
运 送</w>
fur ther
从 此</w>
ou ts</w>
哪 怕</w>
exce ed</w>
high- speed</w>
单 纯</w>
gener ous</w>
限 度</w>
. the</w>
a unt</w>
en coun
西 斯</w>
支 配</w>
菲 利
丹 尼尔</w>
contribu ted</w>
head ed</w>
favor able</w>
ec tion
fail ing</w>
两 只</w>
伸 出</w>
雷 斯</w>
geor gia</w>
v c</w>
country side</w>
quali ties</w>
码 头</w>
专 辑</w>
开 来</w>
bac teri
镜 子</w>
embas sy</w>
答 复</w>
gar d
所 有权</w>
bun ch</w>
捕 捉</w>
矿 石</w>
shoc ked</w>
一 时</w>
f c</w>
2. 2</w>
dril ling</w>
凯 恩</w>
款 项</w>
certi fication</w>
缩 短</w>
防 护</w>
twel ve</w>
chec ked</w>
接 待</w>
temper atures</w>
exclu sive</w>
plan ted</w>
con version</w>
月 底</w>
一 来</w>
名 词</w>
被 捕</w>
键 盘</w>
del ta</w>
astr onom
do se</w>
总 共</w>
续 性</w>
踏 </w>
bit ter</w>
ari ties</w>
平 方米</w>
an n</w>
in t</w>
g ab
swe den</w>
ani um</w>
mun ic
disc re
mul tin
l ing
消 灭</w>
f lights</w>
organiz ational</w>
la dies</w>
lif ted</w>
fu tures</w>
比 利
丢 失</w>
看 不到</w>
ma o</w>
real- time</w>
ge ome
sh a
d ingly</w>
文 件
th ic
lo ving</w>
捐 款</w>
贵 方</w>
sust ained</w>
fa x</w>
置 信</w>
简 要</w>
月 亮</w>
后 代</w>
scul p
清 醒</w>
oc k</w>
严 峻</w>
squar ed</w>
派 遣</w>
美 妙</w>
ri ses</w>
mu d</w>
剧 院</w>
国 家
be side</w>
di verse</w>
ber n
appro ve</w>
管 辖
珍 贵</w>
动物 园</w>
ad mir
橡 胶</w>
预 言</w>
ap ps</w>
st ori
ag on</w>
字符 串</w>
eng ines</w>
起 初</w>
ic king</w>
ul tra
work place</w>
数 额</w>
lay ers</w>
倡 议</w>
尔 顿</w>
198 7</w>
ob servers</w>
m es
end less</w>
remo val</w>
抗 议者</w>
单 击</w>
ten ds</w>
tem plate</w>
线 索</w>
ben ch
dic t
碰 撞</w>
v ine</w>
mer kel</w>
holi days</w>
in o
de pressed</w>
神 话</w>
addre ssed</w>
all er
言 语</w>
女 生</w>
棉 </w>
it ting</w>
备 受</w>
分 发</w>
bur y</w>
leh man</w>
索 尼</w>
de fl
经 纪
电 梯</w>
n .</w>
ven e
gr amm
ghten ing</w>
唱 歌</w>
用 到</w>
干 旱</w>
sel ls</w>
the ater</w>
in ch</w>
consul tant</w>
reserv oir</w>
to y</w>
伤 心</w>
g ar</w>
前 所
sc rat
调 控</w>
妨 碍</w>
expen se</w>
星期 四</w>
cat alo
sh aft</w>
neighb or</w>
bril liant</w>
噪 声</w>
sec tions</w>
behavi ors</w>
驳 </w>
s ony</w>
不 堪</w>
ten sions</w>
hun ting</w>
结 局</w>
ter ly</w>
ji an</w>
harv est</w>
chec ks</w>
眼 中</w>
hier arch
bure au
运 气</w>
否 定</w>
se t
ti bet
st aying</w>
telecom munic
dr unk</w>
ai ts</w>
地 人</w>
six -
l end</w>
im mun
ment -
射 线</w>
pro ven</w>
exc it
environ ments</w>
寺 </w>
大 自然</w>
l d
驾 驶
bo ar
cu ba</w>
这 不</w>
sent enced</w>
开发 者</w>
纠 正</w>
插 件</w>
je wish</w>
revol utionary</w>
发 给</w>
苯 </w>
经 销商</w>
3 50</w>
cal ories</w>
从 没</w>
tri ck</w>
增 进</w>
获 利</w>
漫 画</w>
内 涵</w>
im pose</w>
半 个</w>
on ia</w>
: /
p it</w>
sym pa
粘 </w>
几 百</w>
抢 </w>
gen i
置 于</w>
c it
albu m</w>
协 同</w>
以 致</w>
腹 </w>
fa thers</w>
st .</w>
终 结</w>
冰 箱</w>
sim on</w>
举 例</w>
me als</w>
征 收</w>
ag ne
1 40</w>
热 点</w>
civili ans</w>
逃 避</w>
thir ds</w>
loc ate</w>
千 年</w>
pi er
夷 </w>
dec l
赌 </w>
stri kes</w>
{ </w>
beli efs</w>
i ve</w>
外交 部</w>
sun shine</w>
碌 </w>
re m
virg inia</w>
asi a-
yiel ds</w>
祝 贺</w>
veri fy</w>
on ary</w>
commissi oner</w>
气 象</w>
dis abled</w>
concentr ated</w>
toler ance</w>
me tric</w>
nur se</w>
numer ical</w>
测 器</w>
c ain</w>
enti tled</w>
visi ts</w>
ment ally</w>
fir mly</w>
假 定</w>
je an</w>
appar ent</w>
坚 信</w>
j eff</w>
瓣 </w>
ce iling</w>
i ds</w>
de em
试 试</w>
neighbor hood</w>
应 有</w>
dev ast
a ero
ri vers</w>
sta dium</w>
sar ah</w>
业 主</w>
ome ter</w>
发 展
间 谍</w>
slow down</w>
好 多</w>
recei pt</w>
pharmaceu tical</w>
上 下
rebel s</w>
mat ching</w>
import antly</w>
毕 </w>
集 会</w>
冬 </w>
是 非</w>
2. 1</w>
rup ted</w>
多元 化</w>
权 限</w>
demonstr ation</w>
伴 随着</w>
大 厅</w>
impro vements</w>
家 园</w>
点 钟</w>
u red</w>
仍 旧</w>
遏 制</w>
后 悔</w>
均 值</w>
pe di
war m
persu ade</w>
量 化</w>
战 场</w>
摩 西</w>
ab ra
赞 赏</w>
普 及</w>
de grad
zhe jiang</w>
躁 </w>
这 边</w>
意味 </w>
充 电</w>
an ia</w>
direc tions</w>
rab bit</w>
gr ave</w>
1 60</w>
bat ch</w>
心 态</w>
sp reading</w>
源 自</w>
r ings</w>
注 定</w>
bel ong
bi an</w>
tu </w>
手 臂</w>
cr ying</w>
circul ar</w>
g ps</w>
a er
人 机</w>
gh ted</w>
秋 天</w>
un comfortable</w>
y ao</w>
kin s</w>
发 票</w>
now ad
constitu tional</w>
hi bit</w>
内 战</w>
受 损</w>
aler t</w>
h ong
trans formed</w>
color ful</w>
inc enti
工 业化</w>
mo ther
co ding</w>
行 政
突 变</w>
朝 着</w>
到 期</w>
af fili
absor b</w>
局 限</w>
误 解</w>
modi fy</w>
pipel ine</w>
allo y</w>
跟 随</w>
海 域</w>
s k</w>
organiz ing</w>
时 常</w>
尤 为</w>
voc abul
旬 </w>
奸 </w>
核 电站</w>
p ent
传 奇</w>
k ur
坚 强</w>
her o
satis factory</w>
荣 耀</w>
imp ul
选 出</w>
ack ers</w>
男 士</w>
trage dy</w>
campai g
nur sing</w>
as sign
平 安</w>
消 防</w>
近 平</w>
习 近平</w>
:/ /
飞 船</w>
commit ments</w>
inju ries</w>
ki sh</w>
另 有</w>
明 亮</w>
飙 升</w>
渗 透</w>
sal v
p and
布 置</w>
t ar</w>
inten si
wi der</w>
刊 登</w>
剥 夺</w>
hor ses</w>
发 光</w>
ri c
exam in
rel ating</w>
诱 惑</w>
pur ple</w>
气 温</w>
n aked</w>
di es
adop tion</w>
h as
伽 </w>
宁 愿</w>
nowad ays</w>
绸 </w>
pu m
主 机</w>
泰 勒</w>
pe ts</w>
检 索</w>
碎 片</w>
高 出</w>
模 特</w>
椒 </w>
势 头</w>
ge o
on au
sp er
写 信</w>
扑 </w>
死 刑</w>
h r</w>
显 而易
k ia</w>
显而易 见</w>
随 之</w>
hear t
mort ality</w>
3. 5</w>
decision- making</w>
pe p
中 介</w>
tr au
th um
sing ly</w>
惨 </w>
培 育</w>
sur gical</w>
水 面</w>
pri est</w>
起 床</w>
pro por
fl at
残 酷</w>
particip ating</w>
celebr ation</w>
罕 </w>
20 ,000</w>
raci al</w>
网 球</w>
stol en</w>
放 下</w>
去 过</w>
ill a</w>
je wel
畜 </w>
培 </w>
de an</w>
9 -
多样 化</w>
sc al
insp iration</w>
deman ding</w>
10 :
比利 时</w>
电 缆</w>
eng agement</w>
hu a
paki stan
天 生</w>
rec ur
r ally</w>
蕾 </w>
通 往</w>
设 有</w>
but ter
continu ously</w>
thir ty</w>
u .</w>
dead line</w>
v s</w>
全 身</w>
tab ly</w>
议 案</w>
敲 </w>
olo g
hel en</w>
新 娘</w>
长 官</w>
珠 宝</w>
gun s</w>
爱德 华</w>
1 500</w>
up set</w>
栓 </w>
atti tudes</w>
职 工</w>
蚁 </w>
extr action</w>
no des</w>
0 3</w>
当 成</w>
尸 </w>
terri torial</w>
instruc tion</w>
polic y
此 刻</w>
性 感</w>
调 试</w>
加 密</w>
外 出</w>
可 不</w>
sh er
198 4</w>
时 会</w>
下 雨</w>
veri fication</w>
indepen dently</w>
不 已</w>
收 藏</w>
air line</w>
nether lands</w>
she ets</w>
艺术 品</w>
受 过</w>
奥林匹 克</w>
拘 留</w>
daugh ters</w>
上 限</w>
业 界</w>
no ble</w>
where as</w>
戚 </w>
sugges tion</w>
加 沙</w>
and y</w>
e aten</w>
hom et
低 迷</w>
字 段</w>
in form
depar ture</w>
鼻 </w>
di gn
cha os</w>
cr af
mo ses</w>
shi p
si sters</w>
with draw
compl aint</w>
卖 方</w>
a to</w>
bor ders</w>
p acked</w>
juni or</w>
善 良</w>
国际 法</w>
con fu
on es
dr a</w>
日 元</w>
dr ought</w>
po d</w>
加 载</w>
an i</w>
毫 </w>
画 家</w>
五 月</w>
cam bridge</w>
史蒂 夫</w>
筹 集</w>
赛 事</w>
pow ered</w>
gl ori
suc c
晚 饭</w>
旅游 业</w>
galax y</w>
新 增</w>
syn thetic</w>
新华 社</w>
能 用</w>
in i</w>
g aining</w>
非 凡</w>
ultr as
两 条</w>
rep lic
瘦 </w>
house holds</w>
re aches</w>
k ev
2 2
in formal</w>
sin s</w>
当 初</w>
bo o</w>
高 压</w>
volunte er</w>
tw enty-
泄 露</w>
curricul um</w>
声 誉</w>
u ph
腺 癌</w>
满 意
介 意</w>
gen u
sh y</w>
spec ulation</w>
巴 克</w>
leg acy</w>
photograph y</w>
electr on</w>
楼 梯</w>
努 </w>
物 资</w>
根 源</w>
19 70</w>
b ent</w>
coll ecting</w>
kenne dy</w>
狂 热</w>
抛 </w>
inter views</w>
斯 顿</w>
stri ve</w>
aw a</w>
杜 </w>
ri gi
- time</w>
借 贷</w>
tradem ark</w>
时 装</w>
insi st</w>
拖 延</w>
expres sions</w>
pen insul
uc tu
疡 </w>
je ws</w>
广 告
i um</w>
演 说</w>
gr ass
民 事</w>
二 者</w>
aliz ing</w>
fl ed</w>
colle ague</w>
推 测</w>
武 </w>
海 湾</w>
喜 悦</w>
郊 区</w>
dis gu
装 箱</w>
旺 </w>
停 滞</w>
绑 </w>
宝 贝</w>
幼 </w>
平 时</w>
远 镜</w>
祖 </w>
望 远镜</w>
grand father</w>
益 于</w>
订 购</w>
卡 罗
oc e
讲 座</w>
i o
obli gation</w>
圆 形</w>
throw n</w>
p ha
嗨 </w>
留 给</w>
crow n</w>
htt p</w>
在 意</w>
不 当</w>
multi lateral</w>
op ens</w>
hor ri
自 治
奔 </w>
w ound</w>
gradu ated</w>
bas ket</w>
景 象</w>
di e
dead ly</w>
swi m</w>
翔 </w>
righ te
oppon ents</w>
假 日</w>
乃 至</w>
克 林</w>
二零 零
可 口</w>
ing ness</w>
stri king</w>
bas e
懈 </w>
tri c
fl uctu
刮 </w>
co ck
永 </w>
只 想</w>
进 度</w>
bl ade</w>
展 望</w>
7 5%</w>
n ap
做 事</w>
静 脉</w>
预 先</w>
ur ge</w>
海 盗</w>
automob ile</w>
disp er
荒 </w>
树 立</w>
view er</w>
尼 西亚</w>
莱 斯</w>
er able</w>
医 师</w>
水 资源</w>
鲸 </w>
16 .
步 行</w>
撤 销</w>
青 春</w>
上 映</w>
al li
rec re
缓 存</w>
in ity</w>
r w
en counter</w>
secre tari
荣 幸</w>
dee pen
容 忍</w>
反 抗</w>
met als</w>
本 科</w>
fast -
critici zed</w>
雄 心</w>
ster ing</w>
周 知</w>
入 口</w>
行 程</w>
胡 锦
in sec
录 音</w>
显 现</w>
def ects</w>
f bi</w>
垂 </w>
收 回</w>
一 次
clu bs</w>
n -
con sent</w>
所 用</w>
lo tus</w>
bar ely</w>
phili p</w>
speak ers</w>
深 深
ol dest</w>
灵 活性</w>
挣 </w>
over -
re tro
gen ic</w>
南 海</w>
照 明</w>
火 焰</w>
thresh old</w>
br a</w>
胡锦 涛</w>
上 方</w>
摄 入</w>
北 京
开 会</w>
champi on
r ant</w>
respon dents</w>
figh ters</w>
10 -
金 牌</w>
爱 人</w>
r ated</w>
历 史
r at</w>
. i</w>
br ains</w>
想 像</w>
封 闭</w>
挑 </w>
nan jing</w>
分 手</w>
租 金</w>
po tter</w>
p o</w>
家 宝</w>
deplo yed</w>
摊 </w>
蒙 古</w>
辉 煌</w>
走 路</w>
decl are</w>
原 材料</w>
des k
唱 片</w>
cri pt</w>
除 以</w>
gaz a</w>
lo go</w>
喝 酒</w>
l ag
bel gi
an th
any body</w>
chi ps</w>
冲 动</w>
chong qing</w>
低 估</w>
轿 车</w>
dram atically</w>
pro vo
下 调</w>
辈 子</w>
出 国</w>
洛 克</w>
ance st
further more</w>
r na</w>
静 态</w>
减 小</w>
驱 </w>
com ply</w>
spac es</w>
争 吵</w>
se is
出版 社</w>
incenti ves</w>
det ected</w>
bi e</w>
东 盟</w>
高 峰</w>
sh im
tay lor</w>
避 开</w>
好 者</w>
sent ences</w>
sc ored</w>
peac e
地 利</w>
ne gl
vocabul ary</w>
碱 </w>
puni shed</w>
机 密</w>
pri orities</w>
创 伤</w>
得 不到</w>
悟 </w>
显 示
右 边</w>
解 读</w>
m aps</w>
col oni
左 边</w>
各 级</w>
wa ited</w>
re son
tu p</w>
加利福 尼亚</w>
纤 </w>
芒 </w>
孤 立</w>
s ai
纲 </w>
缩 减</w>
que ue</w>
厕 所</w>
re marks</w>
好 友</w>
pati ence</w>
ann y</w>
hum or</w>
radi o
accum ulation</w>
相关 性</w>
confir mation</w>
spec tac
fl owing</w>
称 赞</w>
批 评
al ex</w>
poli te</w>
决 策
洒 </w>
绘 制</w>
海 啸</w>
入 境</w>
话 语</w>
z hao</w>
av ed</w>
dimen sion</w>
哇 </w>
传 媒</w>
鸟 类</w>
同 等</w>
peninsul a</w>
风 雨</w>
综 述</w>
前所 未有</w>
m ile</w>
gh am</w>
奖 学金</w>
or bit</w>
顺 便</w>
question ed</w>
帅 </w>
em en</w>
z hu</w>
mo bili
排 放
d ental</w>
同 比</w>
f lies</w>
筹 备</w>
15 .
l as</w>
海 底</w>
le tting</w>
http ://
fac ial</w>
注 目</w>
hi p</w>
结 算</w>
od d</w>
v la
construc ted</w>
ea th</w>
平 常</w>
统计 学</w>
坎 </w>
follow -up</w>
high light</w>
bic ycle</w>
硫 </w>
s anta</w>
devi l</w>
st ag
character ized</w>
po et</w>
电视 剧</w>
哭 泣</w>
茄 </w>
laugh ed</w>
树 林</w>
ti gh
fre ight</w>
advis er</w>
sub j
pas ses</w>
ran king</w>
泄 </w>
some how</w>
pol ar</w>
tra it</w>
surpri singly</w>
菲 特</w>
伦 理</w>
赞 美</w>
attribu tes</w>
区 的</w>
robo ts</w>
ha dn</w>
high- end</w>
lad en</w>
年 期</w>
面 部</w>
爱 好者</w>
人 造</w>
厌 恶</w>
默 克尔</w>
修 理</w>
彩 色</w>
desper ate</w>
查 找</w>
m ers</w>
en vel
脾 气</w>
constr aints</w>
des cen
argent ina</w>
5 0,000</w>
六 月</w>
玉 </w>
邮 报</w>
sh -
gi ble</w>
fre ely</w>
漏 洞</w>
implic ations</w>
9 /
out break</w>
脆 </w>
tian jin</w>
particip ated</w>
空 白</w>
一 百</w>
gor don</w>
短 语</w>
ash ing</w>
rai ses</w>
市 中心</w>
op e</w>
学 费</w>
fati gue</w>
fur n
急 性</w>
tou gh
几 何</w>
m um
片 段</w>
人 中</w>
非 正式</w>
地 毯</w>
飓 风</w>
沙 发</w>
p ec
xi ao</w>
学 历</w>
就 职</w>
虾 </w>
s ne
k le</w>
分泌 </w>
stre tch</w>
当 下</w>
估 算</w>
enjo ying</w>
mili tants</w>
篮 </w>
off set</w>
mat ches</w>
pl un
zo o</w>
dis appear</w>
retail ers</w>
趋 </w>
嘲 笑</w>
掩 盖</w>
hi ding</w>
embed ded</w>
restruc turing</w>
嵌 </w>
龟 </w>
anxi ous</w>
庙 </w>
il -
m ere</w>
所 周知</w>
众 所周知</w>
起 飞</w>
stan ford</w>
化 工</w>
恶 性</w>
fri ction</w>
a than</w>
筛 选</w>
volun tary</w>
initi atives</w>
cer am
evol ved</w>
无 线
process or</w>
违 背</w>
印度 尼西亚</w>
mar t</w>
def ici
gor ous</w>
公 告</w>
推 销</w>
裁 员</w>
第 一位</w>
function ality</w>
减 弱</w>
ge ological</w>
di li
wor rying</w>
or tho
方 位</w>
man chester</w>
brazili an</w>
fast est</w>
cylin der</w>
鲜 明</w>
检察 官</w>
尼 迪</w>
肯 尼迪</w>
放 大</w>
calci um</w>
丘 </w>
国 防
classi fied</w>
homet own</w>
hun g</w>
schol ar
down turn</w>
nor theast</w>
祖 先</w>
determin es</w>
s mu
d ney</w>
密 封</w>
clin ic</w>
名 声</w>
anim ation</w>
198 2</w>
an der
ti les</w>
b li
夜 间</w>
丸 </w>
第 六</w>
decreas ed</w>
mon d</w>
activi sts</w>
饰 演</w>
for ests</w>
军 官</w>
有 钱</w>
斯坦 福</w>
共 产</w>
成 像</w>
cont est</w>
ch at
益 处</w>
椎 </w>
time -
dec om
事 儿</w>
跨 越</w>
东 亚</w>
c i</w>
goo db
蝶 </w>
no vels</w>
ab an
面 的</w>
ch o</w>
畴 </w>
语 句</w>
whi sp
雷 曼</w>
divi d
electr om
艳 </w>
nar row
bre eding</w>
le an
兔 子</w>
m ask</w>
温 家宝</w>
question nai
惊 喜</w>
it ably</w>
ran k</w>
bri de</w>
养 老
本 法</w>
佐 </w>
sub stances</w>
助 手</w>
涉 嫌</w>
扭 曲</w>
he ter
dies el</w>
奢侈 品</w>
耻 </w>
it ance</w>
dri ll</w>
fr action</w>
宗 旨</w>
巴 菲特</w>
willi ams</w>
最 大
bri ck</w>
exp o</w>
进 出口</w>
assion ate</w>
囚 犯</w>
att or
有 毒</w>
人 性</w>
system atic</w>
super vi
re actions</w>
teen agers</w>
hur ri
in door</w>
莲 </w>
head ing</w>
kee per</w>
维 多
incen tive</w>
配 套</w>
物 价</w>
陆 地</w>
奶 奶</w>
蛮 </w>
f ers</w>
老 虎</w>
enc ry
腐 蚀</w>
construc t</w>
k at
ast es</w>
mathemati cs</w>
真 空</w>
箱 子</w>
mil li
表 达
kev in</w>
resi dent</w>
g ad
asia- pacific</w>
min er
ev acu
表达 式</w>
presi dency</w>
剑 桥</w>
筑 </w>
vege table</w>
姿 势</w>
ch eri
东 省</w>
p in</w>
5 00
ograph ic</w>
一 贯</w>
女 朋友</w>
再 说</w>
卖 出</w>
ones elf</w>
预 料</w>
connec ting</w>
绑 定</w>
sn ake</w>
喘 </w>
头 部</w>
deb ts</w>
j eff
眼 泪</w>
sau ce</w>
be ar
p ays</w>
classm ates</w>
磁 盘</w>
付 费</w>
任 职</w>
r ats</w>
to dd</w>
基 亚</w>
兴 起</w>
假 装</w>
咒 </w>
contra dic
木 材</w>
un ve
1 1:
vo ices</w>
de licate</w>
争 夺</w>
gener ator</w>
脑 子</w>
por tr
设 在</w>
cu rious</w>
机 组</w>
产 能</w>
恕 </w>
星 星</w>
塔 尔</w>
配 件</w>
t sun
im pressed</w>
so dium</w>
广 东</w>
服务 员</w>
放 射
empha size</w>
speak s</w>
戴 维</w>
感 冒</w>
seven th</w>
ro ad
ol e
斯 塔</w>
牛 肉</w>
水 分</w>
h k
hand some</w>
cultiv ate</w>
an onym
环 球</w>
看 似</w>
n az
cre atures</w>
口 味</w>
导 师</w>
t ated</w>
ad am</w>
音 译</w>
科 尔</w>
g ang
buff ett</w>
繁 殖</w>
露 出</w>
堵 </w>
原 有</w>
feasi ble</w>
外 语</w>
val ent
写 下</w>
始 于</w>
v in</w>
万 个</w>
separ ately</w>
对 照</w>
制 约</w>
terrori sts</w>
nit rogen</w>
re st
服务 业</w>
敏 捷</w>
摄影 师</w>
chec k
bri an</w>
smil ed</w>
脑 袋</w>
塘 </w>
br a
ener y</w>
resi dence</w>
建 设
recommend ation</w>
契 约</w>
ti a</w>
证 人</w>
躲 </w>
bi dding</w>
甘 </w>
renew able</w>
主 持
argu ing</w>
一 双</w>
accor dingly</w>
refer ring</w>
hi stori
猩 </w>
客户 机</w>
ad dic
dele te</w>
城 堡</w>
fl ame</w>
紧 紧</w>
aff air</w>
th ms</w>
犹 太</w>
champi on</w>
agne tic</w>
恰 恰</w>
dis arm
hib ited</w>
运 算</w>
gui ded</w>
肌 肤</w>
tr ain
g b</w>
一 点儿</w>
thic kness</w>
无线 电</w>
co in</w>
思 议</w>
加 深</w>
就 让</w>
gar bage</w>
mo tors</w>
深 远</w>
re actor</w>
} </w>
conver ted</w>
sen ds</w>
古 怪</w>
rat ings</w>
stop s</w>
goodb ye</w>
什 么
m on</w>
bach el
k ow
治 愈</w>
list ened</w>
绒 </w>
resp ected</w>
村 民</w>
provi ders</w>
选 取</w>
gho st</w>
ak e
连 锁</w>
测 验</w>
郁 症</w>
quo ted</w>
贼 </w>
特 纳</w>
strang er</w>
journ alist</w>
范 畴</w>
se -
c -
居 然</w>
tim ing</w>
一 首</w>
ex agger
fu els</w>
lif ting</w>
索 赔</w>
legen d</w>
pro pose</w>
reserv ation</w>
什么 的</w>
re ha
th at
身 心</w>
硬 币</w>
aban don</w>
猴 子</w>
前 途</w>
scre w</w>
jac ket</w>
u pri
动 力学</w>
导 向</w>
k al
will ingness</w>
re y</w>
ko zy</w>
承 包
乐 于</w>
par aly
书 写</w>
reco vered</w>
avoi ded</w>
研究 院</w>
un fair</w>
goo d
d ging</w>
地 下
g i</w>
collap sed</w>
hypo thesis</w>
厉 害</w>
m o</w>
促 成</w>
too th</w>
迎 来</w>
hs bc</w>
or ph
il es</w>
inv asion</w>
egyp tian</w>
亨 </w>
hand led</w>
奖 项</w>
东 北</w>
往 来</w>
d al
南 京</w>
干 细胞</w>
勇 </w>
cl ay</w>
te ar</w>
影 子</w>
ad o
promp ted</w>
参 </w>
differ ential</w>
晚 会</w>
tel es
四 川</w>
te st
heal th
pl ug
逼 </w>
dis plays</w>
动 词</w>
一 口</w>
p ast
谎 言</w>
neutr al</w>
un clear</w>
业 余</w>
四 月</w>
dist inc
营 造</w>
t ments</w>
4 000</w>
bam boo</w>
pro cu
ten ed</w>
p ale</w>
量 子</w>
信 件</w>
ven tures</w>
op ing</w>
per mit</w>
em bo
ri ding</w>
主持 人</w>
孟 加
mon key</w>
直 觉</w>
sar kozy</w>
ab normal</w>
c ow</w>
仓 </w>
投 票
头 痛</w>
sh ame</w>
y n</w>
卡 特</w>
输 送</w>
compar ing</w>
ag an</w>
cler k</w>
sh an
shel f</w>
丛 </w>
联合 会</w>
上 周五</w>
铃 </w>
ru shed</w>
标准 化</w>
xi a</w>
d awn</w>
dri ves</w>
豹 </w>
invol vement</w>
以 免</w>
调 研</w>
off shore</w>
开 拓</w>
存 活</w>
坐 标</w>
hum ili
as ean</w>
大 道</w>
传 真</w>
笑 容</w>
threat ening</w>
凝 </w>
路 透</w>
温 柔</w>
启 发</w>
卡 拉</w>
祷 告</w>
健 全</w>
吩 咐</w>
mr .
pres sures</w>
avoi ding</w>
模 具</w>
realiz ation</w>
f ou
脖 子</w>
ul ty</w>
tane ously</w>
fri ed</w>
h ence</w>
简 短</w>
guarante ed</w>
anc ement</w>
适 宜</w>
骨 头</w>
con gre
cau tious</w>
cont acts</w>
deem ed</w>
麦当 劳</w>
亲 戚</w>
tor ture</w>
s can</w>
春 节</w>
亏 </w>
不 久
accom mod
- in</w>
组 织
out line</w>
坚 </w>
s ab
砸 </w>
妒 </w>
欺 诈</w>
国际 化</w>
子 公司</w>
br ac
youn g
普 尔</w>
n ick</w>
view ers</w>
复杂 性</w>
ach us
弗 兰克</w>
机 票</w>
p ers</w>
impro ves</w>
survi v
对 照
三 月</w>
光 学</w>
wi ves</w>
合 法
d ge
废 除</w>
car ries</w>
alleg ed</w>
go ds</w>
oper ated</w>
朴 </w>
伪 </w>
k h
compl ained</w>
re sum
hun t</w>
fif ty</w>
等 候</w>
扯 </w>
coordin ated</w>
mass achus
w ay
se oul</w>
sp ray</w>
卢 旺
卢旺 达</w>
st un
审 批</w>
大 象</w>
magaz ines</w>
走 廊</w>
asi ve</w>
词 语</w>
deser ve</w>
c em
withdraw al</w>
p iz
b and
特 区</w>
ev ed</w>
诊 所</w>
感 动</w>
宏 </w>
pas sport</w>
泼 </w>
多 元</w>
necessi ty</w>
att achment</w>
def end
up grad
frag ile</w>
mil d</w>
gh ty</w>
suspen sion</w>
幼 儿</w>
char m</w>
li hood</w>
科 特</w>
distingui sh</w>
感 性</w>
terri tories</w>
197 8</w>
dis orders</w>
ben jam
uni ons</w>
mete or
inter act</w>
b ite</w>
quan tum</w>
手 法</w>
episo de</w>
想 着</w>
赞 助</w>
商 场</w>
compe ting</w>
人 选</w>
foun ding</w>
打 扰</w>
ali gn
茎 </w>
ste al</w>
奉 献</w>
好 转</w>
17 .
induc ed</w>
tr ains</w>
过 时</w>
resc u
久 性</w>
经 营
ev es</w>
上 司</w>
mag nit
妥 </w>
un necessary</w>
猩 猩</w>
过 高</w>
fin ed</w>
con gres
安 置</w>
tex tile</w>
丑 </w>
晕 </w>
蒸 汽</w>
bureau cr
super market</w>
grand mother</w>
直 径</w>
p aste</w>
et ts</w>
car pet</w>
雇 用</w>
avail ability</w>
ack er</w>
dim ir</w>
con fusion</w>
无 比</w>
juris diction</w>
n es
原 文</w>
债 权
tibet an</w>
inte st
录 像</w>
一 季度</w>
拼 </w>
f t
配 偶</w>
税 率</w>
间 隔</w>
树 脂</w>
cro ssing</w>
犹 豫</w>
un certain</w>
傻 </w>
卡梅 伦</w>
au stri
9 9
d in</w>
境 外</w>
hang zhou</w>
and ong</w>
侠 </w>
ther ine</w>
保守 党</w>
rm b
裙 子</w>
di ver
虚 假</w>
specific ations</w>
ro d</w>
vla dimir</w>
cam bo
三 角</w>
conver t</w>
特 尔</w>
矿 业</w>
ri ck</w>
massachus etts</w>
par ks</w>
审 视</w>
reci pi
portu gal</w>
di sh
宰 </w>
sub ur
brea the</w>
exp i
z ones</w>
深 受</w>
导 体</w>
未 知</w>
ligh ted</w>
棘 手</w>
v ary</w>
sec </w>
l ingu
fl esh</w>
sub tle</w>
g ur
j im
选 用</w>
d b</w>
vir uses</w>
prote ins</w>
散 发</w>
embr ace</w>
报 复</w>
ran ked</w>
frac ture</w>
migr ant</w>
contr actor</w>
赶 上</w>
trigg ered</w>
ordin ance</w>
feasi bility</w>
terr or</w>
微 小</w>
天 上</w>
nigeri a</w>
sho e</w>
ken ya</w>
0. 5</w>
信 赖</w>
no kia</w>
米 兰</w>
schem a</w>
absor ption</w>
star t-
整 整</w>
问 问</w>
偶 像</w>
哈 里</w>
h att
pen n
轻 微</w>
adver se</w>
缺 失</w>
ber y</w>
de formation</w>
stimul ate</w>
女 孩子</w>
fu zzy</w>
u. s.
福 音</w>
睐 </w>
lo yal</w>
farm ing</w>
kin dness</w>
196 0s</w>
身 为</w>
d row
th eless</w>
皇 帝</w>
laugh ing</w>
副 本</w>
创 下</w>
mani fe
我 家</w>
dimen sions</w>
艰 苦</w>
w ow</w>
福 德</w>
m ai
high- level</w>
cos me
in corpor
生 动</w>
电视 机</w>
非 线性</w>
阴 谋</w>
女 友</w>
cru el</w>
宴 会</w>
ri cal</w>
blan k</w>
七 个</w>
fortun ate</w>
排放 量</w>
溶 液</w>
州 市</w>
舌 </w>
investig ating</w>
camer as</w>
jewel ry</w>
duc k</w>
3 6
never theless</w>
电 网</w>
叔 叔</w>
with draw</w>
ca sion</w>
恶 意</w>
me tro
ful ness</w>
ban ds</w>
不 着</w>
valu ation</w>
外 来</w>
p ity</w>
坪 </w>
ju ven
原 型</w>
ri dic
har d-
din ing</w>
oc casion</w>
队 列</w>
1. 4</w>
mc cain</w>
斯 州</w>
不 必要</w>
es cal
glo be</w>
tra p</w>
ce as
简 介</w>
base ball</w>
poll s</w>
伍 德</w>
i gn</w>
六 年</w>
geni us</w>
wher ever</w>
saf ely</w>
or a</w>
3 60</w>
拍 照</w>
其 后</w>
米 歇尔</w>
奶 酪</w>
估 值</w>
dign ity</w>
e j
in fer
趟 </w>
sc ared</w>
u plo
w ounded</w>
蛛 </w>
ta p</w>
liber ation</w>
民 营</w>
smil ing</w>
gover ning</w>
n pr</w>
voc ational</w>
f red</w>
ne ur
经纪 人</w>
c p</w>
行 长</w>
wat ch
三 大</w>
鼠 标</w>
susp ici
atten ding</w>
tur b
citi group</w>
poin ting</w>
液 压</w>
woo d
卵 </w>
rec eption</w>
sh ower</w>
thro at</w>
哀 </w>
s light</w>
concentr ate</w>
小 鼠</w>
宝 石</w>
曝 光</w>
狭 窄</w>
ger man
透明 度</w>
开 口</w>
w as
h ills</w>
转 动</w>
委 内
瑞 拉</w>
委内 瑞拉</w>
char lie</w>
附 属</w>
gras p</w>
sti r
e z</w>
安 妮</w>
城 里</w>
秒 钟</w>
拌 </w>
程 序
主 办</w>
多 达</w>
致 使</w>
特 质</w>
cl ause</w>
杠 杆</w>
modern ization</w>
越 大</w>
代理 人</w>
archit ect</w>
flav or</w>
to ol
七 年</w>
je al
集 群</w>
el ine</w>
多 样</w>
kne e</w>
ec b</w>
c ave</w>
停 车
大 笔</w>
shor ter</w>
tab let</w>
固 体</w>
国防 部</w>
打 败</w>
uri ty</w>
sp y</w>
芬 兰</w>
respon ses</w>
colum bia</w>
disarm ament</w>
苏 珊</w>
bl air</w>
acqui re</w>
格 局</w>
华 为</w>
cultiv ation</w>
wer en</w>
ch en
insi ght</w>
澡 </w>
前 者</w>
让 步</w>
日 记</w>
abun dant</w>
汉 堡</w>
advi sed</w>
coun tless</w>
se gment</w>
厨 师</w>
ali se</w>
cro ssed</w>
磋 商</w>
先 知</w>
卡 路
卡路 里</w>
保 安</w>
崇 拜</w>
颁 布</w>
bu tter</w>
岁 月</w>
挫 </w>
对照 组</w>
w ed</w>
登 陆</w>
九 月</w>
announ ce</w>
流 通</w>
陶 瓷</w>
a ther
伤 亡</w>
q a
柬 埔
柬埔 寨</w>
secon dly</w>
s ers</w>
要 点</w>
vir al</w>
胳 膊
排 序</w>
scop ic</w>
m ates</w>
accoun ted</w>
音 机</w>
bu tt
j an</w>
光 谱</w>
监 禁</w>
新 建</w>
君 </w>
is is</w>
ght ful</w>
肚 子</w>
other ap
blo om
型 号</w>
扭 转</w>
嫌 疑
manufac ture</w>
advi se</w>
ch ess</w>
jon athan</w>
ham as</w>
这 起</w>
论 证</w>
mc donald</w>
re j
手 上</w>
挑 战
asp ir
he ated</w>
hor m
len e</w>
sk i
mon o
物 业</w>
rand om
tempor arily</w>
建筑 师</w>
pl c</w>
bon us</w>
bo ats</w>
起 源</w>
比 重</w>
man kind</w>
先 后</w>
lo ads</w>
祭 司</w>
adv enture</w>
furn ace</w>
iri sh</w>
rob ust</w>
当 做</w>
os a
弟 兄</w>
law makers</w>
pursu ing</w>
o y
务 部</w>
pol and</w>
appeti te</w>
顶 部</w>
特 权</w>
记 载</w>
固 醇</w>
日 程</w>
教 科
身 后</w>
fertili ty</w>
去 除</w>
happ ily</w>
policy makers</w>
c pu</w>
r ach
斯 蒂</w>
k un
引 领</w>
correc tion</w>
plu g</w>
厘 米</w>
青 睐</w>
奥 地利</w>
抑 </w>
e up</w>
与 众
与众 不同</w>
可 不是</w>
n at
交 货</w>
dou bled</w>
出 门</w>
百 度</w>
come dy</w>
de pic
p ou
鱼 类</w>
j az
convin ce</w>
拆 </w>
sincer ely</w>
睡 着</w>
clim bed</w>
pre serve</w>
two- thirds</w>
virtu e</w>
优 良</w>
ol ds</w>
同 伴</w>
dr af
invo ice</w>
cli ff</w>
摔 </w>
regul ate</w>
元 件</w>
poli tically</w>
eas ing</w>
ri sky</w>
服 饰</w>
i sh</w>
st ation
逢 </w>
shiel d</w>
贵 族</w>
r ho
阿 里</w>
pal m</w>
in finite</w>
posi tioning</w>
远 处</w>
氯 </w>
ch op
t ap
悲 观</w>
廓 </w>
gr ab
win ners</w>
概 述</w>
18 .
拉 斯
取 出</w>
wor ship</w>
o ts</w>
benjam in</w>
pop e</w>
烛 </w>
an alo
ing e</w>
te es</w>
wash ed</w>
平 稳</w>
l ens</w>
12 %</w>
投 标</w>
shoul ders</w>
sem ester</w>
reve als</w>
j ing
alleg ations</w>
conci li
5 ,
佛 教</w>
pi x
deriv ative</w>
厚 度</w>
小 孩子</w>
pe ers</w>
辣 </w>
眼 下</w>
乳 腺癌</w>
夕 </w>
羞 </w>
肩 膀</w>
pr u
流 失</w>
弗 吉
翅 膀</w>
教 导</w>
幢 </w>
x in</w>
尼 古
永 不</w>
no od
签 字</w>
b is
缠 </w>
f ame</w>
key words</w>
inqui ry</w>
工 党</w>
会 话</w>
论 点</w>
指挥 官</w>
尊 严</w>
在 哪</w>
g an
农 产品</w>
g ments</w>
包 围</w>
买 下</w>
巴 斯</w>
ge on</w>
nu ts</w>
十 个</w>
e en</w>
播 出</w>
d dy</w>
introduc ing</w>
la zy</w>
19 60</w>
客 厅</w>
倾 斜</w>
mon opo
ar ch</w>
溢 </w>
loy alty</w>
e ternal</w>
一 书</w>
quo te</w>
stic ks</w>
不 容</w>
emer gence</w>
所 有者</w>
人 事</w>
sc enery</w>
form ally</w>
乐 器</w>
十 几</w>
预 见</w>
信用 证</w>
萎 缩</w>
尔 森</w>
wr apped</w>
procu rement</w>
污染 物</w>
裁 军</w>
e ge</w>
du ci
界 限</w>
不 适</w>
译 汉</w>
英 译汉</w>
re iter
re solutions</w>
备 份</w>
worl d-
基 因
苦 难</w>
了 不起</w>
righ t-
desk top</w>
有 名</w>
托 尼</w>
in ches</w>
key board</w>
u bs</w>
docum entation</w>
路易 斯</w>
投资 人</w>
thur </w>
pit ch</w>
amend ment</w>
ad el
af fir
计 量</w>
集 装箱</w>
悄 悄
sho ts</w>
马 车</w>
eth ical</w>
衔 </w>
influ ences</w>
创 办</w>
底 下</w>
lu gg
lim itations</w>
相 连</w>
le verage</w>
笼 </w>
面 板</w>
鲍 勃</w>
蛙 </w>
k ir
维多 利亚</w>
伤 口</w>
陈 </w>
ail ing</w>
变 异</w>
desi red</w>
e ste
medium- sized</w>
绑 架</w>
less ly</w>
capit alism</w>
y ale</w>
棋 </w>
午 饭</w>
expec tation</w>
pos sibilities</w>
有 待</w>
p our</w>
ro b</w>
fir stly</w>
多 余</w>
好 象</w>
ail ed</w>
麦 凯恩</w>
放射 性</w>
succe eded</w>
第二 十
法 令</w>
exha u
9 5%</w>
in visible</w>
pakistan i</w>
诺 基亚</w>
conduc ting</w>
full- time</w>
珍 惜</w>
dec k</w>
现 年</w>
放 心</w>
so oner</w>
波 罗</w>
met aboli
不 懈</w>
encour ages</w>
break through</w>
tur kish</w>
梭 </w>
来 不</w>
从 来不</w>
wild life</w>
no tion</w>
r ays</w>
es pe
se ized</w>
过 敏</w>
li bri
缚 </w>
详 情</w>
布 尔</w>
脑 海</w>
触 发</w>
alex ander</w>
抵 消</w>
kid ney</w>
soci eties</w>
腕 </w>
娶 </w>
德 克萨
gall ery</w>
ma h
cor ri
ex tin
经 贸</w>
har sh</w>
轮 胎</w>
珍 </w>
眼 光</w>
必 要性</w>
be ars</w>
safe guard</w>
clim bing</w>
in tr
纳 德</w>
加 勒
share holder</w>
芯 </w>
v m</w>
冷 战</w>
疟 疾</w>
b m
民 党</w>
骑 士</w>
斯 托</w>
ple dged</w>
礁 </w>
le ase</w>
拉 美</w>
00 0
tal ented</w>
autom ation</w>
译 者</w>
西 北</w>
世 人</w>
天 线</w>
书 店</w>
届 时</w>
裤 子</w>
轴 承</w>
refer en
so cc
曼 联</w>
编 号</w>
诚 信</w>
top -
最 长</w>
探 究</w>
d ors</w>
铅 </w>
化 剂</w>
全 美</w>
bl ess</w>
一 向</w>
l ym
尔 文</w>
队 长</w>
tur mo
indi genous</w>
infr ared</w>
忠 实</w>
两 岸</w>
数 以</w>
petro le
比 特</w>
克 斯坦</w>
ter ior</w>
惯 例</w>
it ative</w>
戒 指</w>
br us
treat ments</w>
confi dential</w>
port al</w>
psy chi
magnit ude</w>
理 财</w>
sam pling</w>
ch ase</w>
recruit ment</w>
shou ted</w>
lan e</w>
disclo sure</w>
0 2:
aci ous</w>
vene zu
angel a</w>
磁 场</w>
途 中</w>
jiang su</w>
in comes</w>
土 豆</w>
字 体</w>
投 行</w>
辛 格</w>
sou thwest</w>
th ai</w>
纲 领</w>
let t</w>
饱 </w>
imperi al</w>
ad oles
钱 包</w>
lo vers</w>
turmo il</w>
预 报</w>
determin ing</w>
socc er</w>
拉 登</w>
repres enting</w>
spec ul
抨 击</w>
lugg age</w>
s d</w>
介 质</w>
pre dec
shel ter</w>
em ission</w>
少 于</w>
astr onau
ob server</w>
wh oles
时间 表</w>
gi e</w>
qa eda</w>
sal aries</w>
dro ps</w>
± </w>
congres sional</w>
史 以来</w>
有 史以来</w>
j o</w>
ib o</w>
不 足以</w>
differ ently</w>
缀 </w>
酵 </w>
coun ts</w>
man hatt
老 是</w>
明 书</w>
工作 室</w>
终 身</w>
ar a</w>
inev itably</w>
bar rel</w>
reha bili
市 区</w>
lun ar</w>
pro ph
venti l
交 际</w>
嫉 妒</w>
初 级</w>
茜 </w>
t our
predec ess
一 夜</w>
实 质</w>
gh ua</w>
ine quality</w>
be ating</w>
接 种</w>
negoti ating</w>
hai ti</w>
psy cho
开 销</w>
occup ation</w>
ic on</w>
dri ed</w>
糖 果</w>
倡 导</w>
vali dity</w>
过 剩</w>
星 系</w>
诫 </w>
珊 瑚
冻 结</w>
必 将</w>
向 下</w>
re str
缔 约
m all</w>
pro pri
excit ement</w>
离 职</w>
缴 纳</w>
credi bility</w>
x u
以 期</w>
ar thur</w>
卡 片</w>
sand wi
bri gh
em ails</w>
4 7
f da</w>
辟 </w>
bott les</w>
c kets</w>
邀 </w>
养 老</w>
音乐 会</w>
下 属</w>
申 报</w>
住 院</w>
波斯 尼亚</w>
习 俗</w>
mid st</w>
既 是</w>
棒 球</w>
war ri
被 动</w>
need le</w>
注 视</w>
bel o
放 进</w>
看 成</w>
水 准</w>
℃ </w>
填 充</w>
每 人</w>
地 域</w>
e bay</w>
出 名</w>
sl owing</w>
rang ing</w>
屑 </w>
陌 生</w>
parli am
恐 龙</w>
tradi tionally</w>
好 看</w>
secretari at</w>
你 的
夏 威
isol ation</w>
bl amed</w>
bench mark</w>
定 律</w>
shak espe
你的 心</w>
汇 报</w>
开 放
丝 绸</w>
组 装</w>
le on
智 利</w>
人 称</w>
悠 久</w>
分 化</w>
tsun ami</w>
藻 </w>
ev al</w>
modi fication</w>
礼 服</w>
澳 </w>
颁 发</w>
老 婆</w>
12 :
首 位</w>
rel s</w>
condi tioning</w>
narr ative</w>
核 查</w>
sh andong</w>
分 校</w>
id en
齿 轮</w>
ak i</w>
deriv atives</w>
排 队</w>
求 职</w>
shir ts</w>
入 学</w>
ar c</w>
院 长</w>
油 田</w>
累 积</w>
配 方</w>
p se</w>
点 燃</w>
提 倡
舟 </w>
大 笑</w>
tt es</w>
十 八</w>
top s</w>
enti ties</w>
tex ture</w>
基督 徒</w>
fav our</w>
can al</w>
u le</w>
wi z
摩 托
岛 上</w>
leban on</w>
b ay
finan ci
michel le</w>
catho lic</w>
北京 市</w>
sw ing</w>
my an
diagno sed</w>
上 演</w>
libr aries</w>
披 </w>
applic ants</w>
公 认</w>
藤 </w>
pro be</w>
服 从</w>
疲 软</w>
gramm ar</w>
草 地</w>
注 释</w>
减 缓</w>
想 出</w>
驱 逐</w>
pic king</w>
tr uc
本 能</w>
fl ag
j .
diplom acy</w>
带 走</w>
重 庆</w>
por k</w>
留 学</w>
ro tation</w>
c ited</w>
geograph ical</w>
曼 哈
商 界</w>
击 者</w>
min ded</w>
ch anc
大 使馆</w>
全 年</w>
manhatt an</w>
笔 记</w>
back up</w>
现 今</w>
musli ms</w>
den y</w>
elev ator</w>
depen dence</w>
满意 度</w>
la p</w>
装 配</w>
胳膊 </w>
as sur
最 爱</w>
同 类</w>
撤 离</w>
administr ator</w>
l y-
会 计
开 头</w>
激 起</w>
养老 金</w>
prosp erous</w>
col om
安全 和</w>
学 员</w>
ak a</w>
hua wei</w>
ma sters</w>
w ool</w>
巴 布
罗 姆</w>
贾 </w>
scre ening</w>
high- quality</w>
volati lity</w>
目 睹</w>
无 辜
bi as</w>
界 定</w>
cas ual</w>
occurr ence</w>
plan ting</w>
巴 士</w>
bloc k
photograph s</w>
ap prai
愧 </w>
理 智</w>
ran ks</w>
fa ults</w>
bai du</w>
p ad</w>
车 子</w>
inste in</w>
数 月</w>
dis advantages</w>
bu ll</w>
g ases</w>
refuge e</w>
acquisi tions</w>
inte l</w>
ther mo
corro sion</w>
尔 特</w>
螺 旋</w>
op pose</w>
评 分</w>
填 补</w>
尺 度</w>
ne il</w>
3 0s</w>
描 写</w>
雀 </w>
libri um</w>
兔 </w>
大 幅度</w>
带 上</w>
水 域</w>
s oun
观 者</w>
3 5
学 业</w>
musi cal</w>
en ligh
myan mar</w>
no ting</w>
宪 章</w>
sun light</w>
d uration</w>
化 学
r ental</w>
s as</w>
mor ph
du ke</w>
inspi re</w>
账 单</w>
情 愿</w>
telecommunic ations</w>
人 大</w>
锁 定</w>
regul ator</w>
表 单</w>
boun dar
ation -
chr y
mid night</w>
no tation</w>
打 扮</w>
施 行</w>
挫 折</w>
陪 伴</w>
剧 烈</w>
horiz on</w>
hand ful</w>
yo ga</w>
购 买
s ni
多 项</w>
观察 员</w>
上 传</w>
发 生
ir re
coun sel
疹 </w>
参 见</w>
approxim ately</w>
坐 落</w>
m iller</w>
数 字
珍 妮</w>
查 理</w>
thank s
helicop ter</w>
自 治</w>
劝 </w>
地 狱</w>
发 作</w>
市 值</w>
- and-
罗 斯
predic table</w>
捕 获</w>
多 长</w>
贸 易
adv ances</w>
subsidi ary</w>
nor thwest</w>
丝 毫</w>
例 句</w>
tr apped</w>
爷 爷</w>
qu al
格 鲁
li sa</w>
chanc ell
ang ered</w>
中 将</w>
葱 </w>
拨 款</w>
文件 夹</w>
y ar
忙 碌</w>
预 示</w>
fe i</w>
missi les</w>
- in-
所 属</w>
over night</w>
vide os</w>
亩 </w>
wil son</w>
petrole um</w>
捞 </w>
b .
大 片</w>
en za</w>
accomp lish</w>
ben eath</w>
belo ved</w>
fail ures</w>
inter val</w>
sy dney</w>
两 边</w>
gy m</w>
sens ors</w>
安 东
3 7
stead ily</w>
渣 </w>
导 入</w>
ti gation</w>
don ors</w>
in er
笑 声</w>
北 极</w>
启 用</w>
sli p</w>
本 性</w>
同 志</w>
prof ession</w>
盘 子</w>
色 情</w>
rel ay</w>
ren der</w>
行政 区</w>
失 误</w>
tack le</w>
庸 </w>
殖民 地</w>
seem ingly</w>
流 体</w>
ber nan
indic ating</w>
urban ization</w>
爱 丽
sever ely</w>
维 基</w>
重 返</w>
强 壮</w>
o hi
rhe tor
官 僚</w>
k iller</w>
all ing</w>
for es
sl ower</w>
mo ham
c attle</w>
198 3</w>
at or
resul ted</w>
enthusi astic</w>
一 丝</w>
立法 会</w>
car ib
cand y</w>
战 术</w>
起 点</w>
lo t
山 脉</w>
迭 代</w>
fun eral</w>
convers ations</w>
le w
k ick</w>
臭 </w>
st ack</w>
截 然</w>
决策 者</w>
pe i</w>
ear liest</w>
x on</w>
文 书</w>
j p
晃 </w>
com bus
锌 </w>
碟 </w>
缓 和</w>
valent ine</w>
曼哈 顿</w>
bernan ke</w>
递 交</w>
pas sive</w>
特 有</w>
bachel or</w>
吊 </w>
serv ic
mal aria</w>
boundar ies</w>
pray er</w>
2. 3</w>
stere o
回 想</w>
disp at
门 户</w>
transm itted</w>
conclu de</w>
ye ar
elec toral</w>
那 家</w>
ha wai
w anna</w>
肾 </w>
w ells</w>
禽 </w>
deci sive</w>
ain e</w>
哈 马斯</w>
破 碎</w>
bron ze</w>
程 式</w>
b au
征 服</w>
交 道</w>
tr um
玩 耍</w>
简 洁</w>
夏威 夷</w>
f arms</w>
t all
contin ental</w>
som alia</w>
用 性</w>
destin y</w>
kno cked</w>
增 添</w>
信 誉</w>
发 音</w>
q in</w>
奠 定</w>
tal e</w>
ph y</w>
thanks giving</w>
一 个
lu bri
4 ,000</w>
巡 逻
列 为</w>
巧 妙</w>
inher itance</w>
菲利 普</w>
克 拉</w>
enc lo
把 手</w>
under stand
杖 </w>
停 火</w>
fossi l</w>
教 皇</w>
for bi
vill agers</w>
celebri ty</w>
bas es</w>
倒 闭</w>
犹 大</w>
ch ains</w>
deliber ately</w>
dis placement</w>
dec oration</w>
尾 巴</w>
外 套</w>
债权 人</w>
comp as
happ ier</w>
es e-
shi pped</w>
杭 州</w>
transi t</w>
硅 谷</w>
l av
实质 性</w>
migr ants</w>
无 情</w>
chri stop
津 贴</w>
sacri fic
增 幅</w>
掷 </w>
泳 池</w>
专 栏</w>
日 内
re sem
s ors</w>
ch an</w>
inf ecti
colum ns</w>
strugg led</w>
援 引</w>
丙 </w>
七 月</w>
忠 </w>
lionai re</w>
融 化</w>
负 债
mer ger</w>
涅 </w>
维 奇</w>
按 时</w>
瓦 尔</w>
sh ri
迪 拜</w>
促 销</w>
compati ble</w>
裂 缝</w>
无 意</w>
gentlem an</w>
盼 </w>
天 津</w>
coll ar</w>
dai ry</w>
如 果
electrom agnetic</w>
go ssi
柠 檬
cir cles</w>
脚 步</w>
defe ated</w>
查 阅</w>
i ble</w>
谜 </w>
ac qu
如果 说</w>
宿 舍</w>
反 恐</w>
o versi
metho d
indi sp
deep en</w>
实 地</w>
规 章</w>
子 弹</w>
礼 拜</w>
prescri bed</w>
传 来</w>
塞 尔
原 先</w>
mi st</w>
切 换</w>
身 处</w>
mat urity</w>
棕 色</w>
liter ally</w>
互 利</w>
中 午</w>
踩 </w>
mi chi
accep ting</w>
er ly</w>
挽 救</w>
def ect</w>
audi ble</w>
mer ri
m s
b alls</w>
在 外</w>
mac ao</w>
追溯 到</w>
欣 </w>
stat ue</w>
i v</w>
dang ers</w>
一次 性</w>
霉 </w>
encoun tered</w>
mi ghty</w>
无 知</w>
accum ulated</w>
lic s</w>
we st
defin i
制 药</w>
20 30</w>
travel ed</w>
wonder ing</w>
香 烟</w>
kid n
决 不</w>
抑 郁症</w>
子 孙</w>
commer ci
equi librium</w>
cy ber
重 力</w>
plas ma</w>
十 万</w>
mu m</w>
转 而</w>
数 十亿</w>
摩托 车</w>
shakespe are</w>
me i</w>
z im
高 潮</w>
lar ry</w>
抗 体</w>
专 题</w>
p. m</w>
宣 告</w>
inter -
休 假</w>
p ag
p ants</w>
带 动</w>
k it</w>
马 拉</w>
bre e
聚 焦</w>
爱 国</w>
emer ge</w>
c .
sh am
表 决</w>
19 45</w>
执行 长</w>
le an</w>
an ten
win ds</w>
口 头</w>
伴 随</w>
鸭 </w>
景 点</w>
日内 瓦</w>
狸 </w>
referen dum</w>
芳 </w>
少 女</w>
iden tical</w>
宇航 员</w>
印 机</w>
考 核</w>
文 物</w>
nam ent</w>
198 1</w>
抽 烟</w>
沃尔 玛</w>
饼 干</w>
弱 点</w>
警 惕
诱 导</w>
迪 士
萝 卜</w>
并 发
制 止</w>
并发 症</w>
轨 迹</w>
男 朋友</w>
攀 升</w>
car riage</w>
迪士 尼</w>
捧 </w>
剧 本</w>
外 长</w>
ban g</w>
mic ro</w>
克 隆</w>
certific ates</w>
ne um
批 判</w>
按 摩</w>
稍 后</w>
stam ps</w>
祖 父</w>
kil o
se di
走 去</w>
ap ples</w>
提倡 </w>
author ization</w>
邮 箱</w>
ag a</w>
ho sted</w>
bo ther</w>
cheng du</w>
普 拉</w>
epidem ic</w>
悉 尼</w>
就 读</w>
ic y</w>
惠 普</w>
loc ks</w>
发 誓</w>
执 照</w>
无 人机</w>
沙 滩</w>
om er
a xi
分 布
x xx</w>
sh ook</w>
re war
本 届</w>
ex t
gu o</w>
芭 </w>
现 已</w>
蕉 </w>
cu te</w>
处 置</w>
cra w
advertis ement</w>
3. 2</w>
expendi ture</w>
der ness</w>
al ong
reserv ed</w>
defin es</w>
仇 </w>
refl ecting</w>
um b
19 .
t arian</w>
印第 安</w>
frustr ated</w>
carol ina</w>
champi ons</w>
洁 净</w>
col ored</w>
览 会</w>
张 照</w>
残 疾</w>
尼 奥</w>
bul k</w>
zh ong
摩 尔</w>
净 化</w>
东 欧</w>
gen eva</w>
车 型</w>
addre sses</w>
紫 色</w>
otherap y</w>
doub ts</w>
水 量</w>
词 典</w>
refer ences</w>
好 运</w>
深 深</w>
日 渐</w>
streng ths</w>
est er
survi ved</w>
ne ural</w>
听 力</w>
k az
该 行</w>
南 省</w>
tr act</w>
f ang</w>
comp ounds</w>
s ect</w>
rich est</w>
quali fication</w>
一 九
re tain</w>
植 入</w>
优 美</w>
ry an</w>
颁 奖</w>
位 数</w>
re wards</w>
coun ted</w>
pi gs</w>
外交 官</w>
汉 姆</w>
trad ed</w>
发 性</w>
ki e</w>
平 行</w>
el astic</w>
园 区</w>
ful fill</w>
晶 体</w>
mem orial</w>
当 地人</w>
侵 蚀</w>
不 明</w>
jud ah</w>
坊 </w>
m -
en abled</w>
信息 化</w>
inf ections</w>
感 恩
汇 丰</w>
teen th</w>
am ine</w>
we ir
里 程
便 于</w>
chancell or</w>
pat rio
厂 家</w>
me tr
access ories</w>
改 编</w>
infecti ous</w>
promo tes</w>
yun nan</w>
he i
rol ler</w>
mit ting</w>
photo grapher</w>
je ans</w>
do or
high lights</w>
审 美</w>
lef t-
liber ty</w>
en ters</w>
天 主教</w>
焊 </w>
精 密</w>
表 述</w>
浴 室</w>
edi t</w>
演 化</w>
网 格</w>
us eless</w>
carib bean</w>
ro l</w>
病 情</w>
快 捷</w>
p ine</w>
收 拾</w>
出 租</w>
亚 历
耶 鲁</w>
trans late</w>
trac ks</w>
de tained</w>
展 出</w>
cinem a</w>
jac ob</w>
4 50</w>
士 比亚</w>
莎 士比亚</w>
sp ell</w>
autonom y</w>
scat tered</w>
逛 </w>
墙 壁</w>
骚 扰</w>
wa vel
coun ting</w>
gr a
b y-
victori a</w>
mat the
帐 篷</w>
p son</w>
不 肯</w>
里 兰
h all
s essions</w>
半 数</w>
t ong</w>
十 月</w>
no te
f ancy</w>
we ster
金 斯</w>
西 南</w>
降 临</w>
做 完</w>
assum ing</w>
制 性</w>
ni ghts</w>
皱 </w>
expl oring</w>
毒 性</w>
blu e
do t</w>
t ness</w>
rach el</w>
ho sts</w>
充 当</w>
外 线</w>
既 有</w>
纪 律</w>
ri al</w>
w sd
公 爵</w>
3 8
据 称</w>
fil tr
录 片</w>
197 6</w>
口 号</w>
congrat ul
富 豪</w>
失 效</w>
防 范</w>
organ isms</w>
p neum
ro y
厄 </w>
忽 然</w>
prin ts</w>
d ow</w>
威 廉
persi stent</w>
煤 矿</w>
反 思</w>
ess ay</w>
凑 </w>
cigare tte</w>
mar ia</w>
ker ry</w>
勤 奋</w>
pre serv
m l
繁 忙</w>
go s</w>
wit n
行 人</w>
st um
外 包</w>
蜡 烛</w>
ambi tion</w>
. .
pr ag
inser t</w>
it ly</w>
蜜 蜂</w>
亿 万</w>
lap top</w>
under graduate</w>
comp ul
volati le</w>
multin ational</w>
r al
eco system</w>
bl essed</w>
construc tive</w>
con sume</w>
称 呼</w>
coo ked</w>
shu ttle</w>
归 咎
波 音</w>
per pe
沉 积</w>
er ings</w>
pl um
fant asy</w>
sac red</w>
读 取</w>
预 警</w>
on able</w>
讯 息</w>
sh allow</w>
at -
这 套</w>
con den
re stored</w>
tim acy</w>
re act</w>
per me
o tive</w>
感恩 节</w>
破 坏
飞 往</w>
切 断</w>
wei gh</w>
off ensive</w>
贫 </w>
stu b
吉 亚</w>
岗 </w>
近 几年</w>
addre ssing</w>
en de
sem ic
c ache</w>
挠 </w>
基因 组</w>
ad mission</w>
出 自</w>
6 6
be hold</w>
anti bio
sla ve</w>
壶 </w>
临 近</w>
cas u
assum ed</w>
hop efully</w>
断 裂</w>
累 计</w>
nor way</w>
这 话</w>
seis mic</w>
阻 力</w>
首 尔</w>
cy ber</w>
li ver
想 象
获 益</w>
棍 </w>
前 期</w>
p m
k l
束 缚</w>
shr in
充 斥</w>
exp ecting</w>
di al
insec ts</w>
counter measures</w>
留 意</w>
蜘 蛛</w>
偏 好</w>
拥 </w>
plan ets</w>
in cur
brus sels</w>
illu min
装 修</w>
j un</w>
矮 </w>
public ity</w>
off -
u. n.</w>
tri um
宁 静</w>
19 49</w>
ag en</w>
rap e</w>
bu cks</w>
字 典</w>
schem es</w>
j ar</w>
匿 名</w>
we ibo</w>
v ic</w>
八 年</w>
zhen g</w>
讲 到</w>
figh ter</w>
盲 </w>
ancest ors</w>
prom pt</w>
长 城</w>
一 会</w>
搜 集</w>
饱 和</w>
van ia</w>
契 </w>
载 体</w>
业 内</w>
ro tary</w>
起 草</w>
山 上</w>
想象 力</w>
天 天</w>
u h</w>
同 胞</w>
不 易</w>
docum entary</w>
疫 情</w>
ell en</w>
高 血压</w>
无辜 </w>
mag nific
历 程</w>
up dates</w>
ai ss
透 社</w>
路 透社</w>
bl ast</w>
peri ph
shap es</w>
insi sts</w>
00 1</w>
smu gg
lan ded</w>
distin ct</w>
tox ic
妨 </w>
bat teries</w>
出 演</w>
acc es
organ is
recei ves</w>
fle et</w>
接 管</w>
桌 上</w>
op ec</w>
crimin als</w>
宽 容</w>
evi dent</w>
embr y
上 调</w>
j ia</w>
oun ced</w>
seas ons</w>
免 受</w>
me tri
nu t</w>
价 钱</w>
sin k</w>
pill ar</w>
血 清</w>
umb rel
帘 </w>
fai thful</w>
michi gan</w>
铁 矿石</w>
萨 德</w>
降 落</w>
网 友</w>
imag in
不 在乎</w>
cat astro
代表 性</w>
piz za</w>
店 铺</w>
el -
light ning</w>
驾 </w>
smart phones</w>
身 高</w>
警惕 </w>
减 排</w>
姿 </w>
男 生</w>
柯 </w>
陆 军</w>
grati tude</w>
ti ghtly</w>
ol ine</w>
gres sion</w>
悲 </w>
comm em
游 说</w>
竞争 者</w>
af i</w>
descri bing</w>
裁 定</w>
薪 资</w>
见 解</w>
手 套</w>
cali br
下 令</w>
胞 胎</w>
克 鲁
s aint</w>
ex -
底 层</w>
h en</w>
syl vania</w>
motiv ated</w>
实 话</w>
part -time</w>
che er
j ury</w>
c enti
thi er</w>
fo ster</w>
傅 </w>
公 立</w>
射 击</w>
pres ti
大 赛</w>
me th
并 用</w>
sad ness</w>
resp ir
八 个</w>
concili ation</w>
bo eing</w>
b b
popul ations</w>
pr o</w>
exc av
仗 </w>
k ok</w>
可 信</w>
逆 转</w>
five- year</w>
rom ance</w>
investig ators</w>
attor ney</w>
st en</w>
牛 仔
回 避</w>
也 门</w>
alle vi
com pression</w>
化妆 品</w>
buff er</w>
封 面</w>
algori thms</w>
del hi</w>
dr um</w>
爆 炸
schol ar</w>
groun d
格 雷</w>
transl ated</w>
流 传</w>
cent res</w>
senti ment</w>
可 谓</w>
纽约 市</w>
瑜 伽</w>
swe at</w>
凯 瑟
款 人</w>
moi sture</w>
c r</w>
加 盟</w>
1. 6</w>
form ity</w>
2. 4</w>
din osa
197 2</w>
escap ed</w>
所 在
educ ated</w>
柔 软</w>
gui ding</w>
r s</w>
acces sible</w>
regul ated</w>
爱丽 丝</w>
eff ic
扶 轮</w>
殖 民</w>
日 后</w>
deteri or
举 止</w>
管辖 </w>
n ing
打 交道</w>
st ain
open -
ad he
pre ten
resi li
optim ism</w>
豚 </w>
地 表</w>
武 力</w>
薯 </w>
e. g</w>
war n</w>
所 得
支 架</w>
empi rical</w>
皂 </w>
环 绕</w>
mil an</w>
摩 根
探 测器</w>
以 防</w>
fi br
un il
物 料</w>
n ail</w>
guarante es</w>
天 后</w>
u sion</w>
精 致</w>
打 断</w>
米 勒</w>
celebr ated</w>
在 场</w>
out comes</w>
评 审</w>
rhy thm</w>
独 立
desi r
一 线</w>
pol ym
魔 鬼</w>
建设 性</w>
氧 气</w>
转 基因</w>
较 多</w>
概 括</w>
凯瑟 琳</w>
ro ber
expres sing</w>
o gene
ad jac
mexic an</w>
rehabili tation</w>
山 大</w>
gener ating</w>
进 口
3. 1</w>
娃 娃</w>
杆 菌</w>
阐 明</w>
大 事</w>
ob s
o de</w>
占 用</w>
effici ently</w>
ad her
eng li
18 th</w>
don or</w>
应 变</w>
大 豆</w>
个 性化</w>
宽 度</w>
qu et</w>
aiss ance</w>
att ach</w>
om ed</w>
开 枪</w>
borrow ed</w>
du bai</w>
gr ac
聚 合</w>
涌 入</w>
guar dian</w>
谷 物</w>
图 标</w>
一 致
develop s</w>
be st-
餐 桌</w>
开 幕</w>
一致 性</w>
招 募</w>
10 th</w>
bang lad
猛 烈</w>
精 神
mi xing</w>
fl ow
qu ad
纳 粹</w>
可 惜</w>
how ard</w>
鲨 鱼</w>
s log
fi g</w>
新 疆</w>
陪 审
ti tude</w>
抵 </w>
de voted</w>
逃 跑</w>
deal t</w>
几 千</w>
mod ules</w>
viol ations</w>
mat ched</w>
pa tho
strang ers</w>
海 伦</w>
乐 园</w>
m 2</w>
comm on
传染 病</w>
eleph ant</w>
华 丽</w>
兼 职</w>
耦 合</w>
dam ages</w>
v able</w>
蝇 </w>
swe dish</w>
audi ences</w>
jer sey</w>
求 解</w>
受 益
出 血</w>
克 罗
sp ite</w>
辛 苦</w>
y me</w>
affor dable</w>
influ enza</w>
inter actions</w>
毫 米</w>
turb ine</w>
容 纳</w>
强 奸</w>
悯 </w>
战 后</w>
mic row
溪 </w>
枪 支</w>
py ong
long est</w>
厌 倦</w>
眼 里</w>
inv ali
oppon ent</w>
线 上</w>
t .
树 上</w>
哲 学家</w>
all en</w>
柴 </w>
航 天
标 志
r &
抗 生素</w>
数字 化</w>
attr action</w>
mo z
面 孔</w>
h ook</w>
溶 </w>
consi ders</w>
pi e</w>
结构 性</w>
° </w>
受 体</w>
访 谈</w>
奴 </w>
胡 子</w>
tit les</w>
怎么 会</w>
祖 母</w>
非 政府</w>
昏 </w>
红 外</w>
forec asts</w>
isl am</w>
示 范</w>
un ch</w>
er b
倒 是</w>
osc ar</w>
中 海</w>
主 观</w>
有 序</w>
horm one</w>
切 除</w>
propag anda</w>
股 本</w>
than e</w>
特 派</w>
don t</w>
mir acle</w>
最 少</w>
vic e-
win s</w>
gr u
c ts</w>
mill enni
痕 迹</w>
香 蕉</w>
屋 里</w>
叶 片</w>
ch or
reli ance</w>
mon ster</w>
没 问题</w>
loc k
wu han</w>
金 色</w>
大 通</w>
along side</w>
rec alled</w>
布莱 尔</w>
under mine</w>
安德 鲁</w>
profess ors</w>
格鲁 吉亚</w>
欢 呼</w>
淇 淋</w>
微 型</w>
ed ings</w>
兑 换</w>
surve ys</w>
超 声</w>
周 前</w>
榜 样</w>
clai ming</w>
卷 入</w>
那 场</w>
ap point</w>
陋 </w>
崖 </w>
卓 </w>
ass ment</w>
电 阻</w>
it a</w>
cru ise</w>
2 nd</w>
浓 </w>
speci alist</w>
a it</w>
微 妙</w>
distribu te</w>
pack ages</w>
副 作用</w>
一 整天</w>
个 案</w>
ac knowledge</w>
常 数</w>
law suit</w>
全 民</w>
冰 淇淋</w>
牛仔 裤</w>
与 否</w>
高 昂</w>
penn sylvania</w>
mongo lia</w>
无 能</w>
thi ef</w>
hosti le</w>
染 色
核 能</w>
夸 张</w>
de tention</w>
sle pt</w>
quali fications</w>
la h</w>
承包 商</w>
goo d-
携 手</w>
diagno stic</w>
明 治</w>
pri ced</w>
threat en</w>
谬 </w>
p essi
er up
男 友</w>
pyong yang</w>
intu i
禽 流感</w>
必 不可
血 糖</w>
上 将</w>
高 点</w>
der gar
4. 5</w>
in take</w>
多 媒体</w>
3 5%</w>
反 过来</w>
残 疾
no -
匆 匆
xi ao
赌 博</w>
scan ning</w>
car riers</w>
politici an</w>
犹 如</w>
bi es</w>
推 理</w>
cl ays</w>
tr ag
胜 任</w>
pe as
品 尝</w>
proce edings</w>
铀 </w>
天 下</w>
es tion</w>
捐 助</w>
g em
雕 像</w>
cur tain</w>
recy cling</w>
t b</w>
gr ab</w>
re sin</w>
适 度</w>
粮 </w>
re vel
plan tation</w>
ri cs</w>
ash amed</w>
三 条</w>
y land</w>
sh aking</w>
骨 骼
极 性</w>
燃 油</w>
ann ex</w>
6 000</w>
公 投</w>
减 去</w>
持 续性</w>
斯 拉夫</w>
稻 </w>
琼 </w>
借 款</w>
capit a</w>
insul ation</w>
判 定</w>
杯 子</w>
嘴 唇</w>
down town</w>
密 集</w>
高 档</w>
mar king</w>
no is
swe pt</w>
追 逐</w>
有 化</w>
be tr
水 下</w>
re ar</w>
her oes</w>
里程 碑</w>
under take</w>
视 力</w>
马 尔
air -
os ex
en ab
勿 </w>
骨 折</w>
案 子</w>
虹 </w>
car ing</w>
里 亚</w>
身 穿</w>
通 风</w>
un doub
宾 馆</w>
rigi d</w>
报 告
di g</w>
eigh th</w>
长 江</w>
at ar</w>
神经 元</w>
dis on</w>
gi st</w>
jen ny</w>
叶 子</w>
d entally</w>
corru pt</w>
blo gs</w>
br al</w>
authentic ation</w>
0 3:
膝 盖</w>
summar ized</w>
从 小</w>
雕 塑</w>
开 创</w>
疲 惫
祂 </w>
吞 </w>
condem ned</w>
it or</w>
monopo ly</w>
sel lers</w>
pre ference</w>
saf er</w>
∶ </w>
e ti
v am
aven ue</w>
at l
head ache</w>
ag e-
蓬 勃</w>
supervis or</w>
ru de</w>
ster ity</w>
min d
man date</w>
wsd l</w>
亚 当</w>
匈 牙
拉 姆</w>
潘 </w>
inde xes</w>
f ar-
miner als</w>
家 属</w>
启 示</w>
越 过</w>
鲜 花</w>
my th</w>
o ta</w>
成 都</w>
病 率</w>
汰 </w>
气 息</w>
batt le
ec d</w>
psych ologist</w>
ec raft</w>
genu ine</w>
继 承
up coming</w>
监 察</w>
存 者</w>
preci sely</w>
逸 </w>
程序 员</w>
ha gen</w>
小 岛</w>
学 习
u li
上 空</w>
发 酵</w>
板 块</w>
gl aci
w .</w>
细 胞
美 的</w>
purch ased</w>
特 勒</w>
ul a</w>
排 斥</w>
port able</w>
传 染</w>
布鲁 塞尔</w>
愉 悦</w>
off s</w>
o v</w>
更 长</w>
deli ghted</w>
功 夫</w>
残 忍</w>
n y
特 兰
i op
perce ived</w>
spher ic</w>
生产 线</w>
caf e</w>
技 术
手 动</w>
au c
八 月</w>
weak er</w>
minim ize</w>
i ons</w>
所 为</w>
订 阅</w>
抚 </w>
wo ke</w>
忽 </w>
负债 表</w>
连 串</w>
defin ing</w>
pro stitu
inter viewed</w>
adjac ent</w>
strong est</w>
grad ual</w>
apologi ze</w>
au tism</w>
多 于</w>
appe aring</w>
activ ated</w>
有 线</w>
bar clays</w>
分 量</w>
4 /
pe ti
切 割</w>
wait er</w>
警 报</w>
残疾 人</w>
匈牙 利</w>
滑 雪</w>
sor row</w>
mak eup</w>
m h
上下 文</w>
冰 岛</w>
岭 </w>
分辨 率</w>
世 贸</w>
fri ghtened</w>
狮 </w>
tradi tions</w>
疲惫 </w>
提供 者</w>
explo sive</w>
保 养</w>
coo k
磷 </w>
business man</w>
每 位</w>
p he
hi bit
4 5
nav al</w>
进 球</w>
wit nesses</w>
vivi d</w>
织 物</w>
co sm
异 议</w>
irri gation</w>
prosecu tors</w>
s &
remin ded</w>
列 举</w>
dec ent</w>
ass ad</w>
hu b</w>
disc lose</w>
必不可 少</w>
车 上</w>
j enni
jas on</w>
19 50</w>
情 侣</w>
oun ce</w>
涨 幅</w>
acceler ation</w>
勉 强</w>
业 部</w>
spiri ts</w>
除 外</w>
ben ch</w>
反对 党</w>
tou ching</w>
城 市
语 义</w>
同 性</w>
事 态</w>
dispo sal</w>
利 物
mad rid</w>
o sis</w>
旅 途</w>
皮 特</w>
绵 </w>
愁 </w>
万 吨</w>
trem end
hun an</w>
结 尾</w>
el ect</w>
b ols</w>
患 上</w>
医 学院</w>
dat ory</w>
切 尔</w>
野 心</w>
un employed</w>
un rest</w>
issu ing</w>
维 度</w>
tur n
生产 率</w>
定 者</w>
sh ers</w>
sl owed</w>
com ings</w>
回 头</w>
作 文</w>
油 气</w>
swi ft</w>
reli es</w>
发 型</w>
sponsor ed</w>
桌 面</w>
s est</w>
kin dergar
se ize</w>
o se</w>
sp an
197 5</w>
否 决</w>
distin ction</w>
笨 </w>
住 宿</w>
fl our</w>
不 锈
k .</w>
confu ci
eri al</w>
3 rd</w>
dis c</w>
questionnai re</w>
戴 尔</w>
evalu ated</w>
tai wan
a dic
life -
罢 了</w>
physi cally</w>
几 点</w>
harb or</w>
托 德</w>
identi fying</w>
p assionate</w>
钥 </w>
av </w>
归咎 于</w>
pic k
sh eng</w>
酚 </w>
cri ses</w>
bo sses</w>
str ings</w>
tri angle</w>
v ine
intermedi ate</w>
indi ans</w>
ar tery</w>
遗 忘</w>
人 间</w>
pos session</w>
髦 </w>
co des</w>
棚 </w>
1 70</w>
巨 人</w>
虐 </w>
phenomen a</w>
mas ses</w>
不锈 钢</w>
char ming</w>
as cen
se wage</w>
smoo thly</w>
dul l</w>
砍 </w>
gu an</w>
at e-
妥 善</w>
十 足</w>
dis placed</w>
贿 赂
7 0
fac ulty</w>
分 公司</w>
择 </w>
饮 酒</w>
若 是</w>
决 定性</w>
场 面</w>
pul ling</w>
shin ing</w>
统 治
bre ach</w>
州 立</w>
au x
me tal
cre ature</w>
consul tancy</w>
cou pling</w>
特 网</w>
因 特网</w>
第 七</w>
compar ative</w>
comman ds</w>
一 辈子</w>
草 原</w>
h ec
遍 布</w>
forbi dden</w>
生 殖</w>
s ang</w>
柴 油</w>
卖 掉</w>
簧 </w>
in audible</w>
源 代码</w>
备 忘
备忘 录</w>
时 髦</w>
remo ving</w>
棉 花</w>
bl essing</w>
贩 </w>
xin jiang</w>
派 出</w>
镇 压</w>
rel ying</w>
捐 </w>
尼 克
le ak
de bu
澄 清</w>
ar i</w>
轻 轻</w>
j ay</w>
g no
sym bols</w>
197 3</w>
tol l</w>
deci des</w>
接 纳</w>
墨西 哥
dum ping</w>
br y
发 电机</w>
form ers</w>
讲 解</w>
10 1</w>
绳 子</w>
ide ological</w>
抬 </w>
舞 会</w>
effic acy</w>
揭 露</w>
听 取</w>
下 子</w>
ker nel</w>
cu rio
sk el
fav ouri
戏 剧
置 评</w>
报 警</w>
轮 廓</w>
edi ting</w>
cab in</w>
buddhi st</w>
要 好</w>
py th
acceler ated</w>
optimi ze</w>
jo se</w>
c ture</w>
pol ar
ch in</w>
in habit
网 民</w>
pat ents</w>
职 场</w>
停 车</w>
appro ached</w>
cent ri
mu tually</w>
缔约 国</w>
缴 </w>
船 员</w>
区 间</w>
实 证</w>
el iness</w>
gam bling</w>
unve iled</w>
in direct</w>
氟 </w>
de v</w>
health care</w>
章 节</w>
某 事</w>
de pri
proto type</w>
s lic
them es</w>
雨 水</w>
玛 丽
山 区</w>
二 级</w>
kel ly</w>
ca therine</w>
歇 </w>
th es
布 鲁</w>
稽 </w>
打 扫</w>
foo lish</w>
adop ts</w>
assum ption</w>
k an</w>
坚 固</w>
召 回</w>
发 病</w>
op oli
急 需</w>
graph ics</w>
准 时</w>
四 十</w>
consum ing</w>
int ent</w>
独 一无
恤 </w>
震 动</w>
遥 </w>
山 谷</w>
大 麻</w>
独一无 二</w>
大 火</w>
jum ping</w>
in- depth</w>
aggres sion</w>
ap or
advoc ate</w>
pot atoes</w>
fascin ating</w>
en di
裸 </w>
combus tion</w>
con duci
analy ses</w>
il a</w>
ohi o</w>
低 点</w>
幸 存者</w>
li t
throw ing</w>
恶 心</w>
ari se</w>
co ven
simul taneously</w>
si de
上 任</w>
贪 婪
乃 </w>
conduci ve</w>
控 件</w>
mon y</w>
加 重</w>
泊 尔</w>
歌 唱</w>
肉 类</w>
advoc ates</w>
radio active</w>
thor oughly</w>
theat re</w>
p oured</w>
palestini ans</w>
undoub tedly</w>
a ar
美 分</w>
enh ancing</w>
私 有</w>
劳动 者</w>
constitu te</w>
be have</w>
bloc king</w>
com pres
struc tured</w>
怀 特</w>
j ade</w>
地 中海</w>
哺 乳</w>
j ail</w>
an ism</w>
自 称</w>
than ol</w>
所得 税</w>
anch or</w>
买 入</w>
刚 好</w>
省 份</w>
wat er-
中 间
多 尔</w>
cy cles</w>
阀 门</w>
裁 判</w>
bro ok
奇 妙</w>
约 瑟
叛 军</w>
葬 礼</w>
颖 </w>
en ri
淹 没</w>
解 答</w>
一 再</w>
ac e
荧 光</w>
借 此</w>
纪 录片</w>
n ine
预 约</w>
ham mer</w>
勘 探</w>
at oms</w>
entrepreneur ship</w>
dre ssing</w>
consist ency</w>
子 宫</w>
养 成</w>
下 一代</w>
advis ers</w>
s f</w>
vir tually</w>
absor bed</w>
撒 谎</w>
le ak</w>
con fer
i pod</w>
提 琴</w>
战 斗
罪 恶</w>
lim itation</w>
湖 人</w>
el ementary</w>
credi tors</w>
精神 病</w>
am or
surve yed</w>
景 色</w>
o ecd</w>
别 墅
in dul
pp ers</w>
里 奇</w>
威尔 士</w>
爱 因
ol d-
爱因 斯坦</w>
y in</w>
尼 泊尔</w>
christop her</w>
韦 斯</w>
徙 </w>
贪婪 </w>
combin es</w>
eth iop
terr an
嚼 </w>
elimin ated</w>
催 化剂</w>
升 至</w>
re ject</w>
用 法</w>
必 定</w>
经 受</w>
肉 体</w>
rel ate</w>
亚历 山大</w>
- free</w>
制 服</w>
attrac ting</w>
n ate</w>
空 袭</w>
pre sum
顶 尖</w>
deplo y</w>
tan ks</w>
ap ec</w>
精 灵</w>
凌 晨</w>
dec lining</w>
卡 斯</w>
份 证</w>
功 于</w>
归 功于</w>
身 份证</w>
be aten</w>
adap tation</w>
共同 体</w>
elabor ate</w>
free ze</w>
for ty</w>
鸟 儿</w>
br is</w>
下 台</w>
thr one</w>
or che
触 及</w>
prof it
粗 糙
祥 </w>
fluor es
选 定</w>
desp air</w>
the ft</w>
tri be</w>
直 观</w>
experi encing</w>
吉 利</w>
海 峡</w>
equ ations</w>
colli sion</w>
measu re
anni e</w>
prison er</w>
l acks</w>
re treat</w>
周 刊</w>
photo graph</w>
wa ste
警 官</w>
consequ ence</w>
wor th
embr ac
俄 亥
t down</w>
d t</w>
parti tion</w>
k ri
high lighted</w>
固 有</w>
染色 体</w>
贿赂 </w>
柠檬 </w>
care ers</w>
sc ep
gas oline</w>
告 别</w>
for t</w>
as sured</w>
淫 </w>
foun d
个 子</w>
长 途</w>
short comings</w>
e instein</w>
e o</w>
厢 </w>
sh u</w>
成 品</w>
scholar ship</w>
没 事</w>
repor tedly</w>
幼 儿
舆 论</w>
幼儿 园</w>
fat al</w>
瞒 </w>
d ell</w>
evol utionary</w>
奢侈 </w>
摇 滚</w>
symbo li
t ze</w>
吸 取</w>
才 华</w>
保守 派</w>
nation ality</w>
inten d</w>
阱 </w>
e ter</w>
compar able</w>
hum ble</w>
bu m
关 怀</w>
den mark</w>
li ve
gentlem en</w>
马拉 松</w>
m aid</w>
de ut
dr ank</w>
一 连串</w>
exi sted</w>
fran chi
回 国</w>
电 报</w>
1 25</w>
mar ath
jim my</w>
lew is</w>
clo sest</w>
ri sk
全 局</w>
pre served</w>
ch ile</w>
中 风</w>
gi ants</w>
fu ku
requi ring</w>
cur b</w>
c ans</w>
c t
塞尔 维亚</w>
sex y</w>
零 部件</w>
各 州</w>
家 务</w>
li vest
低 收入</w>
bor ed</w>
晚 间</w>
定 书</w>
上 校</w>
电 磁</w>
利物 浦</w>
电 邮</w>
sun ny</w>
ang les</w>
会计 师</w>
nic ol
门 徒</w>
正 规</w>
马 尔</w>
啥 </w>
ch im
园 里</w>
ell ation</w>
运动 会</w>
4 th</w>
胚 胎</w>
笔 者</w>
progres sive</w>
sour cing</w>
主 演</w>
撞 击</w>
辅 </w>
w art</w>
留 学生</w>
最大 化</w>
特 斯</w>
li ly</w>
rol l
直 播</w>
bloom berg</w>
br ad
三 明治</w>
终 点</w>
不 准</w>
re posi
m t</w>
admi re</w>
享 用</w>
scre ens</w>
敌 对</w>
re build</w>
boo ts</w>
闪 烁
gossi p</w>
民 用</w>
一 期</w>
基 层</w>
convic ted</w>
一 带</w>
丰 厚</w>
champion ship</w>
kow loon</w>
雅 典</w>
阴 </w>
vari eties</w>
压 制</w>
tr aits</w>
参 阅</w>
po ems</w>
杨 </w>
lob by</w>
封 锁</w>
bal ances</w>
罗斯 福</w>
不 曾</w>
以 利</w>
泻 </w>
val ence</w>
f ence</w>
富 含</w>
修 饰</w>
at er
appro aching</w>
stop ping</w>
too th
示 威
r ay
oper ates</w>
mess aging</w>
f o</w>
胆 固醇</w>
ag ile</w>
arch ae
roc kets</w>
presi dents</w>
den se</w>
skel et
dele gations</w>
z hu
支持 率</w>
inst ability</w>
bro ker</w>
首 选</w>
18 %</w>
传 动</w>
ber ries</w>
示威 者</w>
curio sity</w>
阁 下</w>
commit tees</w>
ga o</w>
consul t</w>
投 机</w>
p airs</w>
平 原</w>
侵 略</w>
控制 权</w>
roo se
see ks</w>
条 目</w>
延 期</w>
deman ded</w>
celebri ties</w>
竹 </w>
p s
mis erable</w>
别墅 </w>
流 域</w>
t ence</w>
不 妨</w>
liver pool</w>
pl ess</w>
jav as
u re
fai ry</w>
原子 能</w>
薄 膜</w>
打 发</w>
哈 拉</w>
瓶 子</w>
亲 切</w>
doc tr
sub ordin
国 土</w>
没 关系</w>
consum ed</w>
布 拉</w>
感 应</w>
colon el</w>
noti fication</w>
不 论是</w>
defend ant</w>
雕 刻</w>
猪 肉</w>
er adic
or acle</w>
tri ps</w>
stain less</w>
re productive</w>
ar row</w>
百分 比</w>
撤 出</w>
enz yme</w>
乙 烯</w>
低 温</w>
上 海
m ri</w>
nood les</w>
k ab
europe ans</w>
teles cope</w>
dic t</w>
im mer
hon esty</w>
ide ology</w>
会 长</w>
眼 神</w>
bal ancing</w>
衰 老</w>
半 导体</w>
matthe w</w>
国 籍</w>
add afi</w>
terran ean</w>
小 狗</w>
乏 味</w>
捡 </w>
亚 特兰
ab ide</w>
m ing
chol ester
收 音机</w>
fi res</w>
observ ations</w>
dis si
i gn
激 增</w>
thor ough</w>
co stly</w>
sil ly</w>
3 g</w>
b t</w>
推 断</w>
马 路</w>
坦 克</w>
防 守</w>
co ins</w>
出版 商</w>
ridic ulous</w>
市 场
责 备</w>
写 到</w>
gu it
商 家</w>
经 合</w>
那 段</w>
上 半年</w>
christi ans</w>
dre am
appreci ated</w>
c king</w>
大 人</w>
光 纤</w>
hit ting</w>
一 则</w>
i th
天 性</w>
科 学
家 用</w>
乃 是</w>
hy gi
三 位</w>
ar iz
惹 </w>
ca us
li fel
respir atory</w>
蜡 </w>
. it</w>
贝 克</w>
获 奖</w>
通 话</w>
este em</w>
炎 症</w>
颂 </w>
don ations</w>
小 时候</w>
ur anium</w>
功 效</w>
五 条</w>
发 布
普通 人</w>
树 枝</w>
不 远</w>
嘴 里</w>
rein forced</w>
电 极</w>
pri mi
se aled</w>
livest ock</w>
infr ing
obst acle</w>
sel ecting</w>
co ke</w>
con secu
聆 听</w>
si ts</w>
vel t</w>
for war
stu ff
stret ched</w>
肴 </w>
此 处</w>
水 晶</w>
comp iled</w>
6 ,
tab lets</w>
滤 器</w>
d der</w>
写 出</w>
dir t</w>
pes tici
罪 名</w>
演 习</w>
黑 洞</w>
deal ers</w>
fe ared</w>
parliam entary</w>
pe dia</w>
骸 </w>
问 及</w>
complic ations</w>
士 丹
革 新</w>
士丹 利</w>
accompli shed</w>
摩根 士丹利</w>
hun ter</w>
更 深</w>
bri dges</w>
le ap</w>
adap tive</w>
四 大</w>
exhau sted</w>
期 权</w>
in timate</w>
些 年</w>
poli sh</w>
华 人</w>
车 间</w>
全 职</w>
ass as
e i</w>
govern ment-
何 处</w>
f an
fish er
7. 5</w>
mer cur
举 起</w>
多 重</w>
vers y</w>
pl ain
搅 拌</w>
swe ar</w>
游 览</w>
sle ep
w all
br ake</w>
不 算</w>
纺 织
aj ax</w>
咪 </w>
c age</w>
subj ective</w>
制 剂</w>
glu co
wor m</w>
数 组</w>
ro ses</w>
奶 油</w>
谘 </w>
wr ong
contro versy</w>
comp act</w>
颇 为</w>
cop en
grin ding</w>
benef ici
改 为</w>
lo gging</w>
im er</w>
听 从</w>
calcul ating</w>
说 说</w>
杀 手</w>
仇 恨</w>
nutri ents</w>
自治 区</w>
patri ck</w>
骨骼 </w>
who ever</w>
dr ain
9 0
反 驳</w>
不 成</w>
heal ing</w>
over weight</w>
det ector</w>
制 定者</w>
lan ter
无 视</w>
膝 </w>
in ate</w>
pan els</w>
hi ts</w>
car cin
la sted</w>
教 材</w>
supp lied</w>
mechan ics</w>
devi ation</w>
中 毒</w>
performan ces</w>
sper m</w>
不 下</w>
行 情</w>
街 区</w>
还 给</w>
仆 </w>
br ain
倘 若</w>
' clock</w>
颠 覆</w>
恰 好</w>
孕 妇</w>
自 在</w>
m am
abra ham</w>
民 调</w>
ar d
rom ney</w>
fo g</w>
加 斯</w>
al istic</w>
aw ak
spac ecraft</w>
ast oni
li p</w>
p avi
13 %</w>
支 柱</w>
apprai sal</w>
职 者</w>
pr one</w>
果 实</w>
垮 </w>
ren ov
佣 金</w>
牧 </w>
清 晨</w>
ske p
给 定</w>
死 者</w>
发 掘</w>
问 候</w>
ous in</w>
car l</w>
声 波</w>
en -
一 下子</w>
jaz z</w>
停车 场</w>
俊 </w>
or derly</w>
摄像 机</w>
蝴 蝶</w>
噬 </w>
簿 </w>
核 准</w>
前 沿</w>
相 等</w>
航 线</w>
经 理
通 告</w>
胰 岛
胰岛 素</w>
锚 </w>
杀 人</w>
m amm
restor ation</w>
饱 受</w>
li vely</w>
j 2
客 机</w>
ro om
20 .
ob struc
新 生
nation wide</w>
li ang</w>
哈 根</w>
参 照</w>
ch ef</w>
翰 </w>
本 哈根</w>
哥 本哈根</w>
蚂 蚁</w>
cigare ttes</w>
款 式</w>
v ague</w>
roose velt</w>
傲 慢</w>
鸦 </w>
20 s</w>
国 性</w>
k ai
au sterity</w>
illu sion</w>
系 统
捍 卫</w>
op tional</w>
最 美</w>
mer cy</w>
雄 性</w>
fru stration</w>
历史 性</w>
entrepreneur </w>
馨 </w>
196 7</w>
强 势</w>
南 斯拉夫</w>
悲 惨</w>
改 良</w>
measure ments</w>
s son</w>
哥 拉</w>
14 %</w>
安 哥拉</w>
philos op
埃 德</w>
mel t</w>
笼 罩</w>
ton nes</w>
aw k
地 亚</w>
餐 饮</w>
阵 营</w>
下 方</w>
arsen al</w>
而 后</w>
货 运</w>
integr ating</w>
ch y</w>
cr ashed</w>
speci ally</w>
laun ching</w>
c ousin</w>
py ram
恩 斯</w>
海 报</w>
adju sting</w>
ens able</w>
胜 过</w>
susp icious</w>
参 赛</w>
闪烁 </w>
medic ines</w>
surviv ors</w>
copen hagen</w>
a thy</w>
den g</w>
所在 地</w>
c air
缓 冲</w>
好 吃</w>
hi d</w>
t own
sh alt</w>
__ </w>
metaboli sm</w>
d g
suppl ement</w>
略 性</w>
re bel</w>
突 发</w>
地 形</w>
坐 下</w>
yang tze</w>
交易 员</w>
mo des</w>
stor ms</w>
prot ection
war ren</w>
semin ar</w>
肝 脏</w>
纳 税</w>
文 斯</w>
上 千</w>
shim a</w>
compas sion</w>
work force</w>
d ai</w>
十 九</w>
cambo dia</w>
双 胞胎</w>
met res</w>
expl aining</w>
沙 拉</w>
squee ze</w>
glob ally</w>
斯 诺</w>
tw in</w>
而 来</w>
tom y</w>
un stable</w>
cor d</w>
investig ations</w>
峰 值</w>
met aph
su ite</w>
adap ted</w>
puni sh</w>
1. 8</w>
la wr
tur bul
下 一次</w>
猴 </w>
想 念</w>
荒 谬</w>
统治 者</w>
rout es</w>
es ome</w>
inter im</w>
pen ding</w>
饮 用</w>
xi ang</w>
se u
commem or
每 股</w>
javas cript</w>
197 4</w>
ti ghtening</w>
lim iting</w>
制 片
bur ger</w>
assur ance</w>
aci ds</w>
cl au
ar ro
私 下</w>
ant ine</w>
contain ers</w>
weir d</w>
sh ade</w>
ca the
领 取</w>
pent agon</w>
不 禁</w>
愤 </w>
友 善</w>
fol der</w>
peace keeping</w>
夸 大</w>
亲 人</w>
院 子</w>
凸 显</w>
顷 </w>
全 国性</w>
g lim
adop ting</w>
gi an</w>
clear ed</w>
求 职者</w>
搏 </w>
ble eding</w>
yu go
chr ome</w>
soci alism</w>
umbrel la</w>
广 东省</w>
al located</w>
mercur y</w>
d m</w>
评论 家</w>
推 移</w>
traff icking</w>
病 变</w>
方 人</w>
pou l
求 助</w>
formul ate</w>
fair ness</w>
d son</w>
灌 溉
non linear</w>
th a</w>
cu ps</w>
战 役</w>
under water</w>
蝙 蝠
起 步</w>
调 动</w>
d op
美 学</w>
campaig ns</w>
exac erb
autom ated</w>
溜 </w>
ph er
cam ps</w>
vali dation</w>
teach es</w>
fl ouri
jenni fer</w>
特 许</w>
k ill
venezu ela</w>
foll owers</w>
v .</w>
so y
社 团</w>
保护 区</w>
dam aging</w>
tu ition</w>
斯 科特</w>
十 六</w>
曼 德</w>
幕 式</w>
carto on</w>
触 摸</w>
这 辆</w>
抵 御</w>
胎 儿</w>
机 上</w>
崇 </w>
美 术</w>
com pri
聘 请</w>
l led</w>
提供 商</w>
用 语</w>
n g</w>
ass ault</w>
充 实</w>
聘 用</w>
d war
邻 近</w>
行 榜</w>
ver b</w>
盲 目</w>
cat ching</w>
di mini
congratul ations</w>
assign ment</w>
矿 物</w>
sp ends</w>
jun ction</w>
音 频</w>
首 领</w>
过 早</w>
mu st
equ als</w>
存 放</w>
c n</w>
博 会</w>
抢 劫</w>
pro ves</w>
[...]
