#version: 0.2
す る</w>
い る</w>
こ と</w>
な い</w>
あ る</w>
か ら</w>
0 0</w>
ま す</w>
れ る</w>
こ の</w>
よ う</w>
で す</w>
日 本</w>
た め</w>
1 0</w>
2 0
話 し</w>
述 べ</w>
表 示</w>
进 行</w>
政 府</w>
な ど</w>
い う</w>
し て</w>
中 国</w>
装 置</w>
1 0
と いう</w>
韓 国</w>
で き
信 号</w>
没 有</w>
可 以</w>
でき る</w>
た ち</w>
国 家</w>
我 们</w>
韩 国</w>
一 个</w>
な っ</w>
そ の</w>
世 界</w>
2 0</w>
ま し</w>
か っ</w>
可 能</w>
し い</w>
大 学</w>
な る</w>
な ら</w>
如 果</w>
1 2</w>
ッ ト</w>
1 9
使 用</w>
こ れ</w>
ス テ
よ り</w>
ま で</w>
1 1</w>
大 統
大統 領</w>
问 题</w>
美 国</w>
で き</w>
い て</w>
あ り</w>
ー ム</w>
と して</w>
但 是</w>
开 始</w>
通 信</w>
通 过</w>
朝 鮮</w>
20 0
っ て</w>
3 0</w>
处 理</w>
ウ ォ
も の</w>
け れ</w>
処 理</w>
ー タ</w>
今 年</w>
因 为</w>
图 像</w>
北 朝鮮</w>
ー ド</w>
ッ プ</w>
ョ ン</w>
国 民</w>
自 己</w>
ー ル</w>
な けれ</w>
时 间</w>
さ ん</w>
信 息</w>
情 報</w>
場 合</w>
ま た</w>
ッ ク</w>
画 像</w>
ウォ ン</w>
イ ン
に 対
な く</w>
社 会</w>
ー ト</w>
方 法</w>
公 司</w>
什 么</w>
だ ろ</w>
总 统</w>
代 表</w>
工 作</w>
数 据</w>
参 加</w>
し か
实 施</w>
部 分</w>
え る</w>
情 况</w>
学 生</w>
だ っ</w>
実 施</w>
な た</w>
提 供</w>
に よ
1 00</w>
ョ ン
あ なた</w>
だ け</w>
以 上</w>
韩 元</w>
要 求</w>
ら か</w>
根 据</w>
な かっ</w>
这 个</w>
调 查</w>
因 此</w>
デ ータ</w>
管 理</w>
問 題</w>
示 す</w>
他 们</w>
明 らか</w>
内 容</w>
け る</w>
企 业</w>
5 0</w>
1 5</w>
しか し</w>
お よ
ら れ</w>
事 件</w>
米 国</w>
た い</w>
为 了</w>
最 近</w>
時 間</w>
経 済</w>
1 4</w>
所 以</w>
に お
生 活</w>
中 的</w>
およ び</w>
学 校</w>
政 治</w>
作 为</w>
ラ ン
に つ
必 要</w>
经 济</w>
そ れ</w>
ン グ</w>
显 示</w>
政 策</w>
1 6</w>
につ いて</w>
虽 然</w>
女 性</w>
な り</w>
ウ ル</w>
チ ャ
非 常</w>
ま せ</w>
さ い</w>
自 分</w>
ソ ウル</w>
现 在</w>
控 制</w>
1 3</w>
位 置</w>
研 究</w>
関 係</w>
这 样</w>
コ ン
成 为</w>
设 备</w>
受 け</w>
已 经</w>
制 御</w>
方 式</w>
形 態</w>
タ ー</w>
包 括</w>
説 明</w>
比 赛</w>
4 0</w>
送 信</w>
利 用</w>
地 方</w>
之 后</w>
彼 女</w>
フ ァ
国 会</w>
时 候</w>
企 業</w>
步 骤</w>
教 育</w>
受 信</w>
の で</w>
去 年</w>
デ ィ
1 8</w>
ステ ップ</w>
ま た
委 員</w>
ラ イ
举 行</w>
2 1</w>
ス ト</w>
文 化</w>
决 定</w>
不 是</w>
また は</w>
2 2</w>
せ る</w>
0 00</w>
地 区</w>
重 要</w>
多 く</w>
正 在</w>
就 是</w>
的 话</w>
委 员
生 成</w>
结 果</w>
によ って</w>
会 社</w>
方 面</w>
2 4</w>
ー ス</w>
大 き
2 5</w>
え ば</w>
系 统</w>
国 内</w>
お り</w>
教 授</w>
昨 年</w>
1 7</w>
ー ク</w>
サ ー
单 元</w>
由 于</w>
接 收</w>
那 个</w>
プ ロ
不 能</w>
而 且</w>
シ ステ
システ ム</w>
以 及</w>
出 现</w>
行 っ</w>
提 出</w>
し ょ</w>
中 心</w>
例 えば</w>
发 生</w>
希 望</w>
ま っ</w>
例 如</w>
ン ト</w>
め る</w>
大 会</w>
ス ト
计 划</w>
2 00</w>
ロ ー
这 些</w>
首 尔</w>
取 得</w>
需 要</w>
用 于</w>
構 成</w>
金 融</w>
并 且</w>
第 一</w>
く だ
リ ー
た り</w>
存 在</w>
ン ・
そ う</w>
认 为</w>
19 9
出 し</w>
应 该</w>
全 国</w>
シ ョン</w>
にお いて</w>
記 録</w>
くだ さい</w>
ロ ック</w>
选 择</w>
另 外</w>
操 作</w>
に対 する</w>
很 多</w>
う ち</w>
这 种</w>
ッ ト
最 高</w>
能 够</w>
ユ ー
方 向</w>
彼 ら</w>
活 动</w>
そ れ
選 挙</w>
对 于</w>
知 道</w>
6 0</w>
增 加</w>
发 送</w>
能 力</w>
イ ル</w>
3 0
获 得</w>
ど う</w>
な が
あ っ</w>
い い</w>
关 系</w>
支 援</w>
発 表</w>
2 3</w>
中 央</w>
1 9</w>
っ と</w>
2 6</w>
地 域</w>
結 果</w>
ー ジ</w>
分 析</w>
チ ーム</w>
で も</w>
て も</w>
ら れる</w>
得 到</w>
之 间</w>
今 回</w>
执 行</w>
仕 事</w>
議 員</w>
自 由</w>
持 っ</w>
選 手</w>
当 天</w>
用 户</w>
一 起</w>
フ ィ
外 国</w>
さ ら
同 时</w>
安 全</w>
制 度</w>
民 主
委员 会</w>
成 功</w>
言 っ</w>
し く</w>
目 前</w>
也 是</w>
不 同</w>
と ても</w>
調 査</w>
ん な</w>
相 关</w>
選 択</w>
主 要</w>
平 均</w>
还 是</w>
国 际</w>
民 主</w>
事 情</w>
なが ら</w>
朝 鲜</w>
判 断</w>
一 样</w>
ド ル</w>
ブ ロック</w>
接 受</w>
さら に</w>
警 察</w>
第 二</w>
具 有</w>
其 中</w>
议 员</w>
タ ー
今 天</w>
共 同</w>
一 方</w>
选 手</w>
に対 して</w>
2 8</w>
确 定</w>
関 連</w>
形 成</w>
タ イ
バ イ
网 络</w>
媒 体</w>
ル ー
一 部</w>
ま り</w>
考 え</w>
条 件</w>
行 わ</w>
フ レ
現 在</w>
こ こ</w>
最 大</w>
首 相</w>
2 7</w>
以 下</w>
に より</w>
结 束</w>
发 明</w>
是 否</w>
先 生</w>
技 术</w>
今 日</w>
会 议</w>
有 关</w>
所 有</w>
0 %</w>
ユー ザ</w>
テ ィ
発 明</w>
か り</w>
市 场</w>
说 明</w>
一 直</w>
一 次</w>
支 持</w>
民主 党</w>
作 品</w>
不 会</w>
外 交</w>
同 じ</w>
努 力</w>
べ き</w>
孩 子</w>
キ ャ
こ れ
3 1</w>
ジ ュ
計 画</w>
た ら</w>
改 革</w>
指 示</w>
ア ン
動 作</w>
す べ
国 際</w>
人 士</w>
科 学</w>
すべ て</w>
之 前</w>
画 面</w>
同 日</w>
よ く</w>
原 因</w>
取 り
捜 査</w>
记 录</w>
三 星</w>
理 由</w>
会 議</w>
リ ン
1 .
其 他</w>
対 象</w>
选 举</w>
3 00</w>
海 外</w>
市 場</w>
进 入</w>
直 接</w>
美 元</w>
映 画</w>
输 出</w>
理 解</w>
具 体</w>
設 定</w>
受 け
8 0</w>
运 动</w>
す れ</w>
ほ ど</w>
一 般</w>
予 定</w>
監 督</w>
状 态</w>
过 程</w>
到 了</w>
よ る</w>
上 述</w>
め て</w>
セ ン
確 認</w>
特 定</w>
複 数</w>
出 力</w>
5 00</w>
引 き
高 い</w>
存 储</w>
只 有</w>
参 照</w>
7 0</w>
と き</w>
含 む</w>
入 れ</w>
カ ー</w>
行 う</w>
ュ ー
男 性</w>
一 定</w>
フレ ーム</w>
资 金</w>
候 補</w>
输 入</w>
喜 欢</w>
时 代</w>
发 展</w>
上 げ</w>
银 行</w>
左 右</w>
受 到</w>
那 么</w>
技 術</w>
検 察</w>
状 況</w>
减 少</w>
ビ ス</w>
服 务</w>
2 9</w>
決 定</w>
よ い</w>
によ る</w>
シ ー
最 も</w>
实 现</w>
5 %</w>
这 里</w>
機 能</w>
状 態</w>
実 行</w>
プ レ
試 合</w>
市 民</w>
対 応</w>
人 们</w>
产 生</w>
完 全</w>
ウ ェ
子 供</w>
达 到</w>
長 官</w>
2 .
入 力</w>
イ ン</w>
サー ビス</w>
南 北</w>
ネ ット
模 式</w>
サ ン
期 待</w>
历 史</w>
示 例</w>
配 置</w>
か け</w>
多 い</w>
わ っ</w>
研 究
と こ
ま だ</w>
对 象</w>
前 記</w>
关 于</w>
ン ド</w>
示 し</w>
ト ル</w>
ス タ
卢 武
記 憶</w>
ワ ーク</w>
電 話</w>
卢武 铉</w>
シ ン
起 来</w>
3 2</w>
方 案</w>
还 有</w>
そ して</w>
发 表</w>
行 为</w>
つ け</w>
多 个</w>
意 味</w>
フ ォ
移 动</w>
ネ ル</w>
北 京</w>
リ ー</w>
以 来</w>
年 間</w>
20 00</w>
功 能</w>
个 人</w>
ジ ェ
机 关</w>
ルー プ</w>
各 种</w>
符 号</w>
チ ョン
一 些</w>
即 使</w>
4 0
会 谈</w>
主 張</w>
全 体</w>
无 法</w>
消 息</w>
家 庭</w>
健 康</w>
新 しい</w>
にお ける</w>
影 响</w>
目 的</w>
ネット ワーク</w>
电 话</w>
内 部</w>
開 発</w>
东 京</w>
好 き</w>
指 定</w>
考 虑</w>
团 体</w>
女 子</w>
基 本</w>
ジ ア</w>
商 品</w>
a t
投 資</w>
主 义</w>
判 定</w>
当 时</w>
初 めて</w>
此 次</w>
不 过</w>
と も</w>
リ ア</w>
銀 行</w>
メ ー
バイ ス</w>
グ ループ</w>
东 西</w>
人 员</w>
大き な</w>
基 づ
ケ ット</w>
准 备</w>
ッ ク
事 故</w>
开 发</w>
最 后</w>
入 っ</w>
解 决</w>
行 き</w>
行 政</w>
发 现</w>
过 去</w>
家 族</w>
思 い</w>
精 神</w>
発 生</w>
日 本
自 然</w>
学 习</w>
确 认</w>
価 格</w>
サ イ
组 织</w>
ム ・
労 働</w>
法 律</w>
これ ら</w>
事 業</w>
オ ー
0 .
資 金</w>
評 価</w>
完 成</w>
イン ター
ン ス</w>
政 権</w>
時 代</w>
特 别</w>
モ ード</w>
来 说</w>
ジ ャ
必 须</w>
大 家</w>
ア ジア</w>
住 宅</w>
そ の
— —</w>
とこ ろ</w>
1 4
看 到</w>
回 答</w>
写 真</w>
デ バイス</w>
ハ ン</w>
で しょ</w>
环 境</w>
検 出</w>
公 开</w>
ま しょ</w>
1 3
以 前</w>
テ レ
イ ・
く れ</w>
连 接</w>
を 通
i o
投 资</w>
记 者</w>
现 代</w>
朋 友</w>
一 天</w>
接 続</w>
思 っ</w>
ソ ン</w>
指 摘</w>
提 高</w>
開 か</w>
ネ ット</w>
及 び</w>
バ ー</w>
1 10</w>
主 義</w>
正 式</w>
未 来</w>
区 域</w>
电 影</w>
十 分</w>
然 后</w>
機 関</w>
チ ェ
合 成</w>
が っ</w>
价 格</w>
ナ ラ</w>
ラ ム</w>
改 善</w>
テ ン
旅 行</w>
事 実</w>
候 选
规 定</w>
目 标</w>
一 つ</w>
觉 得</w>
讨 论</w>
不 要</w>
1 5
歴 史</w>
英 国</w>
汽 车</w>
全 部</w>
ど の</w>
报 道</w>
比 较</w>
范 围</w>
设 置</w>
检 测</w>
基 地</w>
感 到</w>
無 線</w>
10 00</w>
1 6
成 绩</w>
ベ ル</w>
候选 人</w>
死 亡</w>
人 物</w>
或 者</w>
指 出</w>
じ て</w>
以 后</w>
超 过</w>
任 何</w>
か も</w>
0 2</w>
公 共</w>
参 考</w>
放 送</w>
取 っ</w>
改 变</w>
小 时</w>
出 来</w>
ヨ ン
容 疑</w>
期 間</w>
影 響</w>
声 音</w>
団 体</w>
ュ ー</w>
保 持</w>
調 整</w>
结 构</w>
主 张</w>
无 线</w>
两 个</w>
作 用</w>
コ ー
容 易</w>
展 开</w>
只 是</w>
描 述</w>
特 に</w>
水 平</w>
通 知</w>
速 度</w>
それ ぞ
それぞ れ</w>
为 止</w>
建 设</w>
继 续</w>
会 長</w>
を通 じて</w>
基づ い</w>
協 力</w>
集 中</w>
合 わ
レ ー
政 党</w>
变 化</w>
设 定</w>
レ ス</w>
规 模</w>
最 终</w>
基 準</w>
城 市</w>
禁 止</w>
専 門</w>
現 代</w>
重 新</w>
3 .
程 度</w>
活 動</w>
随 着</w>
期 间</w>
起 こ
制 作</w>
い つ
言 葉</w>
注 意</w>
領 域</w>
都 市</w>
発 展</w>
出 席</w>
食 べ</w>
フ ェ
职 业</w>
セ ス</w>
伝 え</w>
建 設</w>
电 子</w>
首 都</w>
解 決</w>
年 代</w>
少 し</w>
首 次</w>
检 察
10 2</w>
产 品</w>
再 次</w>
ア ル
做 出</w>
増 え</w>
对 此</w>
文 件</w>
ケ ー
时 期</w>
に 関
拥 有</w>
调 整</w>
撮 像</w>
一 下</w>
患 者</w>
读 取</w>
釜 山</w>
あ れ</w>
人 生</w>
像 素</w>
プ リ
i n
这 次</w>
访 问</w>
服 务
对 应</w>
预 测</w>
テレ ビ</w>
身 体</w>
高 校</w>
战 争</w>
相 手</w>
来 自</w>
当 時</w>
良 い</w>
意 见</w>
知 っ</w>
教 练</w>
ブ ル</w>
野 党</w>
協 議</w>
一 位</w>
午 後</w>
表 明</w>
端 末</w>
c p
報 告</w>
げ る</w>
危 机</w>
テ ー
す ぐ</w>
も う</w>
ポ ー
3 5</w>
检 察</w>
基 于</w>
项 目</w>
ジ ョン</w>
ら い</w>
変 化</w>
意 思</w>
国 人</w>
表 现</w>
移 動</w>
制 定</w>
画 素</w>
昨 日</w>
ア ク
s t
请 求</w>
行 く</w>
汉 城</w>
月 份</w>
ッ カー</w>
一 緒</w>
e d
運 動</w>
冠 军</w>
記 者</w>
评 价</w>
環 境</w>
4 00</w>
人 事</w>
此 外</w>
で し</w>
交 通</w>
国 政</w>
成 長</w>
下 午</w>
人 口</w>
反 对</w>
ど う
长 官</w>
1 20</w>
戦 争</w>
イ ラ
向 け</w>
犯 罪</w>
利 益</w>
1 8
知 ら</w>
少 年</w>
メ ッ
感 じ</w>
生 命</w>
投 票</w>
b s</w>
编 码</w>
再 生</w>
集 团</w>
终 端</w>
如 此</w>
1 7
ど こ</w>
優 勝</w>
わ り</w>
ー ル
カ メ
チ ョ
変 換</w>
以 外</w>
4 .
シ ア</w>
コン テン
含 ま</w>
我 々</w>
合わ せ</w>
午 前</w>
キ ム・
数 字</w>
导 致</w>
u c
人 々</w>
io n</w>
程 序</w>
人 民</w>
领 域</w>
秘 密</w>
な く
发 射</w>
外 部</w>
明 年</w>
会 談</w>
電 子</w>
回 路</w>
来 年</w>
3 4</w>
a r
协 议</w>
高 中</w>
反 対</w>
ッ シ
怎 么</w>
针 对</w>
言 う</w>
ク ・
始 め</w>
裁 判
出 身</w>
一 点</w>
付 け</w>
規 模</w>
コンテン ツ</w>
交 渉</w>
ヒ ョン</w>
标 准</w>
3 3</w>
合 作</w>
責 任</w>
0 4</w>
加 入</w>
民 族</w>
あ まり</w>
担 任</w>
体 制</w>
カメ ラ</w>
职 员</w>
し れ</w>
只 要</w>
特 別</w>
バ ー
サ ッカー</w>
意 見</w>
突 然</w>
包 含</w>
产 业</w>
一 步</w>
动 作</w>
て る</w>
世 界
服务 器</w>
分 别</w>
原 稿</w>
範 囲</w>
部 门</w>
通 常</w>
危 機</w>
メ ディ
続 き</w>
训 练</w>
法 案</w>
停 止</w>
ド ン</w>
道 路</w>
当 局</w>
1 %</w>
那 样</w>
公 開</w>
エ ン
レ ベル</w>
当 然</w>
使 っ</w>
疑 惑</w>
対 策</w>
4 5</w>
t a</w>
か か
ラン ス</w>
责 任</w>
経 営</w>
每 个</w>
总 理</w>
ら し</w>
2 %</w>
被 害</w>
撮 影</w>
最 初</w>
携 帯</w>
工 会</w>
文 章</w>
ライ ン</w>
召 开</w>
分 钟</w>
た し</w>
印 刷</w>
对 策</w>
追 加</w>
3 %</w>
土 地</w>
应 用</w>
令 人</w>
と も
基 础</w>
措 施</w>
一 致</w>
与 え</w>
采 取</w>
レ ン
传 输</w>
法 院</w>
9 0</w>
係 る</w>
正 常</w>
经 过</w>
男 子</w>
如 何</w>
开 放</w>
at ion</w>
协 商</w>
メ モ
不 仅</w>
効 果</w>
对 方</w>
舞 台</w>
保 障</w>
ク ラ
有 人</w>
事 业</w>
参 与</w>
批 判</w>
セ ッ
形 式</w>
费 用</w>
生 産</w>
出 す</w>
拡 大</w>
电 路</w>
变 得</w>
ト ン</w>
造 成</w>
生 产</w>
3 6</w>
命 令</w>
相 同</w>
過 程</w>
l g</w>
料 理</w>
担 当</w>
5 .
産 業</w>
下 来</w>
メッ セ
ア ド
シ ャ
自 動
很 难</w>
し ま
ラン ド</w>
电 视</w>
新 的</w>
照 片</w>
京 畿</w>
試 験</w>
权 利</w>
… …</w>
首 先</w>
解 释</w>
资 料</w>
电 视
本 当
個 人</w>
ぶ り</w>
委员 长</w>
インター ネット</w>
运 会</w>
6 .
上 午</w>
波 数</w>
大き く</w>
し か</w>
独 立</w>
英 语</w>
周 波数</w>
19 8
持 续</w>
日 元</w>
i p</w>
あ の</w>
ハ ン
競 争</w>
第 三</w>
メッセ ージ</w>
パ ケット</w>
韓 米</w>
机 构</w>
事 实</w>
持 ち</w>
マ ン
ファ イル</w>
い く</w>
請 求</w>
甚 至</w>
に関 する</w>
実 際</w>
タ ル</w>
推 進</w>
预 计</w>
4 %</w>
f ta</w>
8 %</w>
チャ ネル</w>
现 象</w>
明 博</w>
7 %</w>
新 闻</w>
本当 に</w>
连 续</w>
不 安</w>
ed uc
a c
而 是</w>
オ ン</w>
educ ation</w>
食 品</w>
球 队</w>
是 因为</w>
検 討</w>
ア イ
航 空</w>
サー バ</w>
攻 撃</w>
联 合
0 6</w>
作 っ</w>
感 觉</w>
ド ラ
报 告</w>
経 験</w>
ス ター</w>
異 なる</w>
じ る</w>
那 里</w>
台 湾</w>
増 加</w>
强 调</w>
大 幅</w>
セ ット</w>
s k</w>
c d</w>
帮 助</w>
開 始</w>
存 储
昨 天</w>
聞 い</w>
グ ラム</w>
结 婚</w>
限 制</w>
恢 复</w>
介 し</w>
部 长</w>
リ カ</w>
增 长</w>
每 天</w>
4 2</w>
据 悉</w>
いつ も</w>
い っ
6 %</w>
国 防</w>
5 000</w>
计 算</w>
负 责</w>
メディ ア</w>
这 么</w>
机 会</w>
不 足</w>
に と
交 流</w>
推 进</w>
思 う</w>
拉 克</w>
宣 言</w>
所 属</w>
保 护</w>
メモ リ</w>
にと って</w>
建 立</w>
出 場</w>
ス ク</w>
観 光</w>
テ ナ</w>
手 段</w>
才 能</w>
拍 摄</w>
予 想</w>
防 止</w>
信 道</w>
ファ ン</w>
申 请</w>
強 調</w>
i d</w>
い く
提 案</w>
医 院</w>
訪 問</w>
特 徴</w>
相 比</w>
予 測</w>
展 示</w>
わ ら</w>
考 试</w>
距 离</w>
积 极</w>
人 気</w>
全 面</w>
200 4</w>
見 せ</w>
ラ ー</w>
最 後</w>
メー トル</w>
楽 し
扩 大</w>
普 通</w>
了 解</w>
老 师</w>
文 字</w>
之 一</w>
ッ ド</w>
青 瓦
青瓦 台</w>
実 現</w>
準 備</w>
介 绍</w>
a n
能 性</w>
引 起</w>
呼 ば</w>
音 译</w>
学 院</w>
转 换</w>
关 注</w>
し まっ</w>
ま ま</w>
武 器</w>
変 更</w>
经 营</w>
现 场</w>
ッシ ュ</w>
体 育</w>
暴 力</w>
リー グ</w>
ユ ニ
和 平</w>
消 費</w>
カ ード</w>
5 2</w>
用 い</w>
安 定</w>
決 め</w>
收 入</w>
取 引</w>
自動 車</w>
ま ず</w>
英 語</w>
ウ ィ
上 海</w>
早 く</w>
有 する</w>
地 球</w>
リ スト</w>
广 播</w>
首 席</w>
一 番</w>
带 来</w>
病 院</w>
存储 器</w>
大 量</w>
サ ン</w>
同 期</w>
200 2</w>
相 当</w>
平 和</w>
そ こ</w>
わ け</w>
至 少</w>
裁判 所</w>
真 的</w>
日本 人</w>
行 為</w>
负 责
先 月</w>
负责 人</w>
研究 所</w>
コン ピ
0 1</w>
劳 动</w>
不 断</w>
i m
4 1</w>
处 理
デ ジ
製 品</w>
電 力</w>
チョン ・
新 聞</w>
ド イ
要 素</w>
称 为</w>
ック ス</w>
10 4</w>
交 易</w>
我 国</w>
投 入</w>
込 ん</w>
ほ か</w>
为 什么</w>
态 度</w>
ジュ ール</w>
構 造</w>
合 意</w>
除 了</w>
仁 川</w>
经 常</w>
地 址</w>
繰 り
登 録</w>
大 型</w>
ヨ ン</w>
セン ター</w>
名 前</w>
ナ ー</w>
下 降</w>
シ ョ
严 重</w>
ビ ュー</w>
10 1</w>
続 い</w>
1 30</w>
接 触</w>
復 号</w>
并 不</w>
ソ ン
按 照</w>
务 员</w>
記 載</w>
ズ ン</w>
非 法</w>
宪 法</w>
7 .
再 び</w>
高 速</w>
イラ ク</w>
音 乐</w>
双 方</w>
見 る</w>
附 近</w>
ロ シア</w>
检 查</w>
4 8</w>
从 而</w>
分 配</w>
予 算</w>
と う</w>
読 み
基 金</w>
解 码</w>
伊 拉克</w>
プ ロ</w>
父 亲</w>
ジ ョン
不 到</w>
流 程
流程 图</w>
明 日</w>
ニ ュー
アン テナ</w>
韩 国
雇 用</w>
分 野</w>
安 保</w>
材 料</w>
得 る</w>
テ ィ</w>
处理 器</w>
指 導</w>
の に</w>
9 %</w>
同 样</w>
可 能性</w>
供 給</w>
販 売</w>
地 震</w>
竞 争</w>
好 的</w>
深 刻</w>
ドイ ツ</w>
労 組</w>
反 映</w>
200 5</w>
資 料</w>
所 得</w>
天 线</w>
年 前</w>
生 ま
e c</w>
更 加</w>
贸 易</w>
江 南</w>
1 2
ボ ール</w>
专 家</w>
赛 季</w>
立 っ</w>
很 大</w>
详 细</w>
ペ ージ</w>
報 道</w>
ダ ー</w>
住 民</w>
チ ュ
ウェ ア</w>
答 え</w>
政 权</w>
实 际</w>
部 屋</w>
警 方</w>
手 机</w>
保 存</w>
べ る</w>
宇 宙</w>
保 護</w>
联 合</w>
集 会</w>
同 意</w>
首 脳</w>
如 图</w>
相 机</w>
や っ</w>
日 语</w>
混 乱</w>
本 部</w>
ヵ 月</w>
力 量</w>
明 天</w>
尔 夫</w>
多 数</w>
核 心</w>
进 一步</w>
ほ しい</w>
人 数</w>
く る</w>
c o
3 8</w>
アク セス</w>
修 正</w>
比 べ</w>
注 目</w>
担 心</w>
罗 斯</w>
效 果</w>
母 亲</w>
ッ チ</w>
幸 福</w>
组 合</w>
ち ょ
チャ ート</w>
近 く</w>
と ん
持 つ</w>
其 它</w>
ケー ション</w>
も っと</w>
ク リ
足 球</w>
た く</w>
なく とも</w>
少 なくとも</w>
m a
チャ ン
プロ グラム</w>
維 持</w>
同 様</w>
高 尔夫</w>
し よ</w>
印 象</w>
逮 捕</w>
背 景</w>
一 边</w>
有 名</w>
1 50</w>
出 口</w>
五 輪</w>
も ら
公 务员</w>
シー ズン</w>
憲 法</w>
父 母</w>
奥 运会</w>
アド レス</w>
有 效</w>
i c</w>
上 昇</w>
ル ス</w>
似 乎</w>
連 続</w>
不 法</w>
业 务</w>
フ ランス</w>
成 员</w>
デジ タル</w>
相 互</w>
ドラ マ</w>
措 置</w>
代 表
俄 罗斯</w>
とも に</w>
投 手</w>
ラ ン</w>
受 ける</w>
余 り</w>
ク ト</w>
然 而</w>
国 立</w>
状 况</w>
い っ</w>
4 4</w>
ー ム
8 .
节 目</w>
リン ク</w>
組 織</w>
0 5</w>
ギ ー</w>
ウ ン
故 事</w>
更 新</w>
人 类</w>
5 1</w>
警 察
据 说</w>
各 国</w>
裁 判</w>
ゴ ル
た く
マ ン</w>
今 后</w>
ま る</w>
你 们</w>
上 升</w>
只 能</w>
ン グ
自 治</w>
巨 大</w>
设 计</w>
半 期</w>
理 事</w>
プロ セッ
識 別</w>
创 造</w>
5 5</w>
自 身</w>
主 席</w>
で に</w>
10 6</w>
多 少</w>
设 施</w>
す でに</w>
フ ロー
番 号</w>
じ め</w>
错 误</w>
200 8</w>
与 党</w>
o f
棒 球</w>
居 民</w>
构 成</w>
ス ケ
预 定</w>
示 威</w>
税 金</w>
综 合</w>
入 り</w>
プロセッ サ</w>
過 ぎ</w>
デ モ</w>
网 站</w>
一 方面</w>
3 000</w>
链 路</w>
心 理</w>
0 8</w>
d m
改 正</w>
r a
9 .
资 源</w>
亚 洲</w>
成 果</w>
欧 洲</w>
处 于</w>
メ ール</w>
频 率</w>
特 别
取 り</w>
位 于</w>
名 字</w>
部 件</w>
感 情</w>
告 诉</w>
实 际
ほ とん
ほとん ど</w>
ソ フ
打 印</w>
わ る</w>
じ ゃ</w>
恐 怖</w>
作 家</w>
ス コ
统 一</w>
4 6</w>
も ち
物 理</w>
求 め</w>
6 00</w>
实际 上</w>
派 遣</w>
出 演</w>
公 社</w>
会 っ</w>
销 售</w>
表 情</w>
丈 夫</w>
他 人</w>
マ イ
那 些</w>
運 営</w>
過 去</w>
強 化</w>
安 打</w>
財 政</w>
200 3</w>
一 部分</w>
人 間</w>
检察 厅</w>
距 離</w>
200 6</w>
德 国</w>
变 成</w>
難 しい</w>
月 末</w>
フロー チャート</w>
3 7</w>
続 け</w>
パ ク・
议 会</w>
模 块</w>
込 み</w>
テ ル</w>
小 さ
伝 送</w>
协 会</w>
性 格</w>
0 3</w>
ん な
特 征</w>
ユニ ット</w>
有 些</w>
胜 利</w>
務 員</w>
勝 利</w>
発 言</w>
加 え</w>
公 務員</w>
公 布</w>
r e
欧 州</w>
終 了</w>
方 針</w>
最 終</w>
教 え</w>
大き い</w>
每 年</w>
たく さん</w>
购 买</w>
阻 止</w>
采 访</w>
接 着</w>
会 长</w>
传 送</w>
パ ー
あ り
ジ ョ
固 定</w>
否 定</w>
端 子</w>
場 所</w>
声 明</w>
游 戏</w>
军 事</w>
ゴル フ</w>
初 期</w>
考 慮</w>
獲 得</w>
貿 易</w>
系 列</w>
唯 一</w>
指 数</w>
リ ング</w>
达 成</w>
全 て</w>
入 学</w>
劳 动
輸 出</w>
r o
キ ー</w>
法 国</w>
预 算</w>
ジ ン</w>
ハ ー
心 配</w>
タ ン</w>
と ともに</w>
首 脑</w>
両 国</w>
情 报</w>
视 频</w>
好 像</w>
革 命</w>
こ そ</w>
連 合</w>
5 4</w>
美 军</w>
も し</w>
周 年</w>
财 政</w>
正 确</w>
目 標</w>
例 子</w>
特 殊</w>
ど も</w>
框 图</w>
u s
毎 日</w>
修 改</w>
ち ゃ
世 纪</w>
ミ ング</w>
ト ラ
允 许</w>
大 使</w>
价 值</w>
教 育
想 法</w>
野 球</w>
当 地</w>
ろ ん</w>
ノ ・
许 多</w>
本 人</w>
ダ ル</w>
在 内</w>
中 断</w>
イン タ
適 用</w>
言 わ</w>
開 き</w>
今 後</w>
減 少</w>
統 一</w>
200 7</w>
7 2</w>
联 盟</w>
京 都</w>
東 京</w>
い け</w>
行 动</w>
最 多</w>
ス イ
ポ ート</w>
プ ル</w>
ゲ ーム</w>
演 员</w>
d e
ど んな</w>
分 组</w>
ず れ</w>
香 港</w>
総 合</w>
作 成</w>
世 代</w>
ビ ット</w>
モ ジュール</w>
大 韩</w>
つ い</w>
阶 段</w>
稳 定</w>
思 い
その 後</w>
是 个</w>
制 限</w>
受け 取っ</w>
フォ ー
20 10</w>
放 弃</w>
世界 杯</w>
け ど</w>
中 国人</w>
一 年</w>
类 型</w>
ら す</w>
作 る</w>
関 心</w>
政 界</w>
1 12</w>
行 動</w>
読 取</w>
少 女</w>
意 义</w>
联 赛</w>
邮 件</w>
ポ イン
ト ン
機 器</w>
4 3</w>
相 反</w>
根 本</w>
漫 画</w>
成 立</w>
b c</w>
组 成</w>
地 位</w>
戦 略</w>
任 命</w>
认 识</w>
負 担</w>
た だ</w>
数 量</w>
年 度</w>
正 日</w>
之 外</w>
もち ろん</w>
法 人</w>
20 2</w>
取 る</w>
计 算
大 部分</w>
メ ン
年 末</w>
困 难</w>
送 っ</w>
制 裁</w>
教 科
キ ョン
获 取</w>
日 程</w>
成 績</w>
拒 绝</w>
フィ ル
バ ッ
集 め</w>
发 言</w>
中 小</w>
学 者</w>
人 権</w>
バ ス</w>
実 験</w>
翻 译</w>
動 き</w>
チ ョン</w>
经 由</w>
周 围</w>
ア プリ
公 演</w>
スト リ
応 じ</w>
生 物</w>
警 告</w>
生ま れ</w>
強 い</w>
提 起</w>
来 到</w>
備 え</w>
青 年</w>
ウ リ</w>
コ ン</w>
積 極</w>
软 件</w>
e n
起 き</w>
博 士</w>
失 败</w>
な お</w>
司 法</w>
制 造</w>
作 業</w>
负 担</w>
公 里</w>
空 间</w>
几 乎</w>
掌 握</w>
回 到</w>
信 頼</w>
ア メ
g a</w>
終 わっ</w>
与 える</w>
打 算</w>
価 値</w>
施 設</w>
気 持ち</w>
牛 肉</w>
時 に</w>
维 持</w>
都 会</w>
么 样</w>
石 油</w>
比 率</w>
液 晶</w>
ウ ン</w>
共 有</w>
信 用</w>
違 い</w>
言 い</w>
曜 日</w>
ホ テル</w>
い た
联合 国</w>
文 学</w>
离 开</w>
计算 机</w>
職 員</w>
房 间</w>
ネ ル
医 生</w>
强 烈</w>
总 裁</w>
契 約</w>
3 9</w>
ム ヒョン</w>
观 众</w>
工 程</w>
社 長</w>
ブ ラ
引 发</w>
行 い</w>
委 员</w>
6 5</w>
特别 是</w>
魅 力</w>
コ ード</w>
年 轻</w>
将 来</w>
に対 し</w>
認 め</w>
同 盟</w>
i c
アプリ ケーション</w>
可 是</w>
ノ・ ムヒョン</w>
属 于</w>
更 多</w>
い つ</w>
フ ァ</w>
相 信</w>
な ぜ</w>
哪 里</w>
軍 事</w>
意 识</w>
自 信</w>
不 可</w>
支 付</w>
7 00</w>
ゴ ール</w>
真 是</w>
别 人</w>
規 定</w>
肯 定</w>
宣 布</w>
真 正</w>
曾 经</w>
所 定</w>
在 于</w>
势 力</w>
回 復</w>
ス ポー
真 相</w>
识 别</w>
ば かり</w>
開 催</w>
福 祉</w>
ポイン ト</w>
いく つ</w>
治 疗</w>
失 去</w>
立 场</w>
金 田
金田 一</w>
心 情</w>
勉 強</w>
男 女</w>
接 收
战 略</w>
結 婚</w>
み んな</w>
5 6</w>
段 階</w>
6 4</w>
役 割</w>
示 さ</w>
颜 色</w>
発 見</w>
终 于</w>
举 办</w>
刑 事</w>
工 場</w>
認 証</w>
6 2</w>
な ん
キ ロ</w>
んな に</w>
ー ン</w>
い ずれ</w>
特 性</w>
しま う</w>
推 定</w>
例 示</w>
ざ い</w>
流 れ</w>
人 权</w>
立 て</w>
書 記</w>
排 名</w>
キャ ン
本 月</w>
デ ー
出 版</w>
主 人
パ ー</w>
使 得</w>
子 ども</w>
一 切</w>
降 低</w>
終 え</w>
以 降</w>
现 实</w>
找 到</w>
经 历</w>
公 式</w>
そ んな</w>
o n
10 3</w>
长 期</w>
バ ル</w>
e r
協 会</w>
あり が
自 治
乗 り
5 3</w>
帰 っ</w>
电 力</w>
分 かっ</w>
认 证</w>
主人 公</w>
ご ざい</w>
周 辺</w>
疑 い</w>
迎 え</w>
明 确</w>
相 对</w>
表 面</w>
忘 れ</w>
お 金</w>
大 阪</w>
水 準</w>
当 たり</w>
ロ ー</w>
ストリ ーム</w>
これ から</w>
様 々</w>
提 交</w>
新 た</w>
控 制
接 近</w>
ニ ング</w>
ス ン</w>
导 弹</w>
cp u</w>
思 想</w>
現 場</w>
攻 击</w>
儿 子</w>
介 质</w>
変 え</w>
息 子</w>
チャ ン</w>
違 っ</w>
ク チ
仪 式</w>
欢 迎</w>
李 明博</w>
高 兴</w>
幸 せ</w>
万 亿</w>
成 分</w>
运 营</w>
や す
立 場</w>
ソ ース</w>
く り</w>
不 好</w>
当 初</w>
大 选</w>
语 言</w>
導 入</w>
4 7</w>
ず っと</w>
宣 传</w>
200 1</w>
机 场</w>
ド ・
め ぐ
国 連</w>
タイ プ</w>
大 学生</w>
が り</w>
0 7</w>
超 え</w>
現 実</w>
批 评</w>
プ ラ
キ ュ
类 似</w>
ス ペ
ト リ
纽 约</w>
メ ント</w>
ら しい</w>
采 用</w>
基 站</w>
工 厂</w>
の み</w>
メ ダル</w>
经 验</w>
書 い</w>
返 し</w>
教 师</w>
適 切</w>
8 00</w>
質 問</w>
海 洋</w>
提 示</w>
空 港</w>
授 業</w>
失 敗</w>
领 导
ノ ード</w>
节 点</w>
温 泉</w>
サイ ト</w>
10 8</w>
っ かり</w>
キ ング</w>
毕 业</w>
感 染</w>
整 个</w>
下 去</w>
ニュー ヨ
転 送</w>
カ ン
採 用</w>
p ga</w>
ち ら</w>
イ ベ
6 1</w>
動 産</w>
留 学</w>
简 单</w>
所 谓</w>
关 联</w>
逐 渐</w>
進 出</w>
无 论</w>
经 济
マ スコ
記 念</w>
不 動産</w>
总 是</w>
传 统</w>
ミ サ
老 人</w>
上 がっ</w>
会 い</w>
解 除</w>
統 合</w>
設 置</w>
公 寓</w>
保 険</w>
各 地</w>
分 け</w>
ミサ イル</w>
含 め</w>
d m</w>
パ ラ
生 き</w>
响 应</w>
打 ち
初 め</w>
ク ライ
直 到</w>
く れる</w>
起こ し</w>
任 意</w>
ニ ュ
アメ リカ</w>
ありが とう</w>
イベ ント</w>
悪 い</w>
ボ タン</w>
就 任</w>
使 う</w>
テー ブル</w>
加 上</w>
上 涨</w>
低 い</w>
知 识</w>
信 じ</w>
歌 手</w>
电 脑</w>
ヒ ョン
な わ
加 强</w>
应 对</w>
代 替</w>
名 誉</w>
必 ず</w>
m o
なわ ち</w>
す なわち</w>
年 金</w>
广 告</w>
勢 力</w>
認 識</w>
主 教练</w>
i s
半 岛</w>
场 合</w>
規 制</w>
分 割</w>
会 見</w>
场 所</w>
国 情</w>
a s
オ ン
各 種</w>
cp u
意 志</w>
保 有</w>
マスコ ミ</w>
ナ ム</w>
青 少年</w>
危 険</w>
专 业</w>
有 所</w>
議 論</w>
也 许</w>
い に</w>
p s</w>
使 わ</w>
贷 款</w>
つ ける</w>
兵 器</w>
応 答</w>
検 査</w>
離 れ</w>
最 低</w>
听 到</w>
年 龄</w>
購 入</w>
第 二
連 絡</w>
以 内</w>
ロ ッ
执 政党</w>
迅 速</w>
客 户</w>
総 長</w>
さ え</w>
化 学</w>
对 话</w>
上 記</w>
飞 机</w>
大 邱</w>
各 个</w>
タイ ミング</w>
来 看</w>
统 计</w>
治 療</w>
家 人</w>
损 失</w>
男 人</w>
デー タ
眼 睛</w>
感 器</w>
天 气</w>
传 感器</w>
10 5</w>
詳 細</w>
角 度</w>
今 月</w>
罢 工</w>
音 声</w>
布 什</w>
や か</w>
ソフ ト
太 郎</w>
实 行</w>
挑 战</w>
ス ー
利 亚</w>
光 学</w>
フィル タ</w>
不 正</w>
ガ ン</w>
は じめ</w>
民 間</w>
増 や
ス ピ
一 家</w>
晚 上</w>
簡 単</w>
紹 介</w>
比 較</w>
矛 盾</w>
地 产</w>
压 力</w>
19 7
万 人</w>
保 健</w>
大 中</w>
最 好</w>
障 害</w>
演 出</w>
モ デ
高 く</w>
动 物</w>
ジ ュ</w>
入 れる</w>
ア フ
联 系</w>
面 临</w>
作 者</w>
映 像</w>
享 受</w>
身 份</w>
毎 年</w>
リ ン</w>
行 事</w>
申 請</w>
通 り</w>
房 地产</w>
も り</w>
ダ イ
レ ート</w>
半 年</w>
切 り
ブ ッシュ</w>
時 期</w>
事 前</w>
紧 急</w>
渡 し</w>
图 示</w>
排 除</w>
一 度</w>
至 今</w>
業 務</w>
刺 激</w>
く らい</w>
が る</w>
申 し
d p</w>
同 一</w>
ニ ア</w>
2 10</w>
チェ ・
公 园</w>
合 同</w>
ル ト</w>
细 胞</w>
拒 否</w>
次 に</w>
企 画</w>
发 出</w>
限 定</w>
确 保</w>
症 状</w>
透 露</w>
质 量</w>
マ ラ
6 3</w>
空 間</w>
生 徒</w>
定 期</w>
5 8</w>
ア ップ</w>
民 国</w>
再 现</w>
広 告</w>
充 分</w>
半 島</w>
当 て</w>
马 上</w>
議 長</w>
美 しい</w>
概 念</w>
尽 管</w>
马 拉
教 師</w>
仅 仅</w>
社 説</w>
も た
来 る</w>
未 能</w>
エ ネル
放 在</w>
u e</w>
我 会</w>
妈 妈</w>
ウ ンド</w>
是 说</w>
シン ボ
確 保</w>
ニューヨ ーク</w>
週 間</w>
怎 样</w>
危 险</w>
み る</w>
込 ま</w>
摄 像</w>
サ ム
な れ</w>
援 助</w>
控制 器</w>
1 1
ひ と
生 存</w>
违 反</w>
医 療</w>
合 っ</w>
介 入</w>
于 是</w>
割 り
d p
难 以</w>
休 み</w>
梦 想</w>
ュ ータ</w>
一 旦</w>
体 育
要 請</w>
機 会</w>
コンピ ュータ</w>
律 师</w>
兴 趣</w>
小 学</w>
費 用</w>
年 级</w>
ほ う</w>
テ ロ</w>
部 長</w>
ず つ</w>
共 に</w>
嫌 疑</w>
エネル ギー</w>
帯 域</w>
外 国人</w>
ミ ョン
共 和
下 げ</w>
病 気</w>
変 わっ</w>
権 力</w>
大 赛</w>
医 疗</w>
落 ち</w>
就 是说</w>
居 住</w>
同 時に</w>
东 亚</w>
か し</w>
当 前</w>
军 队</w>
シ ー</w>
割 合</w>
訓 練</w>
待 っ</w>
食 事</w>
面 对</w>
习 惯</w>
垂 直</w>
原 則</w>
は ず</w>
下 落</w>
表 現</w>
留 下</w>
乗 っ</w>
当 选</w>
设 立</w>
舆 论</w>
ール ド</w>
具 备</w>
景 気</w>
观 看</w>
期 限</w>
オ ピ
入 る</w>
シンボ ル</w>
太 平
收 到</w>
か い</w>
优 秀</w>
越 来
越来 越</w>
近 い</w>
温 度</w>
焦 点</w>
20 4</w>
新 年</w>
鉄 道</w>
球 场</w>
係 数</w>
回 来</w>
透 明</w>
紧 张</w>
小 说</w>
集 団</w>
陷 入</w>
若 い</w>
監 査</w>
v i
保 守</w>
サ ブ</w>
小さ な</w>
图 片</w>
比 例</w>
推 荐</w>
休 息</w>
妻 子</w>
顺 序</w>
練 習</w>
其 实</w>
よ れ</w>
1 11</w>
列 表</w>
計 算</w>
社 论</w>
压 缩</w>
之 中</w>
看 着</w>
有 着</w>
a p
原 则</w>
民 间</w>
取 消</w>
旅 游</w>
衣 服</w>
威 胁</w>
持 ち
标 识</w>
な か</w>
a n</w>
も う
出 る</w>
199 9</w>
最 佳</w>
i t</w>
按 钮</w>
中 间</w>
向 かっ</w>
c m</w>
宗 教</w>
ホ ール</w>
い え</w>
立 つ</w>
セ ル</w>
7 1</w>
有 点</w>
给 予</w>
ニ オン</w>
体 系</w>
クチ ャ</w>
l e
合 い</w>
成 了</w>
現 地</w>
友 人</w>
4 9</w>
植 物</w>
途 中</w>
重 大</w>
かか わら</w>
运 动
ちょ っと</w>
事 例</w>
发 挥</w>
な し</w>
流 行</w>
任 期</w>
不 知</w>
住 ん</w>
開 い</w>
消 费
女 儿</w>
m s</w>
当 中</w>
三 个</w>
どう して</w>
不 少</w>
公 正</w>
o r
夫 人</w>
残 り</w>
す ぎ</w>
補 正</w>
10 %</w>
約 束</w>
向 上</w>
ロー ラ</w>
几 个</w>
突 破</w>
支 出</w>
フェ ース</w>
立 即</w>
マ ル
报 纸</w>
量 子</w>
报 告
工 资</w>
感 谢</w>
ニュ ース</w>
明 白</w>
全 く</w>
ク ロ</w>
モデ ル</w>
証 券</w>
合 理</w>
数 学</w>
タ イ</w>
ト ラン
6 8</w>
驱 动</w>
199 8</w>
内 外</w>
抑 制</w>
200 9</w>
長 い</w>
態 度</w>
私 立</w>
回 転</w>
ア ン</w>
克 服</w>
う ま
追 求</w>
ス ク
名 称</w>
到 底</w>
保 险</w>
オピ ニオン</w>
市 内</w>
輸 入</w>
ジェ クト</w>
系 数</w>
世 論</w>
光 州</w>
马拉 松</w>
如 今</w>
它 们</w>
比 特</w>
来 月</w>
友 達</w>
監 視</w>
把 握</w>
大 使
マン ション</w>
话 题</w>
办 公
建 筑</w>
受け 入れ</w>
食 物</w>
充 满</w>
批 准</w>
メ ージ</w>
电视 剧</w>
資 源</w>
角 色</w>
完 了</w>
而 言</w>
ー ズ</w>
つ もり</w>
年 内</w>
20 1</w>
工 事</w>
儿 童</w>
白 い</w>
仍 然</w>
ミ ン</w>
し た</w>
し た
d v
ソフト ウェア</w>
太平 洋</w>
i p
革 新</w>
1 40</w>
上 司</w>
中 止</w>
半 分</w>
か る</w>
证 明</w>
い か
ア ニ
あ る
消 失</w>
ホ ーム
カ ル</w>
ナ ム
電 気</w>
バ イル</w>
兄 弟</w>
控 え</w>
接 口</w>
序 列</w>
出 生</w>
モ バイル</w>
日 間</w>
サイ ズ</w>
打 开</w>
競 技</w>
艺 术</w>
报告 书</w>
发 行</w>
ラ ス</w>
プロ セス</w>
残 っ</w>
6 6</w>
拘 束</w>
助 け</w>
かか る</w>
日 常</w>
20 %</w>
估 计</w>
スポー ツ</w>
两 人</w>
ら く</w>
音 楽</w>
上 月</w>
コン ト
队 员</w>
以 此</w>
避 免</w>
務 め</w>
き り</w>
大 规模</w>
挑 戦</w>
就 业</w>
见 面</w>
信 任</w>
判 決</w>
工 业</w>
因 素</w>
言 い
大 切</w>
廃 止</w>
一 生</w>
7 5</w>
5 7</w>
許 可</w>
博 物
监 督</w>
事 務</w>
承 认</w>
シ ュ
少 なく</w>
国 防
进 口</w>
证 券</w>
弁 護
意 識</w>
谢 谢</w>
弁護 士</w>
斗 争</w>
こ う
ベ ース</w>
量 化</w>
作 り</w>
施 行</w>
ク ロ
数 据
成 长</w>
参 数</w>
容 量</w>
ザ ー</w>
し ば
メ ータ</w>
か かっ</w>
違 反</w>
判 决</w>
扫 描</w>
相 应</w>
ア ー</w>
全 球</w>
登 場</w>
ビ デ
見 え</w>
インタ ビュー</w>
食 べる</w>
党 内</w>
dm a</w>
照 相机</w>
i t
不 良</w>
番 組</w>
到 着</w>
守 る</w>
代 理</w>
財 産</w>
4 000</w>
星 期
球 员</w>
ハー ド
母 親</w>
影 像</w>
呼 ん</w>
早 上</w>
同 步</w>
先 進</w>
典 型</w>
由 此</w>
大 小</w>
ワ イ
立 ち
日 報</w>
リ ード</w>
邀 请</w>
従 って</w>
確 定</w>
小 组</w>
デ ザ
这 件</w>
不 想</w>
30 2</w>
秘 书
始 まっ</w>
不 管</w>
だ から</w>
a l
彻 底</w>
k bs</w>
ジュ ン</w>
是 从</w>
权 力</w>
韩国 队</w>
调 查
时 刻</w>
駆 動</w>
ス ン
進 め</w>
促 进</w>
語 っ</w>
of dm</w>
观 点</w>
最 新</w>
ニ ー</w>
即 将</w>
部 队</w>
返 回</w>
キ ム</w>
播 放</w>
20 12</w>
中 間</w>
ちゃ ん</w>
还 要</w>
協 定</w>
纪 念</w>
适 当</w>
涉 嫌</w>
レン ズ</w>
美 丽</w>
ディ スク</w>
t v</w>
圧 縮</w>
サ ー</w>
b s
专 门</w>
样 子</w>
人 气</w>
垒 打</w>
フ ラ
本 垒打</w>
こ う</w>
演 奏</w>
次 官</w>
资 格</w>
知 ら
長 期</w>
赤 字</w>
大 人</w>
有 効</w>
金 正日</w>
発 行</w>
整 理</w>
绝 对</w>
ピ クチャ</w>
等 待</w>
e s</w>
领 导</w>
深 い</w>
趋 势</w>
争 议</w>
神 社</w>
やす い</w>
ア ー
世 紀</w>
审 判</w>
分 から</w>
倾 向</w>
た る</w>
自 主</w>
一 半</w>
出 さ</w>
过 来</w>
适 合</w>
5 9</w>
清 楚</w>
残 し</w>
っ くり</w>
主 演</w>
報 じ</w>
芸 術</w>
单 位</w>
高 度</w>
成 像</w>
調 べ</w>
正 確</w>
人 材</w>
通 し</w>
か く</w>
出 售</w>
イ メージ</w>
移 転</w>
派 兵</w>
占 め</w>
訪 れ</w>
ティ ング</w>
手 続き</w>
合 う</w>
通 じ</w>
ズ ム</w>
れ れ</w>
补 充</w>
落 ち
組 合</w>
院 内</w>
女 人</w>
立 ち</w>
少 ない</w>
试 验</w>
マ ー
作 业</w>
任 务</w>
上 げる</w>
9 9</w>
合 格</w>
又 は</w>
考 える</w>
ト ップ</w>
理 想</w>
拘 留</w>
自 动</w>
運 転</w>
寻 找</w>
武 装</w>
围 绕</w>
サン プル</w>
p d
省 庁</w>
ま と
说 话</w>
不 得
e r</w>
さ ま
常 任</w>
7 4</w>
支 配</w>
設 立</w>
文 書</w>
消 费</w>
不 起</w>
管 理
比 起</w>
财 产</w>
3 10</w>
変 調</w>
失 っ</w>
ゆ る</w>
父 親</w>
1 60</w>
竞 争
党 的</w>
9 8</w>
学 科</w>
メン バー</w>
疾 病</w>
局 面</w>
院 长</w>
年 齢</w>
密 钥</w>
适 用</w>
当 選</w>
下 面</w>
蔚 山</w>
小 さい</w>
5 0%</w>
マラ ソン</w>
交 换</w>
转 移</w>
優 先</w>
三 星
パラ メータ</w>
現 象</w>
相 次
ざ ま</w>
恐 れ</w>
遅 れ</w>
8 5</w>
培 养</w>
一 時</w>
学 部</w>
行 使</w>
ご ろ</w>
人 力</w>
基 准</w>
功 率</w>
市 長</w>
思 考</w>
塁 打</w>
到 达</w>
検 事</w>
对 手</w>
电视 台</w>
国 外</w>
0 9</w>
強 く</w>
诉 讼</w>
年 生</w>
临 时</w>
酒 店</w>
国 务</w>
案 件</w>
探 し</w>
代 わり</w>
部 門</w>
家 里</w>
低 下</w>
均 衡</w>
俱 乐
想 到</w>
顾 客</w>
切 换</w>
卒 業</w>
既 に</w>
下 し</w>
対 話</w>
废 除</w>
な さい</w>
機 構</w>
引 进</w>
a d
戻 っ</w>
听 说</w>
憂 慮</w>
f c</w>
東 亜</w>
俱乐 部</w>
明 显</w>
原 来</w>
言 え</w>
坚 持</w>
マ ッ
反 而</w>
決 勝</w>
金 额</w>
确 实</w>
オー プ
建 物</w>
199 7</w>
教 室</w>
違 う</w>
主 题</w>
车 站</w>
反 応</w>
通 商</w>
方 针</w>
替 え</w>
追 い
広 げ</w>
厳 しい</w>
有 利</w>
シ ェ
击 球</w>
細 胞</w>
イン ド</w>
地 下</w>
囲 気</w>
雰 囲気</w>
ブ ル
首 位</w>
早 期</w>
お か
い は</w>
反 应</w>
友 好</w>
及 ぼ
i f
激 烈</w>
消 除</w>
开 心</w>
ツ アー</w>
大 约</w>
破 壊</w>
覚 え</w>
理 念</w>
秩 序</w>
小 説</w>
振 り
新 人</w>
年 后</w>
カ ップ</w>
ク トル</w>
事 態</w>
标 准
ホ ーム</w>
办公 室</w>
2 50</w>
悪 化</w>
あ げ</w>
多 様</w>
セン サ</w>
止 め</w>
わ から</w>
態 様</w>
1 22</w>
最 小</w>
ac k</w>
知 事</w>
さま ざま</w>
種 類</w>
手 术</w>
国 家
訴 訟</w>
抽 出</w>
も の
奖 金</w>
業 者</w>
医 学</w>
株 式</w>
见 到</w>
オ バ
组 件</w>
支 払
従 来</w>
冬 季</w>
怀 疑</w>
30 %</w>
形 象</w>
诞 生</w>
グ ロー
高 める</w>
こ んな</w>
p l
中 日</w>
会 上</w>
本 次</w>
20 6</w>
共 通</w>
发 言
ス プレ
等 等</w>
描 い</w>
シー ケ
ァ ン
纪 录</w>
金 某</w>
安 装</w>
防 ぐ</w>
連 盟</w>
建 议</w>
前 提</w>
地 图</w>
干 部</w>
满 足</w>
m us
ビ ル</w>
出 发</w>
体 力</w>
低 于</w>
n e
組 み
遭 到</w>
传 达</w>
剩 下</w>
発 売</w>
小 学校</w>
思 わ</w>
种 类</w>
等 级</w>
人 才</w>
の 子</w>
挙 げ</w>
安 排</w>
金 属</w>
实 力</w>
8 2</w>
当 該</w>
印 度</w>
8 6</w>
ご と</w>
帰 国</w>
在 野党</w>
季 度</w>
行 业</w>
単 位</w>
図 示</w>
遗 憾</w>
起 诉</w>
个 月</w>
ハ イ
設 け</w>
ロ ン
性 能</w>
ギ ュ
侵 害</w>
置 い</w>
中 学</w>
カ ー
明 る
涉 及</w>
大 宇</w>
伝 統</w>
歪 曲</w>
顺 利</w>
帝 国</w>
员 工</w>
t h
上 个月</w>
イン フ
た と
练 习</w>
决 赛</w>
优 先</w>
オープ ン</w>
留 学生</w>
才 是</w>
疲 れ</w>
物 质</w>
ア ント</w>
变 换</w>
論 理</w>
重 点</w>
外 汇</w>
福 利</w>
効 率</w>
本 来</w>
オバ マ</w>
製 造</w>
导 演</w>
w e
シーケ ンス</w>
m f
左 派</w>
景 气</w>
全 力</w>
依 然</w>
リ ア
本 格</w>
符 合</w>
慎 重</w>
明 確</w>
呼 吸</w>
全 世界</w>
k m</w>
2 20</w>
出 発</w>
杂 志</w>
公 園</w>
正 しい</w>
達 し</w>
相 当
相当 于</w>
困 難</w>
セ キュ
调 制</w>
公 平</w>
巴 马</w>
c e
結 局</w>
史 上</w>
加 工</w>
显 示
消费 者</w>
リン ピ
大 韓</w>
低 迷</w>
ラ ウンド</w>
統 計</w>
新 党</w>
就 要</w>
本 身</w>
国 籍</w>
幹 部</w>
わ れ</w>
達 成</w>
主 体</w>
生 き
パ ート</w>
路 径</w>
レ イ
搬 送</w>
7 3</w>
最 高
差 距</w>
原 油</w>
英 雄</w>
境 界</w>
6 000</w>
自 我</w>
年 轻
前 面</w>
协 定</w>
mus ic</w>
尊 重</w>
8 1</w>
委 托</w>
民 党</w>
关 心</w>
ト レー
し ろ</w>
演 技</w>
に わ
バ ン
格 納</w>
上 面</w>
願 い</w>
s e
资 产</w>
二 次</w>
コンピ ュー
竞 选</w>
金 大中</w>
っ きり</w>
c h</w>
竞争 力</w>
年轻 人</w>
定 时</w>
ロ グ</w>
パ ス</w>
诸 如</w>
表 演</w>
是 以</w>
销 售
国家 队</w>
イ ス
良 く</w>
咨 询</w>
分 子</w>
ビデ オ</w>
活 用</w>
收 集</w>
大 変</w>
里 面</w>
盛 り
平 等</w>
残 念</w>
独 自</w>
補 償</w>
h o
や り
此 前</w>
除 い</w>
バッ ファ</w>
ま り
不 明</w>
l pga</w>
表 达</w>
影 片</w>
值 得</w>
ミ ュ
指 令</w>
延 长</w>
8 000</w>
自 ら</w>
主 導</w>
重 复</w>
避 け</w>
良 好</w>
接 入</w>
祖 国</w>
越 え</w>
若 者</w>
検 証</w>
露 出</w>
意 图</w>
ど れ</w>
多 种</w>
意 外</w>
リー ズ</w>
岗 位</w>
回 家</w>
发 布</w>
クライ アント</w>
摄 影</w>
s 1
活 性</w>
以 後</w>
業 界</w>
ウ ス</w>
歌 曲</w>
わ たし</w>
しま い</w>
賃 金</w>
名 单</w>
监 视</w>
核 武器</w>
痛 苦</w>
是 不是</w>
并 非</w>
贡 献</w>
发言 人</w>
スイ ッチ</w>
意 味
9 5</w>
通 過</w>
恋 人</w>
不 幸</w>
働 い</w>
明 星</w>
日 报</w>
金 牌</w>
笑 っ</w>
平 时</w>
もの の</w>
斯 坦</w>
前 後</w>
工 業</w>
事 务</w>
时 钟</w>
承 诺</w>
30 4</w>
6 9</w>
ピ ー</w>
地 点</w>
楽し み</w>
怎 么样</w>
说 道</w>
排 出</w>
リンピ ック</w>
t o
緊 急</w>
大 概</w>
试 图</w>
体 重</w>
ジャ ー</w>
扩 散</w>
過 ご
本 塁打</w>
子 女</w>
吸 引</w>
集 まっ</w>
夏 天</w>
暂 时</w>
ス タ</w>
回 国</w>
办 法</w>
秘 書
流 通</w>
手 紙</w>
卫 星</w>
秘書 官</w>
自治 体</w>
展 望</w>
不 在</w>
リー ン</w>
情 報
破 坏</w>
商 店</w>
情報 処理</w>
イ ド</w>
效 率</w>
结 合</w>
下 さい</w>
ある いは</w>
开 展</w>
履 行</w>
出 去</w>
认 真</w>
少 数</w>
高 层</w>
20 11</w>
学 会</w>
开 关</w>
テー マ</w>
満 足</w>
中 継</w>
歩 い</w>
アフ リカ</w>
うま く</w>
有 力</w>
6 7</w>
抵 抗</w>
ク ス</w>
室 長</w>
サム スン</w>
もら っ</w>
提 议</w>
面 板</w>
随 后</w>
開 放</w>
李 承
国防 部</w>
海 上</w>
品 質</w>
各 自</w>
原 子
ガ ス</w>
南 道</w>
募 集</w>
规 则</w>
起 訴</w>
手 術</w>
作 戦</w>
执 政</w>
活 躍</w>
社 长</w>
南 部</w>
短 期</w>
服 装</w>
書 き
燃 料</w>
屏 幕</w>
進 む</w>
9 2</w>
や り</w>
度 过</w>
そ う
知 識</w>
深 く</w>
课 题</w>
延 迟</w>
独 特</w>
活 跃</w>
迎 来</w>
以 说</w>
見 通し</w>
可 以说</w>
続 く</w>
四 半期</w>
呈 现</w>
议 长</w>
验 证</w>
反 射</w>
営 業</w>
领导 人</w>
启 动</w>
意味 着</w>
あ まり
月 間</w>
メー カー</w>
写 体</w>
も と</w>
相次 い</w>
周 期</w>
デザ イン</w>
ん と</w>
想 像</w>
实 例</w>
送 り</w>
被 写体</w>
恶 化</w>
长 率</w>
搜 索</w>
推 出</w>
いた だ
1 500</w>
か なり</w>
込 む</w>
動 物</w>
登 记</w>
正 是</w>
进 步</w>
研究 院</w>
シ リーズ</w>
グロー バル</w>
看 看</w>
感 じる</w>
面 前</w>
機 械</w>
削 除</w>
ア ラ
保 安</w>
p o
指 导</w>
復 帰</w>
議 会</w>
ラン キング</w>
広 報</w>
好 好</w>
算 出</w>
測 定</w>
一 代</w>
シー ン</w>
接 下来</w>
看 起来</w>
反 省</w>
フォー マ
截 止</w>
ソ ン・
快 乐</w>
金 利</w>
除 去</w>
日 子</w>
校 长</w>
処 罰</w>
傾 向</w>
備 える</w>
安 心</w>
解 放</w>
した が
割り 当て</w>
ウ ム</w>
開 幕</w>
科 目</w>
e u</w>
人 民
国 土</w>
資 本</w>
f t</w>
增 长率</w>
消 え</w>
vi de
运 行</w>
7 8</w>
经 理</w>
発 射</w>
ス マ
交 換</w>
著 名</w>
グ ル</w>
超 える</w>
チ ン</w>
m bc</w>
招 待</w>
警 戒</w>
静 止</w>
7 000</w>
能 源</w>
海 岸</w>
江 原</w>
し っかり</w>
课 程</w>
分 の</w>
読 ん</w>
199 0</w>
ディ スプレ
被 告</w>
毫 无</w>
信 用
ブ ランド</w>
取 材</w>
ー ト
パ ネル</w>
网 上</w>
ナ ル</w>
资 本</w>
朴 智
变 更</w>
部 隊</w>
オ リンピック</w>
作 战</w>
元 件</w>
レ ジ
长 度</w>
結 合</w>
铁 路</w>
切 っ</w>
フ ロー</w>
選 手
選手 権</w>
循 环</w>
大 韓
聚 集</w>
闘 争</w>
い ろ
招 待
客 人</w>
ワ シン
ニ ュー</w>
求 める</w>
ソ ク</w>
通 貨</w>
ビ ョン
击 出</w>
前 日</w>
討 論</w>
1 14</w>
锦 标
锦标 赛</w>
l o
睡 眠</w>
义 务</w>
得 点</w>
为 此</w>
死 ん</w>
华 盛
優 秀</w>
中 文</w>
vide o</w>
前 往</w>
身 上</w>
原 理</w>
分 裂</w>
務 所</w>
や っ
选 拔</w>
つ なが
互 相</w>
主 人</w>
フィ ールド</w>
戦 闘</w>
建 筑
ー ター</w>
流 出</w>
正 当</w>
提 取</w>
切 り</w>
フ ン</w>
と 共に</w>
议 案</w>
观 察</w>
道 歉</w>
提 前</w>
以 便</w>
連 帯</w>
構 築</w>
一 同</w>
イ タ
务 所</w>
演 讲</w>
s 10
資 格</w>
田 中</w>
ナ イ
混 合</w>
外 交
ロ ード</w>
爱 情</w>
したが って</w>
限 り</w>
企 划</w>
しば らく</w>
ッ ジ</w>
政 治
受 伤</w>
に 従って</w>
う え</w>
逻 辑</w>
s p</w>
金 メダル</w>
ダ ー
大 田</w>
観 客</w>
検 索</w>
电 车</w>
机 器</w>
立 法</w>
クラ ブ</w>
買 っ</w>
数 目</w>
発 足</w>
8 4</w>
非 難</w>
成 人</w>
答 案</w>
游 客</w>
コ マ
課 題</w>
し かっ</w>
载 波</w>
で は</w>
項 目</w>
抗 议</w>
担 忧</w>
敌 人</w>
犯 人</w>
注 册</w>
g dp</w>
誕 生</w>
先 进</w>
8 3</w>
意 大
就 職</w>
執 行</w>
争 论</w>
谈 判</w>
h z</w>
ド ア</w>
华盛 顿</w>
法 官</w>
官 员</w>
论 文</w>
会 员</w>
中 旬</w>
減 らす</w>
う る</w>
c c</w>
9 7</w>
立 体</w>
ワシン トン</w>
家 属</w>
テ スト</w>
音 乐
正 面</w>
实 上</w>
事 实上</w>
9 1</w>
保 留</w>
テ キ
と か</w>
用 意</w>
后 来</w>
标准 杆</w>
有 时</w>
潜 在</w>
実 は</w>
オン ライン</w>
ア ナ
反 発</w>
上 がり</w>
カ ウ
アニ メ</w>
食 べ
ぎ る</w>
9 6</w>
应 当</w>
リ ソース</w>
つ まり</w>
打 出</w>
ッ ター</w>
遅 延</w>
补 偿</w>
广 场</w>
签 名</w>
チョ ・
文 明</w>
エ ル</w>
静 か</w>
犠 牲</w>
旋 转</w>
コマ ンド</w>
im o</w>
トレー ニング</w>
削 減</w>
ピ ング</w>
不 满</w>
し ゃ
联合 会</w>
表 す</w>
20 3</w>
c h
删 除</w>
緊 張</w>
招待 会</w>
大 国</w>
领 先</w>
マ ーク</w>
阶 层</w>
スタ ート</w>
決 める</w>
つ つ</w>
20 8</w>
審 査</w>
北 道</w>
金 額</w>
血 液</w>
言 论</w>
衛 星</w>
创 下</w>
她 们</w>
教科 书</w>
パ ン</w>
ビ ー</w>
は っきり</w>
所 需</w>
关 键</w>
遵 守</w>
in g</w>
能 否</w>
ギ リ
发 射
那 种</w>
安 全
展 開</w>
大 陆</w>
パ イ
许 可</w>
いっ た</w>
起 到</w>
果 た
遇 到</w>
普 段</w>
出 国</w>
古 い</w>
f ec</w>
れ い</w>
证 据</w>
証 明</w>
导 体</w>
意大 利</w>
r f</w>
天 気</w>
显示 器</w>
司 令</w>
s 9
緩 和</w>
报 导</w>
商 业</w>
呼 び
あ あ</w>
ヤ ン</w>
重 视</w>
融 資</w>
建 築</w>
プ リン
7 6</w>
見 える</w>
i s</w>
海 道</w>
基 礎</w>
ステ ィ
原 本</w>
ティ ー</w>
高 级</w>
延 長</w>
ユー ザー</w>
p h
移 民</w>
バ ック</w>
小 型</w>
本 文</w>
送 る</w>
トン ア</w>
そ こ
场 面</w>
アル バ
前 任</w>
会 員</w>
見 つ
格 式</w>
標 準</w>
硬 件</w>
独 裁</w>
腐 败</w>
対 立</w>
様 子</w>
あ と</w>
変 える</w>
演 説</w>
当 事
上 映</w>
白 色</w>
战 斗</w>
絶 対</w>
普 及</w>
瞬 间</w>
受 賞</w>
や る</w>
构 造</w>
高 齢</w>
クラ ス</w>
可 爱</w>
し み</w>
果 たし</w>
ク ロック</w>
学 家</w>
为 由</w>
教 会</w>
行 か</w>
延 期</w>
引き 上げ</w>
辞 职</w>
韩 日</w>
株 価</w>
前 进</w>
丰 富</w>
故 障</w>
m imo</w>
ま しい</w>
附 加</w>
车 辆</w>
搜 查</w>
ワ ード</w>
实 验</w>
不 満</w>
謝 罪</w>
接收 机</w>
忘 记</w>
爆 発</w>
回 っ</w>
公 斤</w>
世 帯</w>
前 年</w>
か れ</w>
素 材</w>
1 24</w>
依 頼</w>
か つ</w>
足 り</w>
か ん</w>
形 状</w>
セキュ リ
リ ズム</w>
い わ
集 合</w>
测 试</w>
属 性</w>
d s</w>
敏 感</w>
坐 在</w>
请 你</w>
袭 击</w>
コー ダ</w>
コント ローラ</w>
教科 書</w>
か ける</w>
拉 致</w>
从 事</w>
乘 坐</w>
翻 訳</w>
方 便</w>
不得 不</w>
署 名</w>
イ ズ</w>
強 制</w>
含 有</w>
s p
注 文</w>
遗 产</w>
ギ ョン
u n
モ ン
ディスプレ イ</w>
传 唤</w>
差 异</w>
地 下
ベ クトル</w>
两 次</w>
需 求</w>
ぐ らい</w>
波 形</w>
皆 さん</w>
院 長</w>
選 ば</w>
股 票</w>
直 面</w>
接 到</w>
ス キャ
暮 らし</w>
市 长</w>
室 内</w>
姿 勢</w>
引 き</w>
社 員</w>
の ぼ
次 元</w>
9 00</w>
文 化
兵 役</w>
ヶ 月</w>
哪 个</w>
接收 器</w>
着 手</w>
互 い</w>
き れい</w>
dv d</w>
说 法</w>
人 工</w>
职 务</w>
4 10</w>
样 本</w>
要 是</w>
理 事
本 地</w>
局 长</w>
之 类</w>
掲 載</w>
恋 爱</w>
各 样</w>
日本 語</w>
国 内外</w>
c p</w>
国 务
黑 色</w>
食べ 物</w>
视 为</w>
t e
証 拠</w>
就 算</w>
選 ん</w>
主 力</w>
半 导体</w>
海 军</w>
ma c</w>
捕 获</w>
尺 寸</w>
集 体</w>
動 画</w>
职 位</w>
局 長</w>
と いった</w>
尽 く
多 人</w>
ホーム ページ</w>
イタ リア</w>
打 击</w>
知 る</w>
天 皇</w>
业 界</w>
それ ら</w>
チャン ピ
看 来</w>
会 话</w>
汇 率</w>
t s</w>
工 具</w>
动 画</w>
m p
哲 学</w>
明 治</w>
尽 快</w>
实 在</w>
漂 亮</w>
応 援</w>
総 裁</w>
周 り</w>
冲 突</w>
亲 自</w>
お い</w>
处 罚</w>
ッ チ
s 2
プ ライ
室 长</w>
此 时</w>
決 議</w>
干 渉</w>
論 議</w>
座 っ</w>
不 用</w>
実 力</w>
あまり に</w>
内 阁</w>
爸 爸</w>
分 離</w>
まと め</w>
民 生</w>
做 法</w>
和 解</w>
け 加え</w>
物 質</w>
主 导</w>
进 军</w>
相 似</w>
意 図</w>
ひ ど
知 り</w>
高 丽</w>
導 体</w>
失 望</w>
解 消</w>
無 視</w>
校 正</w>
上 位</w>
つ き</w>
股 份</w>
ビ ア</w>
8 8</w>
p c</w>
使 い</w>
9 4</w>
发 达</w>
閾 値</w>
模 拟</w>
周 边</w>
そこ で</w>
k b
缓 冲
急 速</w>
第 四</w>
有 的</w>
た って</w>
单 独</w>
シ ップ</w>
l l</w>
难 道</w>
投 资
协 助</w>
知ら せ</w>
北 海道</w>
d n
依 存</w>
コンピュー ター</w>
1 16</w>
十 字</w>
t r
い き</w>
部 署</w>
营 业</w>
码 器</w>
か ね</w>
出 色</w>
讨 厌</w>
创 建</w>
作 ら</w>
カ ン・
は い</w>
年 初</w>
嬉 しい</w>
い ろ</w>
20 5</w>
缓冲 器</w>
進 歩</w>
放 棄</w>
飛 行
过 于</w>
申 告</w>
ヘ ッ
大 多数</w>
务 部</w>
k t
収 入</w>
城 南</w>
每 次</w>
高 考</w>
パ ン
拡 散</w>
視 聴</w>
s 3
g o
7 7</w>
話 し
パ ソ
疑 問</w>
半 導体</w>
信用 卡</w>
代 码</w>
止 まっ</w>
b a</w>
限 度</w>
学 習</w>
哥 哥</w>
タイ トル</w>
待 遇</w>
分 离</w>
红 色</w>
チュ ン
记 忆</w>
新 型</w>
落 と
什 么样</w>
a p</w>
汉 字</w>
資 産</w>
时 隔</w>
今 度</w>
タイ ム
グ ・
缺 乏</w>
暗 号</w>
波 器</w>
パソ コン</w>
情 绪</w>
这 本</w>
大 半</w>
ハード ウェア</w>
像 是</w>
s o
負 傷</w>
ロ ット</w>
现 有</w>
顧 客</w>
剧 场</w>
収 集</w>
审 查</w>
此 后</w>
做 好</w>
激 しい</w>
纪 念
推 迟</w>
披 露</w>
打 破</w>
滤 波器</w>
権 利</w>
及ぼ す</w>
天 空</w>
いく ら</w>
守 っ</w>
口 座</w>
支 持
椅 子</w>
40 2</w>
要 因</w>
落 后</w>
マ クロ</w>
元 気</w>
说 是</w>
あ ら
平 壤</w>
定 义</w>
そ ば</w>
設 計</w>
西 班
大 き</w>
アルバ ム</w>
游 泳</w>
対 決</w>
プロ ジェクト</w>
流 程</w>
だ し</w>
地 面</w>
监 查</w>
端 口</w>
聞 く</w>
予 約</w>
予 以</w>
合 适</w>
气 氛</w>
続 ける</w>
空 中</w>
滞 在</w>
大 臣</w>
正 規</w>
ル ・
ま っ
n h
场 景</w>
中 国
收 购</w>
不 再</w>
更 好</w>
查 明</w>
北 方</w>
不 错</w>
a t</w>
间 隔</w>
済 州</w>
ワ ー</w>
繰り 広げ</w>
在 线</w>
為 替</w>
p 1</w>
观 光</w>
有 趣</w>
ク ター</w>
w w
地 図</w>
古 代</w>
下 跌</w>
身 边</w>
然 として</w>
依 然として</w>
年 来</w>
スペ イン</w>
自 杀</w>
永 远</w>
李承 烨</w>
ジ ン
添 加</w>
几 天</w>
広 場</w>
整 体</w>
决 心</w>
占 据</w>
労 働
バ ンド</w>
复 杂</w>
以 为</w>
周 末</w>
バ ク</w>
楽 しい</w>
ネ ス</w>
インター フェース</w>
スピ ード</w>
合 わ</w>
侵 略</w>
拡 張</w>
ヵ 所</w>
脂 肪</w>
交 给</w>
房 子</w>
本 报</w>
警 官</w>
澳 大
澳大 利亚</w>
その まま</w>
转 变</w>
ピ ョン
平 壌</w>
圧 力</w>
読み 出し</w>
保 証</w>
省 略</w>
西 洋</w>
識 別
識別 子</w>
ビ ジ
农 业</w>
主 催</w>
k o
わ かっ</w>
描 写</w>
専 用</w>
ra m</w>
严 格</w>
穿 着</w>
前 一天</w>
自 民党</w>
比 重</w>
日 期</w>
幅 度</w>
回 合</w>
ヨ ル
プレ ー</w>
象 徴</w>
売 り
吃 饭</w>
ド ライ
料 金</w>
加 盟</w>
合 并</w>
理 论</w>
检察 官</w>
副 作用</w>
コ ース</w>
飛行 機</w>
ガ ラス</w>
体 验</w>
医 師</w>
保 证</w>
看 见</w>
守 備</w>
麻 烦</w>
ミ ス</w>
8 7</w>
連 れ</w>
因 而</w>
レ ー</w>
キ ー
使 用
は り</w>
お 願い</w>
物 价</w>
分 量</w>
ブ ロー
展 现</w>
契 机</w>
代表 团</w>
真 实</w>
多 次</w>
高 麗</w>
测 量</w>
衝 突</w>
シ ン</w>
生 日</w>
地 上</w>
イ・ ミョン
大 手</w>
学 期</w>
号 码</w>
オー スト
行 车</w>
ロ ン</w>
グ ラ
論 文</w>
いろ いろ</w>
務 省</w>
ブ リ
1 80</w>
球 迷</w>
防 御</w>
小 泉</w>
俳 優</w>
き っと</w>
記 述</w>
指 责</w>
想 象</w>
周 囲</w>
出 台</w>
捨 て</w>
ち に</w>
時 刻</w>
判 事</w>
増や す</w>
上 班</w>
劳动 者</w>
建筑 物</w>
读 出</w>
有 望</w>
异 常</w>
高 等</w>
保 管</w>
ク ォ
4 0%</w>
账 户</w>
与 野党</w>
热 情</w>
ット ボール</w>
战 胜</w>
u r
愿 意</w>
タイ ム</w>
西班 牙</w>
転 換</w>
迎 接</w>
或 是</w>
地 検</w>
暴 露</w>
春 天</w>
引き 続き</w>
失 業</w>
カ ナ
締 結</w>
警察 庁</w>
ベ ル
扩 展</w>
賛 成</w>
长 的</w>
摆 脱</w>
プレ ゼ
コ ピー</w>
之 所以</w>
実 質</w>
核 兵器</w>
葛 藤</w>
せ い</w>
部 品</w>
懸 念</w>
チョ ル</w>
皮 肤</w>
害 者</w>
标 记</w>
谴 责</w>
研 修</w>
债 务</w>
we b</w>
付 け加え</w>
ド ン
買 い
開 く</w>
お 互い</w>
辞 任</w>
礼 物</w>
事 先</w>
物 価</w>
头 发</w>
o e
真 実</w>
選 定</w>
書 き</w>
名 义</w>
黄 金</w>
飞 行</w>
大 事</w>
利 率</w>
や はり</w>
农 民</w>
ロー カル</w>
线 路</w>
如 上</w>
运 用</w>
朴智 星</w>
工 人</w>
考 え
i n</w>
当 作</w>
拘 捕</w>
めぐ る</w>
か す</w>
适 应</w>
抓 住</w>
デ ン
o s</w>
法 務</w>
物 品</w>
不 利</w>
体 験</w>
ヵ 国</w>
李 某</w>
纷 纷</w>
提 问</w>
分 布</w>
登 场</w>
一 事</w>
厘 米</w>
コン サ
む しろ</w>
引 导</w>
イ・ミョン バク</w>
解 釈</w>
強 力</w>
診 断</w>
デ ビュー</w>
继 承</w>
共和 国</w>
地 方
借 り</w>
20 13</w>
199 5</w>
巡 回
バ スケ
空 気</w>
物 体</w>
其 是</w>
タ ン
火 灾</w>
北 部</w>
高 句
いわ ゆる</w>
夫 婦</w>
面 向</w>
短 い</w>
尤 其是</w>
買 収</w>
天 然</w>
キョン ギ
小 学生</w>
远 程</w>
篮 球</w>
言 語</w>
结 论</w>
限 于</w>
描 绘</w>
増 える</w>
铃 木</w>
一 条</w>
退 休</w>
30 6</w>
複 雑</w>
巡回 赛</w>
ッ プ
フォーマ ット</w>
p p
总 经理</w>
对 不起</w>
自 行车</w>
日 成</w>
到 来</w>
休 暇</w>
ロッ テ</w>
カウ ント</w>
温 暖</w>
面 积</w>
レ イ</w>
車 両</w>
ホ ン</w>
8 0%</w>
次 数</w>
强 化</w>
エン ジン</w>
細 書</w>
本 明</w>
山 田</w>
先 週</w>
指 揮</w>
诊 断</w>
乃 至</w>
視 点</w>
建 て</w>
网 页</w>
間 隔</w>
签 订</w>
帽 子</w>
女 の子</w>
合 法</w>
財 団</w>
加 拿
199 4</w>
评 估</w>
本 当</w>
ト コ
こう した</w>
这 部</w>
二 つ</w>
7 0%</w>
出 场</w>
要 性</w>
ポ ール</w>
推 薦</w>
優 れ</w>
正 规</w>
予 選</w>
バスケ ットボール</w>
感 謝</w>
開 示</w>
家 长</w>
a m
国 税</w>
感 受</w>
概 略</w>
电 影
现 状</w>
減 っ</w>
收 发</w>
得 出</w>
統 制</w>
チャ ンス</w>
1 25</w>
賞 金</w>
飲 み</w>
生 涯</w>
ro m</w>
見 方</w>
す ぎる</w>
セン チ</w>
现 金</w>
す ご
支 給</w>
成 熟</w>
ベ ン
绿 色</w>
ター ン</w>
ジ ル</w>
ダ ム</w>
高 まっ</w>
複 合</w>
同 胞</w>
近 づ
财 团</w>
カナ ダ</w>
なん て</w>
视 点</w>
开 幕</w>
议 院</w>
義 務</w>
先 発</w>
经 营
一 周</w>
当 日</w>
掲 げ</w>
n o</w>
追 跡</w>
利 润</w>
メ ニュー</w>
病 毒</w>
廃 棄</w>
地下 鉄</w>
ど ちら</w>
ま す
会 う</w>
2 40</w>
愉 快</w>
咖 啡</w>
走 っ</w>
働 き</w>
所 在</w>
公 路</w>
审 议</w>
事 務所</w>
数 值</w>
大韓 民国</w>
加拿 大</w>
快 速</w>
引 用</w>
后 面</w>
こ んなに</w>
豊 か</w>
繰り 返し</w>
免 费</w>
象 征</w>
再 開</w>
フ ラン
ド ゥ
スタ ン</w>
ほ ぼ</w>
申し 訳</w>
乐 天</w>
s i</w>
路 线</w>
i g
i d
たと えば</w>
事 态</w>
天 才</w>
199 6</w>
约 翰</w>
コー ヒ
わ し</w>
30 1</w>
而 已</w>
大 法院</w>
空 气</w>
大 衆</w>
供 应</w>
過ご し</w>
得 以</w>
多 重</w>
多 年</w>
ジャ ン
勤 務</w>
世 宗</w>
損 失</w>
超 越</w>
素 子</w>
心 里</w>
司 令
戻 る</w>
多 かっ</w>
照 明</w>
コーヒ ー</w>
博物 馆</w>
亮 度</w>
定 義</w>
提 到</w>
ます ます</w>
付 加</w>
非 洲</w>
にわ たって</w>
後 半</w>
ディ ー</w>
高 め</w>
3 d</w>
边 界</w>
交 代</w>
或 许</w>
区 分</w>
ミ リ</w>
プロ トコ
优 势</w>
た い
nh k</w>
その 他</w>
カ ル
アン ダー</w>
畿 道</w>
話 す</w>
探 索</w>
旁 边</w>
ちょ う
认 可</w>
祭 り</w>
崩 壊</w>
寿 命</w>
京 畿道</w>
睡 觉</w>
記 事</w>
法 庭</w>
有 没有</w>
内 心</w>
通 讯</w>
总 会</w>
y es</w>
dp b</w>
こ ちら</w>
记 得</w>
国 務</w>
9 3</w>
便 宜</w>
間 違っ</w>
マル チ
兵 力</w>
ま る
尚 未</w>
收 受</w>
ヒ ョ
デ ィ</w>
抵 达</w>
一 张</w>
ク ト
7 9</w>
差 分</w>
询 问</w>
亡 く
限 ら</w>
リ ン・
登 山</w>
奇 怪</w>
调 节</w>
反 复</w>
作 出</w>
论 是</w>
比 如</w>
目 的
流 し</w>
回 避</w>
ポー ネ
た び</w>
分 かり</w>
皇 帝</w>
打 电话</w>
如 下</w>
夺 得</w>
oe cd</w>
粮 食</w>
経 路</w>
か つ
消 防</w>
イラ ン</w>
警察 厅</w>
ゆ っくり</w>
民主 化</w>
電 圧</w>
コン ポーネ
融 合</w>
寄 付</w>
夏 季</w>
为 主</w>
一 体</w>
想 起</w>
画 家</w>
ひと つ</w>
ず か</w>
野 菜</w>
コンポーネ ント</w>
解 雇</w>
団 地</w>
増や し</w>
并 称</w>
ガ ー</w>
很 高</w>
股 价</w>
赞 成</w>
选 定</w>
フ ト</w>
負 け</w>
拿 出</w>
女 士</w>
之 际</w>
q i</w>
太 阳</w>
不 可能</w>
ビジ ネス</w>
組み 合わせ</w>
业 绩</w>
ク シー</w>
厅 长</w>
尼 亚</w>
共和 党</w>
押 し
動 員</w>
沿 っ</w>
遭 受</w>
进 展</w>
欲 しい</w>
検 察
サ ポート</w>
用 品</w>
爆 炸</w>
広 がっ</w>
ブラ ジル</w>
强 制</w>
スタ イル</w>
西 海</w>
摄 像
20 14</w>
总 部</w>
干 扰</w>
下 月</w>
分 数</w>
母 さん</w>
売 却</w>
交 替</w>
ワ ー
垃 圾</w>
等 于</w>
大 学院</w>
1 21</w>
行 方</w>
次 期</w>
ー ション</w>
c c
季 节</w>
ス カ
u i</w>
熙 燮</w>
デ ン</w>
书 馆</w>
両 親</w>
あ い
登 上</w>
上 行</w>
迁 移</w>
广 泛</w>
セッ ション</w>
1 a</w>
降 っ</w>
透 镜</w>
上 手</w>
障 碍</w>
超 级</w>
夫 妇</w>
ベ スト</w>
黄 色</w>
目的 地</w>
动 力</w>
专 用</w>
上 下</w>
ざ る</w>
货 币</w>
総 額</w>
体 现</w>
とこ ろ
那 时</w>
联 网</w>
メ イン</w>
别 的</w>
コ ール</w>
パ ルス</w>
预 约</w>
共 享</w>
强 度</w>
説 得</w>
之 内</w>
例 外</w>
接 连</w>
ナ ス</w>
朴 赞
19 80</w>
便 利</w>
一 只</w>
ま さ
審 議</w>
传 递</w>
40 4</w>
ボ ー
流 感</w>
活 力</w>
基 本
わ ずか</w>
轻 松</w>
所 说</w>
年 间</w>
カ ラー</w>
4 a</w>
预 防</w>
去 世</w>
根 拠</w>
処 分</w>
内 閣</w>
農 業</w>
論 争</w>
継 続</w>
よ ろ
も っ</w>
偶 然</w>
プロトコ ル</w>
解 散</w>
回 忆</w>
笑 い</w>
ゲ ート</w>
a v
開 け</w>
自 由
时 报</w>
故 郷</w>
同 学</w>
カ 国</w>
降 り</w>
な か
ph y</w>
ア ム</w>
成 本</w>
始 まる</w>
労 使</w>
承 認</w>
地 铁</w>
承 担</w>
カ バー</w>
风 险</w>
神 経</w>
拿 到</w>
ファ イ
復 調</w>
劳动 党</w>
飛 び
ミュ ニ
分 之</w>
再 度</w>
予 備</w>
债 券</w>
引 入</w>
10 .
縮 小</w>
自 殺</w>
拍 手</w>
ちょう ど</w>
に関 して</w>
退 出</w>
直 ちに</w>
大使 館</w>
事 务所</w>
に く
播 出</w>
コ ミュニ
予 防</w>
独 岛</w>
g ps</w>
こ ろ</w>
発 揮</w>
中 毒</w>
很 快</w>
キャ リア</w>
脉 冲</w>
推 测</w>
ケ ース</w>
品 牌</w>
ベ ト
ロ ール</w>
ル エン
セキュリ ティ</w>
確 立</w>
疑 问</w>
大使 馆</w>
味 道</w>
児 童</w>
运动 员</w>
玻 璃</w>
貨 物</w>
直 後</w>
2 30</w>
樱 花</w>
金 正
团 结</w>
点 儿</w>
補 助</w>
等 級</w>
救 助</w>
ホ ワイ
有 限</w>
大 丈夫</w>
输 送</w>
在 所</w>
电 压</w>
放 置</w>
q p</w>
意 向</w>
下 达</w>
い れ</w>
相 談</w>
消 し</w>
回 る</w>
模 型</w>
并 列</w>
ピ ン</w>
平 衡</w>
瞬 間</w>
一 面</w>
ク ァン
い か</w>
初 始</w>
凭 借</w>
ベト ナム</w>
ジ オ</w>
インフ ルエン
ぱ い</w>
6 0%</w>
西 亚</w>
a l</w>
评 论</w>
缩 小</w>
数 码</w>
抱 歉</w>
召 喚</w>
菜 单</w>
全 身</w>
ティ ブ</w>
インフルエン ザ</w>
貢 献</w>
行 な
阳 子</w>
庶 民</w>
不 多</w>
公 安</w>
法 务部</w>
ユ ン・
释 放</w>
自 体</w>
直 し</w>
污 染</w>
赔 偿</w>
事 项</w>
中 学校</w>
趣 味</w>
人 体</w>
マ ップ</w>
朝 野</w>
おか げ</w>
持 有</w>
不 如</w>
点 数</w>
バ ランス</w>
金 妍</w>
頑 張
収 益</w>
列 車</w>
5 10</w>
阿 拉
全 員</w>
重 建</w>
臨 時</w>
上 调</w>
チャン ネル</w>
槿 恵</w>
急 増</w>
整 形</w>
プ サン</w>
太 陽</w>
と ど
销售 额</w>
税 率</w>
全 羅
普 遍</w>
リン・ ウリ</w>
c qi</w>
誘 致</w>
ヨル リン・ウリ</w>
まる で</w>
ディ ング</w>
会 計</w>
ラン ダ</w>
尊 敬</w>
厳 しく</w>
高 官</w>
盗 聴</w>
せ よ</w>
s n
引 っ
年 薪</w>
向 か
し ながら</w>
脅 威</w>
担 保</w>
1. 5</w>
忠 清</w>
开 赛</w>
动 态</w>
単 一</w>
改 造</w>
回 去</w>
リ セット</w>
稍 微</w>
彼 此</w>
大 众</w>
書 類</w>
森 林</w>
一 郎</w>
労働 党</w>
ロン ドン</w>
総 会</w>
投 球</w>
主 流</w>
しか しながら</w>
飲 ん</w>
聞 こ
特 許</w>
場 面</w>
s bs</w>
i a</w>
ス キー</w>
10 7</w>
防 守</w>
選 抜</w>
提 升</w>
広 い</w>
巻 き
相 対</w>
ボ ン</w>
履 歴</w>
モ ニ
浪 费</w>
教育 部</w>
カ ン</w>
職 業</w>
弹 劾</w>
座 標</w>
海 軍</w>
创 作</w>
が ん</w>
这 位</w>
やり 方</w>
もた らし</w>
のぼ る</w>
自 転
冬 天</w>
働 く</w>
自転 車</w>
重 視</w>
伝 える</w>
互 联网</w>
歓 迎</w>
退 職</w>
望 む</w>
変 わる</w>
痛 み</w>
生 产
ユ ・
姐 姐</w>
運 用</w>
冷 静</w>
ダ ンス</w>
スー パー</w>
ス ・
み たい</w>
さ ま</w>
d a
戦 い</w>
決 して</w>
ノ ー
货 物</w>
数据 库</w>
建 造</w>
国 税
キ シ
捜 索</w>
見 つけ</w>
m m</w>
分 類</w>
公 職</w>
ウ イ
言 える</w>
西 部</w>
快 门</w>
自 宅</w>
組 み</w>
风 格</w>
代表 性</w>
スト レス</w>
日 益</w>
判 別</w>
ce o</w>
侵 犯</w>
a f</w>
这 时</w>
建 国</w>
か わ
お い
s c</w>
上 半期</w>
それ から</w>
輝 度</w>
早 い</w>
現 金</w>
切 断</w>
2 12</w>
検察 庁</w>
朴赞 浩</w>
不 见</w>
起こ す</w>
女 孩</w>
原 作</w>
興 味</w>
离 婚</w>
女 子
オ ブ
ま え</w>
笑 容</w>
イン チョン</w>
持 続</w>
思 议</w>
总 长</w>
对 外</w>
分 散</w>
球 手</w>
道 理</w>
女 王</w>
育 て</w>
不 够</w>
来 週</w>
読 む</w>
望 ん</w>
l cd</w>
同 社</w>
伊 朗</w>
ボ ン
シ ン・
感 覚</w>
売 上</w>
真 っ
尝 试</w>
几 年</w>
随 时</w>
下 行</w>
ト ナー</w>
绑 架</w>
好 吃</w>
核 试验</w>
撤 回</w>
始 终</w>
ル ール</w>
減 らし</w>
每 月</w>
即 便</w>
互 いに</w>
かつ て</w>
遅 く</w>
频 带</w>
王 子</w>
差 別</w>
キャ スト</w>
1 70</w>
统 合</w>
レ スト
弟 弟</w>
ライ ト</w>
l e</w>
照 顾</w>
动 摇</w>
兵 士</w>
c ec</w>
国 旗</w>
順 序</w>
虽 说</w>
物 語</w>
利 息</w>
下 调</w>
光 源</w>
限 界</w>
交 通
购 物</w>
時 点</w>
1 18</w>
摄像 机</w>
列 车</w>
点 评</w>
始 まり</w>
お 母さん</w>
韩 美军</w>
帰 り</w>
支 部</w>
越 南</w>
小さ く</w>
一 带</w>
追 悼</w>
結 論</w>
コ スト</w>
阳 光</w>
付 ける</w>
喜 び</w>
众 多</w>
ウェ ー
饮 食</w>
打 者</w>
長 く</w>
弾 劾</w>
复 用</w>
位 相</w>
伦 敦</w>
裁判 官</w>
国 境</w>
饰 演</w>
速 率</w>
1 200</w>
得 分</w>
ダ ウン</w>
业 者</w>
海 域</w>
起こ っ</w>
更 为</w>
8 9</w>
不 可
目 指
前 后</w>
3 20</w>
既 存</w>
定 性</w>
先 端</w>
伙 伴</w>
データ ベース</w>
もう 一度</w>
信 赖</w>
シャ ッター</w>
ク タ</w>
工 作
单 纯</w>
预 先</w>
感 动</w>
実 装</w>
四 个</w>
施 加</w>
慢 慢</w>
会 见</w>
风 波</w>
景 色</w>
投 げ</w>
も し
1 15</w>
ニ ス</w>
巴 西</w>
嫌 疑
下 周</w>
a d</w>
広 く</w>
o k</w>
未 満</w>
任 務</w>
o b</w>
投资 者</w>
陽 子</w>
配 合</w>
收 取</w>
餐 厅</w>
フォ ル
耦 合</w>
洛 杉
10 0%</w>
级 别</w>
第二 天</w>
差 し
微 笑</w>
プレゼ ント</w>
3 50</w>
付 き
用 途</w>
分 为</w>
乗り 出し</w>
エ リ
年 俸</w>
コー チ</w>
中 立</w>
ト ル
事 物</w>
协 调</w>
ス ライ
洛杉 矶</w>
大 米</w>
一 人</w>
制 造
内 需</w>
着 い</w>
か かり</w>
不 行</w>
面 白い</w>
採 択</w>
路 上</w>
聞 き</w>
服 用</w>
改 编</w>
入 国</w>
ラ ー
交 易
カ ウン
e e
隠 し</w>
分 类</w>
代表 队</w>
两 位</w>
過 度</w>
修 理</w>
g b</w>
学 位</w>
ス コ</w>
越 し</w>
立 刻</w>
总 额</w>
国税 庁</w>
f 1</w>
某 些</w>
20 15</w>
记 载</w>
休 假</w>
ハ ウス</w>
オースト ラ
お く</w>
2 a</w>
击 球手</w>
脱 离</w>
打 撃</w>
战 斗
不 久</w>
用 作</w>
演 じ</w>
外交 部</w>
切 れ</w>
回 复</w>
条 款</w>
有 し</w>
既 然</w>
友 情</w>
もら う</w>
选 出</w>
達 する</w>
走 査</w>
き ら
心 中</w>
大 脑</w>
主 持</w>
s 1</w>
刷 新</w>
布 置</w>
話 題</w>
あ たり</w>
特 有</w>
チェ ック</w>
スト ー
却 是</w>
上 半年</w>
チ ップ</w>
お 前</w>
レスト ラン</w>
ヘッ ダ</w>
证 会</w>
强 大</w>
听 证会</w>
否 认</w>
标 题</w>
邮 政</w>
曝 光</w>
学 年</w>
諸 国</w>
ル ド</w>
ん で</w>
13 4</w>
近 期</w>
气 温</w>
オーストラ リア</w>
伟 大</w>
姿 态</w>
1 26</w>
对 待</w>
定 め</w>
理 会</w>
モ ン</w>
いっ ぱい</w>
花 费</w>
バイ ト</w>
わ かり</w>
高 級</w>
も らい</w>
ま い</w>
面 试</w>
命 运</w>
言 論</w>
体 内</w>
园 区</w>
c n
参 观</w>
坐 标</w>
同 僚</w>
側 近</w>
助 理</w>
更 换</w>
解 析</w>
敦 促</w>
寿 司</w>
原 子</w>
业 生</w>
ヤ ン
い ま</w>
庆 典</w>
士 兵</w>
安 倍</w>
s c
风 景</w>
0 0
停 留</w>
传 播</w>
边 缘</w>
嫌 い</w>
农 村</w>
よ う
つ く</w>
祈 祷</w>
动 员</w>
刚 才</w>
下 雨</w>
観 察</w>
股 东</w>
朝 日</w>
中 生</w>
替 换</w>
受 害者</w>
前 景</w>
ar q</w>
製 作</w>
一 片</w>
效 力</w>
为 何</w>
船 舶</w>
可 见</w>
農 民</w>
怎 么
向 き</w>
镜 头</w>
でき る
気 温</w>
劳 总</w>
せ ん</w>
开 発</w>
走 向</w>
外 出</w>
刚 刚</w>
两 天</w>
マ ー</w>
いか なる</w>
色 彩</w>
創 出</w>
窃 听</w>
高 达</w>
性 质</w>
デ パート</w>
共 和</w>
できる だけ</w>
上 がる</w>
株 主</w>
校 生</w>
刊 登</w>
武 力</w>
小 姐</w>
呼 ぶ</w>
傘 下</w>
常 に</w>
夏 休み</w>
啤 酒</w>
時 計</w>
変 わり</w>
r s</w>
表 决</w>
ジョ ブ</w>
気 づ
正 月</w>
加 速</w>
中 继</w>
じ ゃ
签 署</w>
秘 书</w>
显 得</w>
排 列</w>
ビ ール</w>
贿 赂</w>
伤 害</w>
該 当</w>
条 約</w>
ろ う
苹 果</w>
开 设</w>
助 于</w>
氛 围</w>
关 闭</w>
か け
い や</w>
经济 部</w>
カ リ
含 ん</w>
动 机</w>
分 かる</w>
気 分</w>
尽く し</w>
上 去</w>
メ ン</w>
フィ リ
交 往</w>
上 市</w>
占 める</w>
内 定</w>
医 者</w>
气 候</w>
苦 労</w>
忙 しい</w>
印 机</w>
t p</w>
40 6</w>
踏 み
エ リア</w>
ス チ
ば し</w>
杀 人</w>
最 大
就 职</w>
无 论是</w>
変 わら</w>
平 方
l t
著 者</w>
蔬 菜</w>
学 ぶ</w>
a m</w>
半 数</w>
获 胜</w>
読 み</w>
苦 し
脸 上</w>
博物 館</w>
オ フ
10 9</w>
編 集</w>
窗 口</w>
不 当</w>
買 い</w>
空 白</w>
k g</w>
連 邦</w>
多 么</w>
悪 く</w>
孤 独</w>
本 体</w>
会 儿</w>
火 災</w>
ょ う</w>
原 始</w>
5 02</w>
翌 日</w>
各 界</w>
理 学</w>
尸 体</w>
不 便</w>
p c
统 治</w>
秘 書</w>
一 句</w>
遊 び</w>
各 位</w>
队 伍</w>
过 分</w>
と っ</w>
失 误</w>
あ ろ</w>
いただ き</w>
面 接</w>
赤 い</w>
パ ターン</w>
进 攻</w>
トラ ック</w>
急 い</w>
シュ ート</w>
と り
終 わり</w>
下 がっ</w>
単 独</w>
オ ランダ</w>
身 分</w>
资 源
深 夜</w>
平 面</w>
死 者</w>
イ ル
通 话</w>
强 行</w>
灾 害</w>
ト ゥ
よ かっ</w>
t 1</w>
加 油</w>
行 け</w>
政 局</w>
やっ て
贝 尔</w>
假 设</w>
い で</w>
浮 か
権 限</w>
陣 営</w>
较 高</w>
設 備</w>
感 受到</w>
ミ ン
素 晴
防 衛</w>
指 挥</w>
さ っ
b o
触 摸</w>
编 辑</w>
抗 議</w>
荷 兰</w>
戻 し</w>
究 竟</w>
举 例</w>
用 来</w>
現 行</w>
写 入</w>
期 望</w>
数据 包</w>
图 书馆</w>
合 計</w>
ウ ル
ポ スト</w>
そ く</w>
研究 员</w>
映 射</w>
ウェ イ</w>
す ら</w>
ティ ティ</w>
ノ イズ</w>
適 応</w>
视 图</w>
予 め</w>
1 23</w>
チャ ー</w>
复 合</w>
固 体</w>
泰 国</w>
依 据</w>
インタ フェース</w>
亚 运会</w>
2 5
や っと</w>
進 ん</w>
油 价</w>
ア ウ
死 刑</w>
振り 返
ッ ズ</w>
半 场</w>
1 27</w>
持 た</w>
待 ち</w>
1 13</w>
绍 介</w>
带 有</w>
聴 聞</w>
供 述</w>
上 周</w>
返 す</w>
现 任</w>
欲 望</w>
オ フ</w>
参 赛</w>
发 起</w>
にく い</w>
总 线</w>
眼 前</w>
a v</w>
支 え</w>
オ リ
某 氏</w>
言 及</w>
官 僚</w>
辛 苦</w>
资源 部</w>
大 厦</w>
突 出</w>
歴 代</w>
だ が</w>
完 美</w>
毕 业生</w>
反 驳</w>
職 場</w>
主 任</w>
階 層</w>
走 る</w>
现 行</w>
順 位</w>
解 像
劳 资</w>
分 譲</w>
免 除</w>
レー ション</w>
mf p</w>
放 射
近 年</w>
容 器</w>
起 動</w>
解像 度</w>
食 堂</w>
行 列</w>
公 开赛</w>
ティ ア</w>
通 っ</w>
衝 撃</w>
美 容</w>
押 し</w>
艰 难</w>
避 ける</w>
进 而</w>
手 法</w>
呼 吁</w>
a 1</w>
近 代</w>
育 成</w>
事 項</w>
ジ ェ</w>
青 春</w>
杀 害</w>
故 意</w>
墓 地</w>
サ ブ
冲 击</w>
害 怕</w>
分 解</w>
电 池</w>
ラン ク</w>
苦 痛</w>
太 多</w>
响 力</w>
1 1.
書 く</w>
ダ ウン
る か</w>
落と し</w>
ッ ション</w>
加 算</w>
紛 争</w>
フ ロ
つ いに</w>
进 球</w>
示 意</w>
ブ レ
腐 敗</w>
是 的</w>
依 次</w>
美 術</w>
ー ド
タ バ
t o</w>
ピ ア
選 ぶ</w>
知 れ</w>
艺 术
浮 上</w>
受け 入れる</w>
今 週</w>
タイム ズ</w>
桌 子</w>
暴 行</w>
暑 假</w>
補 佐</w>
シン ガ
自 律</w>
网 球</w>
凌 晨</w>
公 約</w>
慶 尚
电 站</w>
住 所</w>
ウィ ン
三星 電子</w>
le d</w>
花 子</w>
条 例</w>
小 鸟</w>
実 践</w>
継 ぎ</w>
破 产</w>
牛 病</w>
個 別</w>
き っ
论 坛</w>
自 動</w>
主 角</w>
大 声</w>
大 门</w>
个 性</w>
づ け</w>
牺 牲</w>
パ リ</w>
赋 予</w>
仲 裁</w>
グ ン</w>
宣 伝</w>
ビ ー
軽 く</w>
や ら</w>
dn a</w>
逆 転</w>
神 经</w>
専 攻</w>
なか なか</w>
関 連
带 宽</w>
前 方</w>
後 援</w>
很 少</w>
ム ン</w>
尤 其</w>
i a
ール ド
g m</w>
检察 院</w>
增 强</w>
巴 黎</w>
債 権</w>
フォ ーム</w>
ガ イド</w>
道 具</w>
隣 接</w>
無 理</w>
移 植</w>
ハ ン・
ト ロ
小 心</w>
定 为</w>
f if
打 印机</w>
喜 ん</w>
济 州</w>
候 选</w>
协 力</w>
ウォ ン
时 段</w>
开 城</w>
分 辨
依 赖</w>
促 進</w>
本 社</w>
い わ</w>
用 紙</w>
原子 力</w>
d i</w>
地 元</w>
噪 声</w>
バ ン</w>
运 输</w>
前 辈</w>
返 事</w>
秋 天</w>
出 馬</w>
後 ろ</w>
も っ
选 举
看 出</w>
従 業</w>
仔 细</w>
沿 着</w>
気 候</w>
分辨 率</w>
表 し</w>
支持 率</w>
押 下</w>
9 0%</w>
1 32</w>
通 報</w>
mo s</w>
暗 示</w>
新 加
招 い</w>
30 8</w>
だ め</w>
物 流</w>
オブ ジェクト</w>
か しい</w>
财 务</w>
擅 长</w>
金 钱</w>
新加 坡</w>
体育 场</w>
ウイ ルス</w>
は るか</w>
1 31</w>
審 判</w>
阅 读</w>
怒 り</w>
公 認</w>
日 付</w>
夺 冠</w>
供 给</w>
上 场</w>
p d</w>
较 大</w>
动 向</w>
飛 行</w>
筹 集</w>
下 次</w>
課 長</w>
スケ ジュール</w>
下 载</w>
感 動</w>
ボ ラン
荷 物</w>
種 目</w>
学 界</w>
娱 乐</w>
ヨ ー
お き</w>
食 糧</w>
理 論</w>
平 安</w>
ジ ー</w>
雇 佣</w>
生 じ</w>
f a</w>
球 団</w>
前 天</w>
開 城</w>
変 動</w>
キャ ラ
d c</w>
秘书 官</w>
2. 5</w>
案 内</w>
一 言</w>
ロ ビー</w>
オ ・
父 さん</w>
水 原</w>
き ち
m v
女 生</w>
テ ニス</w>
ス パ
尽 量</w>
低 く</w>
爆 发</w>
ク ス
附 图</w>
放 大</w>
州 市</w>
会 面</w>
加 重</w>
地 理</w>
不 仅仅</w>
ボラン ティア</w>
いつ か</w>
向か う</w>
リ モ
マ ネ
指 名</w>
匹 配</w>
伊 斯
グ リーン</w>
取 ら</w>
美 术</w>
タバ コ</w>
部 位</w>
激 しく</w>
依 靠</w>
み な
買 う</w>
ミ ュー
ファ ンド</w>
1 28</w>
笑 声</w>
做 到</w>
外 面</w>
消 耗</w>
帰 る</w>
南 方</w>
中 东</w>
维 护</w>
管 制</w>
妹 妹</w>
优 选</w>
発 電</w>
信 心</w>
一 行</w>
引 退</w>
ギ ュ</w>
替 代</w>
乘 客</w>
东 北</w>
妍 兒</w>
シンガ ポール</w>
クリ スマ
看 法</w>
ソ ・
联 络</w>
人 文</w>
きち んと</w>
回 数</w>
13 .
実 務</w>
4 20</w>
本 书</w>
ソフ ト</w>
那 天</w>
始 める</w>
こ の
通 話</w>
迎 える</w>
鼓 励</w>
比 亚</w>
タ クシー</w>
心 臓</w>
又 是</w>
ブロー ド
ケー ブル</w>
見 解</w>
楽し む</w>
机 器
叫 做</w>
发 售</w>
特 网</w>
因 特网</w>
加 密</w>
a g
富 士
安 理会</w>
变 焦</w>
引 い</w>
富 士</w>
专 辑</w>
寄 せ</w>
小 区</w>
街 道</w>
条 項</w>
征 收</w>
わ が
特 点</w>
残 る</w>
や く</w>
夫 妻</w>
条 约</w>
そ んなに</w>
遺 伝
令 状</w>
遺伝 子</w>
た かっ</w>
是 非</w>
有 助于</w>
呼 叫</w>
勝 負</w>
出 入</w>
竟 然</w>
第 一位</w>
沟 通</w>
m d</w>
称 作</w>
中 部</w>
ボ ード</w>
およ そ</w>
kt f</w>
遭 遇</w>
统 一部</w>
示 意图</w>
書 か</w>
大 地</w>
眼 镜</w>
初 中</w>
両 方</w>
明る い</w>
日 曜日</w>
化 粧</w>
5 0
演 算</w>
当事 者</w>
つ か
佐 藤</w>
リー ダー</w>
ト ー
9 000</w>
右 手</w>
大 楼</w>
著 作</w>
健 全</w>
ダ ン</w>
もた らす</w>
西 方</w>
原 文</w>
兴 奋</w>
中 学生</w>
スキャ ン</w>
不 住</w>
谈 话</w>
会 计</w>
得 知</w>
会 场</w>
将 军</w>
まっ たく</w>
さ せ</w>
剩 余</w>
正 直</w>
文 献</w>
亲 信</w>
k t</w>
アナ ログ</w>
读 者</w>
流 入</w>
实 践</w>
入 口</w>
领 土</w>
某 种</w>
数 値</w>
讲 述</w>
人 当たり</w>
影 响力</w>
形 态</w>
s 6
强 硬</w>
オー ディ
基 因</w>
回 収</w>
t x</w>
強 硬</w>
年 底</w>
考 生</w>
ト イ
199 2</w>
直 前</w>
人 群</w>
高 中生</w>
纸 张</w>
u t</w>
込 め</w>
199 3</w>
信 念</w>
殺 害</w>
欧 盟</w>
素晴 らしい</w>
叫 ん</w>
聚 会</w>
无 关</w>
含 み</w>
2 3
確 か</w>
烦 恼</w>
故 乡</w>
商 人</w>
可 決</w>
情 形</w>
パ ス
通 信
奥 林
ング ・
海 水</w>
t 2</w>
m hz</w>
过 度</w>
测 器</w>
基本 上</w>
部 材</w>
明 け</w>
私 人</w>
智 能</w>
书 籍</w>
选 赛</w>
调 査</w>
握 手</w>
コンサ ート</w>
在 下</w>
テキ スト</w>
金 炳
迷 惑</w>
肌 肉</w>
プレ ー
配 信</w>
指 挥
招 聘</w>
可 用</w>
预 选赛</w>
ス ポ
勝 ち</w>
阿拉 伯</w>
狙 っ</w>
损 害</w>
強 度</w>
三星 队</w>
d a</w>
电 源</w>
水 泳</w>
ギ ャ
ア ル</w>
约 定</w>
通 商
停 滞</w>
交 涉</w>
ロ ボ
道 德</w>
基づ く</w>
s 2</w>
l 1</w>
通 报</w>
证 实</w>
驾 驶</w>
顾 问</w>
戻 り</w>
取り 上げ</w>
不 得</w>
ヤ ー</w>
通商 部</w>
台 风</w>
代 价</w>
机器 人</w>
学 ん</w>
不 但</w>
殺 人</w>
复 位</w>
司 机</w>
赢 得</w>
有 用</w>
公 职</w>
ジ ャ</w>
40 1</w>
訴 え</w>
イ ー
中 東</w>
キャラ クター</w>
利 害</w>
准 确</w>
l a</w>
終 わる</w>
2 4
6 a</w>
语 音</w>
教 員</w>
回 り</w>
说 明
满 意</w>
入 り
シ ク</w>
候 补</w>
矩 阵</w>
照 射</w>
見 れ</w>
14 .
考え 方</w>
徹 底
徹底 的</w>
完 璧</w>
愤 怒</w>
这 儿</w>
说 服</w>
誤 っ</w>
及 其</w>
電 源</w>
リア ル</w>
遠 隔</w>
身 高</w>
妇 女</w>
墨 西
清 算</w>
楽し ん</w>
イス ラ
如 同</w>
不 振</w>
下 位</w>
それ でも</w>
文 本</w>
幻 想</w>
字 段</w>
字 幕</w>
区 間</w>
低 減</w>
スタ ッ
離 婚</w>
陥 っ</w>
原 料</w>
算 是</w>
口 号</w>
人 類</w>
2 5%</w>
循 環</w>
8 0
决 议</w>
登 录</w>
偏 移</w>
え ず</w>
造 船</w>
至 于</w>
読み 取り</w>
救 援</w>
モ ー
チャンピ オン</w>
先 日</w>
m b
朴 世
引き 下げ</w>
中 区</w>
悲 伤</w>
大 好き</w>
19 70</w>
民 心</w>
う ん</w>
队 长</w>
温 室</w>
版 本</w>
江 户</w>
常 常</w>
解 调</w>
到 处</w>
亡く なっ</w>
眼 泪</w>
チ ケット</w>
ご 飯</w>
打 っ</w>
定 着</w>
ア ン・
送 到</w>
增 多</w>
スタ ン
放 大
メ キシ
直 交</w>
スト ライ
罚 款</w>
急 剧</w>
売 り</w>
ル ト
ぶ ん</w>
企 业
d d</w>
每 周</w>
新 任</w>
懸 案</w>
s a</w>
進 める</w>
科 学家</w>
火 山</w>
ミュー ジ
スタッ フ</w>
饭 店</w>
路 線</w>
网 民</w>
发 放</w>
很 久</w>
電 車</w>
教 材</w>
スト ン</w>
专 利</w>
残 酷</w>
首 发</w>
览 会</w>
住 む</w>
音 频</w>
消 化</w>
驚 い</w>
投 機</w>
役 所</w>
区 别</w>
铁 道</w>
盛り 込ん</w>
留 在</w>
出 于</w>
s ho
视 线</w>
差 别</w>
仕 方</w>
装 备</w>
スピ ー
肚 子</w>
支払 い</w>
左 手</w>
再 会</w>
温 柔</w>
无 视</w>
营 养</w>
科 技</w>
天 安</w>
しか も</w>
復 元</w>
北 東</w>
元 素</w>
商 業</w>
这 项</w>
得 意</w>
同 年</w>
注 入</w>
恩 恵</w>
か ら
通 用</w>
共 同
プリ ント</w>
な ん</w>
鍾 路</w>
図 面</w>
だ って</w>
c j</w>
平 成</w>
解 码器</w>
聞こ え</w>
摘 発</w>
人 和</w>
対 外</w>
s 5
外 相</w>
韩国 和</w>
治 安</w>
思い 出</w>
军 人</w>
メキシ コ</w>
m p</w>
说 出</w>
为 期</w>
何 时</w>
件 数</w>
的 确</w>
人 道</w>
2 2
タ ル
陆 军</w>
課 税</w>
一 系列</w>
ビ ン</w>
黑 暗</w>
中 将</w>
n ll</w>
频 繁</w>
月 初</w>
告 白</w>
無 料</w>
教育 厅</w>
失 踪</w>
图 解</w>
上 る</w>
道 徳</w>
先 立ち</w>
債 務</w>
黒 い</w>
星 期</w>
s s</w>
局 势</w>
m b</w>
本 国</w>
奶 奶</w>
弱 い</w>
シ ャ</w>
ク ル</w>
奥林 匹
切 る</w>
ぱ り</w>
主 教</w>
2 14</w>
预 算
歩 く</w>
名 古
ホワイ ト
セ リ</w>
か え
能 量</w>
日 后</w>
人 中</w>
ラ ジオ</w>
以 往</w>
违 法</w>
思い 出し</w>
喝 酒</w>
ド ウ</w>
手 順</w>
に て</w>
そう いう</w>
1 2.
関連 付け</w>
峨 山</w>
位 居</w>
一 帯</w>
ロボ ット</w>
面 積</w>
没 什么</w>
自 从</w>
正 交</w>
函 数</w>
作 り
换 器</w>
今 季</w>
リー ダー
撮 っ</w>
与 其</w>
下 げる</w>
波 紋</w>
入 試</w>
滤 波</w>
渐 渐</w>
在 家</w>
それ で</w>
20 7</w>
缩 短</w>
役 員</w>
爆 弾</w>
カ ス</w>
立 てる</w>
包 装</w>
ク ー
遺 産</w>
彩 色</w>
对 决</w>
きっ かけ</w>
癌 症</w>
グ ン
感 想</w>
全 教</w>
レン ジ</w>
c g</w>
装 備</w>
お 父さん</w>
视 差</w>
右 側</w>
ニ ック</w>
単 純</w>
ケ ート</w>
キャン プ</w>
隐 藏</w>
く に</w>
申 报</w>
投 机</w>
15 .
筋 肉</w>
安 い</w>
下 属</w>
送 金</w>
现 代
グ メント</w>
基 盤</w>
トイ レ</w>
策 略</w>
理 性</w>
感 冒</w>
会 合</w>
え え</w>
忧 虑</w>
ジ ー
ゴ ン</w>
2 500</w>
預 金</w>
日 前</w>
成 就</w>
宣 告</w>
初 次</w>
早 晨</w>
伊斯 兰</w>
間 違い</w>
更 に</w>
口 气</w>
ま せん</w>
o n</w>
联 邦</w>
框 架</w>
を通 して</w>
惊 讶</w>
左 側</w>
p e
キョンギ ド・
起 亚</w>
水 面</w>
チ ェ</w>
ア リ
高 校生</w>
积 累</w>
浓 度</w>
东 北
コ メント</w>
渡 さ</w>
拜 托</w>
富 裕</w>
大 陸</w>
发射 机</w>
入 手</w>
リーダー シップ</w>
湖 南</w>
放 射</w>
大 リーグ</w>
中 央
違 法</w>
足 够</w>
般 的</w>
先 頭</w>
名古 屋</w>
お ら</w>
认 定</w>
頻 繁</w>
汚 染</w>
宛 先</w>
卫 队</w>
ゅ う</w>
破 っ</w>
检 方</w>
と る</w>
百 分
击 败</w>
ヒョン デ</w>
スイ ス</w>
クリスマ ス</w>
賠 償</w>
某 个</w>
已 有</w>
电 平</w>
io c</w>
閉 鎖</w>
情 景</w>
古 典</w>
移 行</w>
婴 儿</w>
ロー ン</w>
s u
決 まっ</w>
ワ ールド
ど おり</w>
贫 困</w>
干 细胞</w>
夕 食</w>
付 近</w>
ブ ーム</w>
ろう そく</w>
講 義</w>
劇 場</w>
制 服</w>
s h
1 100</w>
阵 营</w>
貧 困</w>
硬 盘</w>
插 入</w>
左 侧</w>
す み
パイ ロット</w>
賃 貸</w>
お 茶</w>
打 点</w>
収 支</w>
け れ
究 明</w>
異 常</w>
嫌疑 人</w>
ワ ン</w>
農 村</w>
習 慣</w>
懲 役</w>
変 形</w>
主 管</w>
模 様</w>
挑 発</w>
人 均</w>
天 下</w>
咖 啡
伦 理</w>
収 め</w>
3 30</w>
専 门</w>
墨西 哥</w>
2 16</w>
吸 収</w>
入 射</w>
神 秘</w>
濃 度</w>
奥林匹 克</w>
と り</w>
い たし</w>
16 .
点 头</w>
延 世</w>
勇 気</w>
も とも
もとも と</w>
妨 害</w>
庆 祝</w>
江 戸</w>
尋 ね</w>
振 兴</w>
东北 亚</w>
コ ム</w>
ac t
艺 人</w>
特 色</w>
沉 默</w>
手 中</w>
シー バ</w>
血 管</w>
あ きら
豊 富</w>
10 a</w>
团 长</w>
浦 项</w>
图 为</w>
下 半年</w>
接 待</w>
im f</w>
孤 立</w>
大 海</w>
駆 け
関 数</w>
力 于</w>
变 动</w>
ン ク</w>
お じ
郑 梦
週 末</w>
構 想</w>
机 械</w>
朝 食</w>
切り 替え</w>
出 産</w>
脸 部</w>
演 唱
梨 花</w>
更 是</w>
政 部</w>
199 1</w>
遠 く</w>
覆 盖</w>
美 好</w>
前 来</w>
刚 山</w>
之 下</w>
同 事</w>
ra m
恶 劣</w>
相 関</w>
ク レジ
锁 定</w>
药 物</w>
时 间
ファ ッション</w>
テー プ</w>
ショ ー</w>
倫 理</w>
マッ ピング</w>
u e
懇 談</w>
オ ペ
ma p</w>
缓 解</w>
有 害</w>
メ ジャー</w>
ゼ ロ</w>
スケ ート</w>
そ ろ
收 支</w>
ス キ
連 携</w>
権 者</w>
有 権者</w>
図 書
3 12</w>
谈 会</w>
法 的</w>
を めぐ
をめぐ って</w>
タ ッチ
アン ケート</w>
30 5</w>
図書 館</w>
此 事</w>
外 科</w>
脱 出</w>
特 区</w>
リ スク</w>
舞 蹈</w>
祖 母</w>
扮 演</w>
役 立つ</w>
装 饰</w>
给 出</w>
同 行</w>
原 材料</w>
a c</w>
笔 者</w>
ブロード キャスト</w>
手 伝
大 戦</w>
s l
致 力于</w>
婚 姻</w>
た だし</w>
進 展</w>
蚕 室</w>
安 静</w>
新 規</w>
优 惠</w>
許 し</w>
吸 收</w>
前 半</w>
领导 层</w>
失 点</w>
偿 还</w>
1 17</w>
mf p
演 说</w>
き る</w>
转 会</w>
火 星</w>
最 悪</w>
引 擎</w>
报 社</w>
司令 部</w>
1 5%</w>
へ ん</w>
ひど い</w>
視 差</w>
招 生</w>
党 代表</w>
精 密</w>
战 术</w>
卫 生</w>
斗 山</w>
增 益</w>
两 者</w>
でき れ</w>
失 分</w>
過 ち</w>
速 い</w>
胜 负</w>
体 操</w>
乗 客</w>
fif a</w>
秘书 长</w>
真 剣</w>
参 拜</w>
ガ ン
技 能</w>
巨 额</w>
争 い</w>
テ ク</w>
主 权</w>
矢 量</w>
出 局</w>
s f
年 人</w>
去 过</w>
陸 軍</w>
挨 拶</w>
减 轻</w>
満 ち</w>
仮 想</w>
20 20</w>
飲 む</w>
美 术
对 抗</w>
上 空</w>
つなが る</w>
験 生</w>
标 志</w>
受 験生</w>
陸 上</w>
连 续
売 っ</w>
只 不过</w>
阵 容</w>
空 军</w>
国 语</w>
の 中</w>
面 包</w>
最 適</w>
金 刚山</w>
试 験</w>
現 れ</w>
野 生</w>
エ ッジ</w>
追 究</w>
病 人</w>
先 輩</w>
昼 食</w>
广 濑</w>
预 备</w>
起 亜</w>
大 战</w>
較 的</w>
比 較的</w>
妥 协</w>
人 的</w>
算 法</w>
厉 害</w>
一 会儿</w>
観 測</w>
補 完</w>
股 市</w>
笑 顔</w>
回 線</w>
ス ター
科 长</w>
格 差</w>
フィリ ピン</w>
ア テ
捕 捉</w>
租 车</w>
深 度</w>
トン ネル</w>
ベ ッド</w>
a x</w>
a kb
话 说</w>
放大 器</w>
原 発</w>
や め</w>
粉 丝</w>
油 田</w>
每 当</w>
受け 取る</w>
あら ゆる</w>
赦 免</w>
ヘ リ
h t
寒 い</w>
人 选</w>
缴 纳</w>
悩 み</w>
d o
重 い</w>
美 女</w>
演唱 会</w>
添 付</w>
两 年</w>
隧 道</w>
まさ に</w>
告 知</w>
ストー リー</w>
耐 え</w>
百 姓</w>
新 生</w>
伸 び</w>
イ ス</w>
巴 士</w>
似 的</w>
中 期</w>
上 限</w>
すみ ません</w>
対 処</w>
疾 患</w>
最 善</w>
売 買</w>
イン ド
遠 征</w>
負 債</w>
行 き
疲 劳</w>
反 馈</w>
一 例</w>
自 国</w>
完 善</w>
ところ が</w>
虚 拟</w>
天 使</w>
国务 院</w>
どう いう</w>
正 如</w>
妨 碍</w>
加 以</w>
i r
警 備</w>
慣 れ</w>
昭 和</w>
co m</w>
や や</w>
调 度</w>
权 威</w>
ッ プル</w>
ジュ ン
解 体</w>
部 下</w>
出 会い</w>
伍 兹</w>
私 学</w>
固 有</w>
右 侧</w>
19 0</w>
高 于</w>
読 者</w>
果た す</w>
会 話</w>
フラ グ</w>
ウ ッズ</w>
その もの</w>
198 8</w>
差 不多</w>
勇 气</w>
入 院</w>
简 称</w>
守 护</w>
バー ジョン</w>
akb 48</w>
ハン ナラ</w>
権 威</w>
a s</w>
蓝 色</w>
希 腊</w>
en b</w>
政治 家</w>
徒 刑</w>
一 流</w>
パー トナー</w>
手 指</w>
ガ ソ
偶 像</w>
罰 金</w>
愿 望</w>
急 激</w>
学 历</w>
寻 求</w>
取り 出し</w>
淘 汰</w>
团 队</w>
哪 儿</w>
义 者</w>
搭 載</w>
創 造</w>
返 済</w>
植 民</w>
抜 け</w>
c t</w>
13 5</w>
读 书</w>
いた だけ</w>
雑 誌</w>
諮 問</w>
振 幅</w>
协 作</w>
バ イ</w>
背 后</w>
用 いる</w>
民 众</w>
阶 级</w>
间 谍</w>
员 国</w>
ラ リー</w>
ar s</w>
逃 避</w>
曲 线</w>
施 工</w>
借 金</w>
主 办</w>
アル ゴ
3 60</w>
調 べる</w>
商 务</w>
シ ル
198 7</w>
出 せ</w>
与 否</w>
转 换器</w>
同 志</w>
倒 れ</w>
使用 者</w>
陈 述</w>
蓄 積</w>
管理 部</w>
面 部</w>
草 案</w>
上 学</w>
s t</w>
as e
柔 道</w>
慰 安</w>
家 具</w>
决 议案</w>
アルゴ リズム</w>
ま ず
m m
阿 富
阿富 汗</w>
发 光</w>
ロッ パ</w>
よろ しく</w>
し ても</w>
贩 売</w>
失 礼</w>
划 分</w>
传 来</w>
起 床</w>
上 院</w>
シ フト</w>
特 使</w>
l an</w>
イス ラム</w>
十 年</w>
毎 月</w>
失 业</w>
ハード ディスク</w>
花 样</w>
柔 軟</w>
向 量</w>
独 占</w>
熟 悉</w>
災 害</w>
u l</w>
相 位</w>
寄 り</w>
下 り</w>
祖 父</w>
確 実</w>
書き 込み</w>
入 境</w>
ヨー ロッパ</w>
死 了</w>
核 电站</w>
抱 え</w>
下 半期</w>
上 演</w>
ろ し</w>
送 ら</w>
备 受</w>
也 好</w>
出 租车</w>
ノ ート</w>
バ ル
教育 庁</w>
客 様</w>
プ ト</w>
シン グル</w>
お 客様</w>
い いえ</w>
文化 財</w>
徐 々
徐々 に</w>
回 收</w>
目 光</w>
死 去</w>
有 罪</w>
奇 妙</w>
c s</w>
交通 部</w>
不 论</w>
转 向</w>
译 文</w>
无 线
巨 人</w>
プ ター</w>
生 じる</w>
水 分</w>
利 于</w>
ファ ー
コミュニ ケーション</w>
ご め
遮 断</w>
栽 培</w>
握 っ</w>
パ ワー</w>
余 地</w>
弱 点</w>
姓 名</w>
国务 卿</w>
东 京都</w>
菲 律
白 天</w>
摄 取</w>
通 行</w>
并 未</w>
短 信</w>
定 位</w>
复 原</w>
テ ク
14 2</w>
名 为</w>
ホ ン
武 士</w>
トリ ック</w>
プ ション</w>
挑 衅</w>
重 要性</w>
菲律 宾</w>
推 动</w>
e a</w>
逃 げ</w>
抜 い</w>
オフ セット</w>
な ら
泣 い</w>
演 じる</w>
巡 回</w>
规 制</w>
党 派</w>
观 测</w>
检 测器</w>
公 约</w>
慈 善</w>
リン トン</w>
一 昨日</w>
起 用</w>
す っかり</w>
赛 场</w>
组 长</w>
第 五</w>
大 大</w>
各 々</w>
瑞 士</w>
进 去</w>
分 开</w>
水 果</w>
必 然</w>
台 風</w>
オ フィ
l o</w>
1 300</w>
牛 奶</w>
平 民</w>
収 容</w>
共 感</w>
保 育</w>
水 中</w>
气 象
暑 い</w>
i b
生 死</w>
恐 怕</w>
上 课</w>
地 帯</w>
出 差</w>
警 部</w>
気 に
地方 自治体</w>
ヘ ッド</w>
進 行</w>
悲 しみ</w>
認 める</w>
有 线</w>
无线 电</w>
ま あ</w>
频 道</w>
葡 萄
以 色
た っ
く ん</w>
課 程</w>
誤 り</w>
离 散</w>
截 至</w>
ム ン・
ペ ン</w>
10 0
魔 法</w>
放 心</w>
尽 可能</w>
转 让</w>
觉 到</w>
简 直</w>
感 觉到</w>
以色 列</w>
ベ ルト</w>
药 品</w>
生 气</w>
度 目</w>
世 の中</w>
喜 爱</w>
南 韩</w>
4 30</w>
滑 冰</w>
試 み</w>
至 る</w>
満 た
朝 鮮
威 力</w>
举 动</w>
蜡 烛</w>
复 制</w>
参 謀</w>
东 海</w>
イスラ エル</w>
菓 子</w>
王 朝</w>
仿 佛</w>
コ ート</w>
萎 缩</w>
実 績</w>
ギリ シャ</w>
高 里</w>
税 收</w>
充 电</w>
ギリ ス</w>
毫 不</w>
赞 助</w>
受 験</w>
重 複</w>
返 還</w>
遂 げ</w>
这 家</w>
苏 联</w>
百 货</w>
4 50</w>
遺 族</w>
観 点</w>
白 宫</w>
主 义者</w>
遺 体</w>
わ ざ
じゃ あ</w>
祝 福</w>
g 20</w>
纠 正</w>
拜 访</w>
スパ イ</w>
y o
領 土</w>
问 卷</w>
on e</w>
发 动</w>
損 害</w>
超 出</w>
实 时</w>
激 励</w>
歌 っ</w>
撤 退</w>
平 台</w>
助 威</w>
ズ ーム</w>
r x</w>
空 軍</w>
現 状</w>
果 物</w>
閣 僚</w>
法 定</w>
欣 赏</w>
证 书</w>
大 雨</w>
関 税</w>
几 点</w>
一 句
バ ラ
饮 料</w>
宾 馆</w>
一 連</w>
ド ー
違 憲</w>
传 说</w>
エ ット</w>
イ ギリス</w>
r gb</w>
職 務</w>
家 伙</w>
ク ション</w>
エ ー
钢 琴</w>
理 所
困 っ</w>
どう ぞ</w>
比 分</w>
掌 声</w>
妊 娠</w>
シ ナ
エ レ
た め
s 3</w>
捐 赠</w>
干 净</w>
山 本</w>
密 切</w>
会 場</w>
一句 话</w>
ジョン イル</w>
c n</w>
描 か</w>
代 理
税 务</w>
探 す</w>
助 ける</w>
フォ ン</w>
研究 生</w>
格 兰</w>
i e</w>
网 关</w>
测 定</w>
房 屋</w>
多 大</w>
一 大</w>
赤 ちゃん</w>
舒 服</w>
更 高</w>
往 往</w>
増 幅</w>
同 紙</w>
人 为</w>
イ ム・
値 段</w>
个 别</w>
40 8</w>
从 未</w>
局 部</w>
規 則</w>
密 码</w>
守 り</w>
重 ね</w>
告 発</w>
す る
総 理</w>
炳 賢</w>
雅 典</w>
看 板</w>
概 要</w>
李 海</w>
企业 家</w>
ヘ ル
カ 月</w>
20 16</w>
送 受信</w>
绝 不</w>
模 糊</w>
忙 しく</w>
経 っ</w>
移 籍</w>
除 く</w>
百分 点</w>
散 步</w>
不 定</w>
ス ウェー
もっ とも</w>
おい しい</w>
构 想</w>
中 年</w>
15 2</w>
金 剛
那 家</w>
よう やく</w>
标 签</w>
ナ ン
金剛 山</w>
戻 す</w>
名 人</w>
及 ば</w>
判 别</w>
出 かけ</w>
ワールド カップ</w>
スウェー デン</w>
阻 碍</w>
设 计
振 興</w>
テ ン</w>
尼 斯</w>
並 ん</w>
间 接</w>
通 道</w>
摩 擦</w>
フィ ード
振 っ</w>
問 わ</w>
乔 治</w>
芯 片</w>
脱 落</w>
ギ ョン</w>
集 計</w>
198 9</w>
战 士</w>
学 费</w>
アテ ネ</w>
阵 列</w>
税 制</w>
早 けれ</w>
バー ディー</w>
もう 少し</w>
前 述</w>
大 胆</w>
国 王</w>
薬 品</w>
松 本</w>
妥 当</w>
光 盘</w>
第二 个</w>
储 蓄</w>
精 度</w>
将 要</w>
突 き
推 算</w>
強 行</w>
フ ェ</w>
香 り</w>
サ ラ
ど んなに</w>
放 入</w>
外 语</w>
高 かっ</w>
现 政府</w>
点 検</w>
残 疾
男 孩</w>
抱 い</w>
我 家</w>
行 李</w>
19 .
産 物</w>
も なく</w>
2 60</w>
职 工</w>
无 效</w>
新 設</w>
复 印</w>
u n</w>
掀 起</w>
ク リントン</w>
u t
c dma</w>
訂 正</w>
旅 馆</w>
b e
16 2</w>
に かけ
にかけ て</w>
す ば
あきら め</w>
残疾 人</w>
i v
風 景</w>
支 撑</w>
优 点</w>
シ グ
粒 子</w>
签 证</w>
李 会
尖 端</w>
回 し</w>
ポ リ
食 用</w>
工 学</w>
后 续</w>
ピア ノ</w>
グ リ
远 远</w>
あ げる</w>
驚 く</w>
邮 便</w>
点 半</w>
選 出</w>
本 届</w>
精 力</w>
神 话</w>
奇 迹</w>
j r</w>
长 大</w>
怎么 办</w>
さっ き</w>
质 问</w>
美 味
编 号</w>
经济 学</w>
何 人</w>
亲 切</w>
前 例</w>
崩 溃</w>
午 后</w>
修 学</w>
ピ ーク</w>
歩 き</w>
战 后</w>
细 节</w>
示 唆</w>
3 40</w>
訪 朝</w>
指 标</w>
会 え</w>
フィード バック</w>
时 机</w>
抑 え</w>
同 士</w>
反 面</w>
バ ート</w>
2 11</w>
极 为</w>
最 为</w>
幼 い</w>
列 入</w>
久 し
接 入
起こ る</w>
落ち る</w>
泄 露</w>
気 象
指 向</w>
受 理</w>
创 立</w>
构 筑</w>
惯 例</w>
平 凡</w>
争 夺</w>
ま ら</w>
m e
18 .
九 州</w>
通 算</w>
幸 い</w>
火 车</w>
出 勤</w>
一 覧</w>
デ コーダ</w>
可 怕</w>
チ ュー
c 2</w>
节 约</w>
存 器</w>
ム ン
ア シ
ァ ン</w>
聘 用</w>
冲 绳</w>
レ ース</w>
ライ バル</w>
ぶ っ</w>
進 学</w>
录 音</w>
広 瀬</w>
大 于</w>
3 a</w>
13 6</w>
顺 便</w>
连续 剧</w>
罗 马</w>
次 長</w>
手 续</w>
シャ ツ</w>
c cd</w>
悩 ん</w>
主 动</w>
2 70</w>
遮 光</w>
立 た</w>
珍 しい</w>
問 い
ハ ッ
新 宿</w>
乐 观</w>
バ レ
预 期</w>
末 期</w>
模 仿</w>
宽 度</w>
なん と</w>
繁 荣</w>
总 之</w>
コント ロール</w>
それ とも</w>
永 久</w>
学 术</w>
公 立</w>
侵 入</w>
丧 失</w>
ビ ザ</w>
30 3</w>
美 人</w>
志 愿
幕 府</w>
守 ら</w>
吃 惊</w>
付 き</w>
品 质</w>
家 中</w>
信 仰</w>
保 险
サ ウ
た っ</w>
犯 し</w>
新 鲜</w>
ゴ ミ</w>
ホ ン・
慰 安
慰安 妇</w>
去 っ</w>
充 電</w>
朴世 利</w>
ファ ン・
b b
违 宪</w>
苦 恼</w>
携 带</w>
外 界</w>
在 意</w>
ピョン ヤン</w>
放 っ</w>
ホワイト ハウス</w>
5 04</w>
隠 れ</w>
连 载</w>
運 命</w>
投 票
困 惑</w>
ダ ン
瑞 典</w>
场 上</w>
ヘリ コ
17 .
n fc</w>
情 勢</w>
处 在</w>
分 担</w>
側 面</w>
スライ ド</w>
a e</w>
企 图</w>
触 れ</w>
肥 満</w>
社 会
正 好</w>
克 里
伝 達</w>
どう しても</w>
2 5.
清 溪</w>
极 端</w>
单 词</w>
一 杯</w>
コ リ
運 行</w>
直 す</w>
热 潮</w>
寄 存器</w>
其 余</w>
节 日</w>
散 歩</w>
携 式</w>
挿 入</w>
便 携式</w>
ジャ ー
日 夜</w>
出 生
ソ ー
c mos</w>
奈 良</w>
ショ ット</w>
纠 纷</w>
偽 造</w>
结 算</w>
带 领</w>
やす く</w>
放 映</w>
周 刊</w>
滞 留</w>
オーディ オ</w>
な る
6 02</w>
19 60</w>
相 場</w>
明る く</w>
季 節</w>
下 院</w>
脆 弱</w>
听 取</w>
う れ
重 叠</w>
趣 旨</w>
花 火</w>
讲 话</w>
全 都</w>
会 馆</w>
めぐ り</w>
寂 寞</w>
提 及</w>
ロ サン
李会 昌</w>
这 份</w>
文 档</w>
クォ ン・
た ん</w>
お 客</w>
h e
箭 头</w>
校 長</w>
人 形</w>
アウ ト</w>
失 う</w>
入り 口</w>
i l
终 止</w>
正 之
正之 风</w>
分 歧</w>
付 出</w>
不 正之风</w>
プ リ</w>
グ ランド</w>
グ ァン
r c</w>
離 散</w>
打 ち</w>
增 大</w>
分 享</w>
ヘリコ プター</w>
那 儿</w>
身 为</w>
微 妙</w>
学 歴</w>
パ レ
轻 易</w>
自 立</w>
用 語</w>
无 人</w>
收 益</w>
合わ せる</w>
龍 山</w>
超 市</w>
使 い
主 场</w>
h arq</w>
愛 し</w>
图 标</w>
取り 引き</w>
不 对</w>
请 问</w>
第 一
业 余</w>
街 头</w>
禹 锡</w>
白 人</w>
対 抗</w>
ー ブ</w>
節 約</w>
ベ ー
フィ ギュ
ト ・
ひど く</w>
本 紙</w>
务 省</w>
黄 禹锡</w>
采 样</w>
近 日</w>
遠 い</w>
本 土</w>
必 需</w>
実 態</w>
ット カード</w>
ダウン ロード</w>
k e
那 边</w>
朴 泰
好 几</w>
主 妇</w>
7 02</w>
东 部</w>
靠 近</w>
福 利
徹 底</w>
国 际
上 方</w>
w .
軍 人</w>
もら え</w>
除 外</w>
较 多</w>
赛 事</w>
r ds</w>
返 さ</w>
矣 島</w>
午 餐</w>
世 話</w>
誘 導</w>
称 之
称之 为</w>
d l</w>
经 费</w>
グ ラン
2 22</w>
高句 丽</w>
稼 動</w>
区 间</w>
个 子</w>
クレジ ットカード</w>
记 者
引き 上げる</w>
合 约</w>
伪 造</w>
明 示</w>
新 しく</w>
崔 熙燮</w>
それ ほど</w>
约 会</w>
泳 三</w>
改 为</w>
平 均
スク リーン</w>
郑 东
分 发</w>
任 何人</w>
ヴ ィ
金 日成</w>
突 入</w>
种 子</w>
加 快</w>
正 しく</w>
存 款</w>
ま れ</w>
こ ん
地 带</w>
促 し</w>
面 目</w>
開 設</w>
订 单</w>
电 信</w>
高句 麗</w>
行 的</w>
理所 当然</w>
女子 大</w>
业 率</w>
民 意</w>
描 く</w>
後 述</w>
命 名</w>
v s
l sp</w>
樹 立</w>
レ ッ
エ ラー</w>
わが 国</w>
それ では</w>
就 業</w>
先 立っ</w>
元 老</w>
シ ック</w>
待 つ</w>
将 軍</w>
区 的</w>
ペ ン
クス マン</w>
s ip</w>
キョン サン
調 達</w>
分 泌</w>
体育 馆</w>
付 い</w>
玩 具</w>
改 憲</w>
中 途</w>
スポー クスマン</w>
打 数</w>
定 員</w>
キャン セル</w>
わ れ
锦 涛</w>
矢 印</w>
ww w.
新 世界</w>
指 標</w>
土 耳
镇 压</w>
目指 し</w>
渡 っ</w>
汇 款</w>
次 官
次官 補</w>
忠 告</w>
受け 取り</w>
匿 名</w>
法 廷</w>
年 纪</w>
先 前</w>
疼 痛</w>
偉 大</w>
トラン シーバ</w>
返 还</w>
正 义</w>
委 会</w>
レイ ヤ</w>
n ba</w>
时 序</w>
实 体</w>
头 部</w>
反 論</w>
ユー ロ</w>
5 20</w>
ホ ル
p 5</w>
n ack</w>
4 b</w>
成 年</w>
広 げる</w>
对 立</w>
かわ いい</w>
长 达</w>
发射 器</w>
理事 会</w>
整 備</w>
心 脏</w>
基 板</w>
华 丽</w>
出 張</w>
講 演</w>
置 く</w>
灾 难</w>
海 底</w>
洪 水</w>
幸 运</w>
市 道</w>
経 緯</w>
前 端</w>
座 位</w>
共 存</w>
不 管
20 9</w>
窗 户</w>
ユ ン
オ プション</w>
われ われ</w>
打ち 上げ</w>
公 示</w>
不管 是</w>
進 み</w>
确 立</w>
先 行</w>
マイ クロ
暗 い</w>
及 时</w>
カウン タ</w>
2 7
戦 力</w>
周 永</w>
合 併</w>
克 斯</w>
久し ぶり</w>
キ ム
ア マ
1 b</w>
应 答</w>
创 业</w>
出 资</w>
ロ ケット</w>
运动 会</w>
厚 生</w>
コ メ</w>
あ ふ
随 之</w>
陆 续</w>
肥 胖</w>
磁 気</w>
め で
順 次</w>
因 子</w>
利 子</w>
短 縮</w>
痛 い</w>
掛 け</w>
多 媒体</w>
升 机</w>
便 是</w>
ア パート</w>
誤 解</w>
相 遇</w>
直 升机</w>
債 券</w>
一 来</w>
デ ート</w>
正 常
果 然</w>
无 限</w>
ミ ー</w>
ば あ
a y
非 正式</w>
智 慧</w>
怪 我</w>
参 加
过 多</w>
计 数</w>
爷 爷</w>
プラ ット
たい へん</w>
活 発</w>
小 孩</w>
募 金</w>
ワ ン
は や</w>
議 席</w>
p 4</w>
2 b</w>
動 的</w>
克 力</w>
会 晤</w>
乐 园</w>
ね る</w>
ち ゃ</w>
视 率</w>
替 える</w>
收 视率</w>
出 荷</w>
三 维</w>
官 方</w>
太 极</w>
大 致</w>
勧 め</w>
主 権</w>
トル コ</w>
ダイ エット</w>
カ ラ
送 给</w>
ぶ つ
遗 传</w>
置 か</w>
枠 組み</w>
收 回</w>
召 集</w>
a i</w>
销 量</w>
福 田</w>
団 長</w>
冻 结</w>
会 館</w>
とど まっ</w>
と に
学 び</w>
ソ 連</w>
降 る</w>
掃 除</w>
土 台</w>
摂 取</w>
永 遠</w>
整 数</w>
押 収</w>
7 10</w>
高 涨</w>
迫 っ</w>
拉 里</w>
is t</w>
出 会っ</w>
余 裕</w>
ブ ログ</w>
ファ ー</w>
ヒ ット</w>
d b</w>
诺 贝尔</w>
ロサン ゼ
や し</w>
とに かく</w>
望 ましい</w>
巧 克力</w>
典 礼</w>
上 回る</w>
问 道</w>
進 化</w>
动 漫</w>
チ ョ</w>
視 線</w>
更 改</w>
サ ス</w>
6 10</w>
忘 了</w>
富士 山</w>
图 案</w>
国 策</w>
レジ スタ</w>
k cc</w>
我 慢</w>
振 る
豆 腐</w>
可 谓</w>
発 掘</w>
タ ミン</w>
g o</w>
看 作</w>
属 する</w>
ハ リ
すご い</w>
调查 部</w>
浦 項</w>
本 质</w>
大 門</w>
切 手</w>
ia ea</w>
14 4</w>
减 肥</w>
s d</w>
勝 っ</w>
约 束</w>
火 箭</w>
出 版
产 党</w>
乗 る</w>
プリン タ</w>
輸 送</w>
別 れ</w>
s 8
渡 す</w>
李 相
打ち 出し</w>
其 后</w>
h o</w>
出 資</w>
適 し</w>
辞 退</w>
购 入</w>
处 分</w>
イン デ
わ かる</w>
み な</w>
金 东
楽 しく</w>
手 が
キ スタン</w>
误 差</w>
百 万</w>
博 客</w>
ウェ ブ
参 拝</w>
ポ ジ
チョ ル
20 .
待 機</w>
共 识</w>
類 似</w>
宿 題</w>
出 门</w>
简 単</w>
パー ティー</w>
越 える</w>
变 为</w>
三 天</w>
黒 字</w>
太 極</w>
右 派</w>
勢 い</w>
r f
q q</w>
迟 到</w>
关 税</w>
记 住</w>
圧 迫</w>
ノー ベル</w>
矣 岛</w>
漏 れ</w>
房 价</w>
妖 怪</w>
s ars</w>
连 胜</w>
税 務</w>
男 生</w>
汝 矣岛</w>
気象 庁</w>
戦 術</w>
莫 大</w>
申 请
法 制</w>
改 良</w>
チャンピ オン
スマ ート</w>
泣 き</w>
出 入り</w>
たと え</w>
晚 饭</w>
悲 しい</w>
不 了</w>
こ と
眺 め</w>
由 来</w>
次 いで</w>
动 器</w>
間 接</w>
重 量</w>
足 球队</w>
早 已</w>
ぼ く</w>
け ん
懲 戒</w>
好 转</w>
再 也</w>
ボ ストン</w>
育 てる</w>
水 道</w>
待 ち
i f</w>
免 疫</w>
フォー カス</w>
ア レイ</w>
背 面</w>
反 転</w>
遂 行</w>
精 彩</w>
模 索</w>
朝 鲜
士 顿</w>
ド リ
商 量</w>
ボ ギー</w>
ス ロー
随 意</w>
自動 的</w>
生 态</w>
志 願</w>
アラ ブ</w>
萎 縮</w>
つ か</w>
波 士顿</w>
ビ ジョン</w>
殿 堂</w>
单 个</w>
無 効</w>
2 6
此 类</w>
千 万</w>
郑东 泳</w>
监 视
換 え</w>
拉 开</w>
付 与</w>
乐 队</w>
コ リア</w>
诗 人</w>
引 く</w>
小 于</w>
唱 片</w>
亏 损</w>
选举 法</w>
形 势</w>
r b</w>
起 きる</w>
编 码器</w>
没 关系</w>
交 互</w>
b 1</w>
选 民</w>
监视 器</w>
果た して</w>
世界 中</w>
视 觉</w>
航 空
好 处</w>
下 文</w>
全 般</w>
田 径</w>
問 う</w>
即 可</w>
フィ ック</w>
ネ シア</w>
毫 米</w>
宗 旨</w>
克 萨
作 曲</w>
ペ ット</w>
ッ ケ
鼻 子</w>
进 来</w>
予 告</w>
警察 官</w>
英 文</w>
呼 び</w>
取 决
取决 于</w>
下 滑</w>
s m</w>
接入 点</w>
护 士</w>
姿 势</w>
m i
聞 か</w>
单 方面</w>
作 物</w>
众 议院</w>
オー バー</w>
驱 动器</w>
神 話</w>
体 温</w>
ビ タミン</w>
自 行</w>
胡 锦涛</w>
仲 間</w>
リ オ</w>
マー ケ
び っくり</w>
意 愿</w>
四 川</w>
关 照</w>
フィギュ ア</w>
挫 折</w>
同 等</w>
航 班</w>
印 度
アー ティ
ア レ
mv p</w>
这 场</w>
潜 水</w>
无 数</w>
夜 晚</w>
圣 诞
受 灾</w>
包 容</w>
ぜ ひ</w>
v o
a b
国 交</w>
化 身</w>
釈 放</w>
社 内</w>
清 水</w>
所 長</w>
心 から</w>
除 此</w>
草 薙</w>
大 雪</w>
名 目</w>
取 締
勧 告</w>
ウ ク</w>
連 結</w>
右 翼</w>
全 球
ディ ア</w>
あ たし</w>
坚 决</w>
つ の</w>
ク シ
c o</w>
看 不到</w>
从 来</w>
三 角</w>
アイ デン
复 活</w>
2 3.
深 入</w>
削 减</w>
公 団</w>
詳 しい</w>
最高 裁</w>
婚 礼</w>
プレ イ
顽 张</w>
法 学</w>
リ アル
防 卫</w>
a a</w>
行な わ</w>
苦し ん</w>
统 计
マイ ナス</w>
セ ント</w>
2 8
检 索</w>
所 长</w>
一 眼</w>
バ ラ</w>
し ょ
果 川</w>
最 早</w>
东 方</w>
デ ュ
2 2.
麦 克
音 量</w>
昇 進</w>
唱 歌</w>
ピ ー
a k
4 12</w>
意 欲</w>
面 倒</w>
越 过</w>
纤 维</w>
文 件
拯 救</w>
ブ リー
1 19</w>
払 っ</w>
良 心</w>
找 出</w>
名 義</w>
単 語</w>
使 命</w>
权 限</w>
得 了</w>
庁 舎</w>
埋 め</w>
取 れ</w>
リ スト
通 讯
最 少</w>
可 逆</w>
发 电</w>
n c</w>
都 合</w>
郵 便</w>
记 本</w>
时间 段</w>
书 店</w>
举 报</w>
ロサンゼ ルス</w>
负 债</w>
好 奇</w>
さ つ</w>
波 長</w>
对 比</w>
客 観</w>
改 めて</w>
捏 造</w>
宣 传
热 烈</w>
u s</w>
産 党</w>
洗 濯</w>
劝 告</w>
共 産党</w>
债 权</w>
一 角</w>
ウ ッド</w>
公 益</w>
公 的</w>
偶 尔</w>
も はや</w>
し 出し</w>
知 り
ユ ン</w>
セ ル
总 务</w>
南 海</w>
総 務</w>
流 れ
极 大</w>
後 輩</w>
录 取</w>
联 想</w>
活 着</w>
时 光</w>
开 车</w>
监 察</w>
电 流</w>
死 ぬ</w>
恥 ず
可 变</w>
ファ ン
オフィ ス</w>
軍 隊</w>
身 長</w>
土耳 其</w>
創 業</w>
全 然</w>
サイ ド</w>
か さ</w>
c 1</w>
広 域</w>
値 上がり</w>
观 念</w>
好 感</w>
哈 利</w>
エ ジ
从 小</w>
ホ スト</w>
经营 者</w>
男 の子</w>
沉 重</w>
平 常</w>
n o
太 子</w>
南 京</w>
プ ール</w>
ら ん</w>
路 由</w>
西 欧</w>
租 税</w>
喜 悦</w>
分 成</w>
だ れ</w>
呼び かけ</w>
监 督
生ま れ
仏 教</w>
ボ ックス</w>
経 由</w>
目 录</w>
本 周</w>
中 午</w>
ニ ー
ひと り</w>
c l
首 長</w>
繁 栄</w>
祝 い</w>
每 日</w>
殺 し</w>
怪 物</w>
別 途</w>
面 的</w>
连 接
进 化</w>
極 めて</w>
区 別</w>
ゼ ン
議 決</w>
相 邻</w>
在 外</w>
协 议会</w>
万 个</w>
シェ ア</w>
キム・ デ
虐 待</w>
連 勝</w>
联 队</w>
就 此</w>
不 必</w>
マ トリ
っ しゃ
動 向</w>
of dma</w>
一 时</w>
詐 欺</w>
証 言</w>
机 密</w>
分 かれ</w>
ワ ールド</w>
か せ</w>
s v</w>
租 赁</w>
宿 舍</w>
人 員</w>
乐 趣</w>
p e</w>
死 体</w>
伴 う</w>
かえ って</w>
么 的</w>
下 子</w>
t i</w>
7 04</w>
未 知
早 点</w>
什 么的</w>
牛 乳</w>
欧 米</w>
参加 者</w>
上 回っ</w>
一 轮</w>
チャ ン・
群 众</w>
看 上去</w>
兆 し</w>
スク ール</w>
く は</w>
a f
那 位</w>
聪 明</w>
民 事</w>
ラン プ</w>
やっ ぱり</w>
ば ん</w>
電 流</w>
生 长</w>
演 习</w>
構 図</w>
業 績</w>
取り 組
兴 味</w>
炸 弹</w>
好 象</w>
土 曜日</w>
剧 中</w>
セン サー</w>
5 a</w>
選 考</w>
注 射</w>
インド ネシア</w>
経 過</w>
瞩 目</w>
用 地</w>
滑 雪</w>
游 行</w>
推 理</w>
サ イン</w>
あ わ
无 疑</w>
なく なっ</w>
监 狱</w>
東 国</w>
想 定</w>
奥 运</w>
出 道</w>
m f</w>
随 机</w>
跟 着</w>
真 理</w>
忍 耐</w>
冷 たい</w>
克 林
a 2</w>
诸 多</w>
店 铺</w>
辅 助</w>
登 板</w>
博 览会</w>
走 出</w>
合 せ</w>
偏 向</w>
セ グメント</w>
锻 炼</w>
葬 礼</w>
苦 しい</w>
良 かっ</w>
失 わ</w>
壳 体</w>
名 牌</w>
お めで
讲 座</w>
行 驶</w>
石 头</w>
学 術</w>
加 深</w>
全羅 南道</w>
休 日</w>
上 任</w>
金正 恩</w>
解 说</w>
ほ ん
ひ と</w>
近づ い</w>
艺术 家</w>
对 面</w>
代 行</w>
誤 差</w>
訪 ね</w>
理 工</w>
时 尚</w>
审 判
姑 娘</w>
外 貨</w>
代理 人</w>
フィ ング</w>
父 兄</w>
汉 语</w>
未知 数</w>
国 宝</w>
ウィン ドウ</w>
谈 论</w>
左 眼</w>
宿 泊</w>
出 来る</w>
s e</w>
風 邪</w>
方 框图</w>
半 ば</w>
前 回</w>
休 憩</w>
主 婦</w>
アイ ドル</w>
じ く</w>
困 境</w>
到 達</w>
遷 移</w>
起 源</w>
干 涉</w>
伯 特</w>
ま しく</w>
帮 忙</w>
去 除</w>
2 7.
南 亚</w>
制 止</w>
プラット フォーム</w>
ス リ
イン スト
本 質</w>
放 松</w>
ア タ
词 语</w>
自治 部</w>
刑 警</w>
発 光</w>
右 眼</w>
再 編</w>
养 老
ピ ク
暴 涨</w>
感 性</w>
不 禁</w>
上 流</w>
g 1</w>
美术 馆</w>
最 小
哪 些</w>
追 踪</w>
次 长</w>
復 活</w>
中 场</w>
上 传</w>
ナ ー
董 事
李 东
閉 じ</w>
財 務</w>
蔓 延</w>
引き 分け</w>
侮 辱</w>
国 務省</w>
今 朝</w>
乗 り</w>
キ ア</w>
怖 い</w>
し も</w>
缓 和</w>
ブリー フィング</w>
フ リー</w>
灵 魂</w>
難 しく</w>
する と</w>
気 象</w>
振 り</w>
金 持ち</w>
气 体</w>
正 義</w>
成 器</w>
体育 館</w>
谈 到</w>
商 工</w>
品 种</w>
名 声</w>
从 中</w>
カ タ
198 6</w>
严 厉</w>
配 偶</w>
辞 典</w>
波 长</w>
急 騰</w>
小 林</w>
商 船</w>
时 速</w>
ガ ル</w>
这 点</w>
財 界</w>
虚 假</w>
电视 机</w>
显 著</w>
后 悔</w>
一 块</w>
メ タ
ハン ド
论 述</w>
不 景气</w>
自 卫队</w>
無 事</w>
人 格</w>
次 々</w>
心 灵</w>
e p
感 激</w>
ハ リー</w>
间 违</w>
大 いに</w>
流 传</w>
战斗 机</w>
出 来
マーケ ティング</w>
マン チェ
索 引</w>
同 情</w>
勇 敢</w>
串 行</w>
回 顾</w>
エー ジェ
興 奮</w>
家 計</w>
太 阳
外 務省</w>
勤 め</w>
ワー ク
マルチ メディア</w>
パ クト</w>
狭 い</w>
最大 限</w>
売り 上げ</w>
お 腹</w>
結 ん</w>
砂 糖</w>
想 着</w>
巨 額</w>
复 兴</w>
人 际</w>
争 取</w>
看 待</w>
卵 子</w>
ソ ク
教 徒</w>
和 国民</w>
テ グ</w>
轨 道</w>
职 场</w>
引 人</w>
建 交</w>
密 度</w>
缓 冲</w>
日 记</w>
19 50</w>
負 っ</w>
残 留</w>
早 就</w>
天 国</w>
前 锋</w>
减 小</w>
质 疑</w>
福利 部</w>
祈 り</w>
方 言</w>
主 机</w>
アイデン ティティ</w>
ま だ
横 領</w>
冷 却</w>
克林 顿</w>
梅 雨</w>
寒 冷</w>
人 质</w>
三 年</w>
ドライ ブ</w>
一 貫</w>
モニ タ</w>
共 产党</w>
题 目</w>
プ ー
选 择
第 に</w>
次 第に</w>
公 主</w>
计 画</w>
避 难</w>
激 活</w>
河 川</w>
正 案</w>
厕 所</w>
修 正案</w>
上 部</w>
ト ム</w>
シ リアル</w>
忽 视</w>
張 っ</w>
希 拉里</w>
すご く</w>
16 1</w>
移 位</w>
片 段</w>
潮 流</w>
买 卖</w>
が い</w>
騒 ぎ</w>
这 边</w>
an d</w>
观 光
沿 岸</w>
主 役</w>
トラン ジ
スタ ジ
階 段</w>
置 換</w>
制 品</w>
ミ ョン</w>
责 任
海 边</w>
三 国</w>
祝 贺</w>
万 吨</w>
一 下子</w>
も ん</w>
高 位</w>
查 出</w>
スロー ガン</w>
クラ シック</w>
すば らしい</w>
集 まり</w>
表 さ</w>
果 说</w>
投 影</w>
如 果说</w>
ク ム
5 06</w>
违 背</w>
賄 賂</w>
演 唱</w>
从 前</w>
计 数
计数 器</w>
幼 儿
幼儿 园</w>
交 わし</w>
高 出</w>
北 美</w>
传 闻</w>
祖 先</w>
外 务省</w>
检 验</w>
必 要性</w>
多 多</w>
依 照</w>
耳 朵</w>
战 绩</w>
圣 诞</w>
下 方</w>
鉴 定</w>
任 せ</w>
サー バー</w>
ウ エ
済 み</w>
极 其</w>
契 機</w>
变 形</w>
ヒ ル</w>
致 命</w>
开 催</w>
実 用</w>
わ さ</w>
麻 生</w>
电影 节</w>
授 课</w>
当 てる</w>
书 记</w>
6 0
歇 尔</w>
プリ ング</w>
焼 き</w>
変 数</w>
同 時</w>
ル ート</w>
つ ま
離 党</w>
次 第</w>
イ ト</w>
軽 い</w>
自 称</w>
確 率</w>
疗 法</w>
漢 江</w>
参 谋</w>
丢 失</w>
上 場</w>
負 う</w>
洪 明
ベ ット</w>
アル バイト</w>
悲 惨</w>
恐 惧</w>
広 州</w>
信 号
侦 探</w>
貴 重</w>
性 的</w>
写 道</w>
保 护
患 有</w>
合 流</w>
单 一</w>
米 波</w>
占 领</w>
公 民</w>
丰 田</w>
不 久
ap ec</w>
行 こ</w>
水 上</w>
国 有</w>
頑張 っ</w>
安 保
イ ニング</w>
は じ
笔 记本</w>
正常 化</w>
不 停</w>
丁 克</w>
サイ クル</w>
配 备</w>
转 动</w>
肥 料</w>
人 家</w>
シ ア
いっ たい</w>
2 9
漢 字</w>
文 物</w>
役 に
安全 法</w>
取り 締
m l</w>
直 子</w>
毫 米波</w>
見 つける</w>
蛋 糕</w>
球 場</w>
客 户
凍 結</w>
不 敢</w>
カリ フォル
p p</w>
迹 象</w>
志愿 者</w>
顶 级</w>
札 幌</w>
2 80</w>
所 得
7 20</w>
钥 匙</w>
芝 加
糖 尿</w>
基 督
勝 手</w>
マンチェ スター</w>
汉 江</w>
バ ス
10 b</w>
客户 机</w>
入 居</w>
俳 优</w>
ロー マ</w>
ケー キ</w>
2 1.
家 宝</w>
キ ス</w>
情 熱</w>
开 通</w>
国 队</w>
双 手</w>
ラ ル</w>
2 8.
记 念</w>
光 电</w>
下 班</w>
おめで とう</w>
运 算</w>
残 さ</w>
征 服</w>
射 程</w>
大 多</w>
长 级</w>
芝加 哥</w>
数 十</w>
バー グ</w>
シ カ
納 得</w>
吸 烟</w>
充 実</w>
三 振</w>
承 受</w>
共 计</w>
あい さつ</w>
解 説</w>
エジ プト</w>
财 政部</w>
カ フェ</w>
郊 外</w>
王 国</w>
旨 在</w>
弁 当</w>
偏 差</w>
15 1</w>
总 体</w>
従 う</w>
ソ プ</w>
t cp</w>
配 列</w>
追 查</w>
行な う</w>
所得 税</w>
プレ ミ
エージェ ント</w>
エ ド
ど ん</w>
き れ</w>
経 歴</w>
テレ コム</w>
っ ち</w>
构 建</w>
有 利于</w>
改 案</w>
当 年</w>
出 口
修 改案</w>
会 议
駐 車</w>
青 い</w>
缩 减</w>
消 息
理事 长</w>
絶 えず</w>
店 里</w>
寝 る</w>
多 久</w>
在 任</w>
回 归</w>
向 前</w>
只 好</w>
皇 后</w>
并 行</w>
ナム ド・
ア ナ</w>
財 経</w>
美 術
生 素</w>
拼 命</w>
战 时</w>
悲 剧</w>
多 样</w>
多 样
傲 慢</w>
缓 存</w>
点 击</w>
動 力</w>
な さ</w>
a r</w>
慢 性</w>
希 丁克</w>
埃 及</w>
促 す</w>
化 妆
一 本</w>
いか が</w>
運 送</w>
欠 陥</w>
揭 发</w>
钢 铁</w>
疫 苗</w>
晶 体
晶体 管</w>
崩 れ</w>
后 辈</w>
反 抗</w>
仮 定</w>
a i
社 交</w>
夕 方</w>
竞 技</w>
爱 好</w>
教 职员</w>
払 い</w>
佛 教</w>
伸 ばし</w>
無 償</w>
惊 人</w>
尽 早</w>
インスト ール</w>
アイ ス
した がっ</w>
调 器</w>
灵 活</w>
昨 夜</w>
思 わ
上 诉</w>
マイ クロ</w>
渔 船</w>
当事 人</w>
入 れ
不 快</w>
解 调器</w>
揺 れ</w>
振り返 っ</w>
养老 金</w>
ミュージ カル</w>
纷 争</w>
纪念 日</w>
告 示</w>
コン ド
若 干</w>
滑 动</w>
流 れる</w>
横 滨</w>
後 続</w>
ジャン プ</w>
lt e</w>
40 3</w>
郑 某</w>
玩 笑</w>
概 率</w>
置 き</w>
外 线</w>
初 日</w>
コ ・
こ だ
甘 い</w>
液 体</w>
动 车</w>
コ ス
顧 問</w>
横 浜</w>
東 アジア</w>
总 共</w>
上 野</w>
わ ざ</w>
误 解</w>
譲 渡</w>
人 称</w>
一 瞬</w>
スタジ アム</w>
16 00</w>
最 快</w>
露 光</w>
通信 部</w>
工 程
入 生</w>
丝 毫</w>
鈴 木</w>
萧 条</w>
明 明</w>
教 皇</w>
声 称</w>
助 金</w>
トラ ブル</w>
カリフォル ニア</w>
5 12</w>
额 外</w>
歌 声</w>
ナ ・
m d
新 入生</w>
座 谈会</w>
不 十分</w>
つ ぶ
金 钟
親 戚</w>
虚 偽</w>
基づ き</w>
o g
线 索</w>
物 资</w>
没 想到</w>
是 否
是否 是</w>
东 南亚</w>
ゴ ン
证 人</w>
机 制</w>
捐 款</w>
强 国</w>
首 场</w>
勉 强</w>
マル チ</w>
い ら
金 浦</w>
自 尊
南 非</w>
克 尔</w>
答 复</w>
同 じく</w>
洪明 甫</w>
早 餐</w>
倾 斜</w>
つ かん</w>
走 路</w>
悬 案</w>
其 次</w>
跟 踪</w>
チュ ア</w>
キム・デ ジュン</w>
2 15</w>
平 静</w>
麻 薬</w>
適 合</w>
貯 蓄</w>
流 量</w>
東 海</w>
开 发
外交 官</w>
墜 落</w>
典 子</w>
5 40</w>
美 し</w>
当 たる</w>
シ ティ</w>
生 態</w>
明 亮</w>
困 扰</w>
住 院</w>
t g</w>
评 価</w>
气象 厅</w>
原 谅</w>
入 社</w>
人民 币</w>
歧 视</w>
传 真</w>
什 麽</w>
メ リ
録 音</w>
派 生</w>
攻 勢</w>
午 饭</w>
s w
k di</w>
隊 員</w>
劳动 部</w>
ま とも</w>
と おり</w>
us b</w>
重 返</w>
速 く</w>
自尊 心</w>
有 意思</w>
支払 う</w>
当 社</w>
カン ナム</w>
im s</w>
被 迫</w>
東 部</w>
巻き 込ま</w>
宝 石</w>
培 训</w>
クリ ーム</w>
紧 密</w>
特别 法</w>
及ぼ し</w>
剧 本</w>
アン ト
日本 队</w>
扣 押</w>
師 団</w>
善 良</w>
マネ ー
客 观</w>
つ な
h dm
预 报</w>
知 恵</w>
改 編</w>
招 呼</w>
反 する</w>
门 前</w>
直 线</w>
率 先</w>
両 手</w>
関 与</w>
缺 陷</w>
缺 点</w>
沈 黙</w>
不 觉</w>
プリ アン
财 富</w>
届 け</w>
寺 院</w>
不 安定</w>
農 林</w>
转 发</w>
累 计</w>
手 册</w>
上 次</w>
ヌ リ</w>
シグ ナ
常 识</w>
口 袋</w>
w to</w>
東 南
包 围</w>
貸 し</w>
東南 アジア</w>
思 え</w>
宴 会</w>
女 優</w>
减 免</w>
乐 团</w>
イ エ
業 種</w>
旅 客</w>
从 此</w>
微 微</w>
参 议院</w>
乗 せ</w>
ミ ネ
ね え</w>
4 40</w>
食 欲</w>
戦 時</w>
つ く
链 接</w>
津 波</w>
和 尚</w>
震 惊</w>
許 さ</w>
破 産</w>
灰 度</w>
国 军</w>
ネ ズ
e x
途 上</w>
詳 しく</w>
本 能</w>
星 星</w>
17 1</w>
美術 館</w>
姆 斯</w>
g b
性 别</w>
い える</w>
芸 能</w>
弟 子</w>
取り 調べ</w>
中国 語</w>
ちゃ んと</w>
ヤ ード</w>
类 别</w>
止 める</w>
喜 剧</w>
パ ウ
平 日</w>
入 団</w>
逃 し</w>
讨 会</w>
消息 筋</w>
フラ ッシュ</w>
ッ ピング</w>
飛 ん</w>
远 征</w>
休 ん</w>
执 行
怒 っ</w>
坡 州</w>
黑 人</w>
視 覚</w>
幕 式</w>
上 り</w>
マ グ
トランジ スタ</w>
足 以</w>
給 料</w>
堂 々</w>
结 局</w>
ア バ
一 種</w>
f i
株 式
可 否</w>
受 害</w>
出 面</w>
移 交</w>
成 し
ディ ー
え れ</w>
hdm i</w>
亚 太</w>
音乐 剧</w>
注 重</w>
株式 会社</w>
富 有</w>
制造 业</w>
难 民</w>
通 货</w>
浪 費</w>
公 用</w>
入 住</w>
つなが っ</w>
v s</w>
米 歇尔</w>
射 撃</w>
出 战</w>
う な
許 容</w>
ク エ
15 4</w>
合 计</w>
党 员</w>
ワ イ</w>
ミ ル
黒 人</w>
鸡 蛋</w>
載 せ</w>
信 令</w>
今 晚</w>
6 b</w>
背 中</w>
決 心</w>
揮 発</w>
安保 理</w>
图 形</w>
下 す</w>
ニ ーズ</w>
シャ ル</w>
ある 程度</w>
cn n</w>
ピ ョ</w>
g e
198 2</w>
转 交</w>
竣 工</w>
海 啸</w>
思 議</w>
开 口</w>
プリアン ブル</w>
デ ア</w>
インフ ラ</w>
アラ ビア</w>
と う
x x</w>
負 荷</w>
警 报</w>
聊 天</w>
热 门</w>
月 内</w>
と っ
空 い</w>
汤 川</w>
攻 势</w>
塑 料</w>
回 想</w>
厨 房</w>
历 史
前 途</w>
ヒ ディ
朴 周永</w>
面 会</w>
警 备</w>
短 く</w>
申 办</w>
抱 き
豪 州</w>
ケ ル</w>
源 于</w>
妖 魔</w>
好 む</w>
一 对</w>
疯 牛病</w>
操 纵</w>
回 应</w>
ゲ ート
や が
m a</w>
30 7</w>
順 調</w>
讨 论
生き る</w>
歌 词</w>
广 州</w>
p 2</w>
登 陆</w>
教 训</w>
子 公司</w>
呼 声</w>
切 替</w>
一 者</w>
bb k</w>
話し 合う</w>
苦 手</w>
红 十字</w>
研 讨会</w>
生 育</w>
猶 予</w>
スト リー
珍 惜</w>
消 极</w>
曲 線</w>
关 东</w>
ガ ー
f ax</w>
长 寿</w>
四 季</w>
ベ ート</w>
靖 国</w>
秘书 室</w>
抜 け
ト レ
ギ ル</w>
さ わ
m s
l a
移 し</w>
灰 色</w>
扫 描
名 分</w>
道 奇</w>
透 明
糖 尿
糖尿 病</w>
看 过</w>
流 动</w>
再 現</w>
2 4.
随 時</w>
皇 家</w>
清 洁</w>
2 24</w>
运 作</w>
率 いる</w>
チュン チョン
词 汇</w>
肩 膀</w>
思わ ず</w>
天 津</w>
ホ ー
疑 わ</w>
欧 美</w>
単 なる</w>
f m</w>
歌 う</w>
收 录</w>
h d
化 石</w>
ガソ リン</w>
な に</w>
膨 胀</w>
翌 年</w>
细 菌</w>
取締 役</w>
取り 戻し</w>
入 場</w>
セ ン</w>
わ が</w>
貧 しい</w>
村 上</w>
议 论</w>
港 口</w>
アマ チュア</w>
无 罪</w>
光 明</w>
仅 有</w>
e v
穿 过</w>
济 州
巡 る</w>
アイ デア</w>
5 01</w>
进 程</w>
笑 み</w>
ア ダ
衣 装</w>
加 大</w>
议 题</w>
扱 う</w>
打 率</w>
居 然</w>
回 事</w>
分 間</w>
ミ シェ
シ ュ</w>
統 治</w>
泡 沫</w>
慶尚 北道</w>
f ft</w>
純 粋</w>
大 幅度</w>
圣诞 节</w>
けれ ど</w>
c r</w>
4 60</w>
近 来</w>
一 味</w>
默 认</w>
树 立</w>
有 益</w>
ヒディ ンク</w>
运 送</w>
放 宽</w>
訪 れる</w>
术 语</w>
排 行
コ ア</w>
沖 縄</w>
日 刊</w>
很 强</w>
届 时</w>
向 こう</w>
亲 戚</w>
上 来</w>
キム チ</w>
6 04</w>
金炳 铉</w>
讲 师</w>
记者 会</w>
欧 元</w>
排行 榜</w>
チ リ</w>
高 値</w>
難 い</w>
遅 い</w>
脚 本</w>
脅 迫</w>
夏 威
シカ ゴ</w>
アク ティブ</w>
白 菜</w>
泄 漏</w>
授 业</w>
当 成</w>
勇 士</w>
き ょう</w>
电 台</w>
現 職</w>
法 器</w>
ポ ケット</w>
落ち 着い</w>
落 选</w>
恐 ろ
外 線</w>
基督 教</w>
不 及</w>
面 貌</w>
返 り</w>
诚 实</w>
营 销</w>
栄 養</w>
推 行</w>
打 工</w>
ラー メン</w>
n p
都 心</w>
礼 仪</w>
妥 協</w>
14 00</w>
避 難</w>
晴 れ</w>
往 来</w>
タ リ
アド バイス</w>
せ っ
植 え</w>
売 れ</w>
みな さん</w>
遗 体</w>
营 业
老 年</w>
延 伸</w>
庞 大</w>
平 行</w>
メタ データ</w>
看 護</w>
生 み
最 優秀</w>
无 需</w>
3 86</w>
苦 笑</w>
聚 焦</w>
总 值</w>
山 下</w>
奪 っ</w>
ベル リン</w>
激 动</w>
名 簿</w>
前 导</w>
黙 っ</w>
零 件</w>
渡 り</w>
大 野</w>
一 口气</w>
もし くは</w>
び る</w>
晚 餐</w>
奥 会</w>
培 育</w>
货 店</w>
监 控</w>
所 望</w>
テキ サス</w>
覚 悟</w>
绝 望</w>
原子 能</w>
ば れ</w>
柏 林</w>
有 时候</w>
新 政府</w>
教 える</w>
威 尔</w>
13 3</w>
自 然
次 世代</w>
密 集</w>
天 然
何 种</w>
仓 库</w>
财 产
宣 称</w>
卡 车</w>
14 1</w>
炭 素</w>
楽し かっ</w>
宠 物</w>
受 贿</w>
ク レ
こう いう</w>
现 実</w>
攻 击
操 縦</w>
召 唤</w>
人 質</w>
不 通</w>
セ ヌリ</w>
美 的</w>
监督 院</w>
押 さ</w>
広 がる</w>
场 地</w>
事 案</w>
っ こ
点 心</w>
发 给</w>
下 ろし</w>
ッ ツ</w>
ゴ ル</w>
に は</w>
1 ,
返 信</w>
編 成</w>
注 视</w>
势 头</w>
一 座</w>
挖 掘</w>
に ぎ
た ま
さ せる</w>
背 後</w>
気づ い</w>
每 人</w>
声 器</w>
取 出</w>
反 应
198 5</w>
集 成</w>
讨论 会</w>
花 粉</w>
斯 科</w>
捕 虜</w>
判 处</w>
n 1</w>
签 约</w>
直 径</w>
方 位</w>
新 兴</w>
敗 北</w>
半 身</w>
不 思議</w>
ム ード</w>
t er</w>
实 用</w>
克萨 斯</w>
フ ル
酸 素</w>
收 费</w>
ブ レー
コリ ョ</w>
车 场</w>
素 敵</w>
朴 正
沈 没</w>
pp ing</w>
g 2</w>
绝 対</w>
8 a</w>
有 意</w>
分 か
ド ジャ
だ ん</w>
第二 位</w>
成 员国</w>
シ ル</w>
アク ション</w>
た だ
過 剰</w>
登 っ</w>
无 理</w>
教 職員</w>
报 酬</w>
技 术
懸 命</w>
慣 行</w>
录 音
引 継ぎ</w>
夏威 夷</w>
做 成</w>
中 华</w>
m ar
h d</w>
g e</w>
调 谐</w>
語 る</w>
来 临</w>
暴 雨</w>
可 惜</w>
加 藤</w>
6 20</w>
阴 影</w>
银 牌</w>
答 应</w>
竭 尽</w>
称 号</w>
教 科</w>
总 结</w>
年 中</w>
リアル タイム</w>
キム・ ヨン
い ち
性 向</w>
多 达</w>
繰り 返さ</w>
亚 洲
一 心</w>
イン グ</w>
相 差</w>
生 成器</w>
浮か べ</w>
已 知</w>
勤 労</w>
cpu 40</w>
4 14</w>
兼 容</w>
ハ ッシュ</w>
0. 5</w>
音乐 会</w>
講 師</w>
反 感</w>
出版 社</w>
党 員</w>
アル コール</w>
飲 み
电 荷</w>
延 续</w>
常 識</w>
衛 隊</w>
復 旧</w>
読 書</w>
店 舗</w>
交易 所</w>
ャ ン
飲 食</w>
题 材</w>
非 核</w>
路 由
路由 器</w>
シ ・
サ ム</w>
ギュ ン</w>
ウェ ー</w>
2 d</w>
法 治</w>
バ ブル</w>
み よ</w>
箱 子</w>
歌 舞
招 致</w>
怀 孕</w>
岁 月</w>
奖 牌</w>
一 斉</w>
言い 渡さ</w>
楽 観</w>
果 断</w>
摄 影
争 点</w>
野 心</w>
豪 华</w>
言 行</w>
燃 烧</w>
民 営</w>
一 季度</w>
サ ル</w>
m e</w>
随 便</w>
讽 刺</w>
注 意
汽 油</w>
扇 区</w>
平 滑</w>
好 み</w>
名 門</w>
信 息
フォ ード</w>
や つ</w>
sho pping</w>
连 続</w>
查 询</w>
导 入</w>
原 告</w>
8 10</w>
迄 今</w>
缺 少</w>
潜 力</w>
忍 受</w>
外 围</w>
利 得</w>
分 公司</w>
ト ヨ
预 测
湯 川</w>
总 数</w>
小 的</w>
小 小的</w>
头 脑</w>
其 他人</w>
借 口</w>
アタ シ</w>
l l
連 覇</w>
转 达</w>
ルー ティング</w>
mp 3</w>
直 属</w>
ブ ク
鑑 賞</w>
汤 姆</w>
キー ワード</w>
う か
w s</w>
売 る</w>
ワ イン</w>
ッ キー</w>
カ ート</w>
30 .
驾 驶
附 属</w>
迎 合</w>
规 格</w>
観 覧</w>
门 户</w>
記 号</w>
膝 盖</w>
欠 か</w>
先 后</w>
便 利
2 6.
18 00</w>
评 论
日本 海</w>
探 讨</w>
天 后</w>
可 靠</w>
買い 物</w>
血 圧</w>
故 人</w>
受け 付け</w>
预 想</w>
破 裂</w>
电 动</w>
差 し</w>
学 問</w>
地 步</w>
修 订
住 房</w>
真 面目</w>
朴泰 桓</w>
惜 し
商 会</w>
双 重</w>
冰 箱</w>
ベン チャー</w>
阿 根
阿根 廷</w>
常 规</w>
あ たる</w>
配 慮</w>
系 人</w>
深 化</w>
東 北</w>
月 底</w>
必 ず
层 面</w>
信 徒</w>
やが て</w>
d s
远 离</w>
红 白</w>
第 三
神 奈
盲 目</w>
根 本
家 电</w>
付 属</w>
麒 麟</w>
韩 流</w>
跳 舞</w>
修 订</w>
ノ ン</w>
ノ ル
负 面</w>
二 十</w>
チョ コ
階 級</w>
阿 尔
美 味</w>
手 里</w>
公 表</w>
再 见</w>
交 谈</w>
乗 算</w>
デ フォ
サン プリング</w>
発 信</w>
同 一个</w>
ジュ ー
ま さ</w>
bs 2</w>
血 压</w>
発 給</w>
扬 声器</w>
引き 受け</w>
做 为</w>
スタ ム</w>
ショ ック</w>
譲 歩</w>
社 区</w>
眠 り</w>
最 有</w>
勝 つ</w>
. com</w>
补 助金</w>
打 败</w>
光 景</w>
197 9</w>
获 奖</w>
改 进</w>
指 す</w>
强 有力</w>
和 服</w>
压 迫</w>
ラ マ</w>
ック ・
比 喻</w>
校 园</w>
惩 罚</w>
峰 会</w>
医 薬品</w>
乗り 出す</w>
フォー ラム</w>
门 口</w>
至 此</w>
查 看</w>
kb o</w>
英 格兰</w>
致 使</w>
慶尚 南道</w>
实 质
ト ラ</w>
クチ ン</w>
エン コーダ</w>
やって き</w>
長 距離</w>
遣 い</w>
遗 属</w>
设 有</w>
便 当</w>
使 え</w>
中 村</w>
节 奏</w>
党 政</w>
索 伦</w>
屋 根</w>
复 苏</w>
レ ン</w>
ハ ワイ</w>
ご み</w>
输 给</w>
規 格</w>
能 人</w>
目 覚
皮 膚</w>
毎 週</w>
査 察</w>
払 う</w>
人 種</w>
デフォ ルト</w>
o l
軌 道</w>
搬 送
リ ュ
整 顿</w>
不 已</w>
ダ ック</w>
し ば</w>
t bs</w>
送 還</w>
法 令</w>
山 口</w>
东 省</w>
s ms</w>
韩国 语</w>
立 て
留 意</w>
搬送 波</w>
一 口</w>
テ ラン</w>
pd u</w>
未 知</w>
加 权</w>
办 理</w>
修 复</w>
り る</w>
糟 糕</w>
直 播</w>
电 器</w>
推 翻</w>
为 准</w>
水 産</w>
最 强</w>
方 策</w>
寂 しい</w>
亲 密</w>
一 线</w>
スー パー
エ ル
アル ゼン
ら ない</w>
p r
综 合
战斗 力</w>
延 世
不 上</w>
お 待ち</w>
泡 菜</w>
東 亜
春 节</w>
延世 大</w>
傾 け</w>
ち な
198 4</w>
穏 やか</w>
セ クタ</w>
アルゼン チン</w>
に か</w>
m i</w>
3 4
金 氏</w>
荣 誉</w>
手 表</w>
实 习</w>
外 表</w>
亮 相</w>
デ ュー
h an
難 民</w>
現 役</w>
有 期</w>
対 戦</w>
台 词</w>
こ ち</w>
2 18</w>
联 带</w>
考 察</w>
杀 伤
実 感</w>
出 所</w>
低 收入</w>
下 届</w>
3 14</w>
身 穿</w>
走 进</w>
编 制</w>
演 習</w>
模 特</w>
山 区</w>
尼 西亚</w>
天 堂</w>
占 有
南 米</w>
假 定</w>
l dp
風 呂</w>
邪 魔</w>
后 卫</w>
グ ク</w>
キム・ ジョン
見 守っ</w>
行 なっ</w>
希 尔</w>
字 符</w>
姉 妹</w>
大 学
肉 体</w>
継 承</w>
市 价</w>
品 目</w>
人 身</w>
隐 瞒</w>
衰 退</w>
市 中心</w>
奇 跡</w>
反 米</w>
分 手</w>
コン テナ</w>
発 音</w>
星 座</w>
投 げ
反应 堆</w>
乾 燥</w>
敗 れ</w>
外 国语</w>
同 性
ル ー</w>
リモ ート</w>
マトリ クス</w>
フィ ン
ク ン</w>
見 舞
老 鼠</w>
收 获</w>
支 店</w>
情 人</w>
平均 值</w>
好 者</w>
刑 法</w>
ナ ショ
み に</w>
规 划</w>
终 点</w>
录 像</w>
危 害</w>
マ ッチ</w>
オリ ジ
要 員</w>
決 定
時 価</w>
效 应</w>
同 伴</w>
リー マン</w>
キ ロ
しば しば</w>
ldp c</w>
酒 精</w>
罕 见</w>
狂 牛病</w>
問い 合わせ</w>
吉 田</w>
チョコ レート</w>
3 13</w>
診 療</w>
来 源</w>
数 百</w>
挽 回</w>
找 回</w>
志 愿</w>
下 半场</w>
ウィ ー</w>
让 步</w>
菲 尔</w>
电 话
東亜 日報</w>
暫 定</w>
占 拠</w>
一 瞬间</w>
シ リア</w>
14 5</w>
邻 居</w>
连 络</w>
爱 好者</w>
文 中</w>
メー ション</w>
デ ー</w>
スケ ジュー
l p
誠 実</w>
眼 神</w>
相 続</w>
控 器</w>
技 巧</w>
器 件</w>
ホ ・
セ イン</w>
2 9.
遊 ん</w>
自 衛隊</w>
工 科</w>
マ スク</w>
种 种</w>
散 发</w>
n as
見 学</w>
自 豪</w>
法 王</w>
食 い
適 当</w>
说 不定</w>
脖 子</w>
工 业
交 织</w>
习 班</w>
记 录
红 叶</w>
最 长</w>
大 豆</w>
w bc</w>
浴 び</w>
昆 虫</w>
c a</w>
暖 かい</w>
昨 晚</w>
主 宰</w>
ミ ラー</w>
エ ア
も と
重 み</w>
石 川</w>
珍 贵</w>
決 済</w>
指 南</w>
招 き</w>
动 性</w>
おじ い
s s
3 b</w>
韩 华</w>
经营 权</w>
示 范
砂 漠</w>
生 前</w>
基 带</w>
ライ ス</w>
追 放</w>
运 转</w>
财 经
奪 わ</w>
停 车场</w>
べ く</w>
見つ め</w>
航空 機</w>
海 峡</w>
最 下位</w>
感 知</w>
完 整</w>
安 く</w>
在 地</w>
切 ら</w>
今 夜</w>
ゴ ール
街 頭</w>
発 送</w>
用 車</w>
生 活
業 生</w>
得 不到</w>
卒 業生</w>
传 出</w>
もう すぐ</w>
40 5</w>
起 点</w>
授 予</w>
山 岳</w>
マ レー
アシ スト</w>
重 工業</w>
采 纳</w>
树 木</w>
时 说</w>
被 捕</w>
率 领</w>
清 除</w>
杀伤 性</w>
严 肃</w>
不 大</w>
ソ レン
洞 窟</w>
地 裁</w>
俘 虏</w>
詩 人</w>
眼 鏡</w>
火 事</w>
旅 行
増 大</w>
原 先</w>
ワ クチン</w>
弗 雷</w>
夜 间</w>
国 益</w>
割 引</w>
衛 生</w>
线 性</w>
着 物</w>
リ バ
ライ ブ</w>
老 化</w>
攻 防</w>
提 醒</w>
失 业率</w>
天 地</w>
商 売</w>
や さ
c d
行 進</w>
浮 现</w>
従 事</w>
征 税</w>
乐 器</w>
s map</w>
4 2.
龙 山</w>
领 取</w>
有 線</w>
吹 き
产 地</w>
ナ ン</w>
な す</w>
見 せる</w>
日 新聞</w>
司 法
化妆 品</w>
充 当</w>
ム ー
デ ル
イン グランド</w>
w ho</w>
i i</w>
7 5%</w>
马 来
敷 地</w>
投 稿</w>
弱 者</w>
发 音</w>
三 郎</w>
満た す</w>
常 务</w>
印度 尼西亚</w>
为 首</w>
スペ クトル</w>
步 行</w>
文 部</w>
後 退</w>
取り 消し</w>
分 ける</w>
ソレン スタム</w>
セン ス</w>
1. 2</w>
高 温</w>
決定 的</w>
最 低
ミ ニ
たっ た</w>
こ ん</w>
黑 客</w>
閣 議</w>
立ち 上がっ</w>
犯 行</w>
必ず しも</w>
好 评</w>
女 孩子</w>
原 価</w>
下 旬</w>
ブ ス</w>
m 1</w>
预算 案</w>
历 届</w>
仲 介</w>
ガ ニ
r i</w>
3 4.
選 管</w>
热 闹</w>
歌 唱</w>
果 敢</w>
拳 道</w>
向 い</w>
叙 述</w>
イン パクト</w>
赤 十字</w>
按 压</w>
占有 率</w>
体 会</w>
フ セイン</w>
芸 能人</w>
眠 れ</w>
局 限</w>
図 る</w>
んな さい</w>
ごめ んなさい</w>
江 北</w>
娯 楽</w>
圧 倒
圧倒 的</w>
飞 行
辞 去</w>
羡 慕</w>
纯 一郎</w>
猛 烈</w>
泉 纯一郎</w>
晋 升</w>
恐ろ しい</w>
小 泉纯一郎</w>
哀 悼</w>
マレー シア</w>
接 管</w>
ワイ ヤ
タン パ
跑 步</w>
笑 う</w>
教 学</w>
教 员</w>
導 出</w>
周 知</w>
マ ナー</w>
适 于</w>
脱 し</w>
称 赞</w>
点 灯</w>
普 通
平 坦</w>
上 文</w>
退 休
眼 光</w>
安全 性</w>
奨 学</w>
司 会</w>
e bs</w>
直 接
深 深
最 先</w>
差 点</w>
南 アフリカ</w>
他 国</w>
理 科</w>
所 有
射 击</w>
组 建</w>
秘 诀</w>
电 机</w>
水 准</w>
後 悔</w>
四 球</w>
d j</w>
重 工业</w>
暴 跌</w>
无 偿</w>
动 物
非 正规</w>
遇 见</w>
月 曜日</w>
平方 メートル</w>
ウィ リア
播 放
大 体</w>
国 力</w>
ケ リー</w>
m c</w>
30 9</w>
高 価</w>
要 说</w>
繁 殖</w>
核 化</w>
封 锁</w>
即 ち</w>
假 名</w>
ちな みに</w>
逆 光</w>
話し 合っ</w>
称 呼</w>
教 堂</w>
っ たり</w>
蛋 白
救 出</w>
好 ましい</w>
な あ</w>
阴 谋</w>
毒 品</w>
欠 点</w>
普 京</w>
ミ ット</w>
ツ ール</w>
チョン ノ
t w
d b
7 50</w>
曼 联</w>
叙 利亚</w>
だ ん
马来 西亚</w>
穿 上</w>
示 范</w>
总 公司</w>
屠 杀</w>
导 出</w>
上 级</w>
さ て</w>
あふ れ</w>
k a
3 5%</w>
金 山</w>
身 元</w>
跆 拳道</w>
本 部长</w>
大 力</w>
追 及</w>
登 载</w>
电 缆</w>
最 強</w>
墙 壁</w>
控 訴</w>
小 时候</w>
吹 い</w>
后 期</w>
原 道</w>
プレ ート</w>
チ ベット</w>
貸 し出し</w>
物 資</w>
原 定</w>
加 利
推 測</w>
婚 式</w>
合 唱</w>
办 公</w>
保 健
临 近</w>
っ ぽ
電 荷</w>
団 結</w>
升 级</w>
储 备</w>
万 一</w>
ロ イ
バッ グ</w>
東 洋</w>
公 告</w>
ル ータ</w>
リー ブ</w>
プラ テン
名 列</w>
ブ ック</w>
そ り</w>
l in
落 实</w>
直接 的</w>
江 原道</w>
手が かり</w>
学 生
妖 精</w>
同 氏</w>
福 冈</w>
疲 労</w>
歌 い</w>
构 图</w>
救 済</w>
慶 州</w>
中 产</w>
ナ ル
3 6.
缘 故</w>
結 婚式</w>
商 讨</w>
一 般
モ スク
se l</w>
常 務</w>
お そ
f e
f 2</w>
症 候
症候 群</w>
周 日</w>
オペ ラ</w>
し め</w>
課 金</w>
繊 維</w>
治 愈</w>
ド キュ
ら しく</w>
5 b</w>
示范 性</w>
機 密</w>
曲 子</w>
手 持</w>
志 向</w>
器 官</w>
ヒ ラリー</w>
李 天
服 从</w>
囲 ま</w>
下 部</w>
こ ろ
9 10</w>
给 定</w>
有 事</w>
整 天</w>
大 厅</w>
卓 球</w>
ミシェ ル</w>
b bs</w>
金 曜日</w>
村 庄</w>
收 盘</w>
创 新</w>
住 宿</w>
両 面</w>
レ ッド</w>
モスク ワ</w>
メ モ</w>
ら え</w>
なん か</w>
見つ かっ</w>
获 悉</w>
封 信</w>
契 约</w>
ピク セル</w>
ど ん
巴 基
私 有</w>
矩 形</w>
巴基 斯坦</w>
加 える</w>
優 位</w>
伝 わっ</w>
乗り 越え</w>
莫 斯科</w>
育 っ</w>
审 理</w>
共 演</w>
え よ</w>
u m</w>
k r</w>
6 06</w>
李天 秀</w>
开 启</w>
予 報</w>
肌 肤</w>
生 意</w>
根 源</w>
急 落</w>
当 今</w>
屋 顶</w>
壊 れ</w>
喫 煙</w>
前 進</w>
入 选</w>
ステ ージ</w>
エン ティティ</w>
イ メー
わ す</w>
金 品</w>
辩 论</w>
此 举</w>
提 琴</w>
手 配</w>
不 着</w>
セ ロ
選 び</w>
蛋白 质</w>
焼 け</w>
新 鮮</w>
周 六</w>
オー ル
遅 刻</w>
张 照</w>
官 邸</w>
冒 险</w>
プライ ベート</w>
バ ック
金 永
通 訳</w>
缓 慢</w>
レ ータ</w>
ビ ッ
ジョ ージ</w>
黄 海</w>
视 野</w>
联 系人</w>
救 う</w>
座 席</w>
庆 州</w>
幅 器</w>
増 幅器</w>
助 长</w>
创 意</w>
フロ ント</w>
が ち</w>
明 本</w>
无 聊</w>
宣 判</w>
天 主教</w>
发 球</w>
エ ンド</w>
赠 送</w>
种 植</w>
广 岛</w>
コンサ ル
逃 走</w>
犹 豫</w>
両 者</w>
n t</w>
走 り</w>
痕 迹</w>
漁 船</w>
松 下</w>
朝 着</w>
平 息</w>
実 に</w>
姐 妹</w>
外 来</w>
产 物</w>
乗 用車</w>
一 端</w>
ル ーム</w>
パ キスタン</w>
5 50</w>
汉 城市</w>
南 美</w>
修订 案</w>
親 切</w>
欺 诈</w>
定 值</w>
奖 励</w>
全 局</w>
船 只</w>
等 到</w>
本 物</w>
打 扫</w>
単 に</w>
マ スター</w>
ヒョ ク</w>
願 っ</w>
隔 离</w>
课 税</w>
构 件</w>
否 则</w>
不 透明</w>
バ グ
订 购</w>
空 调</w>
新 闻
市 役所</w>
作 文</w>
ガニ スタン</w>
解 明</w>
田 先生</w>
成し 遂げ</w>
宝 贵</w>
冬 奥会</w>
入 ら</w>
n t
7 06</w>
街 上</w>
美 日</w>
时 隙</w>
排 斥</w>
応 用</w>
往 返</w>
往 年</w>
パス ワード</w>
キ リスト</w>
英 才</w>
楽 器</w>
情 感</w>
同 感</w>
反 转</w>
神 様</w>
不 信</w>
ビ ーム</w>
どう も</w>
で す
味 わ
用 以</w>
任 用</w>
ズ ボン</w>
14 8</w>
見 直し</w>
指 し</w>
山 顶</w>
保 つ</w>
シ ョン
ク ール</w>
ガ イ
量 刑</w>
部 长级</w>
这 座</w>
设计 师</w>
盛 大</w>
情 节</w>
ヨ イド</w>
サイ バー</w>
グラ フ</w>
80 2.
角 形</w>
決 断</w>
月 亮</w>
切り 替える</w>
三 大</w>
万 元</w>
ク ン
靖 国
靖国 神社</w>
民 俗</w>
家 宅</w>
信 守</w>
カ トリック</w>
补 助</w>
無 罪</w>
截 然</w>
創 立</w>
ク ァ
er s</w>
4 22</w>
策 划</w>
生 理</w>
歌舞 伎</w>
有 机</w>
坚 强</w>
イ ク</w>
まっ すぐ</w>
論 述</w>
索 尼</w>
盛 ん</w>
満 たし</w>
消 防
対 照</w>
实 务</w>
出来 事</w>
が ら</w>
う つ
n i
3 500</w>
驳 回</w>
率 い</w>
滥 用</w>
大韓 航空</w>
交 战</w>
コン ビ
难 免</w>
読み 出さ</w>
眠 っ</w>
盛 开</w>
球 赛</w>
物 事</w>
度 と</w>
交 纳</w>
二 度と</w>
14 6</w>
退 役</w>
沙 特</w>
未 婚</w>
所 在地</w>
干 脆</w>
取り 付け</w>
加利 福
割り 当てる</w>
コ レ
こん に
预 告</w>
集 める</w>
ロ ス</w>
d 1</w>
15 5</w>
劣 ら</w>
だ り</w>
19 45</w>
领 袖</w>
誇 り</w>
組 合せ</w>
文 稿</w>
キャン パス</w>
15 6</w>
谨 慎</w>
再 発</w>
クァン ジュ</w>
递 交</w>
观 赏</w>
無 駄</w>
名 刺</w>
乓 球</w>
乒 乓球</w>
ッ ツ
换 成</w>
抱 有</w>
开 幕式</w>
主 持
踏 上</w>
越 是</w>
第 六</w>
强 力</w>
幼 稚
ゲート ウェイ</w>
グ ラス</w>
す す
頂 上</w>
洗 い</w>
明 淑</w>
帷 幕</w>
3 5.
調 和</w>
节 省</w>
物 理
先 制</w>
代 わっ</w>
ラ ム
神 父</w>
後 で</w>
プラ ス</w>
とり わけ</w>
关 西</w>
一 気
ベ テラン</w>
と くに</w>
立 派</w>
マ マ</w>
身 影</w>
経 費</w>
欺 骗</w>
大 师</w>
プー チン</w>
ため 息</w>
議 題</w>
誉 为</w>
終 わら</w>
归 属</w>
大 都市</w>
光 复</w>
仙 台</w>
並 列</w>
万 坪</w>
一気 に</w>
イ ム</w>
か し
8 02</w>
私 生活</w>
目指 す</w>
犯 下</w>
沙 漠</w>
授 权</w>
シナ リオ</w>
龄 化</w>
身 材</w>
熊 猫</w>
挑 选</w>
実 家</w>
グ ァン</w>
ち こち</w>
3 2.
未 成年</w>
坚 定</w>
出 血</w>
再 建</w>
落 下</w>
缅 甸</w>
田 舎</w>
患 上</w>
弹 性</w>
キャン ペ
アフ ガニスタン</w>
19 5</w>
鉄 鋼</w>
過ご す</w>
通 勤</w>
繰り 返す</w>
浮 かん</w>
格 达</w>
未 明</w>
放 出</w>
恰 当</w>
开 头</w>
客 场</w>
奥 委会</w>
刑 務所</w>
亡 命</w>
メー ル
ク サ</w>
づ くり</w>
20 a</w>
地 形</w>
交 接</w>
鼓 舞</w>
脸 色</w>
济州 岛</w>
惑 星</w>
头 痛</w>
包 ま</w>
下 手</w>
サラ リーマン</w>
華 やか</w>
日 々</w>
断 定</w>
巩 固</w>
名 片</w>
友 谊</w>
フ ジ
3 1.
言 之</w>
恶 性</w>
市 厅</w>
c e</w>
沃 卡</w>
文件 夹</w>
指挥 权</w>
ad c</w>
用 语</w>
楽 し</w>
亚 军</w>
下 がり</w>
ホル モン</w>
キャンペ ーン</w>
高 龄</w>
护 照</w>
异 议</w>
巴 格达</w>
主持 人</w>
フラン シ
チ ャ</w>
お 菓子</w>
間 違
我 が</w>
恋 愛</w>
マ ス</w>
ボ ル
あ ちこち</w>
香 烟</w>
抑 える</w>
岩 石</w>
テ ッド</w>
セ ミ
t er
过 后</w>
総 連</w>
生 病</w>
混 ぜ</w>
木 村</w>
反 向</w>
ジ ック</w>
ウ ラン</w>
ところ で</w>
配 線</w>
避 开</w>
词 典</w>
薄 い</w>
统计 厅</w>
目 立つ</w>
撤 去</w>
定 年</w>
光 圈</w>
キ ュー
f o
f l
文 艺</w>
打 进</w>
戦 う</w>
克 兰</w>
u b
禽 流感</w>
抜 き</w>
可 怜</w>
三 人</w>
パ ーク</w>
シ ド
n at
踊 り</w>
贩 卖</w>
新 婚</w>
学 系</w>
噪 音</w>
モン ゴル</w>
轿 车</w>
日 記</w>
安 置</w>
お 祝い</w>
検 知</w>
村 子</w>
如 说</w>
助 攻</w>
判 明</w>
な れる</w>
13 8</w>
精 通</w>
时 器</w>
大 法官</w>
价 值
お 知らせ</w>
饺 子</w>
镜 子</w>
金 星</w>
美味 しい</w>
程 式</w>
知 名</w>
界 限</w>
漏 洞</w>
引き 起こす</w>
大 気</w>
伪 装</w>
财经 部</w>
谎 言</w>
农 场</w>
ショ ップ</w>
7 a</w>
バグ ダ
グ レ
走 廊</w>
実 体</w>
定 例</w>
太 平</w>
た た
ase an</w>
197 8</w>
家 電</w>
古 老</w>
マ ウス</w>
スピー カ</w>
カ イ
s 11</w>
3 7.
長 年</w>
调 制
调制 器</w>
繰り 広げる</w>
経 連</w>
牺 牲
提 名</w>
善 意</w>
冒 険</w>
モ ア</w>
t y
dn s</w>
新 西
優 しい</w>
不 信任</w>
一 级</w>
ip h
調 節</w>
脚 步</w>
加 班</w>
光 ディスク</w>
カン ナム
t ft</w>
釈 明</w>
辞 書</w>
熱 い</w>
日 出</w>
平方 米</w>
リ レー</w>
17 3</w>
警察 署</w>
观光 部</w>
模 样</w>
宫 崎</w>
勋 章</w>
スー プ</w>
rf id</w>
规 范</w>
换 言之</w>
巻 き</w>
制 作
遥 控器</w>
褒 め</w>
浪 漫</w>
戦 士</w>
トラ フィック</w>
野 外</w>
自 制</w>
画 質</w>
柔 ら
服 役</w>
中 介</w>
p 9</w>
触 发</w>
视 聴</w>
氧 化
比 べる</w>
彼 氏</w>
大 桥</w>
回 头</w>
冗 談</w>
三 成</w>
カ ップル</w>
n go</w>
av c</w>
肺 炎</w>
春 季</w>
リ ット
on u</w>
难 度</w>
遥 远</w>
給 食</w>
简 化</w>
容 認</w>
实 验
地 狱</w>
バ ード</w>
オリジ ナル</w>
被 災</w>
朴正 熙</w>
普通 人</w>
打 た</w>
家 畜</w>
基 調</w>
取り締 まり</w>
公 团</w>
修 行</w>
ネ イ
5 08</w>
干 线</w>
原 则
冠 军
こんに ち
记 述</w>
点 点</w>
朝 向</w>
搭 载</w>
屋 子</w>
国 軍</w>
ボー ナス</w>
ジェ ット</w>
本 店</w>
報 酬</w>
同 月</w>
制 成</w>
w in
配 分</w>
知ら せる</w>
相 違</w>
拍 照</w>
従 っ</w>
内 申</w>
假 期</w>
一 人
フロ リ
ソ チョ
环 保</w>
没 法</w>
幾 つ</w>
售 价</w>
まだ まだ</w>
電 話
電話 機</w>
用 纸</w>
牙 齿</w>
演 奏
幼稚 園</w>
器 具</w>
具 合</w>
一 道</w>
データ 通信</w>
イ ナー</w>
ap i</w>
防 疫</w>
救 急</w>
政 务</w>
提 供
富 川</w>
宝 座</w>
士 官</w>
倍 率</w>
ワイヤ レス</w>
スタ ンド</w>
ゲ ット</w>
イメー ジ
ip v
3. 5</w>
颁 奖</w>
赌 博</w>
解 答</w>
烈 士</w>
创 造
一 路</w>
ポー ランド</w>
オー ナー</w>
ア カ
重 く</w>
选 択</w>
激 光</w>
参 与
利 己</w>
何 况</w>
万 能</w>
一 点儿</w>
百 货店</w>
界 线</w>
支持 者</w>
拠 点</w>
引っ 越し</w>
叫 び</w>
单 曲</w>
ト ーク</w>
だん だん</w>
碰 到</w>
疎 通</w>
早 饭</w>
助 手</w>
便利 店</w>
一 侧</w>
リット ル</w>
n s</w>
n g</w>
0. 2
见 解</w>
攻 入</w>
侧 面</w>
テ コンド
テコンド ー</w>
長 所</w>
辞 表</w>
赖 斯</w>
贫 穷</w>
談 話</w>
累 積</w>
按 键</w>
公 文</w>
借 助</w>
ク リー
p r</w>
i e
c b</w>
课 外</w>
译 码</w>
废 弃</w>
在 庫</w>
世 上</w>
2 13</w>
198 3</w>
钱 包</w>
目 撃</w>
回 信</w>
わ ら
2 32</w>
骨 折</w>
选择 性</w>
アド フォ
p si</w>
轻 轻</w>
突 发</w>
時 速</w>
佛 罗
キャ ッシュ</w>
こんにち は</w>
go og
社 团</w>
生 效</w>
父 子</w>
格 外</w>
励 まし</w>
ホーム ラン</w>
ネ チ
カ ロ
诱 惑</w>
要 点</w>
编 程</w>
第二 年</w>
毀 損</w>
来 讲</w>
延 坪</w>
学 问</w>
军 方</w>
l 0</w>
老 年人</w>
皇 太子</w>
法 則</w>
教 訓</w>
帰 宅</w>
含 量</w>
占 有</w>
半 个</w>
信号 线</w>
一 阵</w>
i r</w>
木 材</w>
悪 魔</w>
妥 結</w>
プロ デュー
シグナ リング</w>
シ ミュ
高 原</w>
軽 減</w>
贪 污</w>
游 说</w>
導 い</w>
い じめ</w>
頑張 り</w>
身 赛</w>
营 化</w>
热 身赛</w>
深 受</w>
水 产</w>
此 处</w>
援 引</w>
开 花</w>
変 身</w>
体 格</w>
s k
课 长</w>
罪 行</w>
探 査</w>
実 業</w>
女 朋友</w>
共 産</w>
维 生素</w>
经 典</w>
総 括</w>
星期 天</w>
政 務</w>
放 下</w>
広 がり</w>
一 段
一 化</w>
ソ ニー</w>
サブ システム</w>
キャ リ
銀 メダル</w>
退休 金</w>
五 个</w>
ステ ー
た ば
途 径</w>
着 く</w>
率 直</w>
医 学部</w>
争 う</w>
クリ ップ</w>
ウォ ー
t h</w>
関 節</w>
莱 坞</w>
演 绎</w>
戏 剧</w>
好 莱坞</w>
ジェ リア</w>
8 50</w>
着 る</w>
波 束</w>
正 浩</w>
新西 兰</w>
数 料</w>
手 数料</w>
建 成</w>
官 房</w>
增 至</w>
国 产</w>
人 心</w>
バ レー
ne is</w>
6 50</w>
警 報</w>
解 任</w>
荣 获</w>
牵 制</w>
常 见</w>
パ ット</w>
バグダ ッド</w>
購 買</w>
見 返り</w>
萝 卜</w>
生 計</w>
显 然</w>
充 实</w>
下 がる</w>
閲 覧</w>
规 章</w>
種 々</w>
步 伐</w>
打 つ</w>
巧 妙</w>
尽 力</w>
基 文</w>
国 债</w>
各 社</w>
インデ ックス</w>
韩 方</w>
読み 出す</w>
伸 出</w>
さ さ
该 报</w>
最小 限</w>
占 領</w>
协 同</w>
辛 い</w>
国 道</w>
代 换</w>
テレ ビ
c ia</w>
生 物
演 劇</w>
没 收</w>
李 光
干 什么</w>
奥 斯
愛 する</w>
動 揺</w>
元 和</w>
价值 观</w>
カ ネ</w>
あ い</w>
7 0
零 下</w>
皆 様</w>
殺 到</w>
无 可</w>
拉 面</w>
応 募</w>
上 旬</w>
ク ソン</w>
sn r</w>
酸 化</w>
装 箱</w>
確 信</w>
折 り
多 元</w>
セミ ナー</w>
ば す</w>
骄 傲</w>
見 込み</w>
相 继</w>
汇 报</w>
智 利</w>
悲 劇</w>
on u
示 板</w>
极 度</w>
宅 地</w>
多 亏</w>
外 观</w>
公 然</w>
ジョ ー
mb ps</w>
c t
疲 惫</w>
減 る</w>
地 名</w>
化 妆</w>
アク セ
ア ップ
ht tp</w>
近 接</w>
盛り 込ま</w>
物 理学</w>
施 压</w>
年 少</w>
地 板</w>
受 付</w>
倾 听</w>
スポ ン
白 く</w>
望 み</w>
指 派</w>
固 め</w>
交 付</w>
プロデュー サー</w>
ブル ク</w>
アイ コ</w>
4 500</w>
贵 族</w>
終 える</w>
石 神</w>
安 慰</w>
华 尔
前 身</w>
制造 商</w>
产 量</w>
フジ テレビ</w>
シ ウム</w>
补 习班</w>
税 法</w>
民 衆</w>
抗 争</w>
小 麦</w>
在 日</w>
同 点</w>
制 約</w>
ハリ ウッド</w>
w o
文 句</w>
取り 入れ</w>
保 罗</w>
ショ ッピング</w>
罪 名</w>
廊 下</w>
宝 物</w>
配 布</w>
辞 め</w>
董事 长</w>
結 び
快 要</w>
外 資</w>
傍 晚</w>
不 況</w>
め よ</w>
迷 っ</w>
警 卫</w>
移 住</w>
画 质</w>
拉 姆</w>
左 翼</w>
全 程</w>
不 说</w>
マ リ
マ ク
き い</w>
按 摩</w>
寺 庙</w>
フ ル</w>
スカ ート</w>
おじい さん</w>
连 带</w>
起こ り</w>
法 律
机 能</w>
待 机</w>
一 次
メモ リー</w>
ブ ロ
ゲ ン</w>
c ch</w>
9 -
頂 点</w>
自 責</w>
假 如</w>
ネット ワーク
まず は</w>
それ に</w>
この 世</w>
g n
鲜 明</w>
阐 述</w>
逆 转</w>
舒 适</w>
渠 道</w>
抱 怨</w>
封 建</w>
傷 つけ</w>
ニュー ジー
l c</w>
c r
全 党</w>
ヘ ン</w>
ニュージー ランド</w>
キ ュー</w>
w md</w>
高 山</w>
近 平</w>
蒙 古</w>
絞 り</w>
整 合</w>
广 域</w>
南 极</w>
剧 增</w>
オ ス</w>
アメ リ
た り
筹 备</w>
掲 示板</w>
发 布
功 能性</w>
パン ダ</w>
バレー ボール</w>
あ そこ</w>
i b</w>
顔 色</w>
調 子</w>
方 程式</w>
払 わ</w>
手 帳</w>
家 事</w>
参 见</w>
习 近平</w>
罪 犯</w>
真 心</w>
无 比</w>
市 政府</w>
展 示
告 别</w>
み れ</w>
b 3</w>
积 分</w>
渴 望</w>
杭 州</w>
想 想</w>
容 忍</w>
响 起</w>
一 律</w>
テ ジョン</w>
いっ しょ</w>
離 れる</w>
鑑 定</w>
议 席</w>
攻 略</w>
射 门</w>
偿 金</w>
コ ネ
り 物</w>
つなが り</w>
ず る</w>
19 1</w>
関 西</w>
装 着</w>
若 手</w>
緊 密</w>
禁 じ</w>
画 片</w>
屈 服</w>
プレ クサ</w>
一 刻</w>
3 18</w>
潘 基文</w>
播放 器</w>
壁 画</w>
依 旧</w>
オ イル</w>
go p</w>
198 1</w>
金 元</w>
狮 子</w>
物理 层</w>
航 线</w>
早 日</w>
敬 意</w>
抗 日</w>
吐 露</w>
創 作</w>
保 安
闻 名</w>
迪 拜</w>
暗 く</w>
情 报
必 死</w>
孔 子</w>
北 朝</w>
会议 室</w>
一 把</w>
チュ ング・
チ ン
韩 亚</w>
遗 症</w>
逐 步</w>
素 数</w>
稼 い</w>
为 人</w>
ドキュ メン
ジ ニア</w>
クロ ス</w>
s m
遺 跡</w>
打 造</w>
快 点</w>
小 孩子</w>
容 纳</w>
デザ イナー</w>
p a</w>
2 52</w>
贵 重</w>
误 会</w>
増 し</w>
埋 葬</w>
付き 合い</w>
ヤ ン・
いら っしゃ
17 00</w>
肖 像</w>
次 回</w>
扱 い</w>
崔 某</w>
展 览</w>
大 王</w>
台 数</w>
动 产</w>
別 に</w>
スチ ック</w>
特 例</w>
波 及</w>
据 此</w>
得 主</w>
审判 员</w>
勲 章</w>
佛罗 里
ハ ナ</w>
ティ ング
ジョ ブ
l 2</w>
at e</w>
速 滑</w>
说 起</w>
挽 救</w>
已 故</w>
二 十
リン ゴ</w>
サ ミット</w>
40 .
3 9.
12 a</w>
駐 留</w>
阐 明</w>
配 件</w>
玄 関</w>
扩 张</w>
学 力</w>
卡 拉</w>
光 栄</w>
ヴ ァ
ユ ナイ
ポ ン</w>
タ グ</w>
15 3</w>
知 的</w>
散 布</w>
揭 露</w>
展 出</w>
动 画片</w>
前 期</w>
决 定性</w>
中 方</w>
ニ ール</w>
ん 中</w>
ら さ</w>
规 律</w>
报 复</w>
ショ ート
3 3.
薬 物</w>
曖 昧</w>
戦 後</w>
奥 さん</w>
单 一化</w>
ビ ング</w>
バッ テ
コン ディ
だ ら
nas a</w>
関 わら</w>
在 场</w>
军 部</w>
一 夜</w>
ベー ス
ハ ー</w>
なる ほど</w>
票 房</w>
新 入</w>
德 克萨斯</w>
大 和</w>
图 表</w>
否 决</w>
事 后</w>
上 程</w>
プラ スチック</w>
グ ル
用 水</w>
抛 弃</w>
哈 哈</w>
一 首</w>
マイ ケル</w>
ポ ルト
フェ スティ
ド バイ</w>
题 为</w>
蔵 庫</w>
源 泉</w>
海 面</w>
急 性</w>
医 师</w>
下 流</w>
キョンギ ド</w>
アバ タ</w>
諦 め</w>
立 証</w>
知 名
知名 度</w>
民 营化</w>
极 化</w>
悉 尼</w>
学生 会</w>
告 訴</w>
ティ ー
シド ニー</w>
ろ い</w>
が れ</w>
3 8.
魔 女</w>
瘫 痪</w>
極 端</w>
格 付け</w>
李 荣
很 小</w>
地 被</w>
在 宅</w>
共同 体</w>
人民 共和国</w>
一 生
一 一</w>
ユナイ テッド</w>
トヨ タ</w>
b da</w>
9 5%</w>
战 线</w>
我 方</w>
6 01</w>
2 56</w>
過 激</w>
行 星</w>
湿 度</w>
死 亡
ぶつ かっ</w>
ma x</w>
难 题</w>
賭 博</w>
罗 伯特</w>
查 找</w>
数 え</w>
手伝 っ</w>
定 向</w>
圣 火</w>
吸 っ</w>
博 覧</w>
免 税</w>
配 備</w>
碰 撞</w>
民 政</w>
收 拾</w>
憧 れ</w>
录 用</w>
引き 出し</w>
奉 仕</w>
处 以</w>
不 必要</w>
ブリ ッジ</w>
お しゃ
随 行</w>
踏 ん</w>
起 初</w>
职 权</w>
知り 合い</w>
气 象</w>
既 是</w>
尽く す</w>
好 適</w>
哥 伦
ボン フレ
累 积</w>
独 身</w>
气 息</w>
干 燥</w>
动物 园</w>
下 车</w>
三 十</w>
ッチ ング</w>
表 記</w>
续 费</w>
手 续费</w>
惩 戒</w>
卓 越</w>
ミ ャン
ひ っ
うれ しい</w>
pd a</w>
l ut</w>
手 动</w>
ボンフレ ール</w>
グン ヘ</w>
s 4</w>
顶 点</w>
赤 く</w>
无 能</w>
外 援</w>
ミャン マー</w>
フェスティ バル</w>
s d
3 16</w>
高 まる</w>
靖 子</w>
波 兰</w>
厳 格</w>
勝 ち
イ チ
か の</w>
歌 剧</w>
时 常</w>
幹 事</w>
分 析
上 将</w>
s of
5 30</w>
近づ く</w>
招 く</w>
左 边</w>
多 国</w>
ゼ ネ
ま じめ</w>
页 面</w>
頼 ん</w>
野 田</w>
此 项</w>
本 日</w>
支 障</w>
信 じる</w>
人 選</w>
ジ アラビア</w>
サウ ジアラビア</w>
っ と
t f</w>
a 4</w>
绘 画</w>
想 吃</w>
修 生</w>
丑 闻</w>
うな ず
薪 水</w>
着 陸</w>
怀 念</w>
レ ント</w>
スケジュー リング</w>
クリ ック</w>
オ ク</w>
h y
餐 馆</w>
男 朋友</w>
形 容</w>
发 动机</w>
偵 察</w>
タ ッチ</w>
sn s</w>
高 峰</w>
直 升</w>
残 す</w>
弥 补</w>
完 工</w>
安 德
大 勢</w>
交 际</w>
s f</w>
邻 近</w>
运 命</w>
申し 上げ</w>
现代 化</w>
準 決勝</w>
毕 竟</w>
全球 化</w>
ナム ド</w>
お さ
i 0</w>
飞 跃</w>
都 内</w>
艰 苦</w>
美 しく</w>
新 興</w>
戦 線</w>
后 遗症</w>
入 札</w>
代 案</w>
不 成</w>
メ ガ
ドジャ ース</w>
タン ク</w>
アドフォ カート</w>
难 得</w>
洗 っ</w>
決 算</w>
懂 得</w>
悪 口</w>
引き 起こし</w>
储 存</w>
コ ロ
っ た
だ い
该 片</w>
持 分</w>
家 乡</w>
国 营</w>
合 致</w>
不 容</w>
ポルト ガル</w>
バ ナ
13 7</w>
电 波</w>
加 剧</w>
书 面</w>
なく し</w>
いただ い</w>
6 30</w>
聘 请</w>
纯 粹</w>
窓 口</w>
确 信</w>
招 牌</w>
負 わ</w>
维 新</w>
熟 知</w>
大 城市</w>
伴 い</w>
にわ たる</w>
か ぶっ</w>
血 糖</w>
探 测</w>
意 料</w>
弊 社</w>
大き かっ</w>
图 书</w>
ス キャン
te d</w>
走 上</w>
议 书</w>
栅 极</w>
学 金</w>
奔 跑</w>
不 一定</w>
n r</w>
较 为</w>
老 板</w>
着 き</w>
庭 院</w>
大 自然</w>
同 居</w>
にお い</w>
2 42</w>
19 00</w>
饮 酒</w>
農 家</w>
生 ん</w>
最高 值</w>
扣 留</w>
封 闭</w>
哭 泣</w>
取 代</w>
ング ン</w>
ナ ム・
わざ わざ</w>
連 休</w>
聞 き
指 針</w>
恶 意</w>
ト リ</w>
コンビ ニ</w>
s 7
pp m</w>
院 子</w>
農 場</w>
较 量</w>
赴 任</w>
敌 对</w>
加 速度</w>
ド ク</w>
チュ ・
イ・ スン
t l</w>
r a</w>
面 谈</w>
金 善
転 落</w>
発 効</w>
月 刊</w>
同 名</w>
原 案</w>
决 不</w>
スー ツ</w>
秋 季</w>
撮 り</w>
密 接</w>
報 復</w>
堆 积</w>
农 林
下 一代</w>
ナショ ナル</w>
集 まる</w>
工 夫</w>
品 物</w>
力 度</w>
光 荣</w>
东 洋</w>
い ら</w>
财产 税</w>
笔 记</w>
次 郎</w>
次 序</w>
失 い</w>
东 大</w>
e l</w>
集 装箱</w>
问 候</w>
电 梯</w>
爱 国</w>
少 量</w>
天然 气</w>
人民 元</w>
パク・ グンヘ</w>
ば っ</w>
lo v
睡 着</w>
消 極</w>
扩 充</w>
强 迫</w>
境 内</w>
冷 蔵庫</w>
作 動</w>
休 闲</w>
プレミ ア</w>
4 16</w>
17 2</w>
韩 语</w>
辞 呈</w>
若 是</w>
盗 ん</w>
異 例</w>
牧 师</w>
連 想</w>
要 件</w>
眼 中</w>
真 ん中</w>
新 作</w>
夸 张</w>
リ ディア</w>
パー セント</w>
ばあ さん</w>
p n</w>
设 定值</w>
読み 取る</w>
万 博</w>
たば こ</w>
连 任</w>
评论 家</w>
セ レ
サン フランシ
p sk</w>
話 せ</w>
秉 烈</w>
渋 谷</w>
事 堂</w>
ナ ビ
いっ そう</w>
隠 さ</w>
生 え</w>
最大 值</w>
往 復</w>
开 玩笑</w>
剪 辑</w>
冲 縄</w>
个 体</w>
サンフランシ スコ</w>
ウォ ル</w>
イン スタ
頼 り</w>
阿 尔</w>
配 器</w>
还 给</w>
番 目</w>
界 面</w>
無 限</w>
校 内</w>
市 立</w>
対 称</w>
動 機</w>
コ ロン
b bc</w>
申请 书</w>
断 言</w>
将 近</w>
实 地</w>
叩 い</w>
取り 戻す</w>
取 胜</w>
値 する</w>
伝 説</w>
ン ズ</w>
パ ネル
隠 す</w>
長 男</w>
感 光</w>
司令 官</w>
収 賄</w>
ポリ シー</w>
プ タ</w>
間違 え</w>
毎 朝</w>
极 限</w>
开 会</w>
叔 叔</w>
シャ ル
ギ ター</w>
ご く</w>
f l</w>
8 04</w>
送 往</w>
百 分之</w>
心 态</w>
幸 運</w>
ロ グ
ど れ
a bc</w>
財 閥</w>
減 り</w>
海 拔</w>
死 に</w>
奖 杯</w>
フェ チャン</w>
訊 い</w>
真 似</w>
爆 撃</w>
游 泳
有 機</w>
日 光</w>
敵 対</w>
排 球</w>
开 业</w>
害 人</w>
夜 間</w>
墙 上</w>
フォル ダ</w>
い よ</w>
p ro
金 泰</w>
遺 症</w>
視 野</w>
牧 師</w>
烟 花</w>
後 遺症</w>
发 型</w>
パス ポート</w>
バレ ル</w>
タ リー</w>
ア リ</w>
iph one</w>
自 民</w>
样 品</w>
慌 て</w>
塔 利
塔利 班</w>
发布 会</w>
一生 懸命</w>
ウェ ート</w>
i ee
20 30</w>
贈 り物</w>
恐 慌</w>
专 科</w>
诚 意</w>
解 开</w>
温 和</w>
接 任</w>
恶 魔</w>
大 奖</w>
压 倒
压倒 性</w>
上 年</w>
ハン グル</w>
コンディ ション</w>
カラ オ
面 談</w>
阪 神</w>
长 安</w>
遺 憾</w>
通 路</w>
拳 击</w>
幼 稚</w>
奖 学金</w>
外 し</w>
西 藏</w>
营 造</w>
美 洲</w>
立 案</w>
有 無</w>
忍 者</w>
弁 護</w>
6 40</w>
録 画</w>
视 察</w>
班 级</w>
现 役</w>
旧 金山</w>
応 え</w>
就 读</w>
周 五</w>
制 订</w>
代 金</w>
上 垒</w>
4. 5</w>
高 喊</w>
線 形</w>
竞 赛</w>
玫 瑰</w>
忠 実</w>
必 定</w>
引き 継ぎ</w>
工 作者</w>
哈 佛</w>
可 愛
厚 い</w>
六 个</w>
どれ ほど</w>
经济 界</w>
疑 似</w>
渋 滞</w>
摩 托
开 拓</w>
布 莱
向 着</w>
光 纤</w>
你 好</w>
伴 っ</w>
d e</w>
预 料</w>
西 南</w>
磋 商</w>
支 票</w>
北 米</w>
内 科</w>
s v
4 11</w>
3 5
身 心</w>
衬 衫</w>
葬 儀</w>
煽 动</w>
好 転</w>
偏 见</w>
侨 胞</w>
严 峻</w>
一 等</w>
リ ラ
李 凤
杀 死</w>
年 寄り</w>
将 兵</w>
天 安
变 量</w>
兑 换</w>
伤 口</w>
一次 性</w>
ブレ ット</w>
ふ る
ic e</w>
2 64</w>
言 语</w>
習 近</w>
忙 碌</w>
听 见</w>
合 物</w>
充 足</w>
倒 塌</w>
ナ ルド</w>
サー ジ</w>
につ れ</w>
っ ぽ</w>
あ ん
goog le</w>
d i
少 な
周 一</w>
同 比</w>
加 热</w>
不久 前</w>
マン ガ</w>
ター ゲット</w>
やって 来</w>
ぽ う</w>
b i</w>
3 11</w>
2 400</w>
197 3</w>
行 贿</w>
苦 しみ</w>
老 虎</w>
玻 璃
激 化</w>
泳 ぎ</w>
東 京
收 藏</w>
急 が</w>
尺 度</w>
固 件</w>
双 龙</w>
华尔 街</w>
农林 部</w>
全 米</w>
付 款</w>
之 上</w>
世 人</w>
チェ ーン</w>
カ ット</w>
も つ</w>
た ぶん</w>
p 8</w>
较 少</w>
王 室</w>
港 湾</w>
收 益
战 场</w>
奖 赛</w>
大 奖赛</w>
可 読</w>
井 上</w>
マッ チ
10 10</w>
0. 5%</w>
语 法</w>
试 合</w>
老 家</w>
後 継</w>
对 峙</w>
咱 们</w>
半 径</w>
クライ アント
エリ ート</w>
お と
19 72</w>
跨 越</w>
親 善</w>
虐 殺</w>
腹 部</w>
結 ぶ</w>
無 い</w>
对 阵</w>
不 变</w>
ミ キ
タイ マ</w>
ど ころ
键 盘</w>
经济 人</w>
答 える</w>
種 別</w>
电影 院</w>
好 事</w>
外 壳</w>
发 生
医 疗
ア ッ</w>
b r
风 俗</w>
凶 器</w>
便 携</w>
付き 合っ</w>
ファ ーム
チョン・ ドン
ゴ ム</w>
訪 韓</w>
行 走</w>
经 纪
授 与</w>
拿 下</w>
an g</w>
飲 酒</w>
董 事</w>
水 域</w>
斯 特
投 じ</w>
影 子</w>
录音 带</w>
局 所</w>
字 节</w>
全 景</w>
克 隆</w>
上 帝</w>
マッ サージ</w>
ピ ュ
ア ・
もと より</w>
し に</w>
海 兵</w>
无 力</w>
放 进</w>
出 自</w>
もち ゃ</w>
い き
3 8
高 建</w>
铜 牌</w>
金 融
輝 い</w>
说 完</w>
经纪 人</w>
终 结</w>
療 法</w>
景 象</w>
旗 下</w>
干 劲</w>
品 尝</w>
发 掘</w>
割 当</w>
共 产</w>
グラン プリ</w>
もら える</w>
a y</w>
200 9-
0. 0
自 慢</w>
温 かい</w>
清 晰</w>
新 干线</w>
年 会</w>
亿 円</w>
为 难</w>
ツ リー</w>
ダ ヤ</w>
お もちゃ</w>
铃 声</w>
威 特</w>
不 负</w>
リ ビア</w>
過 半数</w>
柯 南</w>
描 き</w>
心 理学</w>
军 团</w>
二 维</w>
リン グ
辐 射</w>
献 身</w>
旺 盛</w>
应 有</w>
垄 断</w>
右 边</w>
利 点</w>
キュー バ</w>
おそ らく</w>
10 000</w>
議 院</w>
行 长</w>
热 爱</w>
晋 级</w>
库 存</w>
圆 满</w>
含 义</w>
光 芒</w>
オ ル</w>
评 选</w>
行 人</w>
芬 兰</w>
管理 者</w>
明 朗</w>
应 付</w>
富 豪</w>
安 倍
声 优</w>
做 完</w>
迎 え
起 因</w>
等 しい</w>
李 斋</w>
效 性</w>
感 度</w>
岭 南</w>
受 注</w>
原 有</w>
军 官</w>
ポー タル
c m
見つ から</w>
坦 白</w>
地 価</w>
半 决赛</w>
再 送</w>
ドライ バー</w>
さ っ</w>
话 语</w>
美 化</w>
短 暂</w>
現 われ</w>
奴 隷</w>
女 神</w>
分 化</w>
主 页</w>
ヨン セ</w>
バン ク</w>
た か</w>
l s</w>
路 口</w>
詰 め</w>
暴 力
得 票</w>
当 たり
幼 儿</w>
千 里</w>
全羅 北道</w>
使 える</w>
住 居</w>
不 堪</w>
ロ バート</w>
ユ ダヤ</w>
ur l</w>
1 2%</w>
震 え</w>
谦 虚</w>
谅 解</w>
茶 道</w>
夜 景</w>
只 需</w>
一 点点</w>
パ フォーマ
ツ イ
197 5</w>
采 集</w>
表 格</w>
深 深</w>
改 名</w>
引 领</w>
倉 庫</w>
上 手
タ ウン</w>
3 80</w>
近 所</w>
打ち 明け</w>
意 気
右 目</w>
公 认</w>
交 部</w>
ファーム ウェア</w>
おか しい</w>
解 说
慰 め</w>
店 员</w>
幕 后</w>
地 主</w>
举 起</w>
ヨ ル</w>
席 位</w>
一般 人</w>
さら なる</w>
阻 挡</w>
礼 貌</w>
尚 武</w>
壊 し</w>
人 情</w>
万 里</w>
マイ ク</w>
ニ ン
く じ</w>
转 播</w>
群 体</w>
相 逢</w>
点 亮</w>
放射 性</w>
东 盟</w>
不 揮発</w>
ジャ ン</w>
ちゃ っ</w>
こ ぼ
か き
自 在</w>
病 情</w>
智 子</w>
星期 五</w>
推 移</w>
回 放</w>
が たい</w>
s y
银 座</w>
殴 打</w>
放 到</w>
总 罢工</w>
当 做</w>
季 后
季后 赛</w>
哪 怕</w>
・ ヨン
シミュ レーション</w>
お ばあさん</w>
韩 元和</w>
経 常</w>
石 炭</w>
固 态</w>
剥 夺</w>
决 断</w>
农 协</w>
了 不起</w>
両 極</w>
ジェ ーン</w>
アカ デ
运 河</w>
纪念 馆</w>
种 族</w>
本 剧</w>
数 千</w>
抖 动</w>
後 方</w>
取 委</w>
公 取委</w>
上 台</w>
ヒ ロ
スコ ア</w>
とう とう</w>
mfp 300</w>
g c</w>
dv i</w>
骑 士</w>
留 言</w>
注 释</w>
桐 原</w>
不 小</w>
テー ション</w>
あ いつ</w>
197 4</w>
進 入</w>
选 挙</w>
瀑 布</w>
汉 阳</w>
星期 六</w>
授 賞</w>
属 し</w>
大 气</w>
再 说</w>
並 べ</w>
プレー ヤー</w>
パフォーマ ンス</w>
オール スター</w>
s n</w>
b 2</w>
长 崎</w>
装 有</w>
缺 席</w>
尽 情</w>
大 街</w>
列 举</w>
不 惜</w>
イ・ フェチャン</w>
解说 员</w>
西 瓜</w>
破 る</w>
欠 け</w>
格 好</w>
扫 除</w>
弾 圧</w>
受 像</w>
イ・ ジョン
ふ さわ
s 5</w>
財 源</w>
英 超</w>
発 達</w>
没 错</w>
明 る</w>
君 たち</w>
供 应
临 床</w>
上 陸</w>
三 菱</w>
ール ズ</w>
ニ ン</w>
スキャ ナ</w>
ウ モ
どころ か</w>
g s</w>
bs r</w>
深 处</w>
協 約</w>
フィン ランド</w>
1 /
. kr</w>
駆け つけ</w>
香 水</w>
目 立っ</w>
撤 収</w>
廉 价</w>
尼 亚
存储 卡</w>
名 叫</w>
传 到</w>
一 支</w>
ハ ード</w>
エ ン</w>
祈 っ</w>
痛 く</w>
整 え</w>
思 维</w>
ド メイン</w>
ト マ
だら け</w>
し ん</w>
e n</w>
14 %</w>
認 知</w>
研 修生</w>
摩托 车</w>
好 意</w>
入 场
仕 様</w>
ポジ ション</w>
カラオ ケ</w>
わざ と</w>
重 子</w>
追い かけ</w>
誘 惑</w>
朝 日新聞</w>
断 开</w>
导 向</w>
主 意</w>
ネズ ミ</w>
ダイ オ
イ・ サン
ad d
李 钟
及 第</w>
卷 入</w>
タ スク</w>
ア ート</w>
r e</w>
隊 長</w>
開 通</w>
逃 亡</w>
群 岛</w>
环 境
浴 衣</w>
实验 室</w>
司法 部</w>
厂 商</w>
残 忍</w>
晋 三</w>
带 给</w>
安倍 晋三</w>
决 策</w>
专 业
ブ ラン
っ ち
o p
b d</w>
近 隣</w>
疯 狂</w>
熟 练</w>
注 釈</w>
暮 らす</w>
好 久</w>
リー ・
パ ッケ
パッケ ージ</w>
9 02</w>
追い 込ま</w>
覆 わ</w>
最高 峰</w>
同 性</w>
十 字
ブ ルー
金 英
給 与</w>
紧 紧</w>
後 任</w>
営 利</w>
保 全</w>
传 输
亲 属</w>
リラ ックス</w>
ビデ オ
クシ ング</w>
エア コン</w>
通 告</w>
调查 组</w>
積 ん</w>
検 疫</w>
招 請</w>
免 許</w>
乱 れ</w>
ポータル サイト</w>
が ん
いっ ぽう</w>
4 8
2 90</w>
说明 书</w>
航 海</w>
盈 利</w>
果 实</w>
例 年</w>
ブレー キ</w>
t un</w>
预算 处</w>
電 池</w>
週 刊</w>
运 营
起 始</w>
研究 组</w>
研 发</w>
水 曜日</w>
境 地</w>
国 語</w>
d f</w>
2 36</w>
綺 麗</w>
猴 子</w>
比 利
寒 く</w>
五 月</w>
プレー オフ</w>
ブ ン</w>
14 3</w>
特 权</w>
很 棒</w>
广 阔</w>
力 士</w>
創 設</w>
レ コード</w>
カ オ</w>
走 过</w>
記 入</w>
拍 卖</w>
悠 久</w>
尔 斯</w>
吉 他</w>
務 める</w>
两 极化</w>
业 主</w>
上 級</w>
レ ポート</w>
エレ ベ
生 息</w>
掩 盖</w>
历 代</w>
o r</w>
抽 象</w>
冷 战</w>
st a</w>
金 大
重 力</w>
行き 来</w>
船 员</w>
统 领</w>
监 听</w>
注 視</w>
方 框</w>
布 団</w>
单 身</w>
チャンピオン シップ</w>
イメージ センサ</w>
特 権</w>
清 廉</w>
偶 数</w>
個 性</w>
一 日</w>
イ・ ヨン
1. 3</w>
論 評</w>
欢 呼</w>
束 缚</w>
数 字
出 題</w>
モニ ター</w>
送 り
興 行</w>
登 り</w>
理事 国</w>
清 掃</w>
损 伤</w>
将 校</w>
和 谐</w>
吹 き</w>
動 く</w>
他 用</w>
ト リー</w>
もた れ</w>
n a</w>
e l
7 12</w>
鲍 威尔</w>
美 子</w>
执行 官</w>
奋 斗</w>
国 庫</w>
9 0
2 21</w>
负 载</w>
満 点</w>
横 断</w>
搬 迁</w>
拥 抱</w>
寄 与</w>
宇 航
変 長</w>
可 変長</w>
前 夕</w>
关 节</w>
不 適切</w>
ブラ ック</w>
つ らい</w>
遺 骨</w>
等 候</w>
相 处</w>
控 股</w>
反 正</w>
利 用
ゅ う
e x</w>
运 転</w>
視 察</w>
外 资</w>
原 点</w>
出 境</w>
出 任</w>
ボ クシング</w>
アカデ ミー</w>
小 切手</w>
实质 性</w>
受け 継
受 光</w>
動 い</w>
休 息
代 価</w>
す り</w>
陛 下</w>
生ま れる</w>
指 针</w>
四 周</w>
参 り</w>
ペ イ</w>
た ま</w>
5 7.
高 騰</w>
集 積</w>
调 味</w>
能 用</w>
精 英</w>
消 える</w>
怎么 会</w>
征 兆</w>
外 れ</w>
ば ら</w>
pl ay
稼 ぐ</w>
流 動</w>
断 固</w>
撞 击</w>
处 长</w>
古 巴</w>
促 使</w>
プライ ド</w>
赞 同</w>
断 面</w>
异 性</w>
养 育</w>
モン スター</w>
ペ ース</w>
パレ スチ
t e</w>
行 进</w>
荒 唐</w>
科 威特</w>
神奈 川</w>
異 議</w>
犹 如</w>
楼 梯</w>
愚 か</w>
对 准</w>
ス ケー
こ り</w>
预 览</w>
落 選</w>
舜 臣</w>
牵 连</w>
水 素</w>
倒 産</w>
世界 级</w>
コー ディング</w>
イン チ</w>
高 地</w>
过 激</w>
轮 廓</w>
计 划
設 ける</w>
电 気</w>
动 议案</w>
ボ ク</w>
ア ス</w>
a b</w>
阳 市</w>
税 収</w>
祭 祀</w>
没 问题</w>
最 短</w>
明 細</w>
搭 配</w>
报 头</w>
左 目</w>
屋 外</w>
事 宜</w>
う わさ</w>
19 68</w>
高 桥</w>
试 听</w>
脱 退</w>
指 纹</w>
打 扮</w>
原则 上</w>
プロ ー
フィ ア</w>
バ カ</w>
j u
辈 子</w>
较 的</w>
败 为
败为 胜</w>
補 欠</w>
生活 费</w>
更 何况</w>
宿 舎</w>
可 疑</w>
冷 戦</w>
使い 方</w>
伯 爵</w>
の ん
どん どん</w>
郑梦 准</w>
装 载</w>
冷 淡</w>
优 胜</w>
中 堅</w>
リ リ
プレ ビュー</w>
パレスチ ナ</w>
び に</w>
长 久</w>
郁 症</w>
皇 室</w>
炎 症</w>
条 纹</w>
ド ーム</w>
ッシ ャ
ク ラ</w>
オ ル
逃 离</w>
英 寸</w>
脱 する</w>
旗 帜</w>
救 護</w>
当たり 前</w>
届 い</w>
小 屋</w>
导 航</w>
ボ ム</w>
ニ ズム</w>
そう した</w>
p 3</w>
15 8</w>
派 出</w>
恥ず かしい</w>
工程 师</w>
地 雷</w>
农 林</w>
冗 長</w>
せっ かく</w>
首 要</w>
金 泳三</w>
棒 球队</w>
揭 示</w>
开 来</w>
安 贞
参 戦</w>
伝 播</w>
u ae</w>
顺 差</w>
被 疑</w>
結 成</w>
流 失</w>
改 组</w>
学 业</w>
古 く</w>
上 半场</w>
フ ード</w>
エ ピ
に も</w>
ic c</w>
h a</w>
这 笔</w>
模 範</w>
孙 子</w>
头 上</w>
内 在</w>
一 層</w>
ウ リ
s 15</w>
警 惕</w>
竹 島</w>
年 均</w>
克 斯坦</w>
ホワイ ト</w>
ヒ ュー
キ ン</w>
いか に</w>
6 12</w>
黒 文字</w>
驻 扎</w>
酒 吧</w>
複 製</w>
芝 居</w>
熱 心</w>
没 事</w>
格 局</w>
善 于</w>
传 球</w>
亲 近</w>
アーティ スト</w>
り に</w>
cpu 11</w>
電 波</w>
移 っ</w>
排 队</w>
必 須</w>
存 取</w>
委 任</w>
奉 献</w>
先 物</w>
下 游</w>
プ ル
パ ノ
错 过</w>
迫 切</w>
農 産物</w>
足 联</w>
李东 国</w>
封 鎖</w>
全 額</w>
主 办
o am</w>
3 22</w>
讲 课</w>
濃 縮</w>
歳 月</w>
增 进</w>
发 货</w>
一 線</w>
一 审</w>
一 丝</w>
ko re
转 为</w>
警察 局</w>
纳 入</w>
張 り</w>
坚 守</w>
升 值</w>
千 叶</w>
全 新</w>
ギ ョ
适 配器</w>
疏 忽</w>
旋 律</w>
幽 霊</w>
学 到</w>
女子 高</w>
在 职</w>
ミル ク</w>
フロリ ダ</w>
タリ バン</w>
コ ナン</w>
2 55</w>
监 测</w>
明 智</w>
无 条件</w>
幼 児</w>
决 胜</w>
农 产品</w>
位 数</w>
中 秋</w>
レ クト
レ ギュ
デジ タル
じ っと</w>
选 项</w>
筷 子</w>
福 島</w>
消 灭</w>
夜 空</w>
塔 尔</w>
和 歌</w>
ク ウェート</w>
ウィ ン</w>
だ い</w>
6. 25</w>
青 山</w>
赤 外線</w>
花 钱</w>
离 子</w>
消 去</w>
李荣 杓</w>
开 朗</w>
小 売</w>
回 戦</w>
台 北</w>
做 饭</w>
ポ スター</w>
n sc</w>
16 5</w>
1 1%</w>
銅 メダル</w>
说 谎</w>
无 核化</w>
报 考</w>
思い 出す</w>
宝 宝</w>
五 年</w>
チャ ー
オ レンジ</w>
警 護</w>
評 論</w>
精 油</w>
浮 出</w>
揺 さ
圆 形</w>
ド レス</w>
ら かの</w>
な ぜ
g 8</w>
a 3</w>
集 群</w>
认 同</w>
蜂 窝</w>
皮 切り</w>
日 増
日増 しに</w>
山 上</w>
好 多</w>
商 標</w>
ヤン キ
ミ ック</w>
カロ リー</w>
アフ ガン</w>
まと める</w>
龙 仁</w>
電 動</w>
退 任</w>
認 定</w>
热 带</w>
承 载</w>
愛 国</w>
倒 闭</w>
アン プ</w>
述 べる</w>
舞 い</w>
流 さ</w>
日 内
日内 瓦</w>
方 形</w>
富 翁</w>
催 促</w>
倒 是</w>
仮 名</w>
三 重</w>
リ ティ</w>
デン マーク</w>
p ar
講 じ</w>
葡 萄</w>
瞄 准</w>
減 免</w>
エレベ ーター</w>
ん やり</w>
なぜ なら</w>
あ く
贯 彻</w>
说 服
脅 かす</w>
細 菌</w>
米 饭</w>
松 田</w>
序 盤</w>
寄 贈</w>
奖 项</w>
嘲 笑</w>
収 穫</w>
劳动 力</w>
一 说</w>
ア イン
19 48</w>
销售 量</w>
殺 さ</w>
手 上</w>
リ ョン</w>
マ ート</w>
おじ さん</w>
e s
3. 5%</w>
送 入</w>
萨 达
电 气</w>
支払 っ</w>
外 観</w>
地方 裁判所</w>
力 以
力以 赴</w>
全 力以赴</w>
セ ックス</w>
b is</w>
进 度</w>
身 后</w>
財 布</w>
解 剖</w>
罢 了</w>
比利 时</w>
案 例</w>
常 用</w>
四 大</w>
出 頭</w>
ka ist</w>
3 2
造 型</w>
设 想</w>
落ち 込ん</w>
消 す</w>
意 義</w>
大 西洋</w>
制 铁</w>
セ ウォル</w>
高 まり</w>
食 材</w>
酱 油</w>
速 やか</w>
过 滤</w>
车 道</w>
河 南</w>
峰 值</w>
尼亚 州</w>
告 发</w>
トラン ス
コー ナー</w>
ウォ ール
いろ んな</w>
r 1</w>
贝 克</w>
说服 力</w>
言い 渡し</w>
萨达 姆</w>
纸 币</w>
死 因</w>
新 罗</w>
抬 起</w>
平 方</w>
巴 塞
务 必</w>
共 振</w>
亚 于</w>
ラン ダム</w>
馆 长</w>
较 小</w>
认 知</w>
低 价</w>
中 共</w>
ス ロット</w>
ょ う
あら か
s 6</w>
马 德
草 原</w>
管 辖</w>
海 南</w>
停 战</w>
sc o</w>
飞 往</w>
陰 謀</w>
逃 げ
若 く</w>
第三 者</w>
特 技</w>
潜 入</w>
履 历</w>
剧 院</w>
メ カ
ドライ バ</w>
mfp 10</w>
運 ん</w>
解 放
見舞 わ</w>
直 至</w>
巴 勒
取 景</w>
倒 し</w>
タイ ン</w>
考 上</w>
用 事</w>
法 规</w>
客 气</w>
伴 随</w>
ヘ リ</w>
バイ オ
やさ しい</w>
そ ろ</w>
証 人</w>
脑 海</w>
管 轄</w>
神 戸</w>
监 察
益 于</w>
班 族</w>
柔 软</w>
德 格</w>
待 た</w>
句 子</w>
体 化</w>
上 班族</w>
ファ ックス</w>
パウ エル</w>
6 08</w>
马 斯</w>
選 任</w>
通 る</w>
计 时器</w>
話 せる</w>
親 子</w>
脱 税</w>
授 受</w>
把 手</w>
天 候</w>
出 名</w>
共同 点</w>
フ ー
ソ ード</w>
ク ローン</w>
ガ ード</w>
ア ピ
pe g</w>
10 02</w>
金 色</w>
远 处</w>
観 衆</w>
未 经</w>
明る み</w>
戒 指</w>
实 物</w>
代 議員</w>
争 っ</w>
ベル ギー</w>
ブ リ</w>
s i
鎮 圧</w>
通 り
期 货</w>
提 倡</w>
大 乱</w>
夢 中</w>
四 年</w>
后 者</w>
分か ち</w>
タ オル</w>
40 9</w>
頷 い</w>
臭 い</w>
美 联
经 合</w>
牺牲 者</w>
特 产</w>
游 戏
派 閥</w>
李凤 柱</w>
是 日</w>
揺 る
小 野</w>
哥伦 比亚</w>
区 役所</w>
ア ップル</w>
は ん</w>
j peg</w>
银 河</w>
総 省</w>
旋 风</w>
忽 然</w>
幽 灵</w>
向 导</w>
十 足</w>
到 期</w>
兄 さん</w>
亚洲 杯</w>
メ ル
ケ ータ</w>
グ ラウンド</w>
金 升
结 成</w>
沉 没</w>
时 事</w>
文 芸</w>
忽 略</w>
加 纳</w>
凶 手</w>
上 游</w>
ム シル</w>
マ ド
カ ギ</w>
4 6.
開 拓</w>
连接 器</w>
极 力</w>
排 序</w>
拖 延</w>
手 当</w>
姉 さん</w>
几 十</w>
其 说</w>
保 守
リ ス</w>
ブ ン
タ ワー</w>
か しく</w>
飞行 员</w>
队 列</w>
連 立</w>
退 屈</w>
精 巧</w>
借 给</w>
信 托</w>
ヨ プ</w>
ダイ ヤ
セキュリ ティ
うま い</w>
p 13</w>
高 潮</w>
観 念</w>
職 権</w>
损 坏</w>
屋 里</w>
多 余</w>
再 婚</w>
不 理</w>
の う</w>
s in
s 104</w>
用 说</w>
水 位</w>
日 韩</w>
国 库</w>
嘴 唇</w>
伝 染</w>
不 用说</w>
下 定</w>
一 月</w>
セロ ナ</w>
ス ル</w>
ク ロー
せ つ</w>
s 21</w>
n ic</w>
2 34</w>
李 宪
復 興</w>
多 彩</w>
国防 総省</w>
出生 率</w>
与 其说</w>
三 角形</w>
so c</w>
s 12</w>
退 党</w>
该 项</w>
納 め</w>
簡 略</w>
早 起</w>
新 星</w>
数 理</w>
受け 止め</w>
中 核</w>
三 つ</w>
モ ンド</w>
ノ ー</w>
キー ボード</w>
ら せ</w>
高 价</w>
言い 方</w>
融 入</w>
答 弁</w>
流 行
歩 行</w>
棄 却</w>
曼 联队</w>
小 朋友</w>
后 方</w>
前 科</w>
ファ クト</w>
ニューヨ ー
ふ たり</w>
あらか じめ</w>
s 202</w>
s 13</w>
面 具</w>
门 票</w>
调 色</w>
裤 子</w>
義 人民共和国</w>
絶 え</w>
民主 主
民主主 義人民共和国</w>
検 定</w>
朝鮮 民主主義人民共和国</w>
早 め</w>
摇 头</w>
愚 蠢</w>
不 能
ニ ックス</w>
197 7</w>
超 過</w>
抜 擢</w>
当 面</w>
国 営</w>
体 型</w>
ボ ス</w>
バル セロナ</w>
ひ そ
つ いで</w>
その うち</w>
q os</w>
11 a</w>
誇 張</w>
技 法</w>
役 者</w>
広 島</w>
小 高</w>
切 実</w>
人 命</w>
て い</w>
8 -
问 到</w>
稍 后</w>
浓 厚</w>
榜 首</w>
手 臂</w>
情 侣</w>
巴勒 斯坦</w>
大 江</w>
印 刷
之 地</w>
中 等</w>
ッ ド
うか が
资 格
给 与</w>
环境 部</w>
無 責任</w>
灭 绝</w>
拉 斯</w>
打 招呼</w>
客 机</w>
多样 性</w>
友 彦</w>
区 内</w>
パノ ラマ</w>
パネル ディスプレイ</w>
2 100</w>
触 れる</w>
知 能</w>
救 济</w>
愛 情</w>
受 赏</w>
前 者</w>
入场 券</w>
スタ ジオ</w>
コミュニ ティ</w>
ゲ イン</w>
わ い
预测 值</w>
过 渡</w>
福 山</w>
总 计</w>
少な から</w>
基 调</w>
反 復</w>
一 台</w>
tr a</w>
陌 生</w>
谢 罪</w>
無 し</w>
施 设</w>
搬 家</w>
拾 取</w>
悪 影響</w>
徒 歩</w>
人 种</w>
チェ ジュ</w>
端 的</w>
新 村</w>
安贞 桓</w>
子 孫</w>
听 力</w>
丹 麦</w>
タッチ パネルディスプレイ</w>
ず い
養 成</w>
自治 区</w>
第 七</w>
押 さえ</w>
媒 介</w>
启 用</w>
动 用</w>
会 える</w>
下 さ</w>
メリ ット</w>
ポー ズ</w>
か ご</w>
お まえ</w>
え て</w>
19 65</w>
詹 姆斯</w>
寄 っ</w>
バ レン
ずい ぶん</w>
3 70</w>
滋 病</w>
泉 水</w>
极 管</w>
患 っ</w>
安 貞</w>
大 震</w>
可 乐</w>
モ ータ</w>
セキュ ア</w>
かわ い
t 3</w>
d sp</w>
频 器</w>
邮 报</w>
赶 上</w>
生 计</w>
期 性</w>
新 生
憧 憬</w>
弾 道</w>
克 里</w>
伤 心</w>
他 方</w>
アニ メーション</w>
8 14</w>
赚 钱</w>
諸 島</w>
老 婆</w>
秘 訣</w>
昂 贵</w>
广 告
带 到</w>
在 籍</w>
千 年</w>
信 者</w>
ス メ
ウォ ル
わ れる</w>
8 20</w>
2 46</w>
19 2</w>
青 色</w>
遭 っ</w>
调 动</w>
自 愿</w>
火 焰</w>
广 大</w>
大 阪
不能 不</w>
コ メディ
エピ ソード</w>
跟 随</w>
流 血</w>
打 倒</w>
宽 带</w>
味 方</w>
割 れ</w>
从 不</w>
二 极管</w>
一 堂</w>
タッチ パネル</w>
シ ュー
とっ くに</w>
う る
p uc
降 到</w>
遗 址</w>
浸 透</w>
朴智 元</w>
处 境</w>
加 油
クォ ーター</w>
オースト リア</w>
铜 像</w>
逃 れ</w>
誘 発</w>
火 力</w>
满 贯</w>
任 せる</w>
ファイ バ</w>
スペ ース</w>
アピ ール</w>
頻 度</w>
重 畳</w>
识 别
自 民
捧 げ</w>
弱 く</w>
太 っ</w>
外 務</w>
壮 大</w>
ヨン サン</w>
ミ ング
デ イ
频 流</w>
霍 温</w>
走 去</w>
视 频流</w>
自民 联</w>
突 破
玉 米</w>
狙 う</w>
接 種</w>
执 着</w>
宋 斗</w>
大 体
传 言</w>
人 造</w>
ふ う</w>
i co
16 %</w>
養 子</w>
野 蛮</w>
配 送</w>
誇 示</w>
微 软</w>
夺 取</w>
坠 落</w>
伴 随着</w>
乌 克兰</w>
一 贯</w>
ポ スコ</w>
フ ィ</w>
トラン プ</w>
ダイオ ード</w>
スタン プ</w>
び り</w>
お れ</w>
g a
2 25</w>
长 子</w>
捕 まえ</w>
微 生物</w>
大体 上</w>
双 面</w>
原子 弹</w>
医 药</w>
レー ン</w>
ポ ピュ
ゼネ スト</w>
クエ スト</w>
か す
4 5
非 公式</w>
間 もなく</w>
背 叛</w>
祝 う</w>
环 节</w>
灭 亡</w>
注 い</w>
岛 屿</w>
合 格
作 弊</w>
イ ェ
ア プロー
つ くる</w>
1. 8</w>
随 即</w>
運 河</w>
比 尔</w>
来 往</w>
力 学</w>
公 众</w>
任 职</w>
頑 丘</w>
视 角</w>
絶 滅</w>
徴 収</w>
布 局</w>
实 况</w>
図 書</w>
台 所</w>
信 託</w>
エ イズ</w>
エ イ
どう か</w>
すす め</w>
陆 地</w>
着 陆</w>
满 分</w>
暑 く</w>
是 正</w>
携 手</w>
拡 充</w>
报 名</w>
彩 票</w>
幅 広い</w>
原 型</w>
一 身</w>
ジュ ース</w>
クライ ナ</w>
アプロー チ</w>
け よ</w>
f lo</w>
co 2</w>
鼓 掌</w>
鳴 っ</w>
飞 船</w>
陥 る</w>
构 思</w>
時 々</w>
攀 登</w>
干 事</w>
声 道</w>
呼び 出し</w>
前 向き</w>
减 弱</w>
写 作</w>
写 下</w>
リバ ウンド</w>
ペ ア</w>
ト ーン</w>
カ テ
ウ ド</w>
ウ クライナ</w>
t v
np t</w>
j o
铅 笔</w>
逆 差</w>
训 练
蒸 気</w>
葡萄 牙</w>
育 児</w>
申 し</w>
沉 浸</w>
机 票</w>
本 田</w>
定 员</w>
固 然</w>
内 政</w>
借 用</w>
不 分</w>
パク・ クン
遵 循</w>
美 食</w>
浴 室</w>
技术 部</w>
専 念</w>
国 産</w>
固 守</w>
再 三</w>
东 山</w>
上 网</w>
イン ジ
さ す
転 じ</w>
臓 器</w>
置 き
百 科</w>
电 信号</w>
沙 良</w>
放 学</w>
化 为</w>
共 鸣</w>
公 交
不 该</w>
万 台</w>
アリ ゾ
1 29</w>
高 額</w>
自 覚</w>
溢 れ</w>
摔 跤</w>
悠 闲</w>
加 わっ</w>
利 比亚</w>
出口 额</w>
ド ル
スティ ー
q u
雅 图</w>
西 雅图</w>
硕 士</w>
带 动</w>
人 性</w>
二 氧化
中 華</w>
ラ ブ
ra n</w>
高 额</w>
骚 扰</w>
順 番</w>
紫 外线</w>
怒 ら</w>
君 主</w>
公交 车</w>
产 业
i k
a w
2 23</w>
香 蕉</w>
邮 票</w>
进 出</w>
角 逐</w>
罗 那</w>
晴 天</w>
无 事</w>
巴塞 罗那</w>
入 场</w>
修 復</w>
ドキュメン タリー</w>
r 2</w>
197 6</w>
驱 逐</w>
说明 会</w>
至 っ</w>
灯 光</w>
控 除</w>
強 要</w>
人 间</w>
一 環</w>
ウェブ サイト</w>
ま もなく</w>
うつ 病</w>
选 者</w>
爆 破</w>
没 落</w>
母 校</w>
时 分</w>
搬 运</w>
徳 川</w>
太 太</w>
修 宪</w>
パク・クン ヘ</w>
3 6
2 ,
赤 色</w>
裙 子</w>
レ ス
ぼ んやり</w>
s 14</w>
f n</w>
c k</w>
麻 痹</w>
进 修</w>
贈 与</w>
読 売</w>
素 直</w>
特 意</w>
洗 澡</w>
星期 一</w>
探 求</w>
押 す</w>
徘 徊</w>
开 放
巻き 起こし</w>
南 極</w>
别 墅</w>
何 らかの</w>
m w</w>
m v</w>
20 b</w>
2. 5%</w>
进 口
说 家</w>
炎 热</w>
死 神</w>
数 十
心 境</w>
刚 好</w>
スキャン ダル</w>
シ リ
あ えず</w>
4 4.
角 落</w>
舰 队</w>
点 燃</w>
灰 尘</w>
海 报</w>
大 满贯</w>
助 長</w>
养 成</w>
バイ オ</w>
さ あ</w>
こ っ
po c</w>
迈 克尔</w>
行 程</w>
照 会</w>
機 卿</w>
枢 機卿</w>
外 貌</w>
出 現</w>
保险 费</w>
传输 线</w>
パ ブリ
驚 き</w>
运 气</w>
边 境</w>
相 连</w>
用 力</w>
漫 长</w>
泪 水</w>
法 务</w>
打 席</w>
小 王</w>
再 選</w>
メカ ニズム</w>
ディ エ
エ ース</w>
エ ク
h dd</w>
b p</w>
8 b</w>
3 7
饥 饿</w>
身 亡</w>
綿 密</w>
混 频器</w>
正 午</w>
李 仁
无 奈</w>
強 盗</w>
地 利</w>
信 件</w>
プロ ファイル</w>
v re
pd cch</w>
i o</w>
排 放</w>
抬 头</w>
后 果</w>
人 参</w>
マッチ ング</w>
フィル ム</w>
ず ら</w>
g sm</w>
漂 流</w>
弹 道</w>
层 次</w>
卫 生
ハ ル
st f</w>
装 甲
电 极</w>
現 況</w>
残 疾</w>
成 都</w>
尔 兰</w>
安 企
安企 部</w>
ア イ</w>
选 中</w>
赛 中</w>
权 重</w>
手 足</w>
勘 案</w>
公 判</w>
位 置
交 戦</w>
一 号</w>
その 間</w>
h p</w>
d ram</w>
衷 心</w>
災 難</w>
水 源</w>
根 絶</w>
染 色</w>
市 庁</w>
尼 尔</w>
告 终</w>
反 击</w>
勤 勉</w>
僧 侶</w>
上 着</w>
ダ リング</w>
u f
4 5%</w>
1. 6</w>
農 協</w>
爱 尔兰</w>
烛 光</w>
歌 迷</w>
役に 立つ</w>
タ レント</w>
クラ スメ
キャリ ッジ</w>
が っかり</w>
20 17</w>
町 村</w>
玩 耍</w>
春 秋</w>
搜 集</w>
性 感</w>
人 件</w>
バン クー
セ ー
アーティ ファクト</w>
紫 色</w>
法 语</w>
梗 塞</w>
加 害</w>
冷 冻</w>
上手 く</w>
レー ダー</w>
逃 跑</w>
致 し</w>
膨 大</w>
糾 弾</w>
発 想</w>
流れ 図</w>
毛 巾</w>
拆 除</w>
封 面</w>
坦 克</w>
和 国际</w>
叠 加</w>
冷 酷</w>
全 域</w>
任 一</w>
下 記</w>
コン バート</w>
クラ スタ</w>
カテ ゴ
じ ゅう</w>
802. 11</w>
预 订</w>
翅 膀</w>
美 方</w>
发生 器</w>
メディ ア
ニ ウム</w>
19 20</w>
13 %</w>
興 味
猪 肉</w>
摇 滚</w>
南 山</w>
世 間</w>
プロ グラ
ド ロ
突破 口</w>
现 政权</w>
無 条件</w>
毎 回</w>
母 乳</w>
欠 席</w>
楽し める</w>
旅 程</w>
当 り</w>
売 ら</w>
光 线</w>
トマ ト</w>
チュ ン</w>
オ ール</w>
win do
o lt
1. 5%</w>
艾 滋病</w>
真 诚</w>
文 法</w>
商 谈</w>
処 方</w>
具 現</w>
不 止</w>
プリン ター</w>
g ui</w>
蝴 蝶</w>
演 变</w>
毒 性</w>
未 满</w>
日 中</w>
属 实</w>
失 业者</w>
乱 数</w>
ばあ ちゃん</w>
h t</w>
4 18</w>
麦克 风</w>
自由 泳</w>
比 如说</w>
步 入</w>
抑 圧</w>
天 文</w>
均 等</w>
口 头</w>
受 講</w>
偏 見</w>
中国 队</w>
フラ イ</w>
バナ ナ</w>
シン グ
う そ</w>
17 %</w>
駆 け</w>
豪 雨</w>
新 建</w>
拥 挤</w>
执 教</w>
受 损</w>
两 只</w>
コンサル ティング</w>
カンナム グ・
s 102</w>
骨 头</w>
鋭 い</w>
締 め
目覚 め</w>
正 解</w>
本 队</w>
接 种</w>
审 核</w>
外 見</w>
仲 良く</w>
ネ ク
オー バー
あ ら</w>
评 为</w>
言い 訳</w>
狭 窄</w>
李 健
撰 写</w>
接 通</w>
先 祖</w>
ty pe</w>
货 车</w>
被 告
自 発</w>
渔 业</w>
沢 山</w>
最 年少</w>
奨 励</w>
ビ ン
アダ プタ</w>
s 101</w>
駐 在</w>
聞こ える</w>
尼 日
小 中</w>
埋 め
公 館</w>
ポ ン
バンクー バー</w>
スイ カ</w>
コス ダック</w>
キロ メートル</w>
iv e</w>
iee e</w>
这 天</w>
賦 課</w>
李宪 宰</w>
明 かり</w>
日 报社</w>
当 场</w>
元 首</w>
ヘ ン
インター リーブ</w>
r tp</w>
l si</w>
飲 ま</w>
降 雨</w>
跳 跃</w>
脱 い</w>
组 装</w>
犹 太
澳 门</w>
派 对</w>
小 提琴</w>
含 める</w>
减 税</w>
ヴ ェ
ロ ナ
ライ ブ
ア ッ
そ も</w>
s 7</w>
用 心</w>
損 傷</w>
年 収</w>
奴 隶</w>
周 波</w>
写 信</w>
代 谢</w>
そ も
h i</w>
2 26</w>
绑 架
着 急</w>
持 久</w>
打 球</w>
幽 默</w>
仮 面</w>
不 动</w>
下 山</w>
セ ラー</w>
キャ ピ
アイ ル
はじ めて</w>
そも そも</w>
p er
b l
4 8.
追 わ</w>
短 道</w>
支 柱</w>
崔 秉烈</w>
填 写</w>
堅 持</w>
传 染
ざ し</w>
け が</w>
onu 20</w>
cc tv</w>
19 69</w>
通讯 部</w>
过 失</w>
辉 煌</w>
被 っ</w>
法 学院</w>
失 真</w>
地 价</w>
地 亚
ヨ ンス</w>
コ エリ
ウル サン</w>
じ っ</w>
麻 痺</w>
罗 德</w>
絶 望</w>
温 哥
排 他</w>
寻 常</w>
对 照</w>
奇 数</w>
危 险
ミ ニ</w>
h i
高 呼</w>
观 众
自 転</w>
自 古</w>
申 智</w>
比 べ
止 まり</w>
国 々</w>
今 や</w>
2 51</w>
筹 措</w>
気に 入っ</w>
抚 养</w>
手伝 い</w>
山 形</w>
前 線</w>
五 十</w>
ド ナルド</w>
ふ り</w>
s10 0
足 协</w>
谋 求</w>
講 座</w>
純 一郎</w>
海 里</w>
水 力</w>
战 国</w>
太 空</w>
創 意</w>
写 上</w>
セ ーブ</w>
のん びり</w>
难 过</w>
独 立
热 量</w>
流 す</w>
機 種</w>
并 用</w>
在 乎</w>
半 月</w>
出 动</w>
ヒロ イン</w>
き 出し</w>
dm z</w>
5 03</w>
这 会</w>
近 似</w>
転 ん</w>
豪 華</w>
見 直す</w>
要 员</w>
活 动
放 ち</w>
对 本</w>
宝 くじ</w>
名 作</w>
入 球</w>
中 型</w>
ヤンキ ース</w>
ど ころ</w>
6 5%</w>
马 路</w>
間 に
重 油</w>
逝 世</w>
生 む</w>
李光 宰</w>
扱 っ</w>
安 価</w>
天 井</w>
制 药</w>
バイ ク</w>
ア トラン
し き</w>
さす が</w>
生物 学</w>
挪 威</w>
性 質</w>
弱 体</w>
复 出</w>
只 顾</w>
书 写</w>
主 旨</w>
メガ ネ</w>
マ スター
テ ロ
の り</w>
sp i</w>
0. 3
财 阀</w>
负 荷</w>
记录 器</w>
美 貌</w>
教 导</w>
弊 害</w>
取り組 ん</w>
制 性</w>
マ カオ</w>
ol t</w>
顶 峰</w>
远 镜</w>
編 入</w>
気 圧</w>
棒 球场</w>
梦 幻</w>
桌 上</w>
暖 房</w>
手 当て</w>
恵 まれ</w>
奥 地利</w>
卡 尔</w>
十 五</w>
偽 装</w>
信 标</w>
交 叉</w>
书 信</w>
チェ リー</w>
イ・ ジェ
ゆ く</w>
4 7.
隔 壁</w>
至 上</w>
特 派</w>
満 期</w>
審 理</w>
大 々
大々 的</w>
国 民党</w>
各 部</w>
借 此</w>
リリ ース</w>
k ia</w>
遗 迹</w>
透 過</w>
检 疫</w>
双 向</w>
切 符</w>
人 前</w>
中国 共産党</w>
丢 弃</w>
マド リード</w>
プロ バイ
ノル ウェー</w>
シ ム・
の 毛</w>
遺 伝</w>
跳 躍</w>
苦 情</w>
确 切</w>
ウェー ブレット</w>
か っこ
盛 期</w>
气 压</w>
残 業</w>
有 空</w>
振り返 る</w>
手 腕</w>
所 周知</w>
協 調</w>
出 乎</w>
偏 っ</w>
众 所周知</w>
プレ ッシャ
テ ル
チ ック</w>
w 1</w>
隣 人</w>
金炳 贤</w>
郑梦 九</w>
運 ば</w>
诊 疗</w>
温哥 华</w>
海 关</w>
泥 棒</w>
日 文</w>
填 补</w>
回 报</w>
テ ント</w>
コネ クタ</w>
b t</w>
越 多</w>
納 税</w>
祝 日</w>
派 系</w>
泰 愚</w>
星期 日</w>
早 急</w>
尼日 利亚</w>
实 性</w>
叫 ぶ</w>
内 蔵</w>
人 权
中 山</w>
上 っ</w>
コエリ ョ</w>
キ リスト
それ だけ</w>
闯 入</w>
金 成
登 る</w>
斜 視</w>
妄 想</w>
参与 者</w>
优 雅</w>
交 响</w>
亚 利
並 み</w>
ロ コ
とり あえず</w>
s 103</w>
鞋 子</w>
異 なり</w>
日 军</w>
描 画</w>
年 龄
口 味</w>
双 边</w>
不 亚于</w>
ナイ ジェリア</w>
テ ム</w>
8 5
頭 取</w>
軍 部</w>
葡萄 酒</w>
現 れる</w>
気 が
担 う</w>
戦 国</w>
強 豪</w>
強 国</w>
展 览会</w>
埃 因
埃因 霍温</w>
刻 ま</w>
酔 っ</w>
退 陣</w>
起 动</w>
落と す</w>
笑 脸</w>
神 户</w>
看 似</w>
点 点头</w>
渡 辺</w>
歓 声</w>
天 生</w>
匂 い</w>
主 导
タ ス</w>
ア プリ</w>
18 2</w>
称 する</w>
私 的</w>
濃 い</w>
总 算</w>
复 数</w>
城 县</w>
十 二
再 起</w>
元 旦</w>
世界 性</w>
不 服</w>
to e
躲 避</w>
责任 感</w>
各 党</w>
反 恐</w>
初 代</w>
まず い</w>
なる べく</w>
つな ぐ</w>
音 调</w>
重 量
跑 道</w>
覆 っ</w>
看 书</w>
爱 心</w>
旧 暦</w>
旅 客
斯 特</w>
加油 站</w>
分 支</w>
做 事</w>
保健 所</w>
ジェ ーム
とん でも</w>
队 友</w>
终 身</w>
汉 堡</w>
极 性</w>
末 端</w>
出生 于</w>
写 到</w>
主 将</w>
ブル ー</w>
シア トル</w>
アクセ サ
か ばん</w>
金 美
退 学</w>
着 用</w>
正 值</w>
无 意</w>
旅 館</w>
投 影
察 觉</w>
员 会</w>
参 战</w>
会 员国</w>
ネ ス
s da
辨 别</w>
绑架 者</w>
渡 る</w>
橄 榄
李健 熙</w>
大 批</w>
大 名</w>
人权 委</w>
ング ク</w>
バー ガー</w>
チ ーズ</w>
ズ ル</w>
カ プ
な う</w>
あわ せ</w>
m en
9 a</w>
2 300</w>
频 谱</w>
電 極</w>
随 机
紙 幣</w>
減 税</w>
河 野</w>
检 讨</w>
李 基
戏 剧
地 道</w>
同 調</w>
ト ー</w>
ぶ ら
40 7</w>
16 7</w>
龙 山区</w>
露 骨</w>
金 鲜</w>
补 贴</w>
着 信</w>
物 种</w>
模 板</w>
政治 性</w>
投 げる</w>
手 動</w>
屈 辱</w>
小 声</w>
历 经</w>
出 示</w>
关 门</w>
アイル ランド</w>
th e</w>
颤 抖</w>
集 训</w>
迎 战</w>
知 人</w>
概 括</w>
指 紋</w>
咖啡 店</w>
トリ ガ</w>
相 扑</w>
明 知</w>
文 人</w>
恨 み</w>
売 春</w>
堵 塞</w>
否 決</w>
叹 息</w>
割 っ</w>
分 断</w>
击 中</w>
万 分</w>
プレイ リスト</w>
タイ ヤ</w>
キャピ タル</w>
アリゾ ナ</w>
ごめ ん</w>
4 80</w>
18 %</w>
送 来</w>
近 郊</w>
警 署</w>
礼 儀</w>
毁 灭</w>
対 面</w>
功 夫</w>
亚利 桑
し り</w>
驾驶 员</w>
遺 物</w>
転 嫁</w>
贫 富</w>
该 书</w>
色 调</w>
絵 画</w>
紧 接着</w>
横 行</w>
搭 乗</w>
指 甲</w>
悲 哀</w>
当 たっ</w>
引き 下げる</w>
帐 篷</w>
増 進</w>
冷 や
决 权</w>
不 和</w>
リ クエスト</w>
ブラ ウ
ピ ン
ハ ラ</w>
ッ タ</w>
カー テン</w>
ウ ソク</w>
わい せつ</w>
あまり の</w>
风 味</w>
震 源</w>
谷 歌</w>
民 情</w>
搞 活</w>
急 忙</w>
年 收入</w>
山 林</w>
労働 省</w>
入 隊</w>
休 戦</w>
不 下</w>
ズ ・
っぽ い</w>
う ら
農 地</w>
无 前例</w>
推 广</w>
年龄 段</w>
外 形</w>
商 标</w>
史 无前例</w>
不 然</w>
ストライ プ</w>
ステ ーション</w>
ア シ</w>
わら ず</w>
ぶ る</w>
p sv</w>
d h
4 5.
香 味</w>
道 的</w>
神 经
祉 垠</w>
码 头</w>
核 查</w>
学 業</w>
奈 美</w>
坡 区</w>
各 项</w>
可愛 い</w>
包 裹</w>
削 弱</w>
人 道的</w>
亲 人</w>
主 題</w>
一 共</w>
レッ スン</w>
c k
风 雨</w>
銅 像</w>
適 正</w>
身 子</w>
試 し</w>
穀 物</w>
打 来</w>
我 军</w>
想 必</w>
开 销</w>
ビ ュー
ビ ニール</w>
スポ ット</w>
キム・ ビョン
ぴ ったり</w>
ni x</w>
遥 控</w>
考 验</w>
狂 热</w>
档 案</w>
根本 上</w>
根 除</w>
日 剧</w>
封 筒</w>
大 河</w>
同性 恋</w>
パー ソ
ら っ</w>
た さ</w>
お もし
s rs</w>
転 写</w>
诱 导</w>
观众 席</w>
致 死</w>
称 賛</w>
無 能</w>
放 量</w>
ビ リ</w>
ば ら
開 会</w>
肯 尼亚</w>
纳 税</w>
移 す</w>
堕 落</w>
医 药品</w>
加 载</w>
ー プ</w>
マルチ プレクサ</w>
ピ ッツ
パイ プ</w>
ジュ ヨン</w>
ジャン ル</w>
カ リ</w>
4 15</w>
肝 臓</w>
维 修</w>
狐 狸</w>
浮 き
有 点儿</w>
就 让</w>
专 职</w>
プライ バ
ブロー カー</w>
エン トロ
龙 马</w>
魅 了</w>
飾 っ</w>
食 料</w>
蓝 图</w>
眺 望</w>
栄 光</w>
服 務</w>
完 毕</w>
ビー コン</w>
カ レー</w>
s 204</w>
d ct</w>
8 12</w>
4 24</w>
閉 じ
越 大</w>
誰 か</w>
补 选</w>
航 行</w>
牽 引</w>
特 兰
混 雑</w>
戦 っ</w>
惨 败</w>
态 势</w>
山 脉</w>
居 住
ペ ク・
フェ イス</w>
で る</w>
髪 の毛</w>
难 者</w>
買い 入れ</w>
调查 团</w>
营业 额</w>
聖 火</w>
病 床</w>
浏 览
流 逝</w>
様 式</w>
新 娘</w>
年 上</w>
喜 好</w>
及 ぶ</w>
募 捐</w>
冲 动</w>
中 古</w>
一 幕</w>
スト ラ</w>
ま わり</w>
u dp</w>
g pp</w>
颁 发</w>
露 天</w>
関 わっ</w>
重 启</w>
観 戦</w>
素 质</w>
祝 賀</w>
津 贴</w>
当 代</w>
听 听</w>
ポピュ リズム</w>
ビ ット
キ ック</w>
り ん
2 44</w>
说 来</w>
虚 构</w>
背 负</w>
海 盗</w>
決 まる</w>
教 工</w>
委 託</w>
天 上</w>
冰 上</w>
ヶ 所</w>
ドゥ ン
ツ ー
けん か</w>
8 01</w>
黄 色
诈 骗</w>
臨 床</w>
编 入</w>
武 将</w>
接 し</w>
排 放量</w>
感 慨</w>
去 る</w>
化 合物</w>
众 人</w>
中 队</w>
マ ニュ
バー スト</w>
チョン・ドン ヨン</w>
ア ス
り 出し</w>
い て
金美 贤</w>
起 飞</w>
誠 意</w>
胳 膊</w>
循 环
厌 恶</w>
制 し</w>
一 个
ほん の</w>
p m</w>
in g
法律 界</w>
母 子</w>
封 印</w>
夺 走</w>
天 天</w>
大 道</w>
味 わっ</w>
兼 任</w>
公 馆</w>
体 能</w>
亚 特兰
二 战</w>
プライバ シー</w>
ジ ング</w>
ケ ン
f rb</w>
飲み 物</w>
随机 数</w>
直 線</w>
气 势</w>
既 知</w>
招 集</w>
康 复</w>
剽 窃</w>
公 会</w>
並 行</w>
一 览</w>
マ ニア</w>
マ イル</w>
フェ ルド</w>
ディ ズ
べ り</w>
l i
納 付</w>
热 心</w>
時 には</w>
摔 倒</w>
ミ ー
インジ ケータ</w>
ご ま
f d</w>
d ba</w>
3 15</w>
钓 鱼</w>
百 年</w>
堅 固</w>
乡 村</w>
プ ラン
イ ケ
や る
お け</w>
w s
p ap
ne ws</w>
5 5.
14 7</w>
輪 郭</w>
画 期
画期 的</w>
景 点</w>
採 決</w>
従 い</w>
岛 县</w>
始 于</w>
天 文学</w>
大 都会</w>
ユー モア</w>
t b</w>
r l</w>
非 公開</w>
轻 轻
製 薬</w>
歩 道</w>
折 磨</w>
师 团</w>
在 職</w>
减 去</w>
元 前</w>
一 举</w>
ラム ズ
パク・ チャン
ト ップ
コロン ビア</w>
キム・ ソン
れ よ</w>
だ ち</w>
s 106</w>
8 5%</w>
駆 使</w>
重 组</w>
色 素</w>
舰 艇</w>
滑 雪
書 籍</w>
暗 杀</w>
教 练
忙 于</w>
四 国</w>
变 数</w>
切 实</w>
入 出力</w>
たま に</w>
h 1
静 态</w>
雨 水</w>
邮 局</w>
迫 る</w>
立 体
画 廊</w>
牽 制</w>
曹 溪</w>
时 局</w>
布 鲁
尔 蒙</w>
一 辈子</w>
スト レ
サ ギ</w>
17 4</w>
韩 明淑</w>
让 给</w>
耐 克</w>
纪 录
放 火</w>
我 が
小 李</w>
学 士</w>
北 京
偷 偷</w>
亲 手</w>
中 坚</w>
イ・ ヘ
りん ご</w>
nat o</w>
醤 油</w>
薄 く</w>
荷 尔蒙</w>
绿 茶</w>
生き 残る</w>
溶 け</w>
每 桶</w>
杀 人
时 会</w>
新 人
拷 問</w>
护 理</w>
彫 刻</w>
尤 为</w>
守 旧</w>
子 会社</w>
出 かける</w>
ラ ド</w>
マー ケット</w>
ブ ク</w>
ハ ム</w>
いつ の
f p</w>
请 愿</w>
税 関</w>
移 除</w>
未 遂</w>
承 知</w>
手 套</w>
总 统
孩 儿</w>
优 美</w>
二氧化 碳</w>
ルー チン</w>
パク・ チ
o l</w>
dp f
ad f</w>
问 问</w>
醒 来</w>
西 区</w>
表 彰</w>
民 法</w>
張 る</w>
开 创</w>
巴 拉克</w>
协 议书</w>
医 科</w>
刻 画</w>
一段 落</w>
マ ウンド</w>
ジ ム</w>
にぎ やか</w>
r sa</w>
co n
5 14</w>
20 18</w>
鉴 于</w>
洗 衣
機 動</w>
日 式</w>
前 线</w>
ロコ シ</w>
コー ラ</w>
イ ノ
つ き
ち ま
it ter</w>
f al
5 6.
親 日</w>
球 速</w>
東 西</w>
日 立</w>
教育 费</w>
帝 王</w>
工 艺</w>
家 务</w>
子 弹</w>
可 不</w>
剧 团</w>
亚特兰 大</w>
アイ テム</w>
こ め</w>
马 克</w>
願 う</w>
纪录 片</w>
毒 素</w>
果 て</w>
支払 わ</w>
换 算</w>
心 地</w>
天 体</w>
商 社</w>
作 废</w>
ト ウモ
トウモ ロコシ</w>
チャ ・
タイム ス</w>
シ ード</w>
イン セン
3 9
2 28</w>
饲 养</w>
限 っ</w>
閉 め</w>
賛 否</w>
线 缆</w>
禁 煙</w>
流 向</w>
持ち 主</w>
开 学</w>
在 哪</w>
吸 い
利用 者</w>
中 道</w>
ま つ
h1 n1</w>
8 06</w>
除 け</w>
闪 存</w>
里 子</w>
船 上</w>
祈 る</w>
燃 やし</w>
暂 定</w>
文 学
修 士</w>
ガソ リン
た ど
s h</w>
飢 え</w>
长 野</w>
诽 谤</w>
西 海岸</w>
西 斯</w>
自 社</w>
胞 胎</w>
水 路</w>
気 配</w>
方 々</w>
搞 笑</w>
所 未
展示 会</w>
射 线</w>
实 质</w>
右 图</w>
共 用</w>
克里 斯</w>
ユニ ホーム</w>
テク ノ
テ リア</w>
ケ ニア</w>
頭 山</w>
维 斯</w>
空 前</w>
破 格</w>
现 地</w>
柔 和</w>
忠 实</w>
往 常</w>
圣 地亚
参 选</w>
出 会う</w>
内 存</w>
公 募</w>
ラムズ フェルド</w>
パ パ</w>
と き
ro m
13 9</w>
釣 り</w>
财 源</w>
维 亚</w>
照 らし</w>
气 味</w>
机 体</w>
时 计</w>
张 某</w>
店 内</w>
十 几</w>
亲 身</w>
一 族</w>
ラ ベル</w>
セ ジョン</w>
ウリ ィ</w>
よ し</w>
hy nix</w>
1. 1</w>
運 ぶ</w>
狂 っ</w>
松 懈</w>
来 年度</w>
机 动</w>
只 想</w>
ボ ート</w>
通 じる</w>
豚 肉</w>
脾 气</w>
機 嫌</w>
朝鲜 人</w>
易 斯</w>
弯 曲</w>
宇 宙
女 主角</w>
咲 い</w>
ベ ン</w>
だ から
そろ そろ</w>
w or
lov e</w>
0. 1%</w>
过 剩</w>
路 程</w>
空 虚</w>
積 み
熾 烈</w>
点 钟</w>
温 家宝</w>
様 相</w>
導 く</w>
大 橋</w>
名 所</w>
今 晩</w>
不 前</w>
コ ク</w>
オ ロ
エ ネ</w>
k b</w>
it y</w>
4 9.
0. 2%</w>
禁 烟</w>
痛 快</w>
浏览 器</w>
松 山</w>
本 屋</w>
望 ましく</w>
拥 有
座 り
对 付</w>
孙 鹤
商 场</w>
取り組 む</w>
保险 金</w>
人 手</w>
エド ガー</w>
つま らない</w>
こ し</w>
p dp</w>
辩 解</w>
芝 生</w>
砲 撃</w>
白 頭山</w>
犹太 人</w>
活 気</w>
水 量</w>
正 体</w>
强 风</w>
强 奸</w>
兼 ね</w>
关 键
リ ハ
やる 気</w>
t dma</w>
赵 某</w>
谐 振</w>
捉 え</w>
惨 事</w>
小 沢</w>
对 称</w>
多 于</w>
国 債</w>
ログ イン</w>
パ ク</w>
み 付け</w>
なく なる</w>
つ め</w>
4 21</w>
高 性能</w>
间 関</w>
这 不</w>
襲 っ</w>
脑 子</w>
组 赛</w>
理 应</w>
曲 がっ</w>
押し 寄せ</w>
大 连</w>
多 哈</w>
多 功能</w>
圣地亚 哥</w>
动 荡</w>
供 电</w>
以 南</w>
亲 眼</w>
スピー チ</w>
ジュ ニア</w>
まさ か</w>
飼 っ</w>
組 ん</w>
治 理</w>
果 汁</w>
整 整</w>
成 田</w>
性 命</w>
循环 赛</w>
半 天</w>
会 费</w>
ジュ ネ
ろ す</w>
お すすめ</w>
hd d
雑 音</w>
長 寿</w>
産 地</w>
生 动</w>
可 変</w>
华 社</w>
出 租</w>
ピ ース</w>
m ic
16 4</w>
首 映</w>
眼 里</w>
相 変
相変 わらず</w>
無 人</w>
浑 身</w>
小 規模</w>
四 月</w>
合 器</w>
双 子</w>
中 枢</w>
に あたる</w>
gb r</w>
蛋 白</w>
目 睹</w>
減 算</w>
支 承</w>
換 える</w>
嫌疑 犯</w>
发 性</w>
出 土</w>
休 む</w>
乱 用</w>
ム ズ</w>
フラン ス
ナイ フ</w>
す く
0. 1</w>
築 い</w>
申 氏</w>
样 式</w>
树 林</w>
小 规模</w>
多 発</w>
制 约</w>
上 层</w>
ヒ ー
ナビ ゲ
この ほど</w>
m 2</w>
c ap
9 20</w>
贤 振</w>
老 是</w>
继 承
撤 廃</w>
戸 籍</w>
平 原</w>
宽 容</w>
基 金
公 务</w>
专业 性</w>
一 目</w>
ネチ ズン</w>
お 昼</w>
面 孔</w>
沿 海</w>
大 した</w>
分 明</w>
人 次</w>
p 12</w>
io n
饭 菜</w>
行 政
省 エネ</w>
盗 用</w>
树 枝</w>
千 米</w>
功 臣</w>
さら さ</w>
w tr
p us
4 ,
18 1</w>
选 区</w>
进 出口</w>
这 时候</w>
赛 后</w>
注意 力</w>
指 輪</w>
其 间</w>
三 月</w>
リン ク
っ て
u p
2 3%</w>
重 み付け</w>
透 过</w>
衡 量</w>
申し 込み</w>
海 贼</w>
有 无</w>
提 携</w>
小 组赛</w>
婦 人</w>
夜 里</w>
反 败为胜</w>
历史 性</w>
信 封</w>
专 栏</w>
ハ イ</w>
チャンピオン ズ</w>
こ え</w>
5 3
1. 4</w>
軽 水
軽水 炉</w>
身 近</w>
訴 追</w>
被告 人</w>
蜘 蛛</w>
联 酋</w>
架 构</w>
曲 折</w>
悪 用</w>
尊 严</w>
名 额</w>
写 出</w>
保护 法</w>
セ リ
p k</w>
阿 联酋</w>
邻 国</w>
迷 你</w>
身 份
身份 证</w>
生 地</w>
气 球</w>
柳 贤振</w>
斗 煥</w>
斗 志</w>
抛 售</w>
在 学</w>
力 气</w>
メ ス</w>
ベ スト
ヒ ト</w>
ショート トラック</w>
アトラン タ</w>
や ろ</w>
dv r</w>
19 64</w>
遇 难</w>
透明 性</w>
转 化</w>
要 紧</w>
脏 病</w>
緑 色</w>
汗 水</w>
成 年人</w>
德 尔</w>
威 廉</w>
向 往</w>
博 会</w>
公 害</w>
交 差点</w>
事 儿</w>
レー ザ</w>
インセン ティブ</w>
お 寺</w>
d is
酸 化
走 行</w>
电 线</w>
暴力 団</w>
心 意</w>
専 務</w>
地 里</w>
ガン サン</w>
よろ しい</w>
き み</w>
l u</w>
花 瓶</w>
舞 台
能 为</w>
浮 気</w>
探 知</w>
战 队</w>
好 調</w>
压 制</w>
北 区</w>
下 台</w>
カル シウム</w>
飛 ぶ</w>
跳 び</w>
象 征
营 口</w>
美联 社</w>
真っ 赤</w>
盛 行</w>
球 杆</w>
深 圳</w>
歴 訪</w>
握 る</w>
振 動</w>
想 不</w>
川 县</w>
大 正</w>
回 生</w>
四 川
假 日</w>
专 心</w>
ar c</w>
2 8%</w>
迁 都</w>
薄 弱</w>
职 责</w>
细 致</w>
精 神
真 空</w>
殖 民
接 纳</w>
招 募</w>
感 叹</w>
想 象
峡 谷</w>
名 词</w>
ロナ ウド</w>
レー ザー</w>
リモ コン</w>
ボ ルト</w>
フル コース</w>
スペ シャル</w>
カ ッ
に く</w>
pl l</w>
dm b</w>
a ad</w>
鸡 肉</w>
驚 か</w>
隣 国</w>
赞 扬</w>
西 北</w>
花 园</w>
石 原</w>
欺 负</w>
引 力</w>
专 注</w>
レ バ
レ オ</w>
セ クシー</w>
5 5%</w>
胚 胎</w>
编 集</w>
燃 え</w>
海 运</w>
救 っ</w>
打 入</w>
名 言</w>
列 岛</w>
い よ
鼠 标</w>
骨 子</w>
领导 者</w>
追 いつ
迎え 入れ</w>
誇 る</w>
脚 下</w>
皮 肉</w>
河 流</w>
新 潟</w>
房 产</w>
基金 会</w>
収 監</w>
去 年末</w>
一 整天</w>
み せ</w>
と こ</w>
tw itter</w>
s 105</w>
g k</w>
5 6
4 7
郵 政</w>
訴 願</w>
西 側</w>
暴 落</w>
旅行 社</w>
搭 乘</w>
想象 力</w>
影 集</w>
录 制</w>
劣 悪</w>
レ ジャー</w>
スキャ ナー</w>
ジュネ ーブ</w>
サ ル
渗 透</w>
本 家</w>
拾 っ</w>
扶 持</w>
太 陽
境 遇</w>
城 镇</w>
国际 化</w>
吐 い</w>
全 场</w>
チャ ムシル</w>
ガソリン スタンド</w>
金 銭</w>
自 家</w>
空 闲</w>
愛 さ</w>
崭 新</w>
实 战</w>
伴 奏</w>
レギュ ラー</w>
メ ラ
フラ グメント</w>
ドー ハ</w>
2 7%</w>
迫 害</w>
聴 い</w>
强 队</w>
帳 簿</w>
功 劳</w>
出 题</w>
内 向</w>
一 头</w>
ライ オン</w>
プ ルト
ゴ ー
し き
5 1%</w>
马 里</w>
馬 鹿</w>
通 う</w>
语 气</w>
证 言</w>
薛 琦
薛琦 铉</w>
组 织
渔 民</w>
浙 江</w>
浅 田</w>
斡 旋</w>
怀 着</w>
実 効</w>
叶 子</w>
内 面</w>
先 送り</w>
伤 者</w>
仅 限于</w>
シ ング</w>
れ て</w>
か な</w>
いよ いよ</w>
い ち</w>
s 110</w>
pl p</w>
j p</w>
頼 っ</w>
雕 刻</w>
脑 袋</w>
群 れ</w>
罢 免</w>
绳 子</w>
桥 梁</w>
末 尾</w>
挙 げる</w>
得 益于</w>
弾 性</w>
広 東</w>
农 家</w>
克 利</w>
伊 藤</w>
主 犯</w>
中 秋
リ ック</w>
プルト ニウム</w>
ニューヨー ク・
スキ ーム</w>
さ し</w>
いき なり</w>
黎 巴
黎巴 嫩</w>
载 荷</w>
自 営業</w>
缔 结</w>
終 始</w>
捕 手</w>
小 说家</w>
好 奇
好奇 心</w>
中秋 节</w>
ベ ス</w>
プ ラン</w>
フランス 語</w>
ハッ キング</w>
チ ン・
につ れて</w>
が し</w>
19 53</w>
進 捗</w>
熙 正</w>
殖 民</w>
枪 击</w>
意 想</w>
外 长</w>
哪 种</w>
发 来</w>
供 奉</w>
テク ニック</w>
ット ・
が け</w>
うなず い</w>
連 敗</w>
行 政部</w>
興味 深い</w>
置 之
断 っ</w>
急 于</w>
小 麦
大 将</w>
傍 受</w>
会 堂</w>
优 化</w>
世 间</w>
不 合</w>
ライブ ビュー</w>
マ ケ
パ ール</w>
ハ ク</w>
ニ コ
ダ ム
シン プル</w>
ぷ り</w>
v er
ib m</w>
2. 4</w>
里 克</w>
轮 胎</w>
获 奖
自 衛</w>
短 期間</w>
搭 档</w>
总 理
口 実</w>
ロ ジー</w>
メ ロ
ド ラ</w>
チェ ル
クム ガンサン</w>
yo u</w>
u m
d 2</w>
an d
4. 5%</w>
1. 8%</w>
阅 览</w>
说明 性</w>
自然 而
自然而 然</w>
终 了</w>
気に 入り</w>
撮 る</w>
很 深</w>
外 人</w>
四 处</w>
以 北</w>
ロ ジック</w>
マニュ アル</w>
チェ ン
2 31</w>
觉 悟</w>
范 囲</w>
盗 ま</w>
猩 猩</w>
水 晶</w>
推 杆</w>
性 別</w>
很 早</w>
奥 队</w>
国 奥队</w>
刺 し</w>
4 3.
1 202</w>
附 带</w>
重 心</w>
配 当</w>
過 ぎる</w>
苦 境</w>
艦 隊</w>
木 の
扇 動</w>
因 果</w>
向 かい</w>
原 爆</w>
严 惩</w>
ラ ッチ</w>
フィ ラ
pap r</w>
k at</w>
4 4%</w>
逃 税</w>
连 锁</w>
该 剧</w>
請 託</w>
老 奶奶</w>
社会 性</w>
生 子</w>
海 水
年 下</w>
小 熊</w>
国 心</w>
世界 一</w>
サー チ</w>
p rom</w>
7 30</w>
2 85</w>
運 航</w>
纳 米</w>
監 察</w>
特 捜</w>
灾 区</w>
取り 調べる</w>
双 方向</w>
参 看</w>
動 かし</w>
分 岐</w>
ツイ ッター</w>
韩 文</w>
見 事</w>
英 里</w>
納 品</w>
灵 活性</w>
水 泥</w>
有 钱</w>
暂 停</w>
支 える</w>
撤 销</w>
想 见</w>
弁 論</w>
尊 厳</w>
威 信</w>
失 恋</w>
古 今</w>
去 向</w>
划 部</w>
ファ イン
チャ レンジ</w>
se t</w>
9 04</w>
10 80</w>
酷 暑</w>
配 達</w>
遗 骸</w>
转 印</w>
血 型</w>
物 语</w>
海 湾</w>
検 挙</w>
收 看</w>
开 辟</w>
席 巻</w>
売り 場</w>
効 力</w>
世 博会</w>
ジョン ソン</w>
ジャ ズ</w>
アー キ
々 しい</w>
领 养</w>
零 部件</w>
謙 虚</w>
补 习</w>
磁 盘</w>
相 关
抽 烟</w>
後 日</w>
展 覧</w>
守 護</w>
嘴 里</w>
主 题
ペ ー
コ ップ</w>
tr an
隙 間</w>
重 置</w>
連 日</w>
艦 艇</w>
演 艺</w>
树 脂</w>
望 远镜</w>
抱 か</w>
抜 く</w>
式 典</w>
履 い</w>
周 期性</w>
双 胞胎</w>
公 営</w>
伤 亡</w>
专 务</w>
レバ ノン</w>
ビ ス
も しか</w>
m n</w>
ar t</w>
阻 害</w>
金 秉
遗 忘</w>
神 奇</w>
研究 室</w>
江 西</w>
殖民 地</w>
德 川</w>
当 局
当局 者</w>
宣传 处</w>
夜 中</w>
国 歌</w>
四 方</w>
出 入境</w>
モ ーター</w>
ピ ンク</w>
ジェ ン
s un
ds l</w>
2. 3</w>
騒 音</w>
长 城</w>
精 确</w>
服务 业</w>
忧 郁</w>
座 り</w>
口 中</w>
ミキ サ</w>
フ リー
ア カウント</w>
いた る</w>
義 務
笑 话</w>
盟 国</w>
岛 上</w>
出 動</w>
全球 性</w>
ファー スト</w>
トラ スト</w>
エ ア</w>
き のう</w>
i q</w>
g hz</w>
评 分</w>
甲 型</w>
止 まら</w>
有 料</w>
既 得</w>
旅 游
排 水</w>
扫描 器</w>
品 格</w>
份 额</w>
享 年</w>
ヨン ドゥン
どう せ</w>
っ 子</w>
ぎ り</w>
s 10</w>
7 b</w>
5 9.
4 13</w>
4 1%</w>
饱 受</w>
軍 団</w>
解 読</w>
肿 瘤</w>
直 人</w>
朴 英
接 する</w>
扣 除</w>
リスト ラ</w>
こう して</w>
s r</w>
of f</w>
19 66</w>
骚 动</w>
精 子</w>
秋 田</w>
很 远</w>
庆 熙</w>
劣 化</w>
全 权</w>
中 间
上 衣</w>
カタ ール</w>
イチ ロー</w>
麦 当
飛 ばし</w>
閉 幕</w>
那 条</w>
跨 国</w>
解 密</w>
航 天</w>
義 士</w>
相次 ぐ</w>
每 秒</w>
政 变</w>
改 成</w>
收 容</w>
推 断</w>
打 扰</w>
態 勢</w>
心 脏病</w>
尾 巴</w>
咖 喱</w>
北 側</w>
劇 的</w>
フェ ム
クリ ート</w>
s 16</w>
r lc</w>
7 08</w>
起 伏</w>
蚊 子</w>
荞 麦</w>
育 儿</w>
编 写</w>
箱 根</w>
第一 歩</w>
消 毒</w>
日 の
收 视</w>
悲 痛</w>
小麦 粉</w>
坚 固</w>
台 阶</w>
只 用</w>
博 尔</w>
南 側</w>
冷 凍</w>
事 由</w>
下 场</w>
リ ゾ
ハ ・
け ん</w>
st r</w>
2 54</w>
飾 り</w>
赚 取</w>
视 场</w>
褐 色</w>
美 国队</w>
有 史
有史 以来</w>
昭 夫</w>
早 早</w>
后 代</w>
プレ ス</w>
ス リー
ス ム
シ ート</w>
ギャ ラリー</w>
ウエ ア</w>
ざ り</w>
c ds</w>
3 26</w>
画 画</w>
用 处</w>
深 感</w>
歉 意</w>
字 典</w>
卖 出</w>
便 于</w>
体 調</w>
传染 病</w>
チェ コ</w>
ザ ・
エン ジニア</w>
アイ コン</w>
ら め</w>
s 108</w>
r n</w>
17 5</w>
课 堂</w>
袋 子</w>
文 书</w>
戦 死</w>
开 端</w>
多样 化</w>
収 録</w>
反 对
卢 前</w>
久 违</w>
车 上</w>
起こ さ</w>
色 情</w>
综合 症</w>
放射 線</w>
卡 塔尔</w>
劳 工</w>
交 際</w>
ラ ク
ホ ップ</w>
と く</w>
あ んな</w>
po sco</w>
f w</w>
9 9
認 可</w>
科 学院</w>
朝鲜 族</w>
射 箭</w>
定 居</w>
多 方</w>
冠军 赛</w>
ネ ーム</w>
グ ー
5 2.
麗 水</w>
西 装</w>
看 成</w>
痩 せ</w>
浴 场</w>
死亡 率</w>
战 役</w>
意 气</w>
宏 观</w>
宁 边</w>
字 母</w>
后 天</w>
元 年</w>
ジャー ナル</w>
イケ メン</w>
3 7%</w>
集 約</w>
長 期間</w>
脚 石</w>
胜 者</w>
而 后</w>
法 则</w>
有 毒</w>
明 星
数 百万</w>
家 屋</w>
取り 除く</w>
初 恋</w>
停 下</w>
下 述</w>
ディ ング
つ づ
く ら</w>
m ba</w>
2 200</w>
预 赛</w>
附 件</w>
达 州</w>
绝 大</w>
纠 错</w>
童 话</w>
秋 叶</w>
硬 直</w>
湿 地</w>
浸 水</w>
未 曾</w>
平 沢</w>
升 起</w>
全 州</w>
バ レー</w>
ガ リー</w>
や す</w>
だ ら</w>
m in</w>
1 110</w>
酸化 炭素</w>
相 应
相应 地</w>
悬 崖</w>
思 念</w>
忘 れる</w>
尋 問</w>
対 比</w>
实 业</w>
宇航 员</w>
勝 者</w>
制作 人</w>
分 辨</w>
光 通信</w>
二 酸化炭素</w>
不 由
リハ ビリ</w>
メッ ツ</w>
いっ たん</w>
t c</w>
4 3%</w>
19 67</w>
金 南
足 球赛</w>
购 买
记 号</w>
胜 地</w>
股 指</w>
积 雪</w>
磨 き</w>
漁 業</w>
欠 缺</w>
放 つ</w>
持ち 株</w>
投票 率</w>
大 卒</w>
地 表</w>
反 过来</w>
升 学</w>
不可 欠</w>
レ ンス</w>
ろ う</w>
or i</w>
7 40</w>
1. 2%</w>
隶 属</w>
見 せ
胡 子</w>
聚 合</w>
戏剧 性</w>
奥斯 卡</w>
大 方</w>
后 退</w>
同 好</w>
倍 数</w>
亨 利</w>
マスター ズ</w>
フィ ー</w>
トラ ヒ
セ ジョン
ウォ ーター</w>
ウィ ーク</w>
ウ ィ</w>
19 30</w>
金 斗</w>
缓 期</w>
约 翰
生产 线</w>
嵌 入</w>
北 欧</w>
内 侧</w>
下 雪</w>
あ んなに</w>
6 5
隔 離</w>
赶 紧</w>
衣 類</w>
用 法</w>
沙 滩</w>
板 球</w>
杯 赛</w>
最低 值</w>
曼 谷</w>
无 所谓</w>
拇 指</w>
心 事</w>
得 上</w>
寧 辺</w>
大 根</w>
听 众</w>
叫 声</w>
初 回</w>
内 乱</w>
一 无
一 批</w>
デ マ</w>
ダ ブ
クリ ス</w>
カウ ト</w>
ゆ え</w>
い ま
s 8</w>
e d</w>
1. 7</w>
高 血压</w>
音乐 家</w>
防 水</w>
过 热</w>
辅 导</w>
轻 水</w>
败 北</w>
胸 部</w>
着 実</w>
玛 丽</w>
更 快</w>
暖 和</w>
实 话</w>
好 看</w>
埋 める</w>
助 言</w>
中 时</w>
下 着</w>
モ ール</w>
マ リア</w>
ヒ スト
あ がっ</w>
x 1</w>
pus ch</w>
o d</w>
ipv 6</w>
7. 5</w>
顕 著</w>
献 血</w>
犯 罪
化 物</w>
先 例</w>
コ ラム</w>
カテゴ リ</w>
イン ク</w>
g w</w>
d d
结 尾</w>
素 朴</w>
競 売</w>
福 岡</w>
游 览</w>
感 染
寝 室</w>
嘱 咐</w>
チュー ナ</w>
タ ール</w>
u p</w>
c i</w>
19 63</w>
19 49</w>
16 6</w>
高 空</w>
稍 稍</w>
礼 拜</w>
相 加</w>
清 洗</w>
法 兰
汚 れ</w>
文 科</w>
排 行</w>
封 装</w>
前 所未
党 籍</w>
交 货</w>
不 尽</w>
ハン ガン</w>
チャ イ
いらっしゃ い</w>
p re
3 32</w>
饰 品</w>
自 信心</w>
笼 罩</w>
竞 技
短 距離</w>
电 路
熱 狂</w>
焼 き
炫 耀</w>
地 上
動 かす</w>
传 单</w>
不得 已</w>
ト レイ</w>
テ ウ</w>
なら では</w>
阿 里
长 远</w>
逸 脱</w>
聖 堂</w>
猜 测</w>
無 所属</w>
混 血</w>
最 長</w>
接 合</w>
採 取</w>
强 势</w>
反 撃</w>
劳 务</w>
全 教会</w>
ラ ップ</w>
ストライ キ</w>
4 9
非 凡</w>
背 光</w>
盗 窃</w>
皮 书</w>
疗 养</w>
坚 信</w>
ベ ーション</w>
な わ</w>
20 50</w>
领 带</w>
順 に</w>
離 脱</w>
难 关</w>
道 德
過 熱</w>
资 质</w>
誓 っ</w>
稳 定性</w>
点 火</w>
歓 呼</w>
数 々</w>
敦 子</w>
執 着</w>
均 匀</w>
地 獄</w>
全 盛期</w>
優 しく</w>
不由 得</w>
ブラ ック
ツ バ
3 2%</w>
金融 界</w>
里 斯</w>
通 往</w>
趋 于</w>
群 组</w>
瓦 解</w>
特 集</w>
方 块</w>
敗 戦</w>
据 点</w>
恐 龙</w>
底 下</w>
定 める</w>
官 吏</w>
如 实</w>
地上 波</w>
印 加</w>
借 款</w>
争 夺
パ ト
や せ</w>
ふさわ しい</w>
かす か</w>
l d</w>
3 600</w>
16 a</w>
防 灾</w>
酵 素</w>
选 票</w>
维 尔</w>
洗 う</w>
建 てる</w>
室 外</w>
実 戦</w>
喉 咙</w>
合 宿</w>
人 大</w>
ラ ・
ブラウ ザ</w>
ソ ロ</w>
ジュ シ</w>
シェ ー
キ ッ
オー ケ
红 茶</w>
礼 节</w>
満 た</w>
权 益</w>
文 名</w>
嫉 妒</w>
困 る</w>
叔 父</w>
友 谊
何 とか</w>
交 错</w>
ジェーム ズ</w>
き っ</w>
v ob</w>
kt x</w>
雷 达</w>
轨 迹</w>
資 質</w>
評 議</w>
言 うま
言うま で
滑 稽</w>
水 池</w>
挪 用</w>
带 上</w>
土 産</w>
决 意</w>
傾 い</w>
企 划部</w>
享 有</w>
プレッシャ ー</w>
チョン・ ジョン
チャ ールズ</w>
ケ ソン</w>
そろ え</w>
n a
6 500</w>
轻 视</w>
賢 明</w>
证 词</w>
要 么</w>
研 制</w>
着 想</w>
直 方
异 国</w>
十 二</w>
今 枝</w>
中 和</w>
ジャ イ
y u
薪 金</w>
茶 店</w>
自 来
堪 称</w>
刺 身</w>
バ ット</w>
サン ディエ
ご 存
fal se</w>
2 2%</w>
0. 6%</w>
车 内</w>
足 首</w>
超 人</w>
解 け</w>
解 く</w>
畅 销</w>
火 曜日</w>
担 っ</w>
山 村</w>
匹 兹
匹兹 堡</w>
介 意</w>
デ ター</w>
スキ ル</w>
シャ ワー</w>
エ ッ
8 6
4 8%</w>
采 购</w>
緻 密</w>
溢 出</w>
汽 車</w>
振 动</w>
役 目</w>
巡 っ</w>
尽 全力</w>
出 願</w>
傾 き</w>
佛罗里 达</w>
バン コク</w>
ソ ング</w>
スポン サー</w>
is s</w>
ase m</w>
ag c</w>
3 21</w>
1 c</w>
1 :
融 化</w>
苦 难</w>
破 り</w>
生 命
本 性</w>
有 种</w>
更 迭</w>
暗 殺</w>
执 导</w>
徹 夜</w>
尚 道</w>
子 化</w>
北 上</w>
举 出</w>
並 び</w>
世 袭</w>
ル ズ</w>
ピ ョン</w>
ダ メ</w>
わ しい</w>
の ぞ
こっ そり</w>
かっこ いい</w>
うら や
th aad</w>
16 3</w>
迷 路</w>
迂 回</w>
视 力</w>
自 觉</w>
疎 外</w>
海水 浴</w>
泣 く</w>
婆 婆</w>
勾 结</w>
不 渡り</w>
一 意</w>
ビッ グ</w>
シャ ン
魔 术</w>
重 现</w>
轰 炸</w>
调 用</w>
获奖 者</w>
自 力</w>
経 つ</w>
游戏 机</w>
模 范</w>
恳 谈会</w>
恐 竜</w>
引っ 張っ</w>
名 将</w>
原 创</w>
危险 性</w>
ミネ ラル</w>
カ レン
s 201</w>
饼 干</w>
陪 同</w>
葬 式</w>
票 数</w>
真 好</w>
相 投</w>
持ち 上げ</w>
抑 止</w>
惨 案</w>
年 制</w>
宫 殿</w>
宣 誓</w>
大 举</w>
价 钱</w>
ヒスト グラム</w>
バイオ リン</w>
ド ク
つか み</w>
7 01</w>
直 系</w>
満た さ</w>
消费 税</w>
水 质</w>
怎 能</w>
在 野</w>
出 入国</w>
全 额</w>
休 眠</w>
人 影</w>
プロ ジェ
ジ ノ</w>
ほ ら</w>
駐 韓</w>
重 伤</w>
踏 む</w>
訴 える</w>
涨 率</w>
此 地</w>
李 秀
宇宙 船</w>
向 下</w>
医 大</w>
不 时</w>
上 涨率</w>
ショ ート</w>
ウィリア ム</w>
f 3</w>
6 4
預 け</w>
韩 中日</w>
除 き</w>
重 症</w>
重 なっ</w>
苦 難</w>
空 き</w>
眉 毛</w>
海 運</w>
每 场</w>
整 っ</w>
总 量</w>
徒 步</w>
强 盗</w>
太阳 能</w>
使 途</w>
不 动产</w>
一 任</w>
ブ レ</w>
エ ラ</w>
ひと まず</w>
sf n</w>
黄色 い</w>
静 静
重 なる</w>
覚 える</w>
管理 员</w>
李 容
显 现</w>
微 弱</w>
师 范</w>
図 っ</w>
万 事</w>
チュ ング</w>
オ ス
アーキ テ
み ず
3 6%</w>
3 3%</w>
19 55</w>
連 行</w>
踏 板</w>
舞 踊</w>
红 外线</w>
现 今</w>
清 理</w>
泛 滥</w>
惜し ま</w>
当 事</w>
店 主</w>
巡 り</w>
宫 城</w>
学 分</w>
士 气</w>
厚 度</w>
分 科</w>
冷 え
全 员</w>
俳 句</w>
ネク タイ</w>
や む
c un</w>
6 14</w>
18 5</w>
電 算</w>
着 工</w>
添 え</w>
淇 淋</w>
洗 浄</w>
求 职</w>
捐 献</w>
実 名</w>
安 哲
加利福 尼亚</w>
冰 淇淋</w>
倒 数</w>
企 业界</w>
く し</w>
7 500</w>
邪 恶</w>
机 型</w>
总理 室</w>
地 人</w>
周 前</w>
依 赖
书 法</w>
両 側</w>
一 山</w>
ス カウト</w>
サー ブ</w>
アイス クリーム</w>
h s
f ac
3. 1</w>
锦 实</w>
量 産</w>
通讯 社</w>
过 敏</w>
誹 謗</w>
西 大门</w>
茶 色</w>
置之 不理</w>
深深 地</w>
检察 长</w>
扭 曲</w>
发 烧</w>
倍 受</w>
万 物</w>
ロ マン
ブ ー
ナン バー</w>
ディ レクト
グ ム</w>
アー チェリー</w>
ア ム
そ ちら</w>
sof a</w>
k o</w>
c is</w>
2 17</w>
黄 砂</w>
見 守る</w>
私 营</w>
留 给</w>
留 保</w>
男 的</w>
球 星</w>
無 関係</w>
水 手</w>
所有 者</w>
戦 車</w>
悪 意</w>
巻 い</w>
四 十</w>
否 認</w>
内 衣</w>
交 差</w>
中 美</w>
トゥ サン</w>
アーキテ クチャ</w>
200 8-
14 a</w>
郑 云
追 赶</w>
请 教</w>
読 出し</w>
破 損</w>
监 禁</w>
暧 昧</w>
星期 三</w>
捷 克</w>
幕 战</w>
大 象</w>
収 拾</w>
传 授</w>
一 家人</w>
エ キ
ま して</w>
t r</w>
sda q</w>
雨 量</w>
第 八</w>
移 居</w>
火 花</w>
構 わ</w>
木 曜日</w>
旋 转
扔 掉</w>
情 緒</w>
康 夫</w>
小 平</w>
執 筆</w>
回 升</w>
入 党</w>
三星 グループ</w>
マ ヒ</w>
じ み</w>
こ っち</w>
st e
r pl
o sd</w>
3. 1%</w>
车 子</w>
西 安</w>
花 束</w>
管 道</w>
海 豚</w>
気づ か</w>
杯 子</w>
昼 間</w>
无 辜</w>
手 脚</w>
後 藤</w>
大学 队</w>
坏 事</w>
ディレクト リ</w>
カン ウォ
p at
cc d
14 9</w>
関 わる</w>
记 事</w>
绝 不会</w>
紧 缩</w>
熱 烈</w>
漆 黑</w>
柔ら かい</w>
月 球</w>
時 事</w>
支 払</w>
捨 てる</w>
战 败</w>
引き 出す</w>
広 まっ</w>
密 か</w>
咳 嗽</w>
合格 者</w>
不 难</w>
コン トラスト</w>
麦当 劳</w>
高 龄化</w>
设 在</w>
科 罗
現 代
添 麻烦</w>
替 补</w>
工 芸</w>
像 素数</w>
优 质</w>
バン ド
ドゥ リ</w>
テ ヨン</w>
コー ド
しか け</w>
s 22</w>
3. 3%</w>
調 停</w>
渤 海</w>
往 后</w>
康 锦实</w>
小 偷</w>
孙鹤 圭</w>
可 利用</w>
刺 さ</w>
フィ ン</w>
テレビ 局</w>
テクノ ロジー</w>
クォ ン</w>
イ・ヘ チャン</w>
ど り</w>
お ば
5 5
那 场</w>
遗 漏</w>
遊 ぶ</w>
身 着</w>
贬 值</w>
负 伤</w>
盘 子</w>
白 血
楽 団</w>
揭 幕战</w>
当 分</w>
布 朗</w>
届 く</w>
嫉 妬</w>
女 友</w>
多 哥</w>
关 怀</w>
保 育
优 良</w>
下 任</w>
メ ディ</w>
パ ズル</w>
ナ ノ</w>
イ ク
なく す</w>
ko sdaq</w>
辩 护</w>
沙 子</w>
気 楽</w>
栄 誉</w>
报 警</w>
外 さ</w>
创 出</w>
全羅 道</w>
党 首</w>
两 条</w>
ふ と</w>
wtr u</w>
ar d</w>
af p</w>
19 62</w>
骑 警</w>
粉 飾</w>
立 足</w>
玩 儿</w>
熟 人</w>
煤 气</w>
热 水</w>
流 利</w>
沙 发</w>
東 大門</w>
ブラ ウン</w>
パー ト
パブリ ック</w>
トラヒ ック</w>
わ せ</w>
ご はん</w>
く り
o k
7 21</w>
金 基
精 灵</w>
空 洞</w>
神 圣</w>
生 かし</w>
理 查
数 多く</w>
收 据</w>
托 盘</w>
土 壤</w>
営 业</w>
和 平
一 万</w>
つく っ</w>
し わ</w>
ご 覧</w>
き ゃ</w>
u l
ic h</w>
钱 财</w>
自来 水</w>
简 历</w>
稼 ぎ</w>
生产 量</w>
爱 上</w>
波 动</w>
水 灾</w>
棉 花</w>
彫 り</w>
左 上</w>
向 ける</w>
一 期</w>
電 位</w>
越 发</w>
负 于</w>
移 管</w>
琼 斯</w>
现代 史</w>
波 导</w>
明 信
明信 片</w>
无 情</w>
揭 开</w>
学 术
モ ノ</w>
ベ ア
バッ ファ
め い</w>
h f</w>
2 1a</w>
领 事
这 块</w>
短 短</w>
生き 生き</w>
清 州</w>
深深 的</w>
正 す</w>
推 卸</w>
拥 护</w>
对 等</w>
周 三</w>
反 战</w>
ズ ーム
す れ
m g</w>
6 9.
5 32</w>
3 3
1. 4%</w>
晚 会</w>
时 域</w>
无 形</w>
征 求</w>
反 乱</w>
切 尔
円 滑</w>
低 温</w>
不 由</w>
リ ョ
ベン チ</w>
フ ライ
やり 取り</w>
どう やら</w>
けれ ども</w>
w 2</w>
so l
3 52</w>
逆 行</w>
计 时</w>
膨 ら
直方 图</w>
派 手</w>
埼 玉</w>
友谊 赛</w>
准 则</w>
th e
ne t</w>
f bi</w>
cc u</w>
長 打</w>
遊 説</w>
识别 符</w>
荡 器</w>
稻 田</w>
濡 れ</w>
新 华社</w>
振 荡器</w>
悪 循環</w>
強 み</w>
帯 び</w>
対 峙</w>
大 岛</w>
インター ン</w>
なら びに</w>
おば さん</w>
m ers</w>
ju mp</w>
cpu 300</w>
5 8
音 机</w>
运动 场</w>
离 家</w>
满 意
浏 览</w>
本 名</w>
景 观</w>
掲 载</w>
少 々</w>
外 信</w>
处 方</w>
哎 呀</w>
兼 职</w>
モ ル
バッテ リ</w>
キャ スト
と れ</w>
つか む</w>
马 达</w>
资格 证</w>
花 朵</w>
色 度</w>
泳 い</w>
暮 れ</w>
教 養</w>
政 派</w>
推 奨</w>
必 将</w>
互 助</w>
ラ イ</w>
ソ ックス</w>
车 厢</w>
身 价</w>
課 後</w>
読 ま</w>
西 江</w>
続 々</w>
村 里</w>
明 け
时 效</w>
数 次</w>
放 課後</w>
擅 自</w>
拷 问</w>
惋 惜</w>
归 来</w>
山 路</w>
子 系统</w>
合 戦</w>
博 し</w>
公 营</w>
买 进</w>
举 措</w>
リゾ ート</w>
マネー ジャー</w>
ニューヨーク・ タイムズ</w>
トー ゴ</w>
サ イ</w>
9 06</w>
見 込ん</w>
裁 决</w>
耻 辱</w>
第 一年</w>
笑 い
激 情</w>
温 水</w>
日 焼け</w>
新 郎</w>
公 报</w>
便 秘</w>
佐 官</w>
一 书</w>
ベ リア</w>
チョン ラ
スト ロ
カ ・
あん た</w>
t dd</w>
降 水</w>
適 時</w>
道德 性</w>
近 傍</w>
相 见</w>
潜 艇</w>
渡 过</w>
柬 埔
柬埔 寨</w>
杀 手</w>
客 车</w>
女 的</w>
却 说</w>
别 说</w>
入 金</w>
井 戸</w>
ヒ マラ
チョル ラ
w dm</w>
飲 料</w>
繰り 上げ</w>
查 尔斯</w>
极 点</w>
所 为</w>
录 像
工 藤</w>
尔 德</w>
声 援</w>
域 中</w>
商 议</w>
功 労</w>
冷 水</w>
元 々</w>
インフ レ</w>
2 c</w>
金 振</w>
読 出</w>
签 字</w>
科罗 拉
研究 会</w>
発 議</w>
生まれ つき</w>
滑 走</w>
海 辺</w>
曹 界</w>
味 噌</w>
余 额</w>
一 再</w>
イ デ
いた ずら</w>
风 情</w>
钓 鱼
酒 后</w>
窒 息</w>
現代 グループ</w>
李 正
時 局</w>
怪 兽</w>
幹 線</w>
害 羞</w>
大 成</w>
可 行</w>
受け 付ける</w>
ポ ロ
バ ド
ッ キング</w>
p tp</w>
调 和</w>
紅 葉</w>
断 绝</w>
宮 殿</w>
厳 正</w>
分 权</w>
凯 利</w>
凝 视</w>
内 戦</w>
内 战</w>
住 址</w>
上 周末</w>
セ ク
クー デター</w>
カン ボ
i l</w>
as ic</w>
4 2%</w>
0. 3%</w>
鲁 迅</w>
路 边</w>
赶 快</w>
知 性</w>
眉 头</w>
点 下</w>
沦 落</w>
氷 点下</w>
日 数</w>
擁 護</w>
提供 商</w>
托 架</w>
匈 牙
く も</w>
く から</w>
远 方</w>
起 身</w>
行 踪</w>
耕 作</w>
羽 毛
篮 板球</w>
狙 い</w>
泣 き
引き 継
尴 尬</w>
売 れ
基 准
吵 架</w>
借 りる</w>
伸 張</w>
ポイン タ</w>
お お
10 20
鱼 类</w>
非 政府</w>
百 合</w>
潜 水
桂 冠</w>
大 都</w>
外 套</w>
复 雑</w>
垃 圾
口 罩</w>
優 遇</w>
体 质</w>
乐 俊</w>
不 肯</w>
ケ ル
ぼ う</w>
た て</w>
9. 11</w>
金 荣
酒 井</w>
転 向</w>
管 委</w>
法 曹界</w>
新 春</w>
收 音机</w>
悲 観</w>
对 焦</w>
圣 地</w>
付 く</w>
人 事
交 锋</w>
中 身</w>
不 论是</w>
ポ ンド</w>
タ ク</w>
ジ ラ</w>
カン ウォン
な ぁ</w>
げ よ</w>
it al</w>
顾 虑</w>
败 给</w>
苦 心</w>
竞技 场</w>
生み 出し</w>
決 意</w>
揃 え</w>
双 眼</w>
円 満</w>
僵 硬</w>
人 世</w>
レイ アウト</w>
パク・ ヨン
カンボ ジア</w>
る い</w>
お 礼</w>
默 默</w>
逗 留</w>
路 易斯</w>
訪 米</w>
考え れ</w>
福 音</w>
来 回</w>
政 略</w>
放射 线</w>
悲 观</w>
待ち 時間</w>
域 网</w>
可 知</w>
ら う</w>
せ れ</w>
6 6
40 a</w>
2. 2</w>
遅 れる</w>
请 假</w>
疏 远</w>
犯 规</w>
止 まる</w>
朝 廷</w>
时 变</w>
既 定</w>
振り 回
年 次</w>
创造 性</w>
停 电</w>
値 上げ</w>
アレ ル
アイン ト
そ っと</w>
sp n</w>
b ch</w>
龙 星</w>
触 っ</w>
締 め</w>
書 簡</w>
无 知</w>
斯 顿</w>
断 然</w>
散 ら
学 园</w>
场 外</w>
商 家</w>
友 だち</w>
两 侧</w>
たい てい</w>
く っ</w>
お 気に入り</w>
々 木</w>
bs 6</w>
5 05</w>
18 3</w>
钻 石</w>
轮 椅</w>
議 事堂</w>
表 演
碎 片</w>
書 面</w>
时 装</w>
快 感</w>
夜 叉</w>
商 业
关 上</w>
一 回</w>
ダ ブル</w>
インスタ ンス</w>
や い</w>
さ る</w>
17 6</w>
遮 蔽</w>
製 鉄</w>
突 起</w>
留 任</w>
怎 麽</w>
开 门</w>
分 集</w>
全 校</w>
乳 房</w>
リ ム</w>
バレ エ</w>
ダイ バー</w>
オーケ ストラ</w>
エン ター
と ら</w>
と なく</w>
で た
でた らめ</w>
ko tra</w>
试 试</w>
行 性</w>
脂 肪
社 外</w>
熱 気</w>
滤 器</w>
浮か ぶ</w>
次 于</w>
工作 室</w>
届 け
多 方面</w>
可 靠
反 戦</w>
分 権</w>
プラ グ</w>
ザ ード</w>
な い
6 6.
3. 7%</w>
辅 佐官</w>
著 書</w>
策 定</w>
沸 腾</w>
殺 す</w>
带 走</w>
嬉 しかっ</w>
城 堡</w>
厨 师</w>
卖 场</w>
ゲ ーム
ケ ネ
イン ター</w>
ぐ る
u x</w>
mi b</w>
if ft</w>
3 28</w>
除 名</w>
長 崎</w>
迈 出</w>
窃 盗</w>
祭 典</w>
疑 っ</w>
深 め</w>
文化 部</w>
应 试</w>
差 额</w>
器 用</w>
可靠 性</w>
压 倒</w>
スライ ス</w>
アイント ホー
ん 坊</w>
です ね</w>
ぐ れ</w>
長 時間</w>
走 私</w>
賢 い</w>
计 费</w>
船 长</w>
航 路</w>
示 威
月 日</w>
教 养</w>
所 与</w>
心 身</w>
喪 失</w>
動 か</w>
全 年</w>
主办 方</w>
な きゃ</w>
あい まい</w>
x 2</w>
t n</w>
5 4
西 村</w>
茫 然</w>
維 新</w>
灵 通</w>
校 准</w>
曲 げ</w>
戦 場</w>
总 成绩</w>
急 需</w>
外 籍</w>
参 赛
促 成</w>
低 头</w>
为 时</w>
や み</w>
ど き</w>
s 208</w>
f 0</w>
197 1</w>
19 61</w>
零 售</w>
象征 性</w>
盒 子</w>
猛 增</w>
演 艺
混 沌</w>
或 いは</w>
戏 原</w>
只 见</w>
东 欧</w>
上 下文</w>
ック ス
カー ブ</w>
さ り</w>
l ist</w>
j u</w>
3. 6%</w>
100 a</w>
麻 浦</w>
陆 战队</w>
輸 出入</w>
试 行</w>
耶 稣</w>
耐 心</w>
習 っ</w>
硬 化</w>
研 讨</w>
相 识</w>
片 面</w>
昼 夜</w>
敞 开</w>
收益 率</w>
微 小</w>
尽 头</w>
合 法
受 給</w>
初 頭</w>
例 行</w>
一 括</w>
ピッツ バーグ</w>
パク・チャン ホ</w>
ド ゥ</w>
お かけ</w>
s 20</w>
h s</w>
e v</w>
额 头</w>
金 庫</w>
认 同感</w>
示威 者</w>
破 棄</w>
直 感</w>
热 血</w>
明 细</w>
日 食</w>
撤 离</w>
揚 げ</w>
捜 し</w>
所 用</w>
対 し</w>
奏 曲</w>
复 杂
上 半身</w>
リモ ート
キャ ラ</w>
カンウォン ド・
かか わる</w>
r m</w>
j e
: 00</w>
4 4
18 6</w>
1 102</w>
阳 台</w>
鉛 筆</w>
身 姿</w>
费 城</w>
维 他
维他 命</w>
烧 毁</w>
波 特</w>
映 っ</w>
改 写</w>
忍 不住</w>
强 者</w>
匈牙 利</w>
初 级</w>
出 世</w>
乘 车</w>
不 远</w>
マネ ー</w>
ズ ベ
しょ う
3. 8%</w>
这 话</w>
腫 瘍</w>
罗 恩</w>
競 合</w>
立 たさ</w>
稼 働</w>
毎 晩</w>
書き 込む</w>
斜 め</w>
数字 化</w>
快 適</w>
対 応
品 種</w>
シャ ン</w>
ひ き
s a
r st</w>
食 品
面 白く</w>
英 赛</w>
置 信</w>
绝 对
精 英赛</w>
短 篇</w>
盛 り</w>
珍 珠</w>
灵 感</w>
激 增</w>
漢 方</w>
歩 ん</w>
期 末</w>
望 月</w>
星期 二</w>
放 し</w>
広 大</w>
尖 锐</w>
増 税</w>
口 調</w>
ブロ ック
サンディエ ゴ</w>
アイ アン</w>
あふ れる</w>
ue fa</w>
顽 强</w>
遗 物</w>
転 職</w>
虚 线</w>
萨 德</w>
经 受</w>
発 し</w>
清 醒</w>
梦 中</w>
日 差し</w>
弱 势</w>
喫 し</w>
凉 爽</w>
传 开</w>
ルー ツ</w>
ボー イ</w>
スム ーズ</w>
キリスト 教</w>
ア セット</w>
ち がい</w>
た つ</w>
が き</w>
え っ</w>
あ っ
长 篇</w>
金升 渊</w>
返 っ</w>
职 能</w>
球 门</w>
环 球</w>
检 查
格 別</w>
旅客 機</w>
抽 签</w>
成 り
带 头</w>
定 影</w>
味わ う</w>
受 害人</w>
卡 片</w>
公 文書</w>
健 在</w>
ダブ ルス</w>
ザ イ
ウ ・
そう ですね</w>
t ra
mm co</w>
魏 圣</w>
青 龙</w>
过 高</w>
赛 车</w>
谣 言</w>
調 理</w>
襲 わ</w>
裸 体</w>
脑 筋</w>
等 しく</w>
硬 币</w>
眼 科</w>
狭 く</w>
測 位</w>
栏 目</w>
暖 かく</w>
換 算</w>
恰 好</w>
崇 高</w>
审 问</w>
同 校</w>
去 掉</w>
事 後</w>
世 襲</w>
万 全</w>
ミ ラン</w>
ip tv</w>
2 1%</w>
12 10</w>
著 しく</w>
系 列
求 職</w>
死 傷</w>
李相 洙</w>
敌 军</w>
厳 重</w>
停 车</w>
作 曲
丝 绸</w>
チョンノ グ</w>
オロ ギー</w>
みな さ</w>
さ ら</w>
wo ori</w>
9 30</w>
追 随</w>
踊 る</w>
访 华</w>
話し 合い</w>
衷 于</w>
移 さ</w>
热 衷于</w>
漱 石</w>
漫 画家</w>
情报 局</w>
大 哥</w>
古 都</w>
东 区</w>
リ チャ
ハン ガリー</w>
タイ ガー</w>
イデ オロギー</w>
おもし ろい</w>
6 5.
造 就</w>
讲 演</w>
社 稷</w>
生 殖</w>
四 强</w>
命 中</w>
参 政党</w>
决 不能</w>
光 雄</w>
カ ジノ</w>
や れ</w>
ep rom</w>
高 科技</w>
頭 痛</w>
轻轻 地</w>
范 畴</w>
若 想</w>
背 任</w>
猛 暑</w>
格 子</w>
最 棒</w>
春 日</w>
夏 日</w>
土 豆</w>
器 材</w>
化 球</w>
创 始
ペ ルー</w>
ヒマラ ヤ</w>
ズーム レンズ</w>
イル ソン</w>
re 10000</w>
5 8.
5 22</w>
遗 留</w>
过 滤器</w>
藤 原</w>
薬 局</w>
终 究</w>
発 注</w>
滑雪 场</w>
村 民</w>
忘 录</w>
山 脈</w>
大 林</w>
备 忘录</w>
千 叶
予 期</w>
モ ノ
ビ ラ</w>
p g</w>
b i
12 b</w>
马 车</w>
食 卓</w>
肤 色</w>
羽毛 球</w>
绊 脚石</w>
练 习
紧 随</w>
相 符</w>
独 り
演 讲
海 抜</w>
根本 性</w>
抱き しめ</w>
扭 转</w>
容 许</w>
代 弁</w>
争夺 战</w>
マク ドナルド</w>
マ ニ
アン ダー
ひ た
kore a</w>
b l</w>
顽 固</w>
逃 脱</w>
赞 助
貧 富</w>
色 々</w>
而 易
礼 遇</w>
灿 烂</w>
来 日</w>
日 趋</w>
振る わ</w>
岩 手</w>
山 羊</w>
寛 大</w>
宫 崎
大 会堂</w>
商 用</w>
各 类</w>
不久 后</w>
ポ ル
ボ ール
ホ ッケ
ッシ ュ
9 50</w>
8 08</w>
陶 器</w>
着 替え</w>
民 营</w>
殴 ら</w>
日 志</w>
掩 饰</w>
推 举</w>
总 和</w>
建 議</w>
山 東</w>
威 廉
大 物</w>
击 打</w>
关键 词</w>
保 卫</w>
之 急</w>
グ アイ</w>
たっ ぷり</w>
た ん
po n</w>
1. 7%</w>
領 有</w>
難 航</w>
门 店</w>
開 ける</w>
践 踏</w>
狩 り</w>
牡 丹</w>
活 字</w>
武 田</w>
柜 台</w>
战 略
感 心</w>
巡 访</w>
崛 起</w>
屈 指</w>
寂 し</w>
北京 市</w>
兽 医</w>
公 正
世 俗</w>
ミン トン</w>
パ ル
ハン バーガー</w>
ナ ッツ</w>
トラ フィ
あわ て</w>
3 4%</w>
2 6%</w>
闭 幕</w>
长 年</w>
铭 记</w>
爱 德
棄 権</w>
未 定</w>
望 ま</w>
摇 晃</w>
悩 まさ</w>
大 腿</w>
多 长</w>
共 生</w>
会 期</w>
举 止</w>
ロー プ</w>
ハ ク
3. 3</w>
闘 技</w>
重 用</w>
襲 撃</w>
裁 者</w>
病 状</w>
有 名人</w>
抗 生</w>
投 降</w>
情 況</w>
当 选者</w>
工 地</w>
和 田</w>
別 荘</w>
ロー ラー</w>
ユニ ーク</w>
テロ リスト</w>
カンウォ ンド</w>
カ ブス</w>
アナ ウン
to p
rpl r</w>
p f</w>
on g</w>
ht ml</w>
4. 6%</w>
驍 宗</w>
革 命
白 皮书</w>
漂 っ</w>
流 域</w>
構 え</w>
月 光</w>
最 中</w>
拉 圭</w>
少 将</w>
存 分</w>
圧 倒</w>
前 田</w>
公正 性</w>
一 百</w>
レ ット</w>
プレゼ ン
ビー チ</w>
アイ ス</w>
o ut</w>
n m</w>
bs i</w>
b m</w>
鹿 儿
那 次</w>
祝 愿</w>
直 球</w>
熱 帯</w>
清 扫</w>
流 泪</w>
时 限</w>
手 袋</w>
弃 物</w>
公 訴</w>
修 建</w>
中 野</w>
中 性</w>
ファ ミ
クリー ブランド</w>
イ オン</w>
か せる</w>
p id</w>
物 件</w>
款 待</w>
景 観</w>
效 益</w>
席 卷</w>
少 见</w>
安 全部</w>
増 設</w>
保安 法</w>
不 无</w>
ハ ム
ち ら
q am</w>
is o</w>
2. 0</w>
风 气</w>
阶 段
阶段 性</w>
郑 大
証 書</w>
真 人</w>
登 頂</w>
異 なっ</w>
残 高</w>
服 饰</w>
掛 け
心 血</w>
场 内</w>
原 動力</w>
前所未 有</w>
両 替</w>
ッシ ョン
シ フ
st b</w>
2 33</w>
绝 食</w>
租 金</w>
疎 か</w>
电话 机</w>
焦 急</w>
水 库</w>
标 榜</w>
座 る</w>
岳 山</w>
塑 造</w>
基本 法</w>
台 上</w>
办公 楼</w>
交 流
ホッケ ー</w>
タンパ ク
つ かっ</w>
だ す</w>
おと な
おしゃ べり</w>
a aa</w>
13 a</w>
遏 制</w>
轻 微</w>
沿 い</w>
护 人</w>
所有 权</w>
建 设
广 东</w>
好 ましく</w>
坐 下</w>
吉 林</w>
各 式</w>
分 店</w>
公 言</w>
信 任
传 染</w>
不 懈</w>
ネ スコ</w>
ニ ク</w>
タンパク 質</w>
シング ルス</w>
2 72</w>
19 8</w>
饮 用</w>
领 事</w>
隐 形</w>
法兰 克
法兰克 福</w>
桥 本</w>
格 闘技</w>
施 す</w>
摆 放</w>
慈 悲</w>
小 国</w>
唯 独</w>
可 持续</w>
人 意</w>
交 響</w>
リー ナ</w>
リ ハー
リハー サル</w>
ファン タ
に 従い</w>
17 8</w>
靴 下</w>
青 森</w>
重 性</w>
言 動</w>
解 读</w>
補 充</w>
苦 しく</w>
绽 放</w>
積 分</w>
科罗拉 多</w>
白 紙</w>
环 绕</w>
然 と</w>
深 层</w>
正 門</w>
帰 還</w>
土 壌</w>
命 じ</w>
前 缀</w>
セリ フ</w>
コメディ ー</w>
ね ぇ</w>
だ か</w>
闪 烁</w>
贬 低</w>
繁 忙</w>
等 々
等々 力</w>
白 山</w>
沈 ん</w>
次 男</w>
扫描 仪</w>
怖 く</w>
忠 诚</w>
嬉 しく</w>
国 史</w>
加 熱</w>
出 发
優 勢</w>
做 梦</w>
モデ ム</w>
メ イク</w>
マイクロ プロセッサ</w>
カ ーン</w>
ne x
mp 4</w>
ar a</w>
15 7</w>
飼 育</w>
陪 审
金 相</w>
死 守</w>
时 节</w>
放 假</w>
弹 头</w>
府 県</w>
屋 上</w>
娱 乐
姓 氏</w>
头 山</w>
塗 っ</w>
公 衆</w>
体 感</w>
人 目</w>
义 州</w>
一 旁</w>
ルー プ
カウン ター</w>
に関 し</w>
n av
6 7.
2 4%</w>
2 38</w>
需 求
載 っ</w>
覆 し</w>
表 态</w>
細 かい</w>
独 断</w>
灵 敏
氧 气</w>
条 形
条形 码</w>
摸 索</w>
御 社</w>
序 幕</w>
容 所</w>
完 走</w>
入れ 替え</w>
儿 童
仍 旧</w>
习 俗</w>
ユ ネスコ</w>
チョンノ グ・
ほん とう</w>
た び
く ら
が す</w>
c rs</w>
5 7%</w>
4. 3%</w>
高 血圧</w>
风 邪</w>
附 加
遣 送</w>
获 得
获得 者</w>
绘 制</w>
炮 击</w>
火 影</w>
浮き 彫り</w>
洋 服</w>
求 婚</w>
水 害</w>
最 良</w>
旁 观</w>
安 部</w>
大 山</w>
同 席</w>
升 高</w>
リ ラ</w>
バー コード</w>
ハン ファ</w>
ハ ッカー</w>
アクセサ リー</w>
お ろ
う ん
3 24</w>
耦 合器</w>
积 蓄</w>
现代 人</w>
煤 炭</w>
烹 饪</w>
激 素</w>
法 学部</w>
松 宮</w>
教 士</w>
抵 制</w>
批 发</w>
憎 恨</w>
幅 広く</w>
巧 み</w>
対応 付け</w>
寄 生</w>
太 鼓</w>
参 入</w>
卡 特</w>
ミョン ドン</w>
フォ ト</w>
ストライ カー</w>
アナウン サー</w>
も ち</w>
し の
6 11</w>
池 田</w>
收 容所</w>
据 称</w>
广 东省</w>
平 线</w>
取 景
区 段</w>
列 为</w>
何 处</w>
一 并</w>
9 9%</w>
1. 6%</w>
风 吕</w>
韩 熙</w>
開 閉</w>
金 景
采 访
邂 逅</w>
起こ ら</w>
貌 似</w>
苏 格兰</w>
胜 手</w>
種 子</w>
放 任</w>
挣 扎</w>
弾 力</w>
小 川</w>
実 情</w>
宝 贝</w>
增 添</w>
发 病</w>
光 轴</w>
偽 物</w>
個 々</w>
低 かっ</w>
ぜ ん</w>
か め</w>
w ti</w>
g 7</w>
3 25</w>
0. 8%</w>
部 将</w>
连 同</w>
著 作
著作 权</w>
窗 外</w>
皱 纹</w>
灵敏 度</w>
海 賊</w>
月 薪</w>
新 义州</w>
斯 蒂</w>
抽 選</w>
市 区</w>
头 疼</w>
备 用</w>
咲 き</w>
君 子</w>
取景 器</w>
s 206</w>
j ap
h 1</w>
1 101</w>
警 视
警视 厅</w>
见 面会</w>
芽 衣</w>
永 吉</w>
核 保有</w>
李 大
折 れ</w>
当 性</w>
平 安
好 友</w>
售 出</w>
住 み</w>
传 入</w>
人 柄</w>
中 盤</w>
パ ッ
スカ イ</w>
グリ コ</w>
つ ない</w>
え もん</w>
5 7
1. 3%</w>
高 手</w>
邮 箱</w>
脱 色</w>
绅 士</w>
理查 德</w>
烧 酒</w>
渎 职</w>
星期 四</w>
方 向
夜 明け</w>
前 作</w>
刹 车</w>
中 川</w>
も て
め った
めった に</w>
l h</w>
脅 し</w>
聴 取</w>
电 费</w>
無 力</w>
有 功</w>
扰 乱</w>
強 風</w>
开 工</w>
导 游</w>
原 地</w>
前 列</w>
兔 子</w>
傾 斜</w>
予 约</w>
中 高
ドラ えもん</w>
ウィ ルス</w>
か から</w>
mo u</w>
ac t</w>
_ 1</w>
震 撼</w>
除 非</w>
锦 赛</w>
鈍 化</w>
連 載</w>
赔 偿金</w>
谈 谈</w>
見 上げ</w>
老 鹰</w>
置 于</w>
渊 源</w>
标 本</w>
条 目</w>
李 炳
朴 钟
本 音</w>
念 头</w>
大 为</w>
制 片
倾 注</w>
作り 出し</w>
今 年初</w>
人 行
产 权</w>
フェ ン
ネ パール</w>
ダイ ナ
セ メント</w>
そろ っ</w>
s 25</w>
19 %</w>
起 草</w>
起 码</w>
済 む</w>
深 厚</w>
没 用</w>
沈 阳</w>
汎 用</w>
歯 科</w>
格 斗</w>
无 名</w>
坡 州市</w>
史 料</w>
出 众</w>
停 业</w>
作曲 家</w>
任 性</w>
主 観</w>
メール アドレス</w>
ポ ドン</w>
ベスト セラー</w>
ソ リ</w>
コン クリート</w>
ま ぶ
ぶ れ</w>
だい たい</w>
t m
f dma</w>
c y
6 2.
貴 方</w>
谷 川</w>
草 坪</w>
细 心</w>
白 头山</w>
男 子
男 士</w>
气 质</w>
欲 求</w>
废 墟</w>
川 崎</w>
堤 防</w>
囲 ん</w>
公 款</w>
公 使</w>
入 侵</w>
人 名</w>
ド レ
ッ キ
9 01</w>
3. 2%</w>
高 低</w>
降 临</w>
読 売
舞台 剧</w>
耕 地</w>
硬 派</w>
発 振
発振 器</w>
泊 尔</w>
李 亨
工 商</w>
尼 泊尔</w>
家 康</w>
土 木</w>
即 时</w>
兆 候</w>
中 排</w>
不得 了</w>
o f</w>
6 05</w>
鮮 明</w>
高 阳市</w>
防 犯</w>
间 隙</w>
辣 椒</w>
身 旁</w>
読売 新聞</w>
署 長</w>
田 真</w>
海 市</w>
晩 餐</w>
易 懂</w>
数 万</w>
抑 留</w>
户 籍</w>
总 店</w>
开 馆</w>
常 駐</w>
布 线</w>
大 賞</w>
处 处</w>
吹 く</w>
吸 取</w>
加利福 尼亚州</w>
処 刑</w>
保 住</w>
チョ・ ソン
タ リング</w>
み える</w>
ub e</w>
1. 9%</w>
魔 鬼</w>
运 输
赌 场</w>
诗 歌</w>
課 外</w>
行 ける</w>
自 首</w>
肯 尼
肯尼 迪</w>
肝 炎</w>
紧 迫</w>
洞 穴</w>
忙 しかっ</w>
必 不可
反 し</w>
到 访</w>
別 々</w>
不 看</w>
ク フ
き わ
5. 5</w>
4 9%</w>
足 足</w>
精 心</w>
焼 酎</w>
淹 没</w>
洗衣 机</w>
氏 度</w>
果 岭</w>
木 浦</w>
星 球</w>
摘 得</w>
摄 氏度</w>
承 蒙</w>
手 助け</w>
导 者</w>
富 人</w>
姜 正浩</w>
城 北</w>
取 れる</w>
参 议员</w>
南 省</w>
共 犯</w>
使 者</w>
伺 い</w>
仪 表</w>
事 业
フレ ンド</w>
ダウン リンク
s 17</w>
i m</w>
f dd</w>
11 b</w>
陪 審</w>
警 视</w>
美 学</w>
板 娘</w>
日 ごろ</w>
总 书记</w>
小 便</w>
奥 行き</w>
侦 察
亚利桑 那</w>
ボ トル</w>
ス ミス</w>
コロ ラド</w>
ば か</w>
いつの 間
m o</w>
6 7
5 16</w>
软 弱</w>
蒸 汽</w>
空 缺</w>
登 顶</w>
流 下</w>
比べ れ</w>
正 正</w>
有 效性</w>
拟 定</w>
抵 押</w>
妨 げる</w>
呐 喊</w>
同性 愛</w>
去 往</w>
修 剪</w>
世界 化</w>
丁 寧</w>
一 員</w>
ウェ ル
ウィ ジェット</w>
イー グル</w>
め れ</w>
t t</w>
s 33</w>
or t</w>
la g</w>
h l</w>
5 3%</w>
4 7%</w>
19 51</w>
16 8</w>
鶏 肉</w>
転 地</w>
自由 形</w>
简 易</w>
朝鮮 半島</w>
日 方</w>
安 藤</w>
増 員</w>
同 一天</w>
史 蒂
口 腔</w>
劝 说</w>
作り 出す</w>
事 发</w>
メ イド</w>
プ ス</w>
ピ ーター</w>
ザ ー
ケ ン</w>
エ チ
co st
3 ,
2 600</w>
麦 克</w>
透 社</w>
蹄 疫</w>
路 透社</w>
見 出す</w>
荣 幸</w>
草 地</w>
老 板娘</w>
穿 越</w>
秀 吉</w>
深 める</w>
检察 员</w>
弃 权</w>
崔 成
射 频</w>
富士 通</w>
塑 料
固 たる</w>
四川 省</w>
味 儿</w>
口 蹄疫</w>
全 方位</w>
不 平</w>
一 昨年</w>
バド ミントン</w>
スコ ット
ジャ ケット</w>
キョン ギ</w>
エンター テ
しき りに</w>
飛び 出し</w>
领事 馆</w>
題 し</w>
订 户</w>
董事 会</w>
结 构图</w>
細 部</w>
柴 油</w>
教练 组</w>
救 命</w>
彗 星</w>
归 档</w>
停 泊</w>
仪 器</w>
产 部</w>
一 世</w>
リ ティー</w>
ビ ョン</w>
か た
退 院</w>
追 击</w>
运 费</w>
辞 意</w>
训练 场</w>
袜 子</w>
脂肪 酸</w>
痊 愈</w>
爱 人</w>
树 上</w>
染 み</w>
板 橋</w>
杰 作</w>
早 起き</w>
山 里</w>
军 舰</w>
休 止</w>
丽 水</w>
不 符</w>
不 一致</w>
ブ ライ
ド ラム</w>
テレ ビジョン</w>
エ コ</w>
にわ たり</w>
かし ら</w>
お 手
h u
雷 斯</w>
降 ら</w>
酒 屋</w>
選 択
選択 肢</w>
苦 戦</w>
片 付け</w>
油 断</w>
時 効</w>
封 切り</w>
堂 堂
和 ら
参 谋
一 向</w>
ス ラム</w>
あい にく</w>
n at</w>
ak b</w>
3 8%</w>
0. 2</w>
読 め</w>
被 害者</w>
衰 减</w>
点 差</w>
火 车站</w>
显示 屏</w>
摆 在</w>
担 负</w>
尔 特</w>
安 山</w>
堂堂 正正</w>
制 覇</w>
傷 つける</w>
争 議</w>
下 水</w>
シン ポジ
ウ サギ</w>
vs ig
s 41</w>
s 203</w>
of f
14 b</w>
要 领</w>
继承 人</w>
窗 帘</w>
离 职</w>
离 去</w>
离 别</w>
知 晓</w>
知 县</w>
湾 岸</w>
渔 村</w>
水 質</w>
无 党派</w>
振 る</w>
尘 暴</w>
少 子化</w>
大 金</w>
大 笑</w>
保 密</w>
一 手</w>
クァ ク・
もし も</w>
he n</w>
9 12</w>
院 生</w>
重 申</w>
耳 机</w>
答 辩</w>
空 母</w>
申し 立て</w>
献 给</w>
水 槽</w>
本 片</w>
提 唱</w>
托 马斯</w>
実 物</w>
农 地</w>
义 线</w>
下 ろす</w>
スコット ランド</w>
シンポジ ウム</w>
な ろ</w>
な き</w>
かわい そう</w>
6. 5</w>
4 6
19 46</w>
10 20</w>
金 宇</w>
网 友</w>
祈 求</w>
磁 器</w>
留 有</w>
清 爽</w>
水 产部</w>
殴 っ</w>
欠 い</w>
標 本</w>
时 空</w>
政治 局</w>
强 硬派</w>
宽 广</w>
十 九</w>
上 等</w>
マッ カー
ハイ ブリ
カ フェ
エン トリ</w>
お っしゃ
p b</w>
青 空</w>
老 爷爷</w>
独 裁者</w>
汇 集</w>
撤 消</w>
手 の
往 前</w>
当 たら</w>
巨 匠</w>
客 厅</w>
夢 見</w>
围 墙</w>
创始 人</w>
倒 下</w>
仮 処分</w>
京 义线</w>
フェ ンス</w>
クライアント デバイス</w>
ク リーン</w>
か き</w>
al l</w>
1. 1%</w>
1 20
青 蛙</w>
部 落</w>
道 而
赶 到</w>
耀 眼</w>
秒 钟</w>
盖 茨</w>
泊 まっ</w>
沙 尘暴</w>
来 访</w>
所 致</w>
忠 誠</w>
展 会</w>
反 之</w>
创 办</w>
内 置</w>
六 月</w>
伸 展</w>
以 防</w>
下 一次</w>
マイ ナー</w>
ブク ド・
デ スク</w>
ウ ズベ
ほ こり</w>
のぼ っ</w>
の ち</w>
い こ</w>
ur i</w>
r an
2 27</w>
语 学</w>
生き 物</w>
没 頭</w>
正 反対</w>
早 くから</w>
抱 く</w>
抓 获</w>
微 笑
帅 哥</w>
山 水</w>
多 分</w>
围 棋</w>
千叶 县</w>
医 学院</w>
务 局</w>
写 成</w>
兄 妹</w>
セ マン
シャ ー</w>
アリ ラン</w>
て ん</w>
く せ</w>
s 23</w>
9 9.
6 8
转 身</w>
背 上</w>
福 特</w>
礼 服</w>
物 产</w>
炮 弹</w>
日本 テレビ</w>
我が 国</w>
崇 拜</w>
寄 生
増 強</w>
咲 く</w>
北 川</w>
兹 别
优 越</w>
乌 兹别
テ ファン</w>
ダ メージ</w>
スイ ッチング</w>
ら せる</w>
み なし</w>
ず さん</w>
in ter
0. 4%</w>
表 れ</w>
磁 带</w>
确 定性</w>
焦 虑</w>
法 国队</w>
战 犯</w>
底 部</w>
守 门
大 吃
史 密
公 诉</w>
光 辉</w>
光 临</w>
リン ズ</w>
ウズベ キスタン</w>
た え</w>
いち ばん</w>
st 1</w>
s 31</w>
s 302</w>
s 112</w>
退 場</w>
过 半</w>
贫 困
许 可
老 龄化</w>
移 る</w>
清 朝</w>
混 入</w>
正 要</w>
新 華
奔 走</w>
吊 唁</w>
体 質</w>
云 台</w>
フラン クフ
7 5
6 60</w>
风 暴</w>
道 府県</w>
訪 中</w>
节 能</w>
王 牌</w>
消 滅</w>
洗 礼</w>
机 遇</w>
悩 ま</w>
年 长</w>
实 权</w>
可 口</w>
卑 劣</w>
不 愧</w>
ス イング</w>
と め</w>
y s</w>
o ob</w>
9 08</w>
5 18</w>
高 架</w>
飞 翔</w>
逐 年</w>
返 答</w>
记 忆
自 負</w>
纳 税
浓 缩
果 真</w>
李 康
最小 化</w>
拿 来</w>
懐 疑</w>
干 し</w>
工作 制</w>
工业 区</w>
州 立</w>
山 大</w>
对 战</w>
寄生 虫</w>
大 火</w>
公 務</w>
優 梨</w>
丰 收</w>
ユニ バー
マイクロ ソフト</w>
チュンチョン ナムド・
ケ ア</w>
a u
3 c</w>
鲜 花</w>
驻 留</w>
頼 る</w>
面 上</w>
金 荣</w>
足 元</w>
诸 位</w>
观 察
蓝 牙</w>
船 体</w>
群 山</w>
统 性</w>
结 晶</w>
禹 錫</w>
真 珠</w>
清 晨</w>
気 力</w>
明 中</w>
时 而</w>
打 听</w>
幻 灯
届 き</w>
复 习</w>
一 封</w>
ラ ス
フィラ デル
バイ アス</w>
バ リ
うん ざり</w>
v r</w>
t im
cpu 106</w>
cost as</w>
4 26</w>
2. 1</w>
1 150</w>
鸠 山</w>
餐 桌</w>
阿里 郎</w>
闪 耀</w>
邻 接</w>
表 決</w>
蜜 蜂</w>
淡 水</w>
気 味</w>
月 下</w>
景 品</w>
日 来</w>
志 望</w>
布 斯</w>
射 手</w>
寛 容</w>
同 声</w>
公 车</w>
低 廉</w>
交易 法</w>
中央 会</w>
ナイ キ
ナ ンス</w>
スト ア</w>
ce f</w>
重 任</w>
补 偿金</w>
蕾 舞</w>
芭 蕾舞</w>
线 图</w>
纳 尔
累 加</w>
白血 病</w>
登 山
片 方</w>
水 资源</w>
惨 敗</w>
年 糕</w>
天 真</w>
包 囲</w>
到 手</w>
伝 わる</w>
举 办
三 明治</w>
ホ ール
ヒ ン
ドリ ーム</w>
げ ん</w>
sin r</w>
默 默
金 汉
选 任</w>
送 付</w>
进 步
诉 讼
細 い</w>
筆 者</w>
真 偽</w>
直 通</w>
标 语</w>
晚 年</w>
日 頃</w>
攻击 性</w>
振り回 さ</w>
成 形</w>
想 い</w>
悄 悄</w>
小 幅</w>
对 比
外 侧</w>
听 课</w>
努 め</w>
农 作物</w>
主题 曲</w>
不 准</w>
ボ ケ</w>
チョン ドン</w>
セク ハラ</w>
キム・ ジン
g r</w>
7 7
4. 7%</w>
2. 7</w>
19 58</w>
金 贤
转 入</w>
踊 っ</w>
观 者</w>
结 实</w>
纵 向</w>
算 术</w>
江 陵</w>
新 增</w>
打 动</w>
弾 頭</w>
延 ばし</w>
守门 员</w>
名 次</w>
反 响</w>
参 考
入 伍</w>
侦 察</w>
仅 次于</w>
亀 梨</w>
ブラ シ</w>
トレ ード</w>
やむ を
议 事</w>
語 学</w>
节 制</w>
美 妙</w>
監 院</w>
派 出所</w>
树 叶</w>
杜 绝</w>
时 任</w>
支 社</w>
拓 扑</w>
抜け 出し</w>
戸 惑
幻灯 片</w>
夕 阳</w>
司 祭</w>
協 同</w>
剧 情</w>
処 置</w>
何 事</w>
レ バー</w>
トリ ミング</w>
カ ール</w>
し ん
5 6%</w>
険 しい</w>
长 江</w>
邀 请
辅 佐</w>
路 里</w>
裁 定</w>
简 洁</w>
福 岛县</w>
现 出</w>
無 断</w>
浓 缩</w>
有 权</w>
扶 養</w>
弊 端</w>
广 播
外 电</w>
基准 值</w>
卡 路里</w>
何 より</w>
ボ ク
お 話</w>
s 205</w>
nav er</w>
4. 3</w>
19 36</w>
都 道府県</w>
表 露</w>
羽 毛</w>
粗 糙</w>
立ち 上がり</w>
瑞 拉</w>
氧 化</w>
東 欧</w>
更 正</w>
文件 名</w>
插 件</w>
投 标</w>
得 失</w>
应 聘</w>
平 野</w>
委 内
委内 瑞拉</w>
告 げ</w>
吐 き
卖 掉</w>
内 側</w>
信 誉</w>
争 执</w>
为 题</w>
不 一</w>
プレイ ヤー</w>
パク・ ジ
カレン ダー</w>
れ ん</w>
s 24</w>
b lo
5 500</w>
5 11</w>
鸟 类</w>
魔 力</w>
飛び 込ん</w>
费 者</w>
说 说</w>
要 する</w>
绝 妙</w>
糖 分</w>
流 动性</w>
染 め</w>
提 拔</w>
投资 额</w>
性 骚扰</w>
後 れ</w>
功 效</w>
冲 击
中 风</w>
クラスメ ート</w>
鱼 片</w>
音 楽
陷 阱</w>
设 法</w>
講 堂</w>
補 間</w>
縛 ら</w>
海 滩</w>
新人 王</w>
従 わ</w>
山 谷</w>
山 峰</w>
安 値</w>
好 球</w>
名 胜</w>
加 賀</w>
冲 绳
侯 赛
住 宅
リー フ</w>
リ オ
チェ ジュ
っち ゅう</w>
s ps</w>
on e
6 03</w>
30 a</w>
3. 9%</w>
19 10</w>
銃 撃</w>
金秉 准</w>
補 強</w>
蒙 受</w>
箇 所</w>
空 き
眼 下</w>
漁 村</w>
気 持ち
柠 檬</w>
朴 相
朴 成
掠 夺</w>
害 する</w>
妥 善</w>
夸 大</w>
吸 う</w>
历 时</w>
净 化</w>
再 審</w>
代 わる</w>
了 当</w>
主导 权</w>
两 点</w>
レ スト</w>
ジェ ネ
いつの間 にか</w>
t pp</w>
ic t
郑云 灿</w>
連 鎖</w>
追 う</w>
迟 迟</w>
轮 流</w>
踢 球</w>
解放 军</w>
苏 省</w>
突 風</w>
监察 院</w>
珍 しく</w>
水 印</w>
此 刻</w>
李 氏</w>
无 缘</w>
征 用</w>
当 务
当务 之急</w>
帰 省</w>
安 熙正</w>
外 郭</w>
和 合</w>
出发 点</w>
公 明
促 销</w>
侯赛 因</w>
下 回っ</w>
・ヨン ジュン</w>
ワ ット</w>
ム ーン</w>
ミ ックス</w>
ネズ エラ</w>
チェル シー</w>
ソン パ
ゴル ファー</w>
コン テキスト</w>
イン ・
あ えて</w>
lin e</w>
3. 4%</w>
2 800</w>
预 选</w>
静静 地</w>
門 店</w>
过 头</w>
見 積
結 集</w>
組み 立て</w>
章 鱼</w>
板 門店</w>
战略 性</w>
届 か</w>
就 业者</w>
寄 せる</w>
孕 妇</w>
奢 侈</w>
天安 门</w>
同 然</w>
傾 ける</w>
一 双</w>
ング ァン</w>
レン タル</w>
チョ ア</w>
k i</w>
館 長</w>
青 岛</w>
離 し</w>
金南 一</w>
輩 出</w>
菊 池</w>
漏 らし</w>
无 用</w>
心 跳</w>
对比 度</w>
客 室</w>
大 屠杀</w>
回 顧</w>
及 格</w>
剥 奪</w>
人 人</w>
书 架</w>
万 金</w>
一 会</w>
ベ ネズエラ</w>
ファー ベ
ハ ート</w>
キャ プ
キ ン
ただ ちに</w>
z hen</w>
bo ok</w>
顶 部</w>
赵 成
買 え</w>
貴 族</w>
诅 咒</w>
議 事</w>
誓 い</w>
親 友</w>
見 出し</w>
要 領</w>
老 百姓</w>
班 人</w>
海 戦</w>
暂 且</w>
按 时</w>
报 刊</w>
庆 幸</w>
公 交</w>
元 化</w>
仰 望</w>
ロイ ヤ
ソ ヘ</w>
グレ ード</w>
なく なり</w>
し ょう</w>
ee prom</w>
cap ital</w>
ai g</w>
6 3%</w>
2 9%</w>
黑 白</w>
近 藤</w>
講 じる</w>
电 容器</w>
玩 家</w>
服 兵役</w>
提供 者</w>
抄 袭</w>
悔 し</w>
师 傅</w>
女 足</w>
劲 儿</w>
佩 戴</w>
作 法</w>
伏 せ</w>
中 産</w>
ブレ ア</w>
バラ エ
お ぼ
ma n</w>
6 7%</w>
貴 社</w>
腹 痛</w>
简 要</w>
眺 める</w>
烙 印</w>
欢 乐</w>
板 桥</w>
教科 文</w>
扱 わ</w>
手 形</w>
恒 星</w>
彼 得</w>
开 播</w>
坦 率</w>
图 画</w>
台 板</w>
十 六</w>
ハ ブ</w>
チ ーム
ゲ ー
お 笑い</w>
f in
马 丁</w>
音 響</w>
红 衣</w>
納 める</w>
移 譲</w>
火 葬</w>
时 差</w>
早 朝</w>
感 触</w>
帐 户</w>
屁 股</w>
就 业率</w>
女 中</w>
可 視</w>
受 不了</w>
凯 恩</w>
公 権力</w>
入 浴</w>
个 数</w>
三 国
ロマン チック</w>
フランクフ ルト</w>
フ ン
ナビゲ ーション</w>
チェ・ ヒ
ジャー ナ
ぶ ら</w>
じ ん</w>
s 402</w>
r g
m t
10 04</w>
饱 和</w>
退 い</w>
脅 かし</w>
细 微</w>
突 っ
相 隔</w>
男 友</w>
泳 ぐ</w>
江 省</w>
極 東</w>
栄 養
手 枪</w>
戒 烟</w>
彩 虹</w>
弔 問</w>
地 皮</w>
升 入</w>
全 集</w>
ハイブリ ッド</w>
ス ロー</w>
ガイ ド
す い</w>
3. 6</w>
音 响</w>
西 服</w>
纪 夫</w>
終 結</w>
着 实</w>
班 子</w>
灾 地</w>
游 玩</w>
減 衰</w>
浓缩 铀</w>
流 行っ</w>
流 用</w>
毛 衣</w>
歩 み</w>
武 术</w>
権 益</w>
探 险</w>
怪 盗</w>
徴 用</w>
強 固</w>
巴 西
太 白</w>
固 醇</w>
号 召</w>
单 打</w>
乗り 越える</w>
ハイ ニックス</w>
ジャ ック</w>
ジ ョ</w>
pc s</w>
h ig
7 8.
髪 型</w>
面 对面</w>
通 帳</w>
軽 油</w>
貨 幣</w>
舌 头</w>
粘 性</w>
更 生</w>
暴 動</w>
接 班人</w>
戦 犯</w>
念 頭</w>
心 底</w>
强 劲</w>
妨 げ</w>
南 西</w>
划 时代</w>
切 除</w>
免 れ</w>
一 応</w>
一 局</w>
ミ ン・
マン ハッ
ヘッ ド
ビ ック
データ ファイル</w>
ゲ スト</w>
ア ーム</w>
あ ご</w>
s 30
play list</w>
da c</w>
4 c</w>
高 裁</w>
陳 述</w>
赤 ん坊</w>
电 位</w>
活 儿</w>
柔ら かく</w>
斯 蒂
摄影 师</w>
応 じる</w>
必不可 少</w>
延 び</w>
布 拉
就 い</w>
家 賃</w>
同 人</w>
北 大</w>
克 制</w>
偏 振</w>
信息 化</w>
モ ー</w>
ベ イ</w>
デ レ
うる さい</w>
v d</w>
in t</w>
de r</w>
随 处</w>
限 期</w>
足 跡</w>
親 しい</w>
科 科</w>
独立 性</w>
清 道</w>
歌 詞</w>
朴 素</w>
有 形</w>
折 扣</w>
手 工</w>
急 ぐ</w>
忘 却</w>
学术 界</w>
大吃 一
大吃一 惊</w>
刊 载</w>
入 睡</w>
上 下班</w>
バ ター</w>
から には</w>
あ て</w>
あ う</w>
h eu</w>
4 3
0. 7%</w>
风 土</w>
起 立</w>
衰 弱</w>
衆 議院</w>
美 亚</w>
纽 约
笨 蛋</w>
相 等</w>
模 擬</w>
染 色
板 门店</w>
指 明</w>
执 事</w>
心 思</w>
小 额</w>
密 輸</w>
寄 宿</w>
厌 烦</w>
医 薬</w>
全 美</w>
保 っ</w>
传 讯</w>
マンハッ タン</w>
ニン ニク</w>
グラ フィ
オ チョア</w>
アッ プリン
9 11</w>
酸 性</w>
追 撃</w>
过 大</w>
試 練</w>
自治 县</w>
相 殺</w>
直 さ</w>
电 子
満 了</w>
沉 迷</w>
污 水</w>
来 源于</w>
曲 目</w>
探 検</w>
延 滞</w>
小 岛</w>
发 行
出 院</w>
内 陆</w>
位置 づけ</w>
互 换</w>
不 适</w>
一 类</w>
ソフト ウエア</w>
コン クール</w>
しょ っちゅう</w>
7 22</w>
6 8.
4 -
踏 み</w>
課 す</w>
装 订</w>
直 結</w>
生 人</w>
班 主任</w>
強 烈</w>
小 型
図 形</w>
周 岁</w>
变 革</w>
勃 発</w>
制片 人</w>
分 区</w>
公 聴</w>
乌兹别 克斯坦</w>
主 食</w>
中间 人</w>
与 会
七 夕</w>
ラ ク</w>
ゲ イ
ガ ム</w>
ひた すら</w>
かか わっ</w>
う どん</w>
olt 10</w>
n p</w>
c rc</w>
0. 9%</w>
0. 3</w>
頼 ま</w>
防 災</w>
腫 れ</w>
置 换</w>
眼 看</w>
産 ん</w>
永 哲</w>
执 笔</w>
打 折</w>
手 首</w>
急 務</w>
安 易</w>
塞 尔</w>
型 号</w>
估 算</w>
人 偶</w>
主 審</w>
ラン ニング</w>
ブ ラ</w>
バス ケット</w>
p er</w>
d 3</w>
ar f</w>
饲 料</w>
食 器</w>
開 館</w>
白 書</w>
灾 民</w>
浮 动</w>
流 露</w>
户 外</w>
後 進</w>
座り 込み</w>
塗 り
合 同
乘 务员</w>
チョ・ ヨン
ステ ル</w>
ア ジ
お 盆</w>
r rc</w>
19 59</w>
预 设</w>
隐 私</w>
空 袭</w>
生产 性</w>
极 高</w>
月 給</w>
怀 抱</w>
地 球
吉 野</w>
史密 斯</w>
办 事</w>
切尔 西</w>
ル ック
メール ゲートウェイ</w>
プレ フィ
ステー タス</w>
ケネ ディ</w>
こ もっ</w>
mp e
ee z</w>
3 65</w>
10 50</w>
这 辆</w>
覆 す</w>
空 腹</w>
积 极性</w>
略 奪</w>
朗 読</w>
扶 安</w>
帰 ら</w>
小 泽</w>
坟 墓</w>
变 频</w>
保守 派</w>
伯 格</w>
乗り 換え</w>
不 予</w>
下 端</w>
ラン ナー</w>
ライ センス</w>
テン プレート</w>
セレ クタ</w>
とも かく</w>
s b</w>
mo n</w>
防 线</w>
的 卡</w>
正 統</w>
枯 れ</w>
新闻 社</w>
操 業</w>
搁 置</w>
振る 舞い</w>
弄 错</w>
広 帯域</w>
布莱 尔</w>
山 道</w>
审 视</w>
取 付</w>
包 ん</w>
加 州</w>
初 夏</w>
中 長期</w>
プレゼン テーション</w>
ブ ー</w>
ピ コ</w>
トー マス</w>
エ ール</w>
も も</w>
5 60</w>
陥 り</w>
降 り
闪 闪</w>
远 东</w>
苦し む</w>
自 白</w>
约 合</w>
电 容</w>
曼 哈
所 蔵</w>
归 还</w>
布 尔</w>
奪 い</w>
再 有</w>
働 き
人 化</w>
举 重</w>
ップ ス</w>
ダ ル
セマン グム</w>
コ リ</w>
s 100</w>
2 41</w>
重 点
遠 鏡</w>
起 见</w>
贯 穿</w>
详 情</w>
缘 分</w>
红 酒</w>
社 员</w>
用 餐</w>
生み 出す</w>
災 い</w>
清 新</w>
毛 皮</w>
次 ぐ</w>
望 遠鏡</w>
明 了</w>
明 かし</w>
投 掷</w>
意 见
射 殺</w>
处 置</w>
半 夜</w>
光 彩</w>
二 连</w>
不 要紧</w>
マ シン</w>
パク・チ ソン</w>
パ ン・
コンテン ツ
エ コ
ア セ
ん じ</w>
か ま
dh cp</w>
a g</w>
高 音</w>
难 受</w>
送 電</w>
耐 力</w>
習 い</w>
福 建</w>
眼 球</w>
特 急</w>
满意 度</w>
染色 体</w>
有 能</w>
悼 念</w>
心 愿</w>
届け 出</w>
奶 酪</w>
外 側</w>
卫生 间</w>
ポロ ジ</w>
ブク ド</w>
パ シ
ハンド ヘル
コー チ
グー グル</w>
ア リー</w>
t 0</w>
im ax</w>
需 給</w>
过 世</w>
要 約</w>
裁 员</w>
知り 合っ</w>
王 妃</w>
牧 场</w>
熄 灭</w>
照 合</w>
毛 病</w>
未 必</w>
悲 しく</w>
宪 政</w>
天 文
固 执</w>
后 援</w>
剧 烈</w>
出 品</w>
八 个</w>
停 電</w>
假 装</w>
似 合う</w>
ピ ア</w>
ノ ール</w>
ナイキ ゴルフ</w>
チョン ジュ</w>
サ ッ
コ マン
のぼ り</w>
s at</w>
n ec</w>
8 30</w>
5 24</w>
高 層</w>
预 言</w>
问 及</w>
踏み 入れ</w>
谷 物</w>
股 权</w>
耐 性</w>
美 容
祈 愿</w>
発 動</w>
生 存
朝 興</w>
手 下</w>
房 租</w>
序 号</w>
巴 斯</w>
専 従</w>
威 尼斯</w>
在 住</w>
同 窓
何 故</w>
リ ボン</w>
チョン・ セ
ス ラ
カ チ</w>
b b</w>
貯 金</w>
讲 究</w>
肩 负</w>
直 視</w>
癌 细胞</w>
痴 呆</w>
特 惠</w>
焼 い</w>
流 浪</w>
流 布</w>
泽 东</w>
沉 着</w>
新 幹線</w>
总 的</w>
巨 头</w>
巡 礼</w>
家 用</w>
各 处</w>
勘 違い</w>
催 眠</w>
传 给</w>
モ ク
っ しり</w>
th 1</w>
co ex</w>
遇 难者</w>
自 语</w>
老 将</w>
继 而</w>
绝对 值</w>
称 得上</w>
異 動</w>
田 村</w>
爽 快</w>
液 化</w>
流 星</w>
毛 泽东</w>
服务 员</w>
曼哈 顿</w>
分 娩</w>
侦察 机</w>
リチャ ード</w>
ダ ニ
す き</w>
か た</w>
い り</w>
lp cm</w>
4 70</w>
3 700</w>
2 700</w>
预测 性</w>
降 落
降落 伞</w>
诊 所</w>
蒙 特
艰 辛</w>
船 長</w>
胜 诉</w>
有 数</w>
晴 朗</w>
既 有</w>
开 张</w>
山 地</w>
太 い</w>
动 脉</w>
判 例</w>
军 用</w>
偏 离</w>
世界 观</w>
不 知
一 新</w>
ミュ ン
ピ ル</w>
サー クル</w>
エ ベ
い す</w>
x xx</w>
s 210</w>
r i
4 23</w>
马德 里</w>
頼 み</w>
逐 一</w>
肉 类</w>
相 応</w>
直 译</w>
电 报</w>
田 空港</w>
牙 科</w>
澳 洲</w>
河 水</w>
朗 读</w>
斯 坦
拭 い</w>
打 着</w>
左 腕</w>
失 利</w>
复 仇</w>
名 副
名副 其实</w>
发 誓</w>
印 有</w>
今 年度</w>
一 滴</w>
ルック アップ
ビ リ
イ・ チョン
アレル ギー</w>
アナ リスト</w>
な め</w>
つ れ</w>
ig ht</w>
5 ,
鲸 鱼</w>
饭 碗</w>
食品 部</w>
频 度</w>
震 度</w>
陈 旧</w>
閉じ 込め</w>
野 兽</w>
配 音</w>
贵 方</w>
薛 鐗</w>
職 位</w>
纪 末</w>
祖 父母</w>
磁 性</w>
決 裂</w>
某 人</w>
松 子</w>
意见 书</w>
定 量</w>
信 度</w>
中 隊</w>
ール ・
ニ ック
チョン・ ドゥ
ス パイ
ゲ ル</w>
なん とか</w>
r p</w>
7 9.
4. 8%</w>
19 6</w>
龙 川</w>
顶 尖</w>
震 动</w>
開 口</w>
速 器</w>
近 几年</w>
试 题</w>
試 験
見 かけ</w>
草 莓</w>
缝 隙</w>
礼 品</w>
皮 肉
清 单</w>
文学 奖</w>
持 株</w>
忧 郁症</w>
応 急</w>
実 写</w>
威 士
单 价</w>
冠 岳</w>
光 洙</w>
体 性</w>
交 换
不 算</w>
デ コード</w>
コンピュー ティング
ガー ナ</w>
酔 い</w>
逆 境</w>
读 完</w>
経 ち</w>
理 发
消 さ</w>
汇 总</w>
最 先端</w>
斯 塔</w>
投 身</w>
大 意</w>
士 気</w>
决 算</w>
健 身</w>
不 自由</w>
ラン チ</w>
セ ーター</w>
も って</w>
m ac
5 4%</w>
10 11</w>
食 生活</w>
顿 时</w>
运营 商</w>
走 者</w>
补 正</w>
理 论
漁 民</w>
沪 江</w>
有 待</w>
散 文</w>
慰 问</w>
後 者</w>
庭 園</w>
平 板</w>
孤 児</w>
告 別</w>
决 书</w>
入 围</w>
上 升
マ ンス</w>
ポ ケ
ダ イ</w>
ジュ アル</w>
オ レ</w>
エ バー
と い
く わ
at a</w>
19 47</w>
防 战</w>
错 觉</w>
鍛 え</w>
金 库</w>
选 拔
说 实话</w>
该 图</w>
親 密</w>
耶 鲁</w>
老 後</w>
甲 状
甲状 腺</w>
生 鱼片</w>
減 速</w>
津 江</w>
旅 途</w>
新 築</w>
攻 防战</w>
懐 かしい</w>
惨 状</w>
思 索</w>
容 貌</w>
字 样</w>
大 有</w>
另 有</w>
劣 势</w>
出 征</w>
八 月</w>
乐 曲</w>
下 级</w>
リ ムー
スタ ック</w>
sm ps</w>
d sc</w>
_ i</w>
4 800</w>
黄 昏</w>
部 活</w>
資 材</w>
瀬 戸
涌 入</w>
海 战</w>
格 上げ</w>
栅 栏</w>
户 主</w>
将 士</w>
学 長</w>
填 充</w>
回 过</w>
四 つ</w>
嘴 巴</w>
向 后</w>
南 端</w>
作 风</w>
争 斗</w>
ファーベ ーク</w>
ドラ フト</w>
コ ス</w>
キム・ ヒョン
2. 7%</w>
面 白</w>
遗 书</w>
这 间</w>
覚 め</w>
臨 む</w>
而 知</w>
羞 耻</w>
紫 外線</w>
石 田</w>
発 令</w>
标 值</w>
抢 劫</w>
悬 挂</w>
後 端</w>
干 事
大 卫</w>
厳 密</w>
出 回っ</w>
休 学</w>
任 天堂</w>
二 者</w>
ダイヤ モンド</w>
コン タ
エベ レスト</w>
ちま ち</w>
あい だ</w>
2. 2%</w>
& a</w>
负 有</w>
貼 っ</w>
花 嫁</w>
献 花</w>
物 議</w>
火 炬</w>
流 产</w>
明星 赛</w>
或 缺</w>
平 準</w>
天安 門</w>
塗 り</w>
国际 性</w>
哈 尔
口 頭</w>
即 位</w>
千 葉</w>
伯 利亚</w>
两 岸</w>
不可 或缺</w>
下 水道</w>
ラ シ</w>
ボ ム
デ ムン</w>
ッ キ</w>
チョン・ ヨン
ちょ っと
er o</w>
駐 屯</w>
预 备
道 知事</w>
親 指</w>
自 传</w>
真 伪</w>
発 病</w>
物 色</w>
源 地</w>
消费 量</w>
死 後</w>
槿 泰</w>
搅 拌</w>
引 来</w>
并 排</w>
子 孙</w>
大 挙</w>
博 物</w>
分 別</w>
休息 日</w>
下 决心</w>
三国 志</w>
マ ックス</w>
プロ ポーズ</w>
プレー ヤ</w>
チョ ウ</w>
サー ビス
オ タク</w>
ず み</w>
u r</w>
al m</w>
5 8%</w>
4. 8</w>
3. 7</w>
蒸 し
落ち 着
畜 産</w>
点 球</w>
橄榄 球</w>
松 树</w>
暴 风雨</w>
施 し</w>
放射 能</w>
恶 心</w>
好 ん</w>
名 実</w>
另 行</w>
休 ま</w>
些 細</w>
严 重性</w>
ク ジラ</w>
エントロ ピー</w>
イエ ス</w>
ちょっと した</w>
puc i</w>
3 9%</w>
黄 油</w>
鳩 山</w>
貼 り</w>
调查 官</w>
调 理</w>
论 者</w>
規 範</w>
蛍 光</w>
竹 子</w>
松 井</w>
書き 込ま</w>
拉 拉
投 篮</w>
义 士</w>
ロ ケ</w>
メッ シュ</w>
フ ー</w>
チャ ット</w>
グ レー</w>
イ・ ド
おしゃ れ</w>
v pn</w>
ko spi</w>
高 利
長 野</w>
退 还</w>
过 早</w>
跳 ね
豊 作</w>
纯 洁</w>
禁 忌</w>
清 潔</w>
楽 曲</w>
東 方</w>
无 料</w>
思い 切っ</w>
屋 内</w>
居 酒屋</w>
召 回</w>
动 词</w>
出 没</w>
出 せる</w>
傻 瓜</w>
余 震</w>
中 海</w>
ルックアップ テーブル</w>
ファンタ ジー</w>
グ ン・
オー ト
だ まさ</w>
mar k</w>
3 200</w>
高 频</w>
開 校</w>
重 构</w>
逝 去</w>
語 り</w>
裕 福</w>
网 格</w>
算 定</w>
空 席</w>
研究 者</w>
浄 化</w>
洞 察</w>
波 浪</w>
極 度</w>
招 收</w>
崔 泰
小 事</w>
実 習</w>
天 下り</w>
大 作</w>
向 き
你 家</w>
亲 生</w>
丢 掉</w>
东 南</w>
ス ランプ</w>
オ オ
ちゃ う</w>
windo ws</w>
f 4</w>
add r</w>
7 11</w>
6. 5%</w>
15 a</w>
饿 死</w>
频 频</w>
避 暑</w>
连 日</w>
软 盘</w>
羞 愧</w>
無 名</w>
水 田</w>
案 子</w>
无 异
无异 于</w>
执 照</w>
店 員</w>
应 急</w>
光 是</w>
位 子</w>
不 至于</w>
三 位</w>
エ ンス</w>
ic s</w>
4 17</w>
鳗 鱼</w>
马 克
頂 き</w>
音楽 家</w>
附 着</w>
造 假</w>
连接 线</w>
试 问</w>
衝 動</w>
落 入</w>
胡 同</w>
立 方
社会 党</w>
相 撞</w>
玄 关</w>
烟 雾</w>
深 思</w>
标 注</w>
枕 头</w>
李容 勋</w>
忘 年会</w>
府 县</w>
官 兵</w>
受 益</w>
単 価</w>
关 岛</w>
乌 鸦</w>
ヒョン ・
ニー ・
ナ タ</w>
な じみ</w>
し ま</w>
う つ</w>
2. 3%</w>
适 度</w>
衆 国</w>
船 員</w>
癒 着</w>
流 派</w>
沐 浴</w>
暴 动</w>
损 失
拓 哉</w>
定 時</w>
大 局</w>
地 铁
国际 法</w>
合 衆国</w>
原 色</w>
判 决书</w>
出 家</w>
低 速</w>
付き 合う</w>
乡 下</w>
世界 銀行</w>
不 易</w>
ロー マ
デ ビ
イル カ</w>
し て
お 祈り</w>
お 世話</w>
pd n</w>
重点 的</w>
递 给</w>
资 政</w>
著 称</w>
自由 化</w>
老 实</w>
终 场</w>
石 碑</w>
特 级</w>
炭 水
炭水 化物</w>
殆 ど</w>
救 护
指挥 官</w>
打 的</w>
慣 例</w>
干 预</w>
寂 しく</w>
一 时间</w>
レー ター</w>
プラテン ガラス</w>
ト ロ</w>
ジャ クソン</w>
エ ビ</w>
な にか</w>
ぐ る</w>
き ら</w>
い ざ</w>
yo ut
k lpga</w>
音 色</w>
遵 从</w>
退 社</w>
车 票</w>
覇 権</w>
腎 臓</w>
胸 前</w>
秘 め</w>
正 门</w>
挥 舞</w>
差 益</w>
売 上げ</w>
启 发</w>
利 広</w>
主 观</w>
丸 い</w>
一 千</w>
マケ イン</w>
ゲ ノ
アル ・
たび たび</w>
く る
お か</w>
p u
f f
4. 4%</w>
降 りる</w>
週 休</w>
许可 证</w>
管理 局</w>
答 者</w>
立 件</w>
眠 る</w>
水 深</w>
樱 井</w>
来 信</w>
教 界</w>
探 偵</w>
捕 鱼</w>
幼 年</w>
大 蒜</w>
回 答者</w>
否 决权</w>
凤 凰</w>
冷 え</w>
人 為</w>
トリ ノ</w>
ゴ ロ</w>
ぶ つけ</w>
s 401</w>
d n</w>
4 6%</w>
2 98</w>
行 本</w>
算 了</w>
激 怒</w>
永 住</w>
本 意</w>
收 缩</w>
挑 战
持ち 出し</w>
従 业</w>
強 姦</w>
度 假</w>
尔 顿</w>
奥 行</w>
口 语</w>
刹 那</w>
ヘ ア</w>
プラン ト</w>
フェ デ
ソ ル</w>
す っきり</w>
こ む</w>
お は
s 50</w>
p v</w>
3. 2</w>
鮮 やか</w>
雄 大</w>
难 忘</w>
限 性</w>
阿 瑟</w>
関 東</w>
肉 眼</w>
署 长</w>
滚 动</w>
溶 液</w>
深 海</w>
流 畅</w>
斜 面</w>
散 っ</w>
推 向</w>
拳 头</w>
拉 夫</w>
所 持</w>
怀 有</w>
復 讐</w>
延 ばす</w>
度 合い</w>
守 卫</w>
南 下</w>
劳 资政</w>
加 拉
功 績</w>
利 き</w>
公明 党</w>
上升 率</w>
イラ スト</w>
じ り</w>
y x</w>
t ti</w>
s 310</w>
音 波</w>
韩 美日</w>
試 みる</w>
至 ら</w>
第 十</w>
真 央</w>
理 工科</w>
灯 火</w>
潜 伏</w>
湖 畔</w>
政 争</w>
改 め</w>
悲 鳴</w>
带 去</w>
好 投</w>
哺 乳</w>
初 步</w>
互 不</w>
买 入</w>
上 品</w>
万 岁</w>
メン バ</w>
ハンドヘル ド
ジ メント</w>
ク サン
こ なし</w>
7. 5%</w>
5 70</w>
闘 志</w>
长 长的</w>
金 容
重 演</w>
部 数</w>
踪 者</w>
请 看</w>
育 ち</w>
終 戦</w>
紧 接</w>
疲 れ
牌 子</w>
横 向</w>
本 気</w>
悩 む</w>
山 城</w>
存 亡</w>
奮 闘</w>
大 麻</w>
パ ナ
コン ビ</w>
w t</w>
p _
ipv 4</w>
en t
bs 10</w>
19 54</w>
1 104</w>
鲜 艳</w>
郑大 哲</w>
迷 信</w>
譲 っ</w>
要 塞</w>
苏 州</w>
留 所</w>
物 産</w>
深 远</w>
洋 溢</w>
注 ぐ</w>
性 欲</w>
强 占</w>
废 弃物</w>
安 逸</w>
失 踪者</w>
在 读</w>
佐 々木</w>
一 体化</w>
モ ニー</w>
バラ ク・
サン ドイ
こだ わり</w>
5 9
3 91</w>
领 海</w>
領 事</w>
重 审</w>
蜂 蜜</w>
知 情</w>
泰 安</w>
教育 界</w>
手 作り</w>
思 想
微 波</w>
安 娜</w>
孤 儿</w>
地 中海</w>
包 み</w>
动 化</w>
加 減</w>
優 良</w>
他 家</w>
丸 く</w>
东 源</w>
ー ス
ハン カチ</w>
スケ ール</w>
ギ ング</w>
ひ ざ</w>
い も</w>
st ice</w>
es g</w>
风 潮</w>
雅 虎</w>
迪 斯
赠 品</w>
责 备</w>
脸 颊</w>
結 束</w>
積 み</w>
破 綻</w>
田 中
瓶 子</w>
时 有</w>
所 要</w>
憲 政</w>
年 始</w>
少 なかっ</w>
変 革</w>
埠 頭</w>
内 海</w>
代表 部</w>
乗 組</w>
ラ ミ
フェ ン</w>
パク・ チョン
ハンドヘルド デバイス</w>
ナ ルト</w>
ゴール デン</w>
カタ ログ</w>
っ ぱ
け ない</w>
k hz</w>
5 c</w>
4. 2</w>
15 9</w>
11 60</w>
高 尚</w>
風 俗</w>
金 字
金字 塔</w>
适 切</w>
贸 易
西 伯利亚</w>
苦し め</w>
苦 战</w>
胃 癌</w>
纪 律</w>
糊 涂</w>
療 養</w>
现 已</w>
波 罗</w>
根 基</w>
旅 団</w>
拖 欠</w>
拉拉 队</w>
就 达</w>
小 狗</w>
好 消息</w>
場 外</w>
和 也</w>
名 詞</w>
到 场</w>
初 年度</w>
下 一步</w>
レ モン</w>
セ プト</w>
スケー リング</w>
ガ ール
ウェ イ
は め</w>
お 疲れ
w imax</w>
s 9</w>
5 80</w>
2 45</w>
魔 王</w>
防 空</w>
象 棋</w>
给 料</w>
纳 粹</w>
経 た</w>
生き 方</w>
深 表</w>
架 空</w>
整 齐</w>
挟 ん</w>
承 諾</w>
想 你</w>
悬 命</w>
思い やり</w>
宫 城县</w>
威士 忌</w>
好 人</w>
奠 定</w>
冠军 杯</w>
下 巴</w>
モ ラル</w>
ミ ナル</w>
ティ ション</w>
アメリ カン</w>
m r</w>
7 8
25. 7</w>
震 災</w>
系 統</w>
簡 易</w>
盲 目的</w>
爆 料</w>
熱 中</w>
混 凝
混凝 土</w>
河 里</w>
格 林</w>
李 明
无 一</w>
斜 坡</w>
捕 捞</w>
巡 演</w>
富 含</w>
头 顶</w>
哲 学家</w>
呼 唤</w>
即 時</w>
出 路</w>
伸 手</w>
伤 痛</w>
予 感</w>
乗 務</w>
メ イ
ヌ ード</w>
ギ ムン</w>
キー プ</w>
ガ ル
カ ラス</w>
っ こ</w>
r c
i 16</w>
40 0
高 橋</w>
離 陸</w>
進 退</w>
身 柄</w>
生 于</w>
深 切</w>
极 了</w>
推 し
掌 权</w>
抱 住</w>
思い 出さ</w>
平 澤</w>
天 花
喜 马拉
和平 奖</w>
二 楼</w>
下 半身</w>
バラク・ オバマ</w>
ノ イ</w>
ジ ヨン</w>
ア ミ
にく く</w>
yout ube</w>
8 8
5 31</w>
1 204</w>
递 送</w>
西 红
西红 柿</w>
芳 香</w>
肉 食</w>
聴 衆</w>
炼 油</w>
汉 姆</w>
时 称</w>
存 折</w>
天 海</w>
大 夫</w>
化 肥</w>
勝 訴</w>
体 检</w>
从 没</w>
人 与
人与 人</w>
ピ ザ</w>
ハンド ボール</w>
ス ロ
アップリン ク
け い</w>
い ける</w>
あ ざ
mp u
a o</w>
2 99</w>
領 事
領事 館</w>
随 身</w>
裁 减</w>
穆 朗
直 言</w>
珠 穆朗
爱德 华</w>
熟 練</w>
残 骸</w>
時 分</w>
惊 喜</w>
小 路</w>
安哲 秀</w>
哨 戒</w>
周 四</w>
取り 組み</w>
卖 店</w>
出 入口</w>
事 柄</w>
フェ ル
パート ナー
サンドイ ッチ</w>
ゲノ ム</w>
そ っくり</w>
n d</w>
非 典</w>
霸 权</w>
郑梦 宪</w>
計 測</w>
補 足</w>
終 盤</w>
穷 人</w>
破 れ</w>
猫 咪</w>
柱 子</w>
枚 数</w>
書 店</w>
挥 手</w>
悪 夢</w>
平 稳</w>
干事 长</w>
山 东</w>
局 限性</w>
小 児</w>
壮 士</w>
增 设</w>
塞 尔
問 い</w>
卧 室</w>
交 响
亡く なり</w>
上 京</w>
ムン・ ジェ
ベア ラ</w>
パレ ード</w>
サン ス</w>
それ なら</w>
sol stice</w>
n as</w>
m t</w>
jap an</w>
ac l</w>
4 42</w>
重量 挙げ</w>
迎 撃</w>
自 主
联 手</w>
水 族
李 成
暴 走</w>
時 差</w>
改 定</w>
扇 子</w>
往 复</w>
字 体</w>
变 迁</w>
发 电站</w>
内 陸</w>
具 備</w>
争 吵</w>
主 上</w>
パク・ ジョン
カ ザ
ウィ ーン</w>
アウ ト
ば く</w>
せ い
al l
青 龍</w>
需 品</w>
附 上</w>
辞 職</w>
詰 まっ</w>
罗 南</w>
登 校</w>
痴 呆
狭 小</w>
湖 水</w>
海 警</w>
枪 支</w>
更 替</w>
敷 い</w>
敬 礼</w>
投 下</w>
客 席</w>
反 日</w>
原 价</w>
创 伤</w>
出 走</w>
产 经</w>
乾 い</w>
クリ ニック</w>
ギャ ップ</w>
キ ル
と ら
s 301</w>
s 18</w>
i id</w>
10 6a</w>
飲 め</w>
降 落</w>
長 城</w>
透 かし</w>
跳 过</w>
跳 槽</w>
談 合</w>
視 力</w>
被 动</w>
螺 旋</w>
腕 時計</w>
美味 しかっ</w>
続 出</w>
粉 末</w>
神 宫</w>
磁 波</w>
珊 瑚</w>
王 者</w>
無 意識</w>
洗 钱</w>
榜 样</w>
思 える</w>
巴西 队</w>
子 集</w>
天 性</w>
克 逊</w>
余 力</w>
リ エ</w>
ド キ
スク ラン
ジャ ガイ
サラ ダ</w>
キム・ ジェ
な で</w>
mo bis</w>
19 05</w>
进步 党</w>
跌 落</w>
调 解</w>
砂 浜</w>
相 片</w>
界 定</w>
照 亮</w>
梦 见</w>
校 验</w>
期 日</w>
更 进一步</w>
新 曲</w>
接 球</w>
挺 进</w>
折 衷</w>
打ち 合わせ</w>
废 止</w>
少 于</w>
嫌 悪</w>
奪 う</w>
喜 ぶ</w>
周 密</w>
周 二</w>
名 づけ</w>
原 产地</w>
兴 奋
九 月</w>
ミュン ヘン</w>
ティ ン</w>
ジョ ー</w>
ザイ トゥ
おは よう</w>
im t</w>
逮 捕
联 军</w>
総 数</w>
称 さ</w>
石 器</w>
百 亿</w>
烤 肉</w>
母 国</w>
栖 息</w>
杰 克逊</w>
揭 晓</w>
岩 木</w>
实 用
囲 碁</w>
低 谷</w>
不 在乎</w>
フィラデル フィア</w>
ハイ テク</w>
ニ ング
トップ クラス</w>
ジャガイ モ</w>
その うえ</w>
い たく</w>
x ml</w>
s 51</w>
m &a</w>
19 57</w>
19 4</w>
风 力</w>
防 ぎ</w>
裏 面</w>
虫 子</w>
聴 き</w>
第 四
神 情</w>
短 編</w>
痴呆 症</w>
病 房</w>
爵 士
李 舜臣</w>
期 盼</w>
彷 徨</w>
市 政</w>
工 艺
垂 れ
在 后</w>
不 怕</w>
ジョ ギング</w>
サイ ダー</w>
キム・ビョン ヒョン</w>
アメリ カ
さ く</w>
韓 煕
雪 橇</w>
配 角</w>
连 串</w>
转 录</w>
财 界</w>
解 禁</w>
茶 碗</w>
芸 人</w>
脊 椎</w>
聴 覚</w>
演奏 家</w>
浮 揚</w>
毛 利</w>
橡 胶</w>
機 体</w>
果 実</w>
本 金</w>
悪 かっ</w>
帅 气</w>
山 洞</w>
审判 长</w>
天花 板</w>
基 亚</w>
品 位</w>
呼 応</w>
各 方</w>
危 ない</w>
八 重子</w>
光 陽</w>
使用 费</w>
佛 像</w>
三 清</w>
一 经</w>
メ ガ</w>
ビデオ カメラ</w>
パートナー シップ</w>
ノ ミ
ギ ン</w>
お 湯</w>
s cm</w>
b y</w>
_ 2</w>
2. 6%</w>
19 9</w>
面 子</w>
逃 げる</w>
辛 子</w>
聆 听</w>
老 公</w>
等 式</w>
朴 仁
拍 車</w>
托 付</w>
度 量</w>
始 末</w>
均 一</w>
吻 合</w>
内 幕</w>
亲 友</w>
亚 历
下 限</w>
一 小</w>
チ ア</w>
コン テスト</w>
ま き</w>
ば り</w>
の まま</w>
r 3</w>
6 4%</w>
黎 明</w>
麦 凯恩</w>
零 食</w>
逮捕 令</w>
迪斯 尼</w>
踏 まえ</w>
足 かせ</w>
诸 国</w>
覚 書</w>
薄 膜</w>
腰 部</w>
租 借</w>
确 诊</w>
無 知</w>
気 軽</w>
暴 言</w>
攀 升</w>
掌 管</w>
恰 恰</w>
总 决赛</w>
常 有</w>
巴 尔
対 価</w>
姜 某</w>
天文 台</w>
咨 询
后 半期</w>
取 調べ</w>
南 大門</w>
ロイ ター
チ ー
イ・ ビョン
さわ やか</w>
けん 制</w>
あ れ
k ed
ag e</w>
4 32</w>
首 部</w>
重 逢</w>
订 货</w>
細 かく</w>
等 你</w>
童 話</w>
空 想</w>
矫 正</w>
歌 謡</w>
日 系</w>
断 ち
换 乘</w>
抽 屉</w>
惊 慌</w>
急 救</w>
居 多</w>
埋 蔵</w>
地铁 站</w>
几 种</w>
兴奋 剂</w>
会 计
付 か</w>
亲 子</w>
ディ ック</w>
ス ウォン</w>
コス ピ</w>
ウィリア ムズ</w>
め き</w>
です から</w>
m in
2. 6</w>
诉 说</w>
要 人</w>
行 ない</w>
自 责</w>
腐 っ</w>
社 債</w>
爵士 乐</w>
游泳 池</w>
氷 河</w>
民 兵</w>
期 化</w>
易 于</w>
挤 满</w>
喜 ば</w>
发 作</w>
加 わる</w>
养 殖</w>
代 え</w>
予 言</w>
不 绝</w>
マ ウル</w>
プ ク
シ ベリア</w>
キョンサン ナムド・
ま な
たま らない</w>
6 1%</w>
18 8</w>
附 有</w>
迷 い</w>
该 校</w>
覚 まし</w>
短 所</w>
焦 躁</w>
更 具</w>
救护 车</w>
拉 斯
年 々</w>
威 尔
多 条</w>
吞 吐
則 っ</w>
分 界线</w>
亚历 山大</w>
中 世</w>
ホン ダ</w>
ヒー ロー</w>
ハー フ</w>
チェ・ ギョン
カ ム
sv c</w>
sl ate</w>
黄 河</w>
香 气</w>
難 関</w>
隐 退</w>
长 处</w>
送 回</w>
转 嫁</w>
踏み 出し</w>
罚 金</w>
纵 横</w>
総 量</w>
看 点</w>
法 理</w>
来 不及</w>
手 球</w>
合 弁</w>
印 字</w>
前 月</w>
会 わ</w>
以 至于</w>
一人 暮らし</w>
一 成</w>
ハン ヤン</w>
チュン チョン</w>
ソ ナタ</w>
グ アム</w>
む だ</w>
さ と</w>
お こ
あり のまま</w>
f or
18 4</w>
11 21</w>
黄 长
随 笔</w>
降 下</w>
阵 地</w>
闭 合</w>
破 片</w>
男 孩子</w>
泰 山</w>
来 历</w>
振 荡</w>
抚 摸</w>
憂 鬱</w>
平 衡
回 す</w>
噩 梦</w>
发 酵</w>
勤 劳</w>
六 点</w>
二 分</w>
下 回る</w>
一 连串</w>
よ って</w>
か ん
いただ ける</w>
s10 7</w>
c f</w>
4 25</w>
银 行
送 上</w>
盼 望</w>
相关 性</w>
皮 鞋</w>
漂 浮</w>
気に 入ら</w>
次 い</w>
廃 合</w>
周 到</w>
吉 祥
去 り</w>
冷 蔵</w>
决 战</w>
冰 岛</w>
位 移</w>
交换 机</w>
东 芝</w>
ロイター 通信</w>
マ ジック</w>
タ ップ</w>
サ ン・
は ね</w>
って いう</w>
か み
p ico
6 16</w>
齿 轮</w>
黑 猩猩</w>
黄长 烨</w>
长 相</w>
過 ぎ
走 り
背 着</w>
纽 带</w>
纪念 碑</w>
発 刊</w>
最 想</w>
时 半</w>
日 经</w>
摧 毁</w>
探 る</w>
採 点</w>
投 射</w>
快 餐</w>
心 痛</w>
尝 到</w>
吸 烟
取 样</w>
入 者</w>
依赖 性</w>
レ ール</w>
マルチ キャスト
プリ コーディング</w>
プラテン カバー</w>
スポー ツ
オ ート</w>
ふ た</w>
tran slate</w>
t 5</w>
s ch</w>
h ss</w>
鳴 動</w>
風 土</w>
超 强</w>
质 的</w>
调查 权</w>
装 配</w>
玛 峰</w>
熊 本</w>
炒 め</w>
深 セン</w>
極 点</w>
杰 出</w>
权 者</w>
握 住</w>
探 测器</w>
抜 ける</w>
技 艺</w>
平 地</w>
巻 く</w>
小 镇</w>
対 向</w>
大 关</w>
外 务</w>
圣 经</w>
内 审</w>
养 老</w>
仕 組み</w>
享 用</w>
世 锦赛</w>
ル イス</w>
リョ ル</w>
ヒ ル
ヒ ジョン</w>
ド キ</w>
サ プライ
ア キュ
た しか
e t
8 22</w>
3 -
骚 乱</w>
銀 河</w>
重 根</w>
道而 驰</w>
迷 宫</w>
议 决</w>
補 修</w>
背 道而驰</w>
纲 领</w>
米 尔</w>
真っ 暗</w>
电 动机</w>
清 秀</w>
活 泼</w>
攻击 力</w>
撒 谎</w>
掘 っ</w>
恩 惠</w>
得 来</w>
干 活</w>
将 棋</w>
威廉 姆斯</w>
名 教授</w>
可 笑</w>
加 速器</w>
分 校</w>
中 长期</w>
严 密</w>
下 令</w>
フ ・
ト ランス</w>
ソン ドン</w>
ゼ ル</w>
ウェブ ページ</w>
9 40</w>
预 感</w>
都 灵</w>
逃 出</w>
退 化</w>
讲 义</w>
被 盗</w>
自 任</w>
総 統</w>
監 獄</w>
発 振</w>
田 地</w>
珠穆朗 玛峰</w>
片 手</w>
燃 焼</w>
満 開</w>
消 耗
歪 み</w>
正 向</w>
标准 化</w>
条 旗</w>
本 選</w>
星 条旗</w>
政 厅</w>
属 下</w>
寻 呼</w>
实 惠</w>
坏 话</w>
吨 级</w>
动 手</w>
加 わり</w>
冰 冷</w>
入 驻</w>
付 着</w>
人行 道</w>
ライ ター</w>
ヨル ダン</w>
コン ・
それ なり</w>
o p</w>
dpf 1a</w>
2. 8</w>
2 :
驱 逐
風 船</w>
風 刺</w>
障 壁</w>
路 地</w>
要 望</w>
蓝 天</w>
社 民党</w>
磨 い</w>
甲 板</w>
某 处</w>
枪 鱼</w>
无 意识</w>
新 车</w>
政 客</w>
执行 部</w>
奥 尔
土 星</w>
变 身</w>
出 展</w>
儒 教</w>
借 鉴</w>
优 待</w>
不 妊</w>
ライ ラ</w>
トロ フィー</w>
ダ ・
ストー ブ</w>
シン ク</w>
エン トリー</w>
イ ファ</w>
つ くり</w>
hi v</w>
a fc</w>
7 05</w>
難 題</w>
錯 誤</w>
装 扮</w>
筆 頭</w>
稳 固</w>
母 语</w>
李亨 泽</w>
时 点</w>
日 照</w>
日 历</w>
拉 拢</w>
密 封</w>
唐 辛子</w>
和 睦</w>
六 十</w>
全 文</w>
乘 以</w>
バッテ リー</w>
バ ータ</w>
ノ ン
ストライ ク</w>
シュ タイン</w>
クロ ード</w>
や める</w>
すれ ば</w>
h h</w>
3 g</w>
3 34</w>
10 c</w>
10 01</w>
1 206</w>
鲁 尼</w>
马 林
金 枪鱼</w>
重 重</w>
赤 裸
貸 出</w>
貸 付</w>
菊 花</w>
経 済
病 症</w>
浪 人</w>
指 着</w>
手 口</w>
成 し</w>
徽 章</w>
役に 立た</w>
开 战</w>
吸 入</w>
即 刻</w>
到 家</w>
互 补</w>
チョン・ ウン
コー ディ
づ ける</w>
つ いて
2 2a</w>
18 a</w>
里 根</w>
配 对</w>
贵 社</w>
規 律</w>
收 藏
搾 取</w>
扳 平</w>
払 い
异 物</w>
市 政厅</w>
山 頂</w>
好 評</w>
套 餐</w>
大 衣</w>
可 信</w>
参 院</w>
动 工</w>
准 确
八 点</w>
互 恵</w>
一 如</w>
ワン ピース</w>
バ ク
コ メディ</w>
ゲーム センター</w>
イ・スン ヨプ</w>
ア リング</w>
わ い</w>
r &
2 48</w>
高 效</w>
金 光
赛 马</w>
補 う</w>
渡 り
済 ませ</w>
测 验</w>
武 術</w>
根 深
抽 取</w>
抗 体</w>
开 支</w>
小 山</w>
孕 育</w>
嫌 う</w>
坚 实</w>
圆 周</w>
卸 任</w>
千 亿</w>
勝 目</w>
先 導</w>
使用 率</w>
下 列</w>
ヨン チョル</w>
ファミ リー</w>
ス マ</w>
ジョン ・
イン ディ
も ない</w>
きら きら</w>
s 32</w>
bs 14</w>
3 1%</w>
適 宜</w>
连 队</w>
身 の
買 わ</w>
被 子</w>
源 自</w>
悔 しい</w>
心 者</w>
开发 院</w>
失 明</w>
外 泄</w>
固 執</w>
初 心者</w>
内 野</w>
供应 商</w>
人民 军</w>
为 名</w>
不 经
ム レータ</w>
パン ツ</w>
チョン シ</w>
アキュ ムレータ</w>
な お
8 500</w>
餃 子</w>
飙 升</w>
阻 抗</w>
進 路</w>
败 者</w>
蒂 固</w>
草 食</w>
等 価</w>
特 纳</w>
無 数</w>
濒 临</w>
深 呼吸</w>
洪 锡
根深 蒂固</w>
架 子</w>
无 常</w>
斯 科
恭 喜</w>
快 递</w>
定 于</w>
奔 驰</w>
唤 醒</w>
厂 家</w>
习 惯
不知 所
バッファ リング</w>
デ ・
ギ ル
3. 8</w>
0. 4</w>
默默 地</w>
黑 社会</w>
集 结</w>
长 期化</w>
統 廃合</w>
精 细</w>
留 守</w>
滋 味</w>
汚 い</w>
汕 子</w>
気づ き</w>
楽し ま</w>
早 苗</w>
无 駄</w>
数十 亿</w>
拨 打</w>
弥 漫</w>
备 战</w>
增 值
华 侨</w>
共同 通信</w>
レン ダリング</w>
ポー リング</w>
パ ッド</w>
ナ メント</w>
トリ ウム</w>
ダン サー</w>
サン タ
わが まま</w>
あ ちら</w>
s1 14</w>
m pl
3 54</w>
预 示</w>
隐 蔽</w>
迷 失</w>
路 易</w>
越 す</w>
证 明
讲 谈</w>
読み 取ら</w>
见 方</w>
绮 丽</w>
等 级
皇 族</w>
电路 图</w>
版 权</w>
治 好</w>
暴 雪</w>
显 露</w>
微笑 ん</w>
後 期</w>
岛 市</w>
女 婿</w>
呕 吐</w>
吐き 気</w>
合 理性</w>
只 剩</w>
几 百</w>
决 不会</w>
不 许</w>
メ ダ
タ ブー</w>
コン ステ
イン ピー
ば い</w>
ic bm</w>
4. 2%</w>
4. 1%</w>
重 傷</w>
这 回</w>
転 覆</w>
蚂 蚁</w>
自 卫
缩 放</w>
米 ドル</w>
神 殿</w>
洋 葱</w>
插 图</w>
手 掌</w>
廃 墟</w>
好 听</w>
吃 掉</w>
决 定
冈 山</w>
何 れ</w>
伝 搬</w>
丹 尼尔</w>
ピ アニ
ニ クス</w>
ディ ジ
ゴ ールド</w>
グ ァ
ウィ スキー</w>
イノ ベーション</w>
び ら</w>
い まだ
あ お
t 4</w>
n y
5 09</w>
4. 9%</w>
飼 料</w>
薬 剤
薬剤 師</w>
花 瓣</w>
精神 病</w>
竞争 者</w>
看 好</w>
疲 倦</w>
河 内</w>
探 究</w>
抱 き</w>
多 角</w>
収 束</w>
乳 児</w>
モー ター
プリン ト
ファ レンス</w>
ピアニ スト</w>
デ ス</w>
ゾ ーン</w>
ジェ フ</w>
ゆ み</w>
いまだ に</w>
sho t</w>
c l</w>
7 5.
黄 金
遥 か</w>
资 助</w>
融 资</w>
肥 大</w>
紳 士</w>
級 生</w>
神 色</w>
温 め</w>
混 ぜ
法 子</w>
核 武</w>
成 功率</w>
快 挙</w>
当 地人</w>
当 て
娃 娃</w>
唤 起</w>
双 打</w>
印 章</w>
勧 める</w>
助 け
假 币</w>
上 書き</w>
三 浦</w>
デ リ
ジャーナ リスト</w>
グン テ</w>
お も
sn mp</w>
gn i</w>
0. 7</w>
馈 送</w>
領 収</w>
進 ま</w>
转 折
赞助 商</w>
维 也
维也 纳</w>
破 灭</w>
盗 作</w>
甲 级</w>
爱 的</w>
熱 く</w>
满 怀</w>
波 斯</w>
标 明</w>
東京 大学</w>
杰 夫</w>
抗 生素</w>
抑 郁症</w>
引 け</w>
开放 型</w>
川 市</w>
对 接</w>
実 刑</w>
太 网</w>
大学 院生</w>
基 层</w>
基 因
半 球</w>
十 万</w>
勝 て</w>
以 太网</w>
交 わす</w>
一 阵
ポ ッター</w>
ダニ エル</w>
クト ・
こと わざ</w>
か え</w>
6 9
驱逐 舰</w>
进 歩</w>
贴 上</w>
评 判</w>
表 扬</w>
落 札</w>
疑 わしい</w>
獅 子</w>
滞 納</w>
有 意识</w>
数 额</w>
接 过</w>
接 见</w>
排 泄</w>
年 幼</w>
家 门</w>
太平 洋
大 队</w>
夕 日</w>
反 動</w>
北 极</w>
免 疫
光 灯</w>
信 贷</w>
伴 侣</w>
リ サイクル</w>
エレ メント</w>
イン トラ</w>
アイス ランド</w>
m y
ic a</w>
遂 げる</w>
赛 前</w>
落 叶</w>
营 养
自 救</w>
真っ 白</w>
毅 然</w>
最 美</w>
晩 年</w>
收 纳</w>
操 作
感染 者</w>
愚 痴</w>
悬 念</w>
层 级</w>
叩 き</w>
受け継 い</w>
卢 泰愚</w>
协 商会</w>
備 蓄</w>
侨 民</w>
佛罗里 达州</w>
传 承</w>
ボ イ
つ け加え</w>
あ た
s 30</w>
s 26</w>
q psk</w>
p 17</w>
k bs
7 2%</w>
19 56</w>
齐 心</w>
韩 佳</w>
门 外</w>
长 途</w>
重 なり</w>
表 紙</w>
站 台</w>
李 美
春 川</w>
日 時</w>
斯 基</w>
接 地</w>
批 量</w>
平 素</w>
巡 逻</w>
尼 奥</w>
尹 光雄</w>
増 す</w>
地 質</w>
围 巾</w>
円 形</w>
兴 起</w>
以 待</w>
ユ ース</w>
メン テ
ムン・ジェ イン</w>
セ フ</w>
ギ ョ</w>
ひ ら</w>
阿 里</w>
追 っ</w>
起 步</w>
質 疑</w>
证明 书</w>
自 发</w>
站 出来</w>
着 呢</w>
波 段</w>
根 县</w>
期 满</w>
撤 出</w>
握 り</w>
岛 県</w>
岛 根县</w>
会 后</w>
京 都
二 流</w>
不 开</w>
不 平等</w>
一 色</w>
ファ ッション
チョ コ</w>
ザイトゥ ーン</w>
カメ ラ
ぬ ぐ
a x
3 300</w>
麻 雀</w>
馬 車</w>
降 雨量</w>
透明 度</w>
适 宜</w>
轰 炸
轰炸 机</w>
转折 点</w>
読み 取っ</w>
装 满</w>
纪念 品</w>
渇 望</w>
没 有用</w>
格 言</w>
数 え
提 訴</w>
技 量</w>
憎 悪</w>
惹 か</w>
尼 克</w>
寄 り
堕 胎</w>
囚 犯</w>
反 射
单 人</w>
伤 痕</w>
代 謝</w>
五 郎</w>
主 帅</w>
上 一次</w>
ー ザ</w>
ブ ドウ</w>
トレ ンド</w>
キッ チン</w>
も ど
こ い</w>
bs e</w>
b psk</w>
黄 善
青 木</w>
零 售
队 内</w>
金善 宇</w>
金 孝
追 问</w>
解 凍</w>
潜水 艇</w>
洗 手
泽 民</w>
毛 线</w>
映 る</w>
換 えれ</w>
扎 根</w>
心 想</w>
库 县</w>
局 内</w>
容 赦</w>
学 旅行</w>
外 為</w>
城 区</w>
国 際
吞吐 量</w>
原 産地</w>
厌 倦</w>
北 海</w>
兵 库县</w>
全 家</w>
偏 振
修 学旅行</w>
使用 量</w>
人 知</w>
且 つ</w>
プロジェ クター</w>
ニック ネーム</w>
ナ トリウム</w>
ドキ ドキ</w>
ツ ァ
チョ ソン</w>
ク ル
イ ライラ</w>
ら れれ</w>
は まっ</w>
ご存 知</w>
こと ば</w>
s10 9</w>
4 200</w>
雨 天</w>
配 給</w>
道 のり</w>
载 入</w>
起 义</w>
说 起来</w>
记者 团</w>
议 事堂</w>
要 职</w>
装甲 车</w>
蘑 菇</w>
苏 丹</w>
胡 萝卜</w>
老 实
缺 省</w>
知 情
痛 め</w>
留 下来</w>
犯罪 者</w>
泊 まり</w>
氷 上</w>
星 空</w>
放 开</w>
恥ず かしく</w>
征 集</w>
太 もも</w>
外 す</w>
回 转</w>
动 不动</w>
切り 開い</w>
光 顾</w>
ヤ ク
パー ティション</w>
ソン ヨン</w>
グ ッズ</w>
ウェ ブ</w>
の ど</w>
たしか に</w>
w b</w>
餐 具</w>
风 速</w>
防 范</w>
身 处</w>
行 情</w>
胜 任</w>
票 价</w>
磨 练</w>
直 觉</w>
球 技</w>
狡 猾</w>
照 度</w>
海 鲜</w>
活 路</w>
教 区</w>
掘 り
引 か</w>
告 げる</w>
原 样</w>
前 去</w>
创 刊</w>
仕 上げ</w>
ラ グ
メロ ディー</w>
メ ード</w>
サ ハ
す っ</w>
お 送り</w>
uc c</w>
n al</w>
m cs</w>
at m</w>
高 大</w>
马 尔
重 蹈</w>
邮 寄</w>
贝 克
聖 書</w>
票 据</w>
短 距离</w>
白 衣</w>
牛 仔
流 暢</w>
水 温</w>
李 元
斑 点</w>
年 月</w>
宽 松</w>
女 史</w>
参 観</w>
初 中生</w>
切 身</w>
冰 场</w>
亲 爱的</w>
下 课</w>
ロ ック
ャ ン</w>
チュ ード</w>
コ ツ</w>
オーディ ション</w>
け た</w>
9 b</w>
7 6.
. co
马克 思</w>
頭 脳</w>
電 線</w>
长 女</w>
金永 南</w>
金 斯</w>
赞 美</w>
调查 局</w>
独 有</w>
爱 知县</w>
灯 笼</w>
此 案</w>
正 道</w>
梅 西</w>
梅 花</w>
林 立</w>
无 敌</w>
损失 额</w>
损 毁</w>
墓 参り</w>
团 伙</w>
喷 发</w>
听 从</w>
同窓 会</w>
右 足</w>
取り 出す</w>
去 留</w>
公 映</w>
优 异</w>
中 指</w>
一 战</w>
ニ ョ</w>
シル クロード</w>
ゲ イ</w>
vo q</w>
st l</w>
md 52</w>
8 8.
2 82</w>
顺 调</w>
陆 上</w>
誘 拐</w>
胡 乱</w>
罪 悪</w>
粉 红色</w>
秘 鲁</w>
相 近</w>
生 田</w>
横 た
检 举</w>
杰 克</w>
执 意</w>
打 捞</w>
安德 森</w>
基 督</w>
喝 醉</w>
同 窓</w>
印 尼</w>
十 月</w>
列 出</w>
击 队</w>
公 推</w>
レ オン</w>
リモート コマン
パ ック</w>
ギョ ーザ</w>
インピー ダンス</w>
ア ロ
々 しく</w>
m l
fi la</w>
c bs</w>
ac e</w>
2 43</w>
2 35</w>
鉱 物</w>
转 送</w>
访 问
華 麗</w>
茶 叶</w>
花 纹</w>
致 辞</w>
续 性</w>
第三 方</w>
相 亲</w>
电 量</w>
洗 面</w>
横 田</w>
查 清</w>
新生 儿</w>
批 評</w>
引き 受ける</w>
官 制</w>
外 野</w>
夏 目</w>
哈 萨
信用 度</w>
侵 攻</w>
上 会</w>
ラ テン
インター ネット
ア サン</w>
ur e</w>
s ec</w>
8 9
4 62</w>
飓 风</w>
顺 应</w>
阿 姆
阿姆 斯特
路 过</w>
航 母</w>
罪 恶</w>
简 介</w>
真 夏</w>
盛り 上がっ</w>
満 塁</w>
染 まっ</w>
显 微
显微 镜</w>
弾 く</w>
年 月日</w>
平 気</w>
工艺 品</w>
审 计</w>
地 毯</w>
口 处</w>
取り 込ま</w>
出 そ</w>
仲 裁
中 意</w>
不知所 措</w>
三 井</w>
ル ン
モニ タリング</w>
トー ナメント</w>
ク リア</w>
カプ セル</w>
て ん
19 52</w>
12 50</w>
颠 倒</w>
開 票</w>
钢 笔</w>
車 椅子</w>
讲 解</w>
覆 い</w>
血 统</w>
第一 线</w>
神奈 川县</w>
神 聖</w>
真 实性</w>
看 护</w>
电 算</w>
特 地</w>
燃 え
泥 土</w>
木 头</w>
携 わっ</w>
控 告</w>
市 面</w>
坏 人</w>
古 川</w>
发 育</w>
卒 中</w>
儀 式</w>
做 菜</w>
伍 德</w>
争 先
不 利益</w>
ング ラ
ペ イ
ベ リ
タ ント</w>
ス プ
サイ エンス</w>
エド ワード</w>
s 19</w>
fac e
阳 川</w>
菩 萨</w>
花 旗</w>
綱 紀</w>
移 送</w>
睁 开</w>
白 雪</w>
江 泽民</w>
款 式</w>
来 着</w>
時 限</w>
明 文</w>
整 える</w>
救 世
揺 れる</w>
挡 住</w>
拦 截</w>
抢 走</w>
急 ぎ</w>
市 議会</w>
小 公</w>
大 隊</w>
品 味</w>
合 金</w>
入 港</w>
何 と</w>
何 で</w>
体 外</w>
上 交</w>
一 动</w>
リー ン
ラ イン
メンテ ナンス</w>
マ リ</w>
フォ ーク</w>
ド ット
データ ブロック</w>
セ マウル</w>
キ ラー</w>
カイ ダ</w>
す り
じ つ
v e
n bc</w>
an a</w>
3 55</w>
黄善 洪</w>
踏 入</w>
许 丁
義務 付け</w>
繊 細</w>
破 了</w>
眠 く</w>
相 传</w>
発 酵</w>
発 覚</w>
田 川</w>
牛仔 裤</w>
無 く
法 規</w>
收 敛</w>
接 力</w>
抜 群</w>
悄 悄
影 院</w>
录像 带</w>
強 かっ</w>
开 出</w>
库 尔德</w>
尚 早</w>
升 职</w>
劫 持</w>
副 本</w>
光 っ</w>
两 边</w>
业 务
メダ リスト</w>
フー リエ</w>
フィル ター</w>
ヒュー ストン</w>
ハ ザード</w>
ディスプレ ー</w>
チョン ロ
シ ュー</w>
ザ ン</w>
く れれ</w>
v 6</w>
t g
da um</w>
23 a</w>
駅 前</w>
领 悟</w>
選 別</w>
维 奇</w>
縁 組</w>
疑 う</w>
現 物</w>
爆 炸
清 澈</w>
数 亿</w>
手が け</w>
思い 出せ</w>
带 回</w>
崇 拝</w>
小 道</w>
外 地</w>
壮 观</w>
困 ら</w>
嗓 音</w>
唾 液</w>
变 小</w>
发 制
发制 人</w>
占 い</w>
企 鹅</w>
从 头</w>
リー ダ</w>
テ ポドン</w>
セル ビア</w>
ス ループ
クリ スト
ク ッキー</w>
ちょ う</w>
m at
7 7.
11 25</w>
鳴 らし</w>
防 备</w>
闭 症</w>
金 海</w>
运 営</w>
赛 跑</w>
账 单</w>
翻 转</w>
端 午</w>
溶 け
洗手 间</w>
江 東</w>
德 洙</w>
弗 兰
年 限</w>
山 川</w>
山 崎</w>
尋 ねる</w>
大 抵</w>
块 儿</w>
千 秋</w>
医疗 费</w>
关 系
保 ち</w>
付 诸</w>
亲 笔</w>
不 合理</w>
ミ サ</w>
シリ コン</w>
ふ り
っ とり</w>
く っ
u str</w>
r o</w>
7 14</w>
鲤 鱼</w>
顾 及</w>
言い 換えれ</w>
要 买</w>
系列 赛</w>
粉 色</w>
疫 情</w>
爽 やか</w>
爵 士</w>
时 与</w>
文 彦</w>
急 変</w>
强 制性</w>
平均 化</w>
寄 予</w>
实质 上</w>
吉 林
別 個</w>
冷や やか</w>
内 有</w>
代表 作</w>
书 上</w>
中 原</w>
リ コール</w>
マッカー サー</w>
ッ パ</w>
ソン ナム
セ イ</w>
スティ ッキー</w>
コ イル</w>
ゲイ ツ</w>
みず から</w>
さっ ぱり</w>
p sp</w>
f o</w>
3 35</w>
10 21</w>
驻 华</w>
韓煕 円</w>
雪 花</w>
陶 醉</w>
親 しく</w>
蓬 莱</w>
篠 塚</w>
筛 选</w>
称 え</w>
林 肯</w>
数十 万</w>
张 开</w>
小 子</w>
富 山</w>
媳 妇</w>
壁 垒</w>
報 知</w>
基因 组</w>
嘉 宾</w>
嗓 子</w>
吴 世
吉 亚</w>
句 号</w>
勝 敗</w>
冲绳 县</w>
公 审</w>
ネ ガ
キム・ グンテ</w>
ま く</w>
さ っと</w>
いわ ば</w>
あり え</w>
x i
p t</w>
p mi</w>
j i</w>
c a
0. 6</w>
馆 内</w>
飽 和</w>
难 所</w>
通 缉</w>
选拔 赛</w>
豪 感</w>
落ち着 か</w>
莲 花</w>
舞 う</w>
自 豪感</w>
罗 纳尔
线 上</w>
约翰 逊</w>
粘 膜</w>
看 清</w>
畏 惧</w>
游 击</w>
正 视</w>
来 得</w>
新 颖</w>
島 根</w>
寸 法</w>
大 运河</w>
同 盟国</w>
口 令</w>
勤 奋</w>
利 尔</w>
分 行</w>
共 済</w>
公 報</w>
ヨン ナム</w>
メッセ ー
ビジ ネス
スループ ット</w>
サン グラス</w>
サイ バー
イラ ー</w>
ひっ くり
w ii</w>
s di</w>
p i</w>
2 74</w>
音 速</w>
钓鱼 岛</w>
道 端</w>
莱 斯</w>
美 金</w>
统 治
绘 图</w>
突 発</w>
科 学
毁 损</w>
旦 那</w>
小 小</w>
嫌 わ</w>
初 高中</w>
分析 器</w>
农 田</w>
作り 上げ</w>
为 人知</w>
マグ ニ
マ ダム</w>
フラン ク</w>
ディジ タル</w>
ディ ス
キ ノ
がん ばっ</w>
vs y
t y</w>
n ic
m pdu</w>
6 32</w>
2. 1%</w>
2 71</w>
1. 0</w>
韓 火</w>
辜 负</w>
軌 跡</w>
警 力</w>
袖 手
蔷 薇</w>
菜 肴</w>
自 私</w>
腕 前</w>
美 景</w>
细 腻</w>
皮肉 っ</w>
留 め</w>
激 发</w>
浪 潮</w>
水 利</w>
步 枪</w>
欠 場</w>
春 树</w>
操 控</w>
拉 大</w>
投影 仪</w>
手 元</w>
想 来</w>
想 出</w>
开 往</w>
名 品</w>
合 算</w>
卖 淫</w>
升 至</w>
十 个</w>
包 揽</w>
信 奉</w>
专 卖店</w>
一 封信</w>
メ アリー</w>
ベ ート
パ イ</w>
バ ックス</w>
ネ イル</w>
シャ ープ</w>
コーチ ング
は がき</w>
た けれ</w>
く とも</w>
w lan</w>
v 1</w>
r s
np o</w>
i dp</w>
f ss</w>
6 6%</w>
6 ,
马 拉</w>
韓 明淑</w>
遮 挡</w>
遅 くとも</w>
趁 着</w>
袖手 旁观</w>
表 わし</w>
良 質</w>
能 干</w>
背 負っ</w>
聴 く</w>
独 家</w>
溶 解</w>
混 同</w>
洛 斯</w>
次 子</w>
时 赛</w>
无 几</w>
推 销</w>
指 教</w>
招 标</w>
想 不到</w>
引 越し</w>
差 错</w>
套 装</w>
可 行性</w>
北 極</w>
依 法</w>
亚洲 区</w>
不 败</w>
ミュージ ック</w>
スプレ ー</w>
シグ ナル</w>
き か</w>
p ict
黒 く</w>
阿尔 及
闯 进</w>
钢 琴
重 生</w>
適 任</w>
軽 量</w>
谚 语</w>
要 好</w>
菅 直人</w>
范 根</w>
舍 弃</w>
脳 卒中</w>
而 代
而代 之</w>
细 长</w>
糖 果</w>
站 立</w>
稀 有</w>
百 忙</w>
甘 く</w>
無 形</w>
炭 酸</w>
演艺 界</w>
治 疗
杂 草</w>
斯 达
斯 州</w>
断 る</w>
拠 地</w>
抓 到</w>
志 士</w>
奶 粉</w>
取 而代之</w>
冬 休み</w>
余 分</w>
争 端</w>
两 手</w>
ハイ レベル</w>
チ ス</w>
オ ク
アン ド
pico flo</w>
men t</w>
c an</w>
顺 着</w>
題 材</w>
青 写真</w>
配 线</w>
避 难所</w>
運 動
选 手
转 型</w>
视 听</w>
表 述</w>
花 生</w>
肺 癌</w>
考 入</w>
老 い</w>
终 的</w>
素 人</w>
电影 界</w>
琉 球</w>
特 殊
牙 队</w>
爱 知</w>
燕 岐</w>
洋 子</w>
殉 国</w>
模 倣</w>
格 鲁
査 定</w>
本 场</w>
改 革
接 吻</w>
成 效</w>
惊 奇</w>
恐 后</w>
德 语</w>
屡 次</w>
尔 文</w>
定 制</w>
大 叔</w>
塗 る</w>
可 不是</w>
前 兆</w>
八 十</w>
入 门</w>
争先 恐后</w>
ラブ ストーリー</w>
マグニ チュード</w>
バ ウ
チョン・ モン
コン セプト</w>
ゲ ージ</w>
な おさ
なおさ ら</w>
ごま かし</w>
お疲れ 様</w>
s 55</w>
s 403</w>
5. 5%</w>
4 52</w>
鬱 陵</w>
陶 瓷</w>
鉱 山</w>
遗 弃</w>
連 動</w>
迟 钝</w>
見 込ま</w>
补 给</w>
螃 蟹</w>
蒙特 利尔</w>
落 败</w>
耗 费</w>
考 场</w>
称 霸</w>
白 石</w>
橘 子</w>
核 能</w>
标 号</w>
擬 似</w>
执 著</w>
怨 恨</w>
思 う
思う 存分</w>
思 いつ
強 大</w>
定 数</w>
存 入</w>
增值 税</w>
咸 鏡</w>
呪 い</w>
凶 悪</w>
偽 り</w>
倒 壊</w>
仏 像</w>
二 大</w>
中 韩</w>
专 机</w>
上 门</w>
テキ サ
コー ロン</w>
カ ム</w>
ほ う
に 当たる</w>
さ え
お 陰</w>
お 正月</w>
m c
han a</w>
ev f</w>
5. 1</w>
5 15</w>
3 45</w>
1 30
麦克 阿瑟</w>
頼 む</w>
锦 远</w>
逼 近</w>
选手 村</w>
诱 发</w>
红 外</w>
米 兰</w>
競 馬</w>
疑 念</w>
煙 草</w>
清 凉</w>
標 的</w>
斗 士</w>
文 库</w>
姜 锦远</w>
如 愿</w>
外 边</w>
喝 茶</w>
呵 呵</w>
功 绩</w>
兰 队</w>
先 发制人</w>
倍 増</w>
他 因</w>
了 点</w>
上 山</w>
リ ップ</w>
ベ ッ
ハー ドル</w>
キョンサン ナムド</w>
キョン ジュ</w>
アル カイダ</w>
だから こそ</w>
た たい</w>
s w</w>
pc 100</w>
ked o</w>
e t</w>
c ar
5 2%</w>
1 302</w>
骨 髓</w>
頑 固</w>
隠 蔽</w>
金 鱼</w>
逆 变</w>
踏み に
说 吧</w>
语 句</w>
证 金</w>
药 店</w>
茨 城</w>
自 闭症</w>
等级 制</w>
空 地</w>
発 散</w>
注 定</w>
決 まり</w>
早 稻田</w>
所 信</w>
怠 慢</w>
山 梨</w>
局 域网</w>
实 感</w>
发 源地</w>
创造 力</w>
传 奇</w>
付 し</w>
了 承</w>
ラ ル
パ ッチ</w>
ドラ ゴン</w>
ス カ</w>
サブ フレーム</w>
コ イン</w>
いただ く</w>
い とこ</w>
n c
h a
g p</w>
8 4%</w>
6 70</w>
16 9</w>
1 130</w>
预备 役</w>
願 書</w>
震 灾</w>
长 征</w>
長 女</w>
金 明
远 距离</w>
辛 辛
貧 乏</w>
谈 及</w>
知情 权</w>
环 路</w>
演 示</w>
暗 黙</w>
智 力</w>
持 续性</w>
息 息
小 指</w>
宮 崎</w>
好 好的</w>
名 门</w>
光 谱</w>
介 護</w>
乾 杯</w>
中 世纪</w>
リ ュー
パーソ ナル
テン ポ</w>
ク ラン
カ ニ</w>
は た
さ よ
s 209</w>
8 18</w>
3 800</w>
3 43</w>
2 62</w>
障 碍
阶 梯</w>
迫 在</w>
虚 弱</w>
自 动化</w>
祝 辞</w>
的 中</w>
沢 東</w>
死 角</w>
棘 手</w>
机 感</w>
斯 林</w>
支 路</w>
挟 ま</w>
挑 む</w>
拿 走</w>
戦 績</w>
情 趣</w>
密 室</w>
大 洋</w>
友 邦</w>
危 机感</w>
使 節</w>
レー ガン</w>
ヘン リー</w>
サル コ
さよ なら</w>
s l</w>
g en
6 200</w>
15 b</w>
13 b</w>
马林 鱼</w>
顺 子</w>
青 睐</w>
路 面</w>
硫 酸</w>
睫 毛</w>
海 藻</w>
江 东</w>
毛 沢東</w>
根 幹</w>
日 渐</w>
放 过</w>
恐 れる</w>
开 办</w>
巴 巴</w>
左 足</w>
叫 方</w>
バ ングラ
ネ ー
チョン・ドゥ ファン</w>
ソー シャル
ジャ ーズ</w>
キョン ヒ</w>
we f</w>
po p</w>
n k</w>
ch u</w>
ch an
br id
17 7</w>
闷 热</w>
野 山</w>
軽 蔑</w>
解 救</w>
缩 略</w>
离 任</w>
眉 睫</w>
李 尚
教 给</w>
掛 かっ</w>
捐 赠
拘 泥</w>
手 榴
总 局</w>
思想 家</w>
小 包</w>
宁 省</w>
头 球</w>
北 西</w>
匆 忙</w>
农 药</w>
党 部</w>
倘 若</w>
从 属</w>
乗 車</w>
レス リング</w>
ポン プ</w>
もた らさ</w>
また ま</w>
た またま</w>
こと に</w>
か 月</w>
7 -
驾 车</w>
雨 伞</w>
造 访</w>
通 す</w>
连 锁
起 業</w>
自然 界</w>
肝 脏</w>
职 者</w>
绝 佳</w>
端 正</w>
生 体</w>
激 光
格鲁 吉亚</w>
本 科</w>
本 州</w>
日 経</w>
抱 负</w>
延 べ</w>
年 时</w>
山 东省</w>
外 食</w>
墨 水</w>
古 董</w>
卞 良</w>
务 性</w>
光 泽</w>
修 道</w>
住宅 区</w>
上 海市</w>
七 月</w>
パン ジー</w>
パク・チョン ヒ</w>
シフ ト
グロー ブ</w>
グル ジア</w>
インター ナショナル</w>
め まい</w>
む い</w>
っ け</w>
そ か</w>
vsy nc</w>
食 い</w>
钱 人</w>
连 结</w>
足 迹</w>
许丁 茂</w>
結 末</w>
篮 球队</w>
私 宅</w>
礼 拝</w>
男 児</w>
澄 ん</w>
泡 影</w>
残 余</w>
有 钱人</w>
施 政</w>
整 备</w>
悪 材料</w>
寄 托</w>
审 査</w>
定 律</w>
存 活</w>
大 河
半 部</w>
分 给</w>
公 顷</w>
元 金</w>
假 冒</w>
体 细胞</w>
亡く し</w>
两 用</w>
モ テ</w>
フ スタン</w>
パト ロール</w>
バイ パス</w>
ハ ンド</w>
ナイ ト</w>
コンサル タント</w>
カザ フスタン</w>
m it</w>
b k</w>
颁 布</w>
金 子</w>
試 算</w>
見舞 い</w>
良 子</w>
胜 出</w>
美 兰</w>
結 構</w>
組み 込ま</w>
立 春</w>
石 鹸</w>
発 祥</w>
病 魔</w>
用 钱</w>
特 委</w>
特 勒</w>
燃 える</w>
江 利子</w>
断 絶</w>
文 具</w>
挂 上</w>
抱 える</w>
所 想</w>
恒 定</w>
必 需品</w>
头 衔</w>
培 養</w>
在 校</w>
团 体
名 家</w>
古 人</w>
医疗 界</w>
先 駆</w>
体育 会</w>
丹 东</w>
ファ ムン</w>
チェ・ヒ ソプ</w>
スン ヨン</w>
シル ム</w>
ク ルド</w>
キム・ ミ
カ ミ</w>
イー サ
イン メント</w>
ア ウェー</w>
の め
s 111</w>
r l
pd l</w>
b t
黄 某</w>
鲁 甲</w>
颠 覆</w>
頂 い</w>
金汉 吉</w>
野 营</w>
通信 网</w>
退 く</w>
过 上</w>
脱 水</w>
真っ 黒</w>
白 黒</w>
理 化</w>
牢 骚</w>
涌 出</w>
比 喩</w>
歩 兵</w>
村 落</w>
本 棚</w>
最 爱</w>
无 从</w>
文 版</w>
政治 犯</w>
振 れ</w>
慕 尼
怒 る</w>
寒 假</w>
威 嚇</w>
多 项</w>
国 乐</w>
原 野</w>
元 祖</w>
仮 称</w>
事 典</w>
世 纪末</w>
ベ ・
ヒョ ウ</w>
チョン アン</w>
r u
n 2</w>
b u
8 03</w>
阵 线</w>
遠 慮</w>
触 摸
装甲 車</w>
花 びら</w>
终 端
终端 机</w>
督 促</w>
榻 米</w>
榻 榻米</w>
排 练</w>
拘 留所</w>
息息 相关</w>
小 口</w>
孝 行</w>
大 雄</w>
変 質</w>
团体 赛</w>
嗜 好</w>
喧 嘩</w>
受 精</w>
原 委</w>
占 地</w>
列 島</w>
分 立</w>
分 業</w>
其 一</w>
入 門</w>
使 用户</w>
仮 説</w>
互 換</w>
了 事</w>
乱 暴</w>
不 妨</w>
ロ ング</w>
ユー ザ
モン トリ
ポケ モン</w>
ホーム レス</w>
チョン・ ソン
スー ダン</w>
ジ ス</w>
エバー ランド</w>
づ い</w>
だ けど</w>
s 53</w>
g u
face book</w>
c ts</w>
6. 15</w>
6 24</w>
4 28</w>
200 a</w>
飛 躍</w>
郡 守</w>
親 しみ</w>
西 归
西归 浦</w>
装 っ</w>
蜂 窝
荒 れ</w>
苦 悩</w>
胸 口</w>
胆 固醇</w>
现 存</w>
爆 笑</w>
燃 起</w>
洪锡 炫</w>
洗 い
日 曜</w>
文 字
悲 壮</w>
家 出</w>
好 坏</w>
名 曲</w>
功 课</w>
光 子</w>
产业 化</w>
交 出</w>
买 来</w>
两 面</w>
不 光</w>
七 个</w>
リモートコマン ダー</w>
マ イ</w>
デ トロ
チン パンジー</w>
かけ 離れ</w>
v er</w>
k a</w>
8 05</w>
5. 2%</w>
骑 马</w>
金 昌
軽 視</w>
言うまで もない</w>
要 職</w>
节 炎</w>
肝 心</w>
羽 田</w>
索 马里</w>
简 短</w>
皮 肤
環 状</w>
照 相</w>
火 山
渓 谷</w>
涌 现</w>
李 英
本 校</w>
旧 態</w>
影 迷</w>
布 鲁</w>
家 政</w>
大 佐</w>
国 民
同 級生</w>
化 し</w>
分 期</w>
出 人
冲 撃</w>
乘 法</w>
不 全</w>
ペン ギン</w>
バー ジニア</w>
ジャ ム</w>
シ ス</w>
コーチング スタッフ</w>
ウィ ル
ど っち</w>
い と</w>
々 と</w>
m u
0. 8</w>
領 海</w>
面 粉</w>
静 坐</w>
雑 草</w>
配 っ</w>
通 宵</w>
连 环</w>
迈 进</w>
轻 快</w>
经 纪</w>
私 下</w>
福 德</w>
白 头</w>
病 室</w>
火 热</w>
湖 面</w>
涼 しい</w>
毁 坏</w>
後 ろ
异 口
异口 同声</w>
師 範</w>
工 学部</w>
复 性</w>
印刷 物</w>
单 色</w>
净 利润</w>
ラン ダム
ピ ング
トラフィ ック
ダ ブル
シン デレ
シャ トル</w>
つぶ し</w>
s 120</w>
id e</w>
7 8%</w>
5 21</w>
预 售</w>
運動 会</w>
辽 宁省</w>
軍 用</w>
走 来</w>
获 知</w>
立体 图</w>
穆 斯林</w>
王 位</w>
特 律</w>
死 な</w>
接 戦</w>
扫 墓</w>
手 帕</w>
弾 丸</w>
弹 力</w>
張 り
延 びる</w>
底 特律</w>
小 田</w>
寂 静</w>
天 王</w>
塞尔 维亚</w>
在 位</w>
口 感</w>
出 行</w>
出 线</w>
出 港</w>
凝 固</w>
値 下げ</w>
倡 议</w>
东 方
ファイ ア</w>
ト ス</w>
ッ グ</w>
ダ ード</w>
ター ミナル</w>
ゴール デン
アレ クサン
は っ</w>
と い</w>
くだ さっ</w>
y 1</w>
vi n</w>
r& d</w>
lp g</w>
7 1%</w>
4 700</w>
3 400</w>
3 33</w>
19 3</w>
電 撃</w>
運 搬</w>
輝 く</w>
负 增长</w>
话 费</w>
评 议</w>
診 察</w>
西 ドイツ</w>
自卫 权</w>
膀 胱</w>
磁 场</w>
盛り 上げ</w>
现 况</w>
格 雷</w>
想 念</w>
悲 し</w>
怪 談</w>
心 声</w>
弹 钢琴</w>
完 结</w>
太 小</w>
大河 ドラマ</w>
大 連</w>
大 路</w>
増 殖</w>
告 一段落</w>
变 态</w>
压 抑</w>
十 八</w>
匹 敵</w>
前 夜</w>
候 鸟</w>
众 不同</w>
二 月</w>
与 众不同</w>
ハル ビン</w>
オオ カミ</w>
なん だか</w>
で ん</w>
た す</w>
うらや ましい</w>
l and</w>
d ft</w>
9 7%</w>
6 22</w>
1 120</w>
领导 力</w>
那 年</w>
譬 如</w>
触摸 屏</w>
虚 伪</w>
肥 皂</w>
约 瑟
红 灯</w>
粗 略</w>
着 重</w>
献 金</w>
深 まっ</w>
活 かし</w>
气 愤</w>
枫 叶</w>
搬 出</w>
指 代</w>
总 管</w>
小 遣い</w>
容 姿</w>
婆 さん</w>
叛 乱</w>
单 单</w>
况 且</w>
入 狱</w>
両 端</w>
三 点</w>
ロン ダリング</w>
パ ニック</w>
バレン タ
ディ ン</w>
こぼ し</w>
けん 引</w>
い な
x i</w>
e spn</w>
aw b</w>
6 2%</w>
2 19</w>
1. 0
馒 头</w>
郁 陵</w>
近 乎</w>
营 利</w>
脱 掉</w>
精 华</w>
神 童</w>
発 する</w>
申 正
版 画</w>
日の 出</w>
支 配
摄 入</w>
投 向</w>
式 化</w>
庇 护</w>
居 眠り</w>
宿 命</w>
审 定</w>
字 形</w>
后 于</w>
勘 定</w>
公 元前</w>
作 れ</w>
任 意
不 胜</w>
ロー ディング</w>
メッ シ</w>
バ ナー
スト レート</w>
ステ ロール</w>
シェー ディング</w>
インスタ ント</w>
ご す</w>
いま や</w>
r d</w>
mo on</w>
is u</w>
d o</w>
b er
5 9%</w>
駄 目</w>
雇 い</w>
退 避</w>
近 海</w>
贯 性</w>
肾 脏</w>
细 小</w>
约 旦</w>
紛 失</w>
目 击</w>
王 様</w>
獣 医</w>
熬 夜</w>
焦 っ</w>
灰 姑娘</w>
庇 護</w>
工作 流</w>
屏 风</w>
定 额</w>
官 室</w>
固 める</w>
吸 い</w>
只 读</w>
参 观者</w>
中 小型</w>
中 傷</w>
ワ ル
レ ル</w>
ミ リ
バレンタ インデ
バ ブル
スン ヒョン</w>
カ・ ソレンスタム</w>
とど まり</w>
つ り</w>
y k</w>
s 404</w>
n am
k 2</w>
h sv</w>
3 gpp</w>
黙 認</w>
顺 次</w>
過 失</w>
连锁 店</w>
衣 裙</w>
至 关</w>
而易 见</w>
罪 人</w>
発 作</w>
申请 者</w>
现 职</w>
物 量</w>
横 暴</w>
楼 房</w>
显 而易见</w>
明 記</w>
文 喜</w>
救 护</w>
攻 め</w>
揃 っ</w>
指 先</w>
战 友</w>
戈 尔</w>
広 範囲</w>
布 告</w>
地球 村</w>
喇 嘛</w>
古 墳</w>
及 ん</w>
卡 通</w>
刻 苦</w>
分 出</w>
冲 刺</w>
写 し</w>
了 无</w>
下 痢</w>
ル カメラ</w>
ライ フ
ディズ ニー
チ ・
ガール フレンド</w>
オペ レー
とっ ても</w>
あ っと
7 3%</w>
19 32</w>
风 光</w>
项 链</w>
降 雪</w>
闹 钟</w>
部 省</w>
郑 相
迪 亚</w>
连 衣裙</w>
見 回し</w>
褒 賞</w>
緑 茶</w>
看 病</w>
相 称</w>
文 部省</w>
放 水</w>
悪 性</w>
寒 暄</w>
夢 見る</w>
呼 吸
出 轨</w>
书 本</w>
両 社</w>
リ ビング</w>
ス ヨン</w>
コ ミック</w>
オピ ア</w>
エチ オピア</w>
け っ
w fp</w>
mo 1</w>
f t
de t</w>
d t</w>
8 7
4 41</w>
10 08</w>
1. 9</w>
陪审 员</w>
陌 生人</w>
运动 服</w>
路 飞</w>
自治 州</w>
職 人</w>
网 络
稀 少</w>
真っ 先</w>
皮 包</w>
現 われる</w>
特 尔</w>
每 股</w>
最 古</w>
書 け</w>
斯 托
推 委</w>
排 気</w>
振 作</w>
恐 らく</w>
微 量</w>
広 範</w>
安 抚</w>
多 数
哈萨 克斯坦</w>
吸 引力</w>
口 先</w>
口 供</w>
原 画</w>
加 时赛</w>
以 免</w>
交 配</w>
不 孕</w>
一 对
リュ ・
ポ ップ</w>
パッ ティング</w>
チョン・ジョン ベ</w>
スチ ルカメラ</w>
カ ナ</w>
アメリカ 合衆国</w>
ア セン
かま わ</w>
l na</w>
8 40</w>
6 34</w>
2. 9%</w>
飞 鸟</w>
邦 交</w>
迫 使</w>
达 赖</w>
轻 率</w>
起 火</w>
虐 杀</w>
统计 局</w>
线 条</w>
石 垣</w>
盗 塁</w>
現 時点</w>
爆 竹</w>
流 水</w>
未 免</w>
日 产</w>
散 る</w>
故 国</w>
捧 げる</w>
劣 等</w>
創 刊</w>
前 列
前列 腺</w>
全 国
伸 ばす</w>
休 業</w>
专 属</w>
不 善</w>
上 端</w>
バレンタインデ ー</w>
ハ ウ</w>
スティ ング</w>
コー ダー</w>
ウィ ー
アイントホー フェン</w>
ひ ょ
お 嬢
toe ic</w>
kb l</w>
f re
6. 3%</w>
駆 逐</w>
车 间</w>
诺 基亚</w>
议 程</w>
装 飾</w>
般 地</w>
致 词</w>
背 离</w>
约瑟 夫</w>
生产 率</w>
牵 涉</w>
深 渊</w>
法 曹</w>
显 眼</w>
早 稲
护 者</w>
手 渡し</w>
惠 子</w>
应 届</w>
完 胜</w>
在 校生</w>
叱 ら</w>
原 著</w>
千 人</w>
加 斯</w>
人 脈</w>
不 利于</w>
リムー バブル
リ サーチ</w>
ブ ロッ
フ ラー</w>
バラ ード</w>
コレ ステロール</w>
クレジ ット</w>
u icc</w>
in 1</w>
高 周波</w>
郑 义
郁 闷</w>
迈 向</w>
转 机</w>
課 せ</w>
英 镑</w>
维 基</w>
纯 粋</w>
管 弦</w>
空 襲</w>
矯 正</w>
痕 跡</w>
环 状</w>
火 柴</w>
混 淆</w>
書 込み</w>
揺る がす</w>
挤 出</w>
感 人</w>
当 晚</w>
头 儿</w>
喫 茶店</w>
合法 化</w>
即 兴</w>
切 迫</w>
分 红</w>
关 节炎</w>
会议 所</w>
任意 球</w>
产 科</w>
五 天</w>
ヨンドゥン ポ
ヨン サム</w>
モ ナ
ポル ノ</w>
ブ ・
データ チャネル</w>
シン ク
ウォール ストリー
り と</w>
い う
需求 量</w>
衍 生</w>
苛 刻</w>
肌 色</w>
纯 利润</w>
紧 要</w>
紀 元前</w>
礼 堂</w>
痛 む</w>
生 育
無 実</w>
[...]
