#version: 0.2
す る</w>
い る</w>
な い</w>
こ と</w>
か ら</w>
あ る</w>
0 0</w>
れ る</w>
ま す</w>
で す</w>
よ う</w>
い う</w>
日 本</w>
表 示</w>
し て</w>
こ の</w>
1 0</w>
2 0
た め</w>
进 行</w>
な ど</w>
と いう</w>
政 府</w>
中 国</w>
没 有</w>
装 置</w>
可 以</w>
1 0
そ の</w>
韓 国</w>
韩 国</w>
か っ</w>
信 号</w>
国 家</w>
に よ
世 界</w>
な っ</w>
ま で</w>
2 0</w>
と して</w>
な る</w>
い て</w>
一 个</w>
し い</w>
大 学</w>
如 果</w>
っ て</w>
可 能</w>
た ち</w>
ま し</w>
ッ ト</w>
我 们</w>
き る</w>
1 2</w>
美 国</w>
こ れ</w>
1 9
ス テ
で きる</w>
1 1</w>
に 対
开 始</w>
も の</w>
使 用</w>
问 题</w>
な ら</w>
ー ム</w>
統 領</w>
大 統領</w>
ョ ン</w>
20 0
但 是</w>
通 过</w>
通 信</w>
ウ ォ
ョ ン
3 0</w>
あ り</w>
情 况</w>
ッ プ</w>
处 理</w>
だ っ</w>
さ ん</w>
ー ド</w>
え る</w>
朝 鮮</w>
时 间</w>
ー ル</w>
イ ン
ッ ク</w>
今 年</w>
処 理</w>
ー タ</w>
な く</w>
图 像</w>
け る</w>
国 民</w>
で き</w>
信 息</w>
ウォ ン</w>
自 己</w>
ー ト</w>
北 朝鮮</w>
だ け</w>
よ り</w>
情 報</w>
ま た</w>
公 司</w>
什 么</w>
总 统</w>
場 合</w>
に お
因 为</w>
画 像</w>
社 会</w>
に つ
ら れ</w>
以 上</w>
代 表</w>
工 作</w>
部 分</w>
方 法</w>
につ いて</w>
韩 元</w>
数 据</w>
虽 然</w>
な かっ</w>
所 以</w>
実 施</w>
参 加</w>
为 了</w>
1 00</w>
け れ</w>
因 此</w>
调 查</w>
实 施</w>
ン グ</w>
そ れ</w>
し か
企 业</w>
根 据</w>
提 供</w>
作 为</w>
1 5</w>
学 生</w>
内 容</w>
デ ータ</w>
管 理</w>
这 个</w>
ラ ン
要 求</w>
5 0</w>
た い</w>
最 近</w>
チ ャ
1 4</w>
な けれ</w>
示 す</w>
举 行</w>
米 国</w>
政 治</w>
問 題</w>
経 済</w>
1 6</w>
显 示</w>
事 件</w>
经 济</w>
女 性</w>
必 要</w>
生 活</w>
时 候</w>
しか し</w>
ウ ル</w>
お よ
な り</w>
学 校</w>
コ ン
成 为</w>
な た</w>
非 常</w>
あ なた</w>
政 策</w>
タ ー</w>
ソ ウル</w>
フ ァ
1 3</w>
这 样</w>
時 間</w>
研 究</w>
现 在</w>
控 制</w>
によ って</w>
比 赛</w>
だ ろ</w>
位 置</w>
另 外</w>
ラ イ
デ ィ
およ び</w>
せ る</w>
さ い</w>
他 们</w>
地 方</w>
ま せ</w>
ス ト</w>
包 括</w>
去 年</w>
自 分</w>
0 00</w>
関 係</w>
制 御</w>
方 式</w>
4 0</w>
め る</w>
ン ・
ー ス</w>
设 备</w>
1 8</w>
中 的</w>
な が
国 会</w>
2 1</w>
那 个</w>
2 2</w>
形 態</w>
步 骤</w>
已 经</w>
地 区</w>
委 员
正 在</w>
不 是</w>
教 育</w>
に対 する</w>
利 用</w>
にお いて</w>
ステ ップ</w>
た り</w>
大 き
あ っ</w>
そ う</w>
文 化</w>
决 定</w>
送 信</w>
ま っ</w>
很 多</w>
受 信</w>
结 果</w>
そ れ
2 4</w>
教 授</w>
受 け</w>
企 業</w>
プ ロ
委 員</w>
説 明</w>
の で</w>
ー ク</w>
ス ト
重 要</w>
不 能</w>
之 后</w>
出 し</w>
リ ー
2 5</w>
ら れる</w>
ン ト</w>
生 成</w>
1 7</w>
サ ー
系 统</w>
シ ョン</w>
え ば</w>
彼 女</w>
ま た
し ょ</w>
で も</w>
国 内</w>
中 心</w>
的 话</w>
会 社</w>
由 于</w>
なが ら</w>
首 尔</w>
认 为</w>
例 如</w>
单 元</w>
接 收</w>
出 现</w>
また は</w>
取 得</w>
ロ ー
方 面</w>
大 会</w>
昨 年</w>
知 道</w>
シ ステ
に対 して</w>
お り</w>
金 融</w>
增 加</w>
发 送</w>
システ ム</w>
さ ら
2 00</w>
应 该</w>
提 出</w>
ッ ト
全 国</w>
存 在</w>
イ ル</w>
用 于</w>
多 く</w>
选 择</w>
19 9
计 划</w>
操 作</w>
例 えば</w>
支 援</w>
发 生</w>
活 动</w>
行 っ</w>
ん な</w>
う ち</w>
ら か</w>
希 望</w>
ー ジ</w>
方 向</w>
し く</w>
第 一</w>
一 起</w>
ロ ック</w>
さら に</w>
っ と</w>
構 成</w>
い い</w>
需 要</w>
最 高</w>
ユ ー
一 样</w>
6 0</w>
フ ィ
取 り
关 系</w>
2 3</w>
によ る</w>
話 し</w>
1 9</w>
ほ ど</w>
获 得</w>
3 0
中 央</w>
而 且</w>
べ き</w>
2 6</w>
明 らか</w>
就 是</w>
得 到</w>
テ ィ
によ り</w>
事 情</w>
能 力</w>
并 且</w>
選 挙</w>
ま り</w>
か り</w>
タ ー
委员 会</w>
記 録</w>
結 果</w>
相 关</w>
当 天</w>
之 间</w>
自 由</w>
チ ーム</w>
ど う</w>
选 手</w>
一 方</w>
外 国</w>
議 員</w>
述 べ</w>
民 主
接 受</w>
用 户</w>
ド ル</w>
ジ ュ
安 全</w>
执 行</w>
分 析</w>
選 手</w>
タ イ
国 际</w>
発 表</w>
ル ー
ア ン
キ ャ
と こ
た ら</w>
结 束</w>
议 员</w>
バ イ
音 译</w>
く だ
网 络</w>
民 主</w>
成 功</w>
行 わ</w>
2 8</w>
平 均</w>
彼 ら</w>
地 域</w>
判 断</w>
这 种</w>
不 同</w>
技 术</w>
関 連</w>
先 生</w>
制 度</w>
仕 事</w>
媒 体</w>
主 要</w>
今 天</w>
こ こ</w>
2 7</w>
孩 子</w>
警 察</w>
ブ ロック</w>
以 及</w>
くだ さい</w>
这 些</w>
左 右</w>
フ レ
ュ ー
最 大</w>
选 举</w>
市 场</w>
一 次</w>
上 げ</w>
以 下</w>
チ ョン
作 品</w>
考 え</w>
選 択</w>
引 き
会 议</w>
今 回</w>
と き</w>
リ ン
人 士</w>
ム ・
0 %</w>
进 入</w>
首 相</w>
3 1</w>
調 査</w>
外 交</w>
海 外</w>
共 同</w>
说 明</w>
一 部</w>
是 否</w>
发 明</w>
对 于</w>
确 定</w>
理 由</w>
民主 党</w>
之 前</w>
よ い</w>
条 件</w>
同 时</w>
及 び</w>
所 有</w>
サ ン
受 け
科 学</w>
形 成</w>
美 元</w>
言 っ</w>
そ して</w>
同 じ</w>
机 关</w>
カ ー</w>
努 力</w>
支 持</w>
减 少</w>
其 他</w>
其 中</w>
能 够</w>
三 星</w>
発 明</w>
め て</w>
目 前</w>
ス タ
セ ン
具 有</w>
ユー ザ</w>
プ レ
也 是</w>
指 示</w>
こ れ
第 二</w>
現 在</w>
画 面</w>
にお ける</w>
改 革</w>
対 象</w>
记 录</w>
时 代</w>
特 定</w>
3 00</w>
とこ ろ</w>
状 态</w>
运 动</w>
よ く</w>
国 際</w>
今 日</w>
输 出</w>
原 因</w>
银 行</w>
5 00</w>
候 補</w>
フ ォ
リ ー</w>
高 い</w>
不 会</w>
即 使</w>
て も</w>
男 性</w>
这 里</w>
喜 欢</w>
8 0</w>
7 0</w>
ウ ェ
ジ ェ
a t
过 程</w>
1 .
ッ ク
イ ン</w>
映 画</w>
会 議</w>
動 作</w>
捜 査</w>
予 定</w>
理 解</w>
シ ー
シ ン
还 是</w>
と も</w>
存 储</w>
受 到</w>
出 力</w>
2 9</w>
ン ド</w>
設 定</w>
资 金</w>
对 象</w>
イ ・
东 西</w>
同 日</w>
市 場</w>
直 接</w>
上 述</w>
只 有</w>
一 定</w>
服 务</w>
期 待</w>
状 態</w>
で しょ</w>
監 督</w>
か け</w>
参 照</w>
输 入</w>
計 画</w>
ビ ス</w>
ジ ャ
达 到</w>
複 数</w>
フレ ーム</w>
持 っ</w>
検 察</w>
到 了</w>
示 し</w>
入 れ</w>
一 直</w>
リ ア</w>
5 %</w>
具 体</w>
す れ</w>
対 応</w>
そ の
研 究
个 人</w>
行 う</w>
市 民</w>
機 能</w>
一 般</w>
多 い</w>
各 种</w>
卢 武
す べ
卢武 铉</w>
发 展</w>
多 个</w>
全 体</w>
サー ビス</w>
決 定</w>
南 北</w>
发 表</w>
实 现</w>
オ ー
产 生</w>
すべ て</w>
移 动</w>
と ても</w>
历 史</w>
ト ル</w>
有 关</w>
わ っ</w>
20 00</w>
ネ ット
3 2</w>
起 来</w>
ルー プ</w>
サ イ
东 京</w>
模 式</w>
北 京</w>
長 官</w>
前 記</w>
示 例</w>
技 術</w>
i o
ソ ン</w>
电 话</w>
を 通
家 庭</w>
过 去</w>
2 .
入 力</w>
完 全</w>
朝 鲜</w>
つ け</w>
ン ス</w>
ワ ーク</w>
行 为</w>
女 子</w>
考 虑</w>
功 能</w>
に 関
配 置</w>
実 行</w>
4 0
メ ー
确 认</w>
ネ ル</w>
ま だ</w>
以 来</w>
主 义</w>
チ ェ
が っ</w>
会 谈</w>
グ ループ</w>
年 間</w>
ジ ア</w>
关 于</w>
开 发</w>
方 案</w>
バイ ス</w>
商 品</w>
バ ー</w>
よ る</w>
キ ム・
状 況</w>
学 习</w>
確 認</w>
内 部</w>
ヨ ン
健 康</w>
事 業</w>
团 体</w>
ラ ム</w>
影 响</w>
ケ ット</w>
最 も</w>
报 道</w>
事 故</w>
为 止</w>
ら い</w>
開 発</w>
含 む</w>
意 味</w>
符 号</w>
那 么</w>
ネット ワーク</w>
初 めて</w>
提 高</w>
政 権</w>
判 定</w>
然 后</w>
看 到</w>
环 境</w>
消 息</w>
記 憶</w>
行 政</w>
法 律</w>
げ る</w>
投 資</w>
試 合</w>
事 実</w>
目 的</w>
必 须</w>
銀 行</w>
指 定</w>
大き な</w>
价 格</w>
日 本
住 宅</w>
公 开</w>
此 次</w>
基 本</w>
て る</w>
イン ター
思 い</w>
テ レ
デ バイス</w>
现 代</w>
ア ジア</w>
组 织</w>
解 决</w>
连 接</w>
电 影</w>
来 说</w>
じ て</w>
自 然</w>
主 張</w>
一 つ</w>
检 察</w>
候 选
投 资</w>
電 話</w>
ー ル
回 答</w>
记 者</w>
i n
声 音</w>
以 前</w>
精 神</w>
ク ・
レ ー
特 别</w>
それ ぞ
それぞ れ</w>
制 作</w>
讨 论</w>
新 しい</w>
出 来</w>
1 4
区 域</w>
わ り</w>
く れ</w>
最 后</w>
好 き</w>
0 .
ハ ン</w>
ネ ット</w>
合 わ
候选 人</w>
写 真</w>
1 3
家 族</w>
入 っ</w>
结 构</w>
成 绩</w>
汽 车</w>
付 け</w>
发 现</w>
モ ード</w>
た し</w>
コ ー
ベ ル</w>
を通 じて</w>
時 代</w>
労 働</w>
開 か</w>
英 国</w>
一 天</w>
感 到</w>
価 格</w>
フ ェ
准 备</w>
子 供</w>
テ ン
全 部</w>
人 们</w>
評 価</w>
い っ
ュ ー</w>
朋 友</w>
改 善</w>
も う</w>
検 出</w>
— —</w>
无 法</w>
程 度</w>
で し</w>
完 成</w>
10 00</w>
正 式</w>
死 亡</w>
访 问</w>
資 金</w>
合 成</w>
超 过</w>
人 员</w>
设 置</w>
改 变</w>
目 标</w>
旅 行</w>
建 设</w>
か か
接 続</w>
不 要</w>
行 き</w>
か も</w>
と も
チ ョ
设 定</w>
变 化</w>
1 10</w>
機 関</w>
大 家</w>
e d
未 来</w>
检 测</w>
身 体</w>
これ ら</w>
职 业</w>
当 时</w>
起 こ
ナ ラ</w>
向 け</w>
ポ ー
范 围</w>
基 づ
0 2</w>
s t
レ ス</w>
1 6
主 義</w>
1 5
作 用</w>
し ま
规 模</w>
a r
基 地</w>
容 易</w>
无 线</w>
言 う</w>
主 张</w>
再 次</w>
人 物</w>
発 生</w>
水 平</w>
出 席</w>
任 何</w>
ア ル
ド ン</w>
还 有</w>
小 时</w>
规 定</w>
容 疑</w>
电 子</w>
城 市</w>
io n</w>
野 党</w>
公 共</w>
觉 得</w>
わ け</w>
出 す</w>
意 思</w>
ど う
ン グ
年 代</w>
放 送</w>
プ リ
速 度</w>
歴 史</w>
集 中</w>
取 っ</w>
ア ク
ッ シ
一 些</w>
继 续</w>
思 っ</w>
通 知</w>
文 件</w>
ケ ー
団 体</w>
以 外</w>
出 身</w>
セ ス</w>
期 間</w>
ブ ル</w>
首 都</w>
バ ー
良 い</w>
u c
冠 军</w>
政 党</w>
ま ま</w>
特 に</w>
调 整</w>
ジ ョン</w>
一 下</w>
产 品</w>
現 代</w>
保 持</w>
会 長</w>
基 準</w>
对 应</w>
教 练</w>
参 考</w>
あ れ</w>
注 意</w>
重 新</w>
时 期</w>
釜 山</w>
人 生</w>
無 線</w>
合 作</w>
禁 止</w>
战 争</w>
い つ
協 議</w>
a n
専 門</w>
テレ ビ</w>
10 2</w>
下 午</w>
相 手</w>
预 测</w>
に関 する</w>
ヒ ョン</w>
伝 え</w>
領 域</w>
比 较</w>
像 素</w>
危 机</w>
メ ッ
ッ カー</w>
我 々</w>
3 .
合わ せ</w>
の に</w>
3 5</w>
テ ー
表 现</w>
意 见</w>
首 次</w>
言 葉</w>
な く
続 き</w>
ら し</w>
行 く</w>
集 团</w>
都 市</w>
端 末</w>
調 整</w>
两 个</w>
这 次</w>
服 务
读 取</w>
少 し</w>
始 め</w>
长 官</w>
あ の</w>
指 出</w>
犯 罪</w>
制 定</w>
ま しょ</w>
当 時</w>
展 开</w>
思 う</w>
疑 惑</w>
人 事</w>
患 者</w>
イ ラ
指 摘</w>
国 人</w>
午 後</w>
评 价</w>
4 00</w>
at ion</w>
c p
事 业</w>
活 動</w>
シ ャ
シ ア</w>
人 々</w>
十 分</w>
撮 像</w>
最 终</w>
国 政</w>
生 命</w>
世 界
建 設</w>
い く</w>
只 是</w>
エ ン
职 员</w>
基 础</w>
那 里</w>
道 路</w>
产 业</w>
じ る</w>
反 对</w>
基 于</w>
追 加</w>
高 中</w>
再 生</w>
终 端</w>
程 序</w>
協 力</w>
カ メ
ど の</w>
1 7
報 告</w>
做 出</w>
移 動</w>
影 響</w>
不 仅</w>
ライ ン</w>
投 票</w>
不 过</w>
少 年</w>
3 4</w>
明 年</w>
体 制</w>
人 口</w>
描 述</w>
ど こ</w>
拥 有</w>
领 域</w>
し か</w>
或 者</w>
変 化</w>
あ まり</w>
午 前</w>
わ ら</w>
ジ ョン
一 点</w>
编 码</w>
来 自</w>
シ ョ
请 求</w>
责 任</w>
标 准</w>
1 8
1 20</w>
3 3</w>
レ ベル</w>
す ぐ</w>
数 字</w>
项 目</w>
外 部</w>
画 素</w>
利 益</w>
運 動</w>
成 長</w>
戦 争</w>
大き く</w>
交 通</w>
ク ラ
チ ュ
持 ち</w>
舞 台</w>
协 议</w>
ア イ
担 任</w>
0 4</w>
環 境</w>
コン テン
以 后</w>
感 じ</w>
サ ッカー</w>
レ ン
期 间</w>
ト ン</w>
解 決</w>
サ ン</w>
对 策</w>
ラン ド</w>
記 者</w>
当 然</w>
規 模</w>
回 路</w>
秘 密</w>
対 策</w>
込 ん</w>
食 べ</w>
メ ディ
当 局</w>
発 展</w>
动 作</w>
停 止</w>
カメ ラ</w>
メッ セ
電 子</w>
ed uc
い っ</w>
4 .
し よ</w>
educ ation</w>
人 民</w>
リ カ</w>
变 得</w>
変 換</w>
来 年</w>
汉 城</w>
电 视
反 対</w>
4 5</w>
随 着</w>
照 片</w>
高 校</w>
優 勝</w>
とも に</w>
コンテン ツ</w>
じ ゃ</w>
t a</w>
民 族</w>
増 え</w>
解 释</w>
服务 器</w>
c o
ぶ り</w>
含 ま</w>
原 稿</w>
ほ か</w>
训 练</w>
ハ ン
9 0</w>
ま る</w>
男 子</w>
部 门</w>
日 元</w>
く る</w>
传 输</w>
マ ン
1 %</w>
费 用</w>
最 初</w>
b s</w>
責 任</w>
会 談</w>
2 %</w>
ラン ス</w>
对 此</w>
オ ン</w>
推 进</w>
分 钟</w>
相 同</w>
工 会</w>
交 渉</w>
怎 么</w>
表 明</w>
メッセ ージ</w>
a c
加 入</w>
生 产</w>
通 常</w>
协 商</w>
も ら
而 是</w>
ス ター</w>
法 院</w>
应 用</w>
経 営</w>
检 察
知 ら</w>
上 午</w>
措 施</w>
突 然</w>
京 畿</w>
3 6</w>
保 障</w>
总 理</w>
ラ ー</w>
运 会</w>
开 放</w>
委员 长</w>
很 难</w>
l g</w>
3 %</w>
一 致</w>
恢 复</w>
セ ット</w>
手 段</w>
首 先</w>
メ モ
发 射</w>
扩 大</w>
结 婚</w>
5 000</w>
包 含</w>
预 计</w>
チョン ・
ウ ィ
一 步</w>
ア ド
料 理</w>
ド ラ
撮 影</w>
土 地</w>
危 機</w>
グ ラム</w>
所 属</w>
意 見</w>
电 路</w>
携 帯</w>
不 安</w>
文 章</w>
セ ッ
造 成</w>
被 害</w>
ソ ン
法 案</w>
ち ょ
报 告</w>
英 语</w>
し まっ</w>
わ る</w>
得 る</w>
拡 大</w>
特 別</w>
s k</w>
命 令</w>
そ こ</w>
电 视</w>
ッ ド</w>
一 位</w>
効 果</w>
範 囲</w>
导 致</w>
な ん
一 边</w>
ック ス</w>
昨 日</w>
産 業</w>
新 的</w>
i p</w>
明 博</w>
台 湾</w>
自 動
ファ ン</w>
称 为</w>
請 求</w>
航 空</w>
19 8
事 实</w>
基づ い</w>
限 制</w>
ッシ ュ</w>
形 式</w>
タ ル</w>
込 み</w>
に と
独 立</w>
e r
f ta</w>
ファ イル</w>
部 长</w>
裁 判
保 护</w>
8 %</w>
公 開</w>
只 要</w>
i d</w>
にと って</w>
连 续</w>
に対 し</w>
印 刷</w>
联 合
考 试</w>
一 緒</w>
对 方</w>
ス ク</w>
关 注</w>
4 %</w>
7 %</w>
广 播</w>
与 え</w>
ど も</w>
采 取</w>
し れ</w>
キ ョン
決 め</w>
波 数</w>
4 2</w>
0 6</w>
资 料</w>
5 .
インター ネット</w>
ユ ニ
周 波数</w>
ド ・
パ ケット</w>
强 调</w>
200 4</w>
分 别</w>
下 来</w>
力 量</w>
韓 米</w>
使 っ</w>
大 幅</w>
ヨ ン</w>
很 大</w>
担 当</w>
生 産</w>
新 闻</w>
持 续</w>
每 天</w>
… …</w>
200 2</w>
取 り</w>
计 算</w>
開 始</w>
国 防</w>
帮 助</w>
入 り</w>
じ め</w>
转 换</w>
m a
不 足</w>
ナ ー</w>
信 道</w>
メディ ア</w>
批 判</w>
防 止</w>
经 常</w>
医 院</w>
普 通</w>
拉 克</w>
c d</w>
权 利</w>
リー グ</w>
用 い</w>
チャ ン
食 品</w>
如 此</w>
け ど</w>
マ ン</w>
能 性</w>
た く</w>
と ともに</w>
令 人</w>
6 %</w>
机 构</w>
ニ ュー
サー バ</w>
ち ゃ
存 储
正 常</w>
経 験</w>
楽 し
宣 言</w>
方 針</w>
い く
パ ク・
持 つ</w>
现 场</w>
经 过</w>
べ る</w>
和 平</w>
r e
老 师</w>
如 何</w>
ッ チ</w>
青 瓦
青瓦 台</w>
6 .
上 海</w>
研究 所</w>
テ ナ</w>
相 当</w>
那 样</w>
ダ ー</w>
人 気</w>
感 觉</w>
過 程</w>
昨 天</w>
同 様</w>
文 字</w>
今 后</w>
ク リ
5 2</w>
繰 り
全 て</w>
距 离</w>
受 ける</w>
テ ィ</w>
先 月</w>
球 队</w>
で に</w>
积 极</w>
附 近</w>
増 加</w>
首 席</w>
每 个</w>
す でに</w>
チャ ネル</w>
カ ード</w>
体 育</w>
下 降</w>
見 せ</w>
生 ま
武 器</w>
交 流</w>
为 什么</w>
メモ リ</w>
個 人</w>
ビ ュー</w>
予 想</w>
0 1</w>
ラ ン</w>
プ ロ</w>
学 院</w>
攻 撃</w>
有 人</w>
竞 争</w>
ズ ン</w>
一 番</w>
の み</w>
ウ ン
地 球</w>
実 際</w>
200 5</w>
经 营</w>
競 争</w>
暴 力</w>
4 1</w>
見 る</w>
展 示</w>
全 面</w>
日本 人</w>
リ スト</w>
ド イ
申 请</w>
自動 車</w>
之 一</w>
收 入</w>
4 8</w>
本 当
た だ</w>
セン ター</w>
基 金</w>
父 亲</w>
交 易</w>
ク ト</w>
i m
尔 夫</w>
除 了</w>
推 進</w>
ひ と
机 会</w>
非 法</w>
贸 易</w>
観 光</w>
分 配</w>
出 場</w>
訪 問</w>
可 能性</w>
担 心</w>
と う</w>
病 院</w>
仁 川</w>
劳 动</w>
試 験</w>
メー トル</w>
音 乐</w>
建 立</w>
読 み
コン ピ
月 份</w>
罗 斯</w>
予 測</w>
政 权</w>
続 い</w>
合 意</w>
特 别
ま ず</w>
変 更</w>
效 果</w>
足 球</w>
大 型</w>
本 部</w>
10 4</w>
ロ シア</w>
存储 器</w>
高 尔夫</w>
严 重</w>
続 け</w>
いつ も</w>
赛 季</w>
強 調</w>
た く
宇 宙</w>
イラ ク</w>
检 查</w>
1 30</w>
知 っ</w>
现 象</w>
同 期</w>
求 め</w>
加 え</w>
参 与</w>
拍 摄</w>
再 び</w>
至 少</w>
伊 拉克</w>
ば かり</w>
作 っ</w>
负 责</w>
处 理
高 速</w>
要 素</w>
供 給</w>
江 南</w>
幸 福</w>
e n
本当 に</w>
宪 法</w>
出 口</w>
ドイ ツ</w>
介 绍</w>
平 和</w>
しま う</w>
つ い</w>
英 語</w>
联 合</w>
增 长</w>
销 售</w>
奥 运会</w>
乗 り
接 触</w>
と ん
相 机</w>
アク セス</w>
報 道</w>
プロ グラム</w>
此 外</w>
立 っ</w>
特 徴</w>
业 务</w>
成 员</w>
ル ス</w>
安 保</w>
集 会</w>
消 費</w>
3 8</w>
相 比</w>
首 脳</w>
地 址</w>
ー ム
务 员</w>
逮 捕</w>
10 1</w>
た だ
e c</w>
年 前</w>
真 的</w>
俄 罗斯</w>
9 %</w>
态 度</w>
こ そ</w>
マ イ
解 码</w>
予 算</w>
名 字</w>
取 引</w>
ら しい</w>
r o
比 べ</w>
ジュ ール</w>
登 録</w>
父 母</w>
安 定</w>
名 前</w>
带 来</w>
据 悉</w>
负 责
アン テナ</w>
デ ジ
ト ラ
负责 人</w>
住 民</w>
ジ ョ
早 く</w>
流 程
流程 图</w>
想 法</w>
復 号</w>
や っ</w>
ギ ー</w>
错 误</w>
第 三</w>
ペ ージ</w>
实 际
与 党</w>
提 案</w>
シー ズン</w>
パ ー
構 造</w>
上 升</w>
投 手</w>
设 施</w>
こ う
实际 上</w>
な か</w>
天 线</w>
フォ ー
组 合</w>
異 なる</w>
引 起</w>
变 成</w>
更 加</w>
ケー ション</w>
专 家</w>
手 机</w>
材 料</w>
处理 器</w>
背 景</w>
近 く</w>
日 语</w>
才 能</w>
母 亲</w>
1 2
议 会</w>
言 わ</w>
検 討</w>
ドラ マ</w>
如 图</w>
r a
实 际</w>
係 る</w>
ゴ ル
胜 利</w>
分 野</w>
明 天</w>
子 ども</w>
記 載</w>
网 站</w>
保 存</w>
ノ ・
i c
リ ング</w>
電 力</w>
有 效</w>
这 么</w>
印 象</w>
最 後</w>
ア メ
4 4</w>
1 50</w>
大 量</w>
連 続</w>
し た</w>
有 する</w>
反 映</w>
投 入</w>
有 名</w>
大き い</w>
3 000</w>
设 计</w>
新 聞</w>
準 備</w>
地 震</w>
代 表
警 方</w>
7 .
200 3</w>
自 身</w>
ウェ ア</w>
ボ ール</w>
部 屋</w>
5 1</w>
一 方面</w>
ず れ</w>
そ んな</w>
チ ョン</w>
主 席</w>
ス コ
200 6</w>
運 営</w>
ち ら</w>
亚 洲</w>
详 细</w>
裁判 所</w>
明 日</w>
出 演</w>
同 意</w>
さ え</w>
な お</w>
200 8</w>
修 正</w>
0 8</w>
番 号</w>
警 察
音 楽</w>
混 乱</w>
召 开</w>
综 合</w>
构 成</w>
在 内</w>
注 目</w>
欧 洲</w>
故 事</w>
雇 用</w>
进 一步</w>
d m
月 末</w>
答 え</w>
ジ ン</w>
たく さん</w>
居 民</w>
自 治</w>
支 付</w>
ウ ン</w>
労 組</w>
リン ク</w>
多 数</w>
恐 怖</w>
5 5</w>
人 間</w>
資 料</w>
ヵ 月</w>
なく とも</w>
棒 球</w>
国 立</w>
ト ン
少 なくとも</w>
公 务员</w>
作 家</w>
保 護</w>
德 国</w>
税 金</w>
措 置</w>
聞 い</w>
了 解</w>
o f
た る</w>
語 っ</w>
共 に</w>
劳 动
cp u
频 率</w>
適 用</w>
裁 判</w>
カ ン
ほ とん
ほとん ど</w>
思 い
チャ ート</w>
4 6</w>
ど んな</w>
示 威</w>
特别 是</w>
発 言</w>
フ ランス</w>
首 脑</w>
キ ー</w>
テ ル</w>
年 度</w>
理 事</w>
アド レス</w>
が り</w>
伝 送</w>
0 5</w>
ー ン</w>
人 数</w>
も し</w>
演 员</w>
6 00</w>
実 現</w>
采 访</w>
似 乎</w>
稳 定</w>
所 得</w>
成 果</w>
ユニ ット</w>
同 样</w>
製 品</w>
半 期</w>
憲 法</w>
行 為</w>
3 7</w>
ポ イン
機 器</w>
ソ フ
链 路</w>
当 地</w>
物 理</w>
指 導</w>
10 6</w>
が る</w>
公 社</w>
成 立</w>
节 目</w>
例 子</w>
更 新</w>
言 い</w>
も っと</w>
介 し</w>
新 た</w>
終 了</w>
创 造</w>
甚 至</w>
系 列</w>
7 2</w>
大 使</w>
は ず</w>
巨 大</w>
表 情</w>
メ ン
每 年</w>
资 源</w>
法 国</w>
各 国</w>
な に</w>
财 政</w>
プロ セッ
な し</w>
正 确</w>
ス ケ
特 征</w>
い け</w>
协 会</w>
是 因为</w>
プ ル</w>
も ち
困 难</w>
人 类</w>
ハ ー
购 买</w>
メ ール</w>
修 改</w>
入 学</w>
相 互</w>
好 的</w>
タ ン</w>
販 売</w>
哪 里</w>
違 い</w>
o n
游 戏</w>
ほ う</w>
ム ヒョン</w>
8 .
も の
安 打</w>
最 終</w>
香 港</w>
来 る</w>
プロセッ サ</w>
バ ル</w>
パ ー</w>
あ り
军 事</w>
打 印</w>
ミ ング</w>
一 部分</w>
i s
双 方</w>
財 政</w>
不 断</w>
会 长</w>
ゴル フ</w>
联 盟</w>
デ モ</w>
5 4</w>
ヒ ョン
動 き</w>
ブ ラ
阻 止</w>
デジ タル</w>
小 さ
五 輪</w>
端 子</w>
统 一</w>
200 7</w>
ノ・ ムヒョン</w>
分 组</w>
a s
联 赛</w>
ス イ
備 え</w>
ろ ん</w>
年 末</w>
派 遣</w>
失 去</w>
通 り</w>
邮 件</w>
0 3</w>
ポ ート</w>
核 心</w>
最 多</w>
感 情</w>
中 断</w>
大 韩</w>
达 成</w>
好 像</w>
正 日</w>
g a</w>
強 い</w>
深 刻</w>
フ ロー
関 心</w>
ゲ ーム</w>
ス ポー
丈 夫</w>
は じめ</w>
過 ぎ</w>
公 里</w>
针 对</w>
博 士</w>
否 定</w>
革 命</w>
距 離</w>
余 り</w>
预 算</w>
起 き</w>
世 纪</w>
ナ ム
応 じ</w>
打 ち
持 ち
組 織</w>
告 诉</w>
法 人</w>
京 都</w>
ロ ー</w>
预 定</w>
め ぐ
行 动</w>
示 さ</w>
房 间</w>
識 別</w>
立 て</w>
几 乎</w>
フ ァ</w>
心 情</w>
固 定</w>
世界 杯</w>
发 言</w>
以 降</w>
世 代</w>
初 期</w>
视 频</w>
多 少</w>
9 .
总 裁</w>
出 る</w>
日 程</w>
バ ッ
b c</w>
指 数</w>
ポイン ト</w>
声 明</w>
价 值</w>
从 而</w>
据 说</w>
キャ ン
美 军</w>
い ずれ</w>
生 徒</w>
o r
掌 握</w>
4 3</w>
中 国人</w>
維 持</w>
少 女</w>
又 は</w>
心 理</w>
く れる</w>
周 年</w>
只 能</w>
失 败</w>
連 合</w>
コ ード</w>
性 格</w>
放 弃</w>
メ ント</w>
欧 州</w>
アメ リカ</w>
模 块</w>
ス ン</w>
情 报</w>
取 る</w>
今 後</w>
场 合</w>
ビ ット</w>
不 到</w>
负 担</w>
ら す</w>
批 评</w>
公 演</w>
作 業</w>
呼 ば</w>
ビ デ
強 化</w>
相 反</w>
唯 一</w>
く り</w>
年 轻</w>
コ ン</w>
与 える</w>
プ ラ
戦 略</w>
语 言</w>
フィ ル
会 っ</w>
こ う</w>
石 油</w>
生ま れ</w>
返 し</w>
フロー チャート</w>
輸 出</w>
拒 绝</w>
ネ ル
気 持ち</w>
ほ しい</w>
联合 国</w>
ダ ル</w>
野 球</w>
バ ス</w>
意 义</w>
框 图</w>
状 况</w>
并 不</w>
类 型</w>
学 者</w>
スト リ
教 え</w>
務 員</w>
もち ろん</w>
阶 段</w>
大 部分</w>
イン タ
政 界</w>
もの の</w>
公 務員</w>
纽 约</w>
意 识</w>
大 中</w>
ジ ュ</w>
位 于</w>
20 2</w>
チャ ン</w>
维 持</w>
本 人</w>
これ から</w>
欢 迎</w>
强 烈</w>
其 它</w>
ト リ
人 権</w>
ス ペ
识 别</w>
上 がっ</w>
不 法</w>
過 去</w>
3 9</w>
生 物</w>
制 裁</w>
み んな</w>
ニ ング</w>
1 12</w>
両 国</w>
中 小</w>
眼 睛</w>
キ ム</w>
颜 色</w>
上 昇</w>
キ ング</w>
改 正</w>
获 取</w>
警 告</w>
信 用</w>
合 い</w>
も り</w>
特 殊</w>
時 に</w>
作 成</w>
貿 易</w>
7 00</w>
い つ</w>
オ ン
や す
离 开</w>
社 長</w>
負 担</w>
込 ま</w>
教 科
运 营</w>
実 験</w>
イ ベ
接 着</w>
モ ジュール</w>
ホ テル</w>
施 設</w>
公 布</w>
提 交</w>
医 生</w>
あ る
ウ リ</w>
计 算
通 し</w>
か し</w>
部 件</w>
周 围</w>
周 辺</w>
毎 日</w>
キ ュ
现 实</w>
空 间</w>
文 学</w>
青 年</w>
主 人
认 识</w>
战 略</w>
公 式</w>
総 合</w>
統 一</w>
送 っ</w>
6 5</w>
软 件</w>
場 所</w>
ロ ッ
之 外</w>
段 階</w>
翻 译</w>
ア プリ
按 照</w>
漫 画</w>
主人 公</w>
流 れ</w>
比 率</w>
刑 事</w>
5 6</w>
委 员</w>
处 于</w>
任 命</w>
势 力</w>
イベ ント</w>
200 1</w>
ミ ョン
20 10</w>
自 治
特 性</w>
使 う</w>
チ ャ</w>
组 成</w>
么 样</w>
液 晶</w>
p ga</w>
勝 利</w>
攻 击</w>
长 期</w>
数 量</w>
た と
デ ー
6 4</w>
魅 力</w>
契 約</w>
自 信</w>
わ たし</w>
司 法</w>
価 値</w>
5 3</w>
他 人</w>
排 名</w>
6 2</w>
接 近</w>
人 权</w>
高 く</w>
キ ロ</w>
当 初</w>
行 動</w>
ゴ ール</w>
治 疗</w>
ナ ム</w>
地 位</w>
计算 机</w>
かか る</w>
放 在</w>
同 盟</w>
制 造</w>
一 年</w>
上 記</w>
心 配</w>
か い</w>
无 论</w>
场 所</w>
工 厂</w>
サ ム
牛 肉</w>
男 女</w>
下 さい</w>
か る</w>
認 め</w>
工 程</w>
入 れる</w>
ール ド</w>
允 许</w>
a l
っ かり</w>
ざ い</w>
読 取</w>
e r</w>
4 7</w>
迎 え</w>
映 像</w>
认 证</w>
下 去</w>
电 力</w>
様 々</w>
不 可</w>
ピ ク
制 限</w>
应 对</w>
将 来</w>
切 り
8 00</w>
主 教练</w>
ア ップ</w>
真 相</w>
ダ イ
机 场</w>
检察 厅</w>
ア ン</w>
大 阪</w>
军 队</w>
分 かっ</w>
例 示</w>
アプリ ケーション</w>
その 後</w>
意 志</w>
不 正</w>
ニュー ヨ
行 い</w>
介 质</w>
公 寓</w>
ニ ア</w>
認 証</w>
贷 款</w>
信 頼</w>
チェ ・
经 济
韩 国
打 算</w>
所 定</w>
仪 式</w>
10 3</w>
加 强</w>
摄 像</w>
く らい</w>
真 正</w>
高 兴</w>
い に</w>
申 し
東 京</w>
简 单</w>
成 分</w>
万 亿</w>
回 到</w>
儿 子</w>
かか わら</w>
享 受</w>
認 識</w>
代 替</w>
传 送</w>
開 催</w>
ご ざい</w>
職 員</w>
ジュ ン</w>
导 弹</w>
水 準</w>
当 たり</w>
サイ ト</w>
軍 事</w>
观 众</w>
宣 传</w>
ちょ っと</w>
接 收
み る</w>
立 场</w>
ガ ン</w>
相 信</w>
立 場</w>
工 場</w>
ー ズ</w>
つ ける</w>
共 和
明 确</w>
ストリ ーム</w>
歌 手</w>
ず つ</w>
来 到</w>
わ れ</w>
福 祉</w>
感 染</w>
损 失</w>
リ ン</w>
i t
经 验</w>
m o
0 7</w>
現 実</w>
パ ラ
上 涨</w>
利 亚</w>
ス ピ
空 港</w>
い は</w>
目 標</w>
ま と
ウ ンド</w>
あ げ</w>
曜 日</w>
推 定</w>
ワ イ
国 連</w>
いっ た</w>
电 脑</w>
息 子</w>
关 联</w>
表 面</w>
統 合</w>
大 学生</w>
タイ プ</w>
必 ず</w>
合 っ</w>
規 制</w>
質 問</w>
合 同</w>
名 誉</w>
役 割</w>
い か
出 さ</w>
家 人</w>
集 め</w>
に わ
6 1</w>
ト ップ</w>
ビデ オ</w>
基 站</w>
受け 取っ</w>
本 月</w>
地 产</w>
あり が
ノ ード</w>
李 明博</w>
对 话</w>
海 洋</w>
出 版</w>
终 于</w>
毕 业</w>
現 場</w>
然 而</w>
10 8</w>
転 送</w>
是 说</w>
节 点</w>
留 学</w>
房 地产</w>
当 て</w>
含 め</w>
引 发</w>
a p
化 学</w>
導 入</w>
忘 れ</w>
ニ ュ
ス ク
我 国</w>
な ぜ</w>
立 ち
年 金</w>
a n</w>
飞 机</w>
男 人</w>
你 们</w>
ミ サ
う る</w>
ル ト</w>
教 师</w>
确 保</w>
ク ライ
う ま
紧 急</w>
大 邱</w>
マ スコ
共 有</w>
作 る</w>
メ ダル</w>
難 しい</w>
找 到</w>
つ もり</w>
降 低</w>
議 論</w>
す ぎ</w>
ゆ る</w>
保 険</w>
従 って</w>
就 是说</w>
動 産</w>
ミサ イル</w>
就 任</w>
解 除</w>
知 识</w>
ア フ
金 田
金田 一</w>
初 め</w>
传 统</w>
ご ろ</w>
会 い</w>
不 動産</w>
来 看</w>
ん なに</w>
マ ー
疑 い</w>
書 記</w>
电视 剧</w>
協 会</w>
别 人</w>
分 け</w>
つ つ</w>
ボ タン</w>
今 月</w>
半 岛</w>
充 分</w>
立 ち</w>
な さい</w>
年 龄</w>
積 極</w>
动 物</w>
総 長</w>
使 わ</w>
ソ ース</w>
開 き</w>
国 情</w>
そ う
响 应</w>
东 亚</w>
お 金</w>
進 め</w>
广 告</w>
温 泉</w>
時 期</w>
生 き</w>
景 気</w>
低 い</w>
演 出</w>
マ ル
细 胞</w>
挑 战</w>
渡 し</w>
联 系</w>
控 え</w>
违 反</w>
と いった</w>
ア ー</w>
一 切</w>
7 1</w>
マスコ ミ</w>
次 に</w>
妻 子</w>
球 场</w>
いく つ</w>
代 わり</w>
比 起</w>
終 え</w>
も た
压 力</w>
調 べ</w>
規 定</w>
モ デ
执 政党</w>
要 請</w>
セ ル</w>
领 导
成 績</w>
专 业</w>
記 念</w>
上 げる</w>
质 量</w>
企 画</w>
各 地</w>
同 一</w>
タイ ミング</w>
な れ</w>
言 い
晚 上</w>
不 好</w>
悪 い</w>
自 ら</w>
進 出</w>
民 国</w>
c m</w>
や か</w>
ず っと</w>
年 级</w>
体 育
エ ネル
失 敗</w>
確 保</w>
減 少</w>
シ ュ
ザ ー</w>
勢 力</w>
テー ブル</w>
梦 想</w>
立 つ</w>
嫌 疑</w>
宣 布</w>
ス ン
听 到</w>
工 资</w>
再 现</w>
马 上</w>
布 什</w>
提 示</w>
ご と</w>
ス ー
老 人</w>
デー タ
結 婚</w>
ァ ン
い え</w>
是 个</w>
有 些</w>
感 器</w>
割 り
传 感器</w>
ア ー
5 8</w>
最 低</w>
社 説</w>
会 見</w>
6 3</w>
矛 盾</w>
思 想</w>
习 惯</w>
考 える</w>
幸 せ</w>
总 是</w>
上 月</w>
医 疗</w>
客 户</w>
マ ラ
ソフ ト
i t</w>
小 学</w>
一 度</w>
公 园</w>
シ ー</w>
天 气</w>
d p</w>
危 険</w>
ニューヨ ーク</w>
オ ピ
半 年</w>
ブ ッシュ</w>
d m</w>
肯 定</w>
角 度</w>
と 共に</w>
10 5</w>
控 制
勉 強</w>
作 り</w>
ちゃ ん</w>
留 下</w>
衣 服</w>
看 着</w>
フィル タ</w>
適 切</w>
兴 趣</w>
迅 速</w>
消 失</w>
タ イ</w>
马 拉
任 意</w>
議 長</w>
经 历</w>
民 間</w>
も う
青 少年</w>
考 慮</w>
合 う</w>
期 限</w>
分 割</w>
エネル ギー</w>
回 復</w>
真 是</w>
d p
相 对</w>
危 险</w>
と か</w>
設 置</w>
n e
排 除</w>
音 声</w>
ト ラン
テ ロ</w>
同 時に</w>
太 郎</w>
な わ
メ ージ</w>
l e
陷 入</w>
よ れ</w>
応 答</w>
罢 工</w>
き り</w>
提 起</w>
妈 妈</w>
ニ オン</w>
なわ ち</w>
す なわち</w>
比 較</w>
見 通し</w>
ニ ー</w>
ら く</w>
7 5</w>
症 状</w>
那 些</w>
グ ラ
レ ート</w>
業 務</w>
透 明</w>
休 み</w>
挙 げ</w>
獲 得</w>
统 计</w>
保 健</w>
詳 細</w>
半 島</w>
変 わっ</w>
p s</w>
ク ロ
太 平
休 息</w>
见 面</w>
途 中</w>
2 10</w>
也 许</w>
し ろ</w>
落 ち
う え</w>
限 定</w>
顺 序</w>
事 前</w>
ある いは</w>
律 师</w>
民 间</w>
根 本</w>
发 出</w>
介 入</w>
刺 激</w>
更 多</w>
定 期</w>
旅 游</w>
概 念</w>
社 论</w>
出 生</w>
生 存</w>
市 内</w>
連 絡</w>
优 秀</w>
设 立</w>
ティ ング</w>
光 学</w>
カ ル</w>
明 白</w>
推 荐</w>
兵 器</w>
障 害</w>
ありが とう</w>
近 い</w>
ベ ース</w>
し た
変 え</w>
ミ ン</w>
所 谓</w>
角 色</w>
比 特</w>
ホ ール</w>
在 于</w>
各 種</w>
ュ ータ</w>
入 る</w>
起こ し</w>
类 似</w>
コンピ ュータ</w>
女 儿</w>
集 団</w>
表 現</w>
焦 点</w>
訪 れ</w>
ん と</w>
検 査</w>
オピ ニオン</w>
少 なく</w>
サ ー</w>
帰 っ</w>
许 多</w>
込 む</w>
1 11</w>
按 钮</w>
保 守</w>
下 げ</w>
部 長</w>
观 看</w>
か かっ</w>
有 点</w>
スポー ツ</w>
经 由</w>
整 个</w>
知 ら
止 め</w>
发 行</w>
20 4</w>
200 9</w>
第 二
越 来
越来 越</w>
宗 教</w>
大 赛</w>
内 外</w>
ジェ クト</w>
終 わっ</w>
か く</w>
4 9</w>
革 新</w>
空 間</w>
外 国人</w>
事 例</w>
居 住</w>
ホ ーム
抑 制</w>
広 告</w>
7 4</w>
证 券</w>
威 胁</w>
見 え</w>
小 说</w>
治 療</w>
保 有</w>
大 切</w>
早 上</w>
列 表</w>
業 者</w>
落 ち</w>
大 规模</w>
任 期</w>
作 者</w>
p l
消 费
帯 域</w>
名 称</w>
ぐ らい</w>
鉄 道</w>
現 地</w>
こ んな</w>
充 满</w>
書 い</w>
行 事</w>
シン ボ
主 演</w>
違 っ</w>
ア ニ
カ ップ</w>
感 谢</w>
酒 店</w>
拒 否</w>
係 数</w>
话 题</w>
4 000</w>
増 や
教 育
紧 张</w>
毎 年</w>
星 期
こう した</w>
ク ロ</w>
适 当</w>
保 险</w>
压 缩</w>
離 れ</w>
1 1
最 高
マン ション</w>
报 告
医 療</w>
小さ な</w>
加 上</w>
身 份</w>
光 州</w>
d v
舆 论</w>
照 相机</w>
批 准</w>
都 会</w>
監 査</w>
s e
6 8</w>
設 け</w>
モデ ル</w>
报 纸</w>
お か
驱 动</w>
教 師</w>
原 則</w>
チ ン</w>
中 间</w>
击 球</w>
各 个</w>
b s
最 好</w>
次 官</w>
太平 洋</w>
イ メージ</w>
競 技</w>
リ ア
199 9</w>
10 %</w>
し ば
紹 介</w>
備 える</w>
转 移</w>
植 物</w>
夫 人</w>
追 い
サ ブ</w>
バ ン
u e</w>
原 则</w>
コン ト
あ と</w>
并 称</w>
れ れ</w>
年 内</w>
万 人</w>
人 气</w>
国 防
権 力</w>
組 合</w>
进 口</w>
回 来</w>
ブ ル
サイ ズ</w>
大 使
逐 渐</w>
週 間</w>
来 月</w>
承 认</w>
始 まっ</w>
发 挥</w>
オー プ
計 算</w>
ハ イ
垂 直</w>
い ただ
马拉 松</w>
艺 术</w>
練 習</w>
ズ ム</w>
打 开</w>
一 家</w>
a d
開 い</w>
激 烈</w>
証 券</w>
i c</w>
食 物</w>
当 选</w>
ロー ラ</w>
ツ アー</w>
采 用</w>
美 丽</w>
求 める</w>
事 務</w>
発 見</w>
残 っ</w>
6 6</w>
大 选</w>
传 达</w>
数 学</w>
工 业</w>
i f
取 消</w>
等 待</w>
199 8</w>
代 理</w>
办 公
量 子</w>
监 督</w>
シンボ ル</w>
輸 入</w>
c h
日 常</w>
若 い</w>
採 用</w>
斗 争</w>
残 り</w>
秘 书
大 変</w>
費 用</w>
日 間</w>
信 じ</w>
続 く</w>
系 数</w>
直 到</w>
5 7</w>
报告 书</w>
温 度</w>
当 該</w>
深 い</w>
流 行</w>
カ ー
自 主</w>
ニュ ース</w>
補 正</w>
以 内</w>
全 く</w>
超 え</w>
日 報</w>
言 え</w>
ギ ュ
事 態</w>
举 办</w>
追 求</w>
兄 弟</w>
t h
院 内</w>
新 年</w>
属 于</w>
食 事</w>
立 即</w>
9 8</w>
1 40</w>
成 长</w>
や っ
审 判</w>
20 %</w>
確 定</w>
面 临</w>
し ゃ
受け 入れ</w>
权 力</w>
垒 打</w>
演 奏</w>
本 垒打</w>
あ ら
病 気</w>
ク ス</w>
至 今</w>
世 論</w>
接 口</w>
部 門</w>
グ ロー
倾 向</w>
ナ ル</w>
序 列</w>
フェ ース</w>
広 げ</w>
体 系</w>
メン バー</w>
观 点</w>
どう して</w>
不 良</w>
单 位</w>
容 量</w>
支 出</w>
グ ・
フ ラ
電 気</w>
有 所</w>
领 导</w>
バ イル</w>
学 部</w>
透 露</w>
思 わ</w>
7 3</w>
替 え</w>
当 前</w>
か つ</w>
ど れ</w>
援 助</w>
資 源</w>
モ バイル</w>
c e
博 物
デ ザ
さ ま
比 例</w>
盛 り
割 合</w>
恐 れ</w>
プロ セス</w>
适 用</w>
私 立</w>
数 据
友 人</w>
チュ ン
疾 病</w>
上 司</w>
避 免</w>
合 理</w>
た って</w>
克 服</w>
しま い</w>
金 额</w>
支 配</w>
拘 留</w>
金 某</w>
控制 器</w>
最 新</w>
し かっ</w>
几 个</w>
标 准
参 数</w>
m s</w>
标 识</w>
格 納</w>
信 任</w>
纪 念</w>
20 1</w>
谢 谢</w>
中 止</w>
资 格</w>
方 针</w>
剩 下</w>
ホ ーム</w>
9 9</w>
收 到</w>
授 業</w>
回 転</w>
乗 っ</w>
具 备</w>
もら っ</w>
dm a</w>
k bs</w>
訓 練</w>
就 业</w>
監 視</w>
量 化</w>
振 り
拘 束</w>
p o
t o
因 素</w>
シ ェ
主 题</w>
播 放</w>
重 大</w>
分 から</w>
5 9</w>
招 待
以 後</w>
半 分</w>
約 束</w>
常 任</w>
大 小</w>
良 く</w>
手 続き</w>
一 生</w>
涉 嫌</w>
オープ ン</w>
向 かっ</w>
派 兵</w>
従 来</w>
证 明</w>
调 查
限 り</w>
被 告</w>
ざ ま</w>
やす い</w>
30 2</w>
怎 样</w>
高 度</w>
最 佳</w>
交 换</w>
ひと つ</w>
弁 護
や り
弁護 士</w>
作 业</w>
判 决</w>
一 半</w>
ピク チャ</w>
だ から</w>
家 里</w>
p d
20 12</w>
ディ ス
意 識</w>
リ ード</w>
違 う</w>
大 人</w>
行 使</w>
ジャ ー</w>
p h
南 道</w>
図 示</w>
金 正日</w>
扫 描</w>
レ イ
たと えば</w>
难 以</w>
同 步</w>
簡 単</w>
ロ ン
判 決</w>
守 る</w>
收 集</w>
ル ・
说 话</w>
結 局</w>
部 队</w>
出 售</w>
今 度</w>
イン ド</w>
か なり</w>
e s</w>
駆 動</w>
各 样</w>
長 い</w>
申 請</w>
違 反</w>
なん て</w>
自 动</w>
引 进</w>
儿 童</w>
彻 底</w>
消 除</w>
在 野党</w>
图 片</w>
影 像</w>
向 上</w>
待 っ</w>
優 先</w>
メ ータ</w>
7 8</w>
废 除</w>
食 べる</w>
小 组</w>
ソ ン・
f c</w>
返 回</w>
电视 台</w>
补 充</w>
女 人</w>
三 星
诉 讼</w>
か れ</w>
許 可</w>
ソフト ウェア</w>
培 养</w>
か ける</w>
蔚 山</w>
把 握</w>
リー ズ</w>
奖 金</w>
尽 管</w>
ハー ド
1 60</w>
引 き</w>
建 筑</w>
不 知</w>
痛 苦</w>
整 理</w>
圧 縮</w>
イ ス
专 门</w>
インタ ビュー</w>
ディ スク</w>
我 会</w>
公 正</w>
い き</w>
绝 对</w>
未 能</w>
購 入</w>
発 行</w>
少 ない</w>
そ こ
招待 会</w>
寻 找</w>
样 子</w>
レン ズ</w>
反 応</w>
of dm</w>
武 装</w>
リン ピ
首 位</w>
スタ ート</w>
5 0%</w>
相 次
機 会</w>
8 5</w>
知 事</w>
种 类</w>
诞 生</w>
ウ ス</w>
も と</w>
给 予</w>
検 事</w>
赤 字</w>
财 产</w>
遗 憾</w>
切 っ</w>
ステ ィ
支 払
美 しい</w>
全 球</w>
c h</w>
典 型</w>
工 事</w>
突 破</w>
导 演</w>
开 心</w>
合 格</w>
変 調</w>
院 长</w>
活 用</w>
つ まり</w>
低 于</w>
i d
財 産</w>
队 员</w>
促 进</w>
行 な
厳 しい</w>
协 定</w>
中 間</w>
不 想</w>
6 000</w>
完 了</w>
有 効</w>
切 り</w>
邀 请</w>
挑 戦</w>
つ なが
お い</w>
景 气</w>
マ ッ
っ くり</w>
決 勝</w>
日 报</w>
思 考</w>
有 力</w>
委 托</w>
学 科</w>
サン プル</w>
登 場</w>
既 に</w>
通 じ</w>
先 進</w>
0 9</w>
干 部</w>
マラ ソン</w>
实 行</w>
小 さい</w>
強 く</w>
さま ざま</w>
オ バ
通 商</w>
白 い</w>
仅 仅</w>
様 子</w>
消 费</w>
试 验</w>
切 换</w>
ティ ー</w>
杂 志</w>
ト レー
密 钥</w>
功 率</w>
施 行</w>
临 时</w>
や り</w>
教 室</w>
优 先</w>
活 跃</w>
い ろ
三 个</w>
助 け</w>
に関 して</w>
当 選</w>
出 发</w>
顺 利</w>
一 旦</w>
摄 影</w>
竞 争
纪 录</w>
t v</w>
加 工</w>
办公 室</w>
史 上</w>
俱 乐
运 动
顾 客</w>
文 書</w>
巴 马</w>
争 议</w>
s 1
中 学</w>
神 社</w>
l o
围 绕</w>
3 10</w>
斯 坦</w>
残 し</w>
組 み
满 足</w>
印 度</w>
w e
暂 时</w>
ピ ョン
俱乐 部</w>
岗 位</w>
l pga</w>
人 民
表 す</w>
とこ ろ
对 手</w>
适 合</w>
商 店</w>
8 000</w>
共 通</w>
書 き
東 亜</w>
资 产</w>
销 售
報 じ</w>
に 従って</w>
到 底</w>
ヤ ン</w>
呼 吸</w>
199 7</w>
世 紀</w>
協 定</w>
わ かっ</w>
明 る
起 诉</w>
発 売</w>
时 刻</w>
ビ ル</w>
態 度</w>
2 50</w>
福 利</w>
ac k</w>
地 下</w>
理 想</w>
人 才</w>
差 距</w>
本 格</w>
u n
发 言
い わ
医 学</w>
メー カー</w>
夏 天</w>
人 材</w>
车 站</w>
多 様</w>
反 应</w>
その まま</w>
市 長</w>
党 内</w>
オ リンピ
か ね</w>
监 视</w>
手 术</w>
遅 れ</w>
路 径</w>
课 题</w>
国 务</w>
ミ ュ
基 准</w>
ク トル</w>
侵 害</w>
国 家
反 而</w>
一 時</w>
大 宇</w>
均 衡</w>
8 6</w>
パラ メータ</w>
うま く</w>
シ リーズ</w>
機 構</w>
単 位</w>
回 っ</w>
オバ マ</w>
练 习</w>
30 %</w>
ソ ク</w>
形 象</w>
友 好</w>
管 理
曾 经</w>
外 汇</w>
まと め</w>
セ キュ
等 级</w>
关 心</w>
論 理</w>
グロー バル</w>
秩 序</w>
安 装</w>
つ き</w>
有 利</w>
理 念</w>
正 当</w>
帝 国</w>
ピ ング</w>
新 人</w>
季 度</w>
金 属</w>
明 星</w>
大 韓</w>
イン フ
组 件</w>
ま っ
建 物</w>
っ きり</w>
母 親</w>
キョン ギ
独 自</w>
パ ス</w>
話 し
越 え</w>
達 成</w>
歌 曲</w>
度 过</w>
態 様</w>
性 能</w>
長 期</w>
企 划</w>
不 起</w>
20 6</w>
搬 送</w>
低 下</w>
决 赛</w>
細 胞</w>
そこ で</w>
定 时</w>
サム スン</w>
運 転</w>
流 通</w>
悪 化</w>
8 2</w>
延 长</w>
対 話</w>
ウ ム</w>
破 坏</w>
不 管</w>
覚 え</w>
估 计</w>
た い
公 平</w>
ー ト
消费 者</w>
图 示</w>
取 材</w>
怀 疑</w>
ラ ス</w>
7 6</w>
咨 询</w>
锦 标
锦标 赛</w>
最 小</w>
上 がり</w>
移 転</w>
物 质</w>
主 体</w>
マ ーク</w>
ぎ る</w>
プレ ー</w>
呼 ん</w>
ロ グ</w>
登 记</w>
怎 么样</w>
連 盟</w>
わ から</w>
呼 び
株 式</w>
平 时</w>
ピ ー</w>
パ ート</w>
新 党</w>
囲 気</w>
趋 势</w>
体 力</w>
雰 囲気</w>
正 しい</w>
や る</w>
父 親</w>
ア ラ
1 22</w>
调 制</w>
自治 体</w>
任 务</w>
验 证</w>
左 派</w>
果 た
シー ケ
種 類</w>
モ ン
得 点</w>
一 代</w>
幹 部</w>
北 道</w>
製 造</w>
番 組</w>
早 期</w>
扩 散</w>
ッ プ
慎 重</w>
せ い</w>
7 000</w>
ワ ー</w>
客 人</w>
6 9</w>
8 1</w>
2 20</w>
聚 集</w>
ダ ー
清 楚</w>
u s
地 图</w>
戻 っ</w>
訴 訟</w>
暮 らし</w>
成 像</w>
国家 队</w>
m p
事 务</w>
到 达</w>
イ ド</w>
室 長</w>
活 躍</w>
リー ン</w>
冬 季</w>
可 是</w>
e u</w>
ビ ョン
大 约</w>
竞争 力</w>
ー ター</w>
社 长</w>
芸 術</w>
主 導</w>
之 中</w>
二 次</w>
回 国</w>
オリンピ ック</w>
展 望</w>
業 界</w>
ま しい</w>
服 装</w>
i n</w>
发言 人</w>
ナ イ
廃 止</w>
效 率</w>
歪 曲</w>
标准 杆</w>
アフ リカ</w>
セン サ</w>
建 筑
帰 国</w>
股 票</w>
恶 化</w>
テ スト</w>
m f
集 まっ</w>
小 説</w>
员 工</w>
シー ン</w>
ガ ス</w>
动 画</w>
コンピ ュー
フ ロー</w>
使 得</w>
り に</w>
友 達</w>
前 提</w>
作 戦</w>
分 子</w>
i s</w>
ユー ザー</w>
英 雄</w>
露 出</w>
演 技</w>
吸 引</w>
進 む</w>
直 後</w>
送 り</w>
贡 献</w>
中 日</w>
す ご
若 者</w>
年 生</w>
プレ イ</w>
フィ ールド</w>
省 庁</w>
フ ン</w>
ニ ュー</w>
恋 人</w>
だ が</w>
塁 打</w>
レ ジ
9 5</w>
過 ご
忘 记</w>
燃 料</w>
金 大中</w>
显 示
延 迟</w>
その 他</w>
活 性</w>
願 い</w>
にわ たって</w>
南 部</w>
能 源</w>
时 隔</w>
年 齢</w>
9 2</w>
是 从</w>
留 学生</w>
6 7</w>
资 本</w>
其 实</w>
原 油</w>
过 来</w>
经 理</w>
实 力</w>
受 伤</w>
h z</w>
検 証</w>
本 来</w>
正 確</w>
も っ</w>
それ ら</w>
听 说</w>
前 面</w>
ケ ース</w>
战 斗</w>
ブ ランド</w>
現 象</w>
民 党</w>
効 率</w>
ス タ</w>
许 可</w>
c c</w>
到 着</w>
バッ ファ</w>
t e
符 合</w>
動 画</w>
党 的</w>
エ ル</w>
わ し</w>
せ よ</w>
こ ちら</w>
使 い</w>
写 体</w>
置 い</w>
开 关</w>
の 子</w>
w w
住 ん</w>
被 写体</w>
法 官</w>
し っかり</w>
国 籍</w>
シーケ ンス</w>
楽し み</w>
不 得
解 放</w>
感 じる</w>
中 文</w>
卫 星</w>
面 前</w>
行 业</w>
スイ ッチ</w>
7 7</w>
原 子
ワ シン
迎 来</w>
平 等</w>
华 盛
シ ン</w>
下 落</w>
承 诺</w>
旋 转</w>
信 用
抽 出</w>
ス マ
体 重</w>
议 长</w>
ざ る</w>
规 则</w>
フォー マ
搜 索</w>
こ ろ</w>
イ タ
30 4</w>
人 力</w>
パ ン</w>
局 面</w>
本 身</w>
境 界</w>
地 点</w>
ク ァン
懸 念</w>
面 板</w>
自 我</w>
下 し</w>
した が
不 明</w>
営 業</w>
课 程</w>
年 轻
ッ ジ</w>
击 出</w>
指 令</w>
1 500</w>
表 演</w>
開 幕</w>
バ ク</w>
ギ リ
用 意</w>
秘 書
秘書 官</w>
働 い</w>
海 上</w>
ヨ ル
由 此</w>
ま さ
20 11</w>
明 显</w>
会 上</w>
ギ ョン
な か
い ま</w>
卒 業</w>
二 つ</w>
少 数</w>
校 长</w>
年轻 人</w>
課 題</w>
ア ント</w>
国防 部</w>
金 牌</w>
ア ナ
全 力</w>
工 業</w>
学 会</w>
主 人</w>
监 查</w>
个 月</w>
設 立</w>
电 车</w>
k m</w>
道 歉</w>
続 ける</w>
接 入</w>
で は</w>
祖 国</w>
デザ イン</w>
資 本</w>
履 行</w>
送 る</w>
議 会</w>
中 継</w>
演 讲</w>
ビ ー</w>
づ け</w>
签 名</w>
意 大
反 発</w>
あ ま
排 出</w>
警 戒</w>
ラン キング</w>
憂 慮</w>
ず か</w>
上 个月</w>
チョ ・
抵 抗</w>
日 子</w>
7 9</w>
も し
パ イ
这 件</w>
务 所</w>
伝 統</w>
大 韓
高 层</w>
华盛 顿</w>
t r
海 岸</w>
プ ライ
变 更</w>
提 取</w>
パ ネル</w>
通 過</w>
不 在</w>
江 原</w>
尊 重</w>
補 償</w>
李 承
遅 延</w>
时 钟</w>
は り</w>
辞 职</w>
パ ン
认 真</w>
业 界</w>
结 合</w>
cp u</w>
核 武器</w>
ロ ード</w>
瞬 间</w>
公 園</w>
出 発</w>
国 土</w>
长 率</w>
テー マ</w>
多 かっ</w>
安 排</w>
外 交
連 帯</w>
不 少</w>
情 報
務 め</w>
义 务</w>
ひ ど
重 复</w>
テ キ
敌 人</w>
名 单</w>
争 论</w>
注 册</w>
m bc</w>
統 計</w>
情報 処理</w>
避 け</w>
起 訴</w>
小 学校</w>
あ ろ</w>
い ろ</w>
募 集</w>
仍 然</w>
研究 院</w>
快 乐</w>
静 止</w>
クラ ブ</w>
反 射</w>
遵 守</w>
ワシン トン</w>
つ か
铁 路</w>
イ・ ミョン
バ ック</w>
元 件</w>
次 元</w>
大 田</w>
两 人</w>
朴 智
及 ぼ
い か</w>
案 件</w>
論 議</w>
上 位</w>
试 图</w>
生 き
各 自</w>
オン ライン</w>
g o
超 える</w>
下 面</w>
球 员</w>
作 战</w>
付 ける</w>
互 相</w>
指 导</w>
a k
看 起来</w>
场 面</w>
非 難</w>
ド ン
白 色</w>
わ ずか</w>
科 目</w>
网 上</w>
疲 れ</w>
商 业</w>
読 ん</w>
四 半期</w>
爱 情</w>
意大 利</w>
算 出</w>
み たい</w>
循 环</w>
前 日</w>
见 到</w>
逻 辑</w>
建 议</w>
即 将</w>
カ ン・
戦 闘</w>
国 务
论 文</w>
上 映</w>
可 爱</w>
低 迷</w>
删 除</w>
s p
9 6</w>
見 つ
クラ ス</w>
いく ら</w>
分 の</w>
務 所</w>
恋 爱</w>
增 长率</w>
したが って</w>
8 4</w>
年 后</w>
谈 判</w>
ラ ウンド</w>
カ ウ
良 好</w>
1 14</w>
形 状</w>
姿 勢</w>
g dp</w>
直 し</w>
分 裂</w>
流 出</w>
実 は</w>
9 7</w>
进 步</w>
阶 层</w>
长 度</w>
劳动 者</w>
ク ター</w>
周 期</w>
独 特</w>
反 省</w>
于 是</w>
金 利</w>
短 期</w>
グ ル</w>
対 立</w>
売 り
け 加え</w>
立 法</w>
集 合</w>
政 治
と り
探 し</w>
や はり</w>
音 乐
執 行</w>
ブ リ
遗 产</w>
选 拔</w>
重 点</w>
残 念</w>
抗 议</w>
削 除</w>
割り 当て</w>
ア ム</w>
皆 さん</w>
想 到</w>
傾 向</w>
リ ティ</w>
満 足</w>
占 め</w>
领导 人</w>
起 到</w>
广 场</w>
チャン ピ
前 进</w>
ッ チ
i g
f t</w>
田 中</w>
共和 国</w>
クライ アント</w>
安 心</w>
u r
買 い
竞 选</w>
トレー ニング</w>
不 幸</w>
ク ォ
载 波</w>
リ ズム</w>
困 難</w>
保 安</w>
199 0</w>
面 对</w>
有 趣</w>
しば らく</w>
乘 坐</w>
開 放</w>
犯 人</w>
ょ う</w>
8 3</w>
部 隊</w>
落 と
見 える</w>
创 下</w>
イ・ミョン バク</w>
復 帰</w>
全 世界</w>
働 き</w>
タイ ム</w>
相 应</w>
ッ ター</w>
数 目</w>
前 後</w>
启 动</w>
ジ ン
f ec</w>
公 斤</w>
深 く</w>
打 出</w>
导 体</w>
领 先</w>
広 報</w>
回 家</w>
im o</w>
9 1</w>
アル バ
原 理</w>
も っ
ス ・
睡 眠</w>
の ぼ
あ たり</w>
検 索</w>
明 確</w>
哪 个</w>
有 时</w>
局 長</w>
ど ちら</w>
す ら</w>
選 手
選手 権</w>
传 唤</w>
手 術</w>
t s</w>
原 来</w>
ディス プレイ</w>
证 据</w>
失 っ</w>
ター ン</w>
ク ト
限 度</w>
游 客</w>
混 合</w>
穿 着</w>
周 边</w>
大 手</w>
ド ゥ
附 加</w>
歩 い</w>
提 议</w>
レ ー</w>
イ ズ</w>
意 图</w>
展 開</w>
接收 机</w>
シ ップ</w>
显示 器</w>
s 10
还 要</w>
故 障</w>
描 い</w>
相次 い</w>
变 换</w>
キ ー
金 額</w>
20 8</w>
相 当
相当 于</w>
巡 回
作 ら</w>
さ ま</w>
查 明</w>
破 壊</w>
考 え
世 帯</w>
ワ ード</w>
20 3</w>
リ ン・
s o
9 00</w>
以 此</w>
补 偿</w>
処 罰</w>
巡回 赛</w>
奇 怪</w>
说 法</w>
株 価</w>
收 购</w>
出 去</w>
ビ ア</w>
正 面</w>
コ ース</w>
見 方</w>
截 止</w>
削 減</w>
契 机</w>
立 体</w>
上 面</w>
提 前</w>
ー ション</w>
想 像</w>
大 国</w>
l l</w>
話 す</w>
デ ィ</w>
学 家</w>
dv d</w>
韩 日</w>
出 国</w>
教科 书</w>
素 材</w>
s p</w>
司 令</w>
ロ ン</w>
实 验</w>
局 长</w>
子 女</w>
お 前</w>
丰 富</w>
高 级</w>
コ マ
大 事</w>
里 面</w>
文 明</w>
收 受</w>
主 导</w>
样 本</w>
押 し
れ い</w>
む しろ</w>
動 物</w>
測 定</w>
抓 住</w>
通 貨</w>
発 射</w>
坚 持</w>
依 頼</w>
重 视</w>
前 年</w>
いわ ゆる</w>
好 好</w>
タイ ム
回 る</w>
解 釈</w>
か つ
才 是</w>
項 目</w>
ヶ 月</w>
か す</w>
成 了</w>
签 订</w>
移 民</w>
総 裁</w>
m imo</w>
は っきり</w>
と ど
a m
部 署</w>
ま え</w>
ベ ン
s h
誕 生</w>
本 塁打</w>
需 求</w>
文 化
デ ビュー</w>
犠 牲</w>
買 っ</w>
品 質</w>
時 点</w>
守 っ</w>
ヤ ン
室 长</w>
腐 败</w>
プ リン
注 文</w>
先 进</w>
結 合</w>
c p</w>
海 道</w>
発 足</w>
答 案</w>
ド ライ
ネ ス</w>
ベ ル
で き
r f</w>
イタ リア</w>
硬 件</w>
讨 厌</w>
浮 か
依 然</w>
小 型</w>
表 达</w>
社 員</w>
i p
它 们</w>
交 给</w>
c c
会 话</w>
a l</w>
要 因</w>
执 政</w>
红 色</w>
单 独</w>
理 事
k t
格 式</w>
1 24</w>
工 具</w>
ジャ ン
相 似</w>
d s</w>
不 满</w>
9 4</w>
だ って</w>
中 旬</w>
建筑 物</w>
成 人</w>
金 メダル</w>
判 事</w>
记 忆</w>
増 える</w>
几 天</w>
いろ いろ</w>
黑 色</w>
有 着</w>
处 罚</w>
衛 星</w>
现 有</w>
值 得</w>
哲 学</w>
in g</w>
安 全
独 裁</w>
潜 在</w>
引き 上げ</w>
登 场</w>
意 味
市 长</w>
タイ トル</w>
標 準</w>
チョ ル</w>
タ ン
会 員</w>
知 り</w>
差 异</w>
コマ ンド</w>
屏 幕</w>
半 导体</w>
尽 快</w>
回 合</w>
下 跌</w>
ベ クトル</w>
資 格</w>
年 初</w>
8 8</w>
办 法</w>
カ ル
互 い</w>
行 か</w>
招 待</w>
澳 大
澳大 利亚</w>
ビ ジ
血 液</w>
k o
知 識</w>
意 外</w>
剧 场</w>
测 量</w>
联合 会</w>
多 种</w>
ロ ット</w>
ヘ ッ
营 业</w>
股 份</w>
b a</w>
袭 击</w>
リ ソース</w>
前 一天</w>
名 义</w>
エ リア</w>
汇 率</w>
出 色</w>
海 军</w>
敏 感</w>
国 内外</w>
ワ ー
方 便</w>
プロ ジェクト</w>
決 める</w>
发 射
ほ ぼ</w>
大 概</w>
ま る
厘 米</w>
d n
し み</w>
絶 対</w>
尺 寸</w>
知ら せ</w>
会 员</w>
信用 卡</w>
身 上</w>
闘 争</w>
发 达</w>
内 阁</w>
アニ メ</w>
接 下来</w>
天 空</w>
n h
国 外</w>
防 ぐ</w>
运 行</w>
つ く</w>
除 去</w>
著 名</w>
打 击</w>
トン ア</w>
推 迟</w>
以 说</w>
波 形</w>
可 以说</w>
明 治</w>
は い</w>
着 手</w>
s 9
く し</w>
西 班
目 指
冲 突</w>
农 业</w>
お く</w>
月 間</w>
合 适</w>
イ ル
春 天</w>
投 资
a p</w>
机 器</w>
向 き</w>
审 查</w>
高 める</w>
ホ ン</w>
s 2
当 事
集 体</w>
機 械</w>
李 某</w>
大 臣</w>
賃 金</w>
け れ
整 体</w>
変 える</w>
波 器</w>
平 壤</w>
死 ん</w>
知 れ</w>
城 南</w>
十 字</w>
乗り 出し</w>
院 長</w>
コー ダ</w>
意 図</w>
d e
40 2</w>
分 离</w>
構 築</w>
合 并</w>
飞 行</w>
ガ ー</w>
漂 亮</w>
本 文</w>
コント ローラ</w>
ス キャ
時 刻</w>
滤 波器</w>
4 10</w>
組 み</w>
代 码</w>
カ ン</w>
高 丽</w>
合 わ</w>
た び</w>
本 地</w>
温 暖</w>
果 たし</w>
总 经理</w>
導 体</w>
と っ</w>
決 議</w>
か け
家 属</w>
看 看</w>
緊 急</w>
カ 国</w>
手 紙</w>
约 翰</w>
天 気</w>
建 築</w>
引き 続き</w>
进 军</w>
汉 字</w>
ん で</w>
官 员</w>
署 名</w>
ヨル リン・
高 齢</w>
ヨルリン・ ウリ</w>
车 辆</w>
职 务</w>
およ そ</w>
ベ スト</w>
ma c</w>
審 査</w>
缓 冲
繰り 広げ</w>
人 工</w>
遇 到</w>
码 器</w>
資 産</w>
校 正</w>
に て</w>
观 察</w>
涉 及</w>
兵 役</w>
翻 訳</w>
あ い
确 实</w>
属 性</w>
主 催</w>
模 拟</w>
知 る</w>
哥 哥</w>
利 率</w>
討 論</w>
ま い</w>
账 户</w>
実 質</w>
始 まる</w>
働 く</w>
な ん</w>
和 解</w>
い で</w>
发 布</w>
教科 書</w>
変 わる</w>
如 上</w>
演 説</w>
号 码</w>
运 用</w>
游 泳</w>
き れい</w>
战 胜</w>
ール ド
地 下
かつ て</w>
爆 発</w>
这 本</w>
热 情</w>
向 か
に く
収 入</w>
i a</w>
チャ ンス</w>
测 试</w>
西班 牙</w>
与 野党</w>
ク ロック</w>
スペ イン</w>
拡 散</w>
在 线</w>
意 向</w>
カ ナ
激 しい</w>
北 海道</w>
缓冲 器</w>
此 前</w>
料 金</w>
纪 念
室 内</w>
债 务</w>
1 16</w>
緩 和</w>
很 高</w>
披 露</w>
証 拠</w>
不 満</w>
ところ が</w>
全 員</w>
皮 肤</w>
半 導体</w>
アルバ ム</w>
天 皇</w>
保 管</w>
前 往</w>
ティ ブ</w>
气 氛</w>
す ぎる</w>
两 次</w>
選 ん</w>
严 格</w>
止 まっ</w>
強 制</w>
普 及</w>
バ ンド</w>
選 定</w>
ウォ ン
出 场</w>
依 存</w>
スタ ン</w>
あま りに</w>
议 案</w>
更 に</w>
务 部</w>
s 3
比 重</w>
做 法</w>
就 職</w>
延 長</w>
教 会</w>
ウ ル
消 え</w>
ヒ ョ
害 者</w>
優 秀</w>
ング ・
读 出</w>
添 加</w>
ボ ー
摆 脱</w>
副 作用</w>
務 省</w>
い わ</w>
パ ソ
お き</w>
マ クロ</w>
スピ ード</w>
も らい</w>
20 5</w>
股 价</w>
分 量</w>
食 べ
i l
省 略</w>
応 援</w>
記 事</w>
ド ア</w>
まっ たく</w>
権 利</w>
パソ コン</w>
体 验</w>
地 上</w>
受 賞</w>
めぐ る</w>
继 承</w>
开 幕</w>
占 据</w>
时 报</w>
描 写</w>
元 気</w>
议 院</w>
自 宅</w>
定 义</w>
头 发</w>
8 7</w>
静 か</w>
ぱ い</w>
口 座</w>
协 助</w>
会 う</w>
マ ップ</w>
b b
やっ て
観 客</w>
選 ば</w>
d a
デ ン
日本 語</w>
全 羅
古 代</w>
交 換</w>
意味 着</w>
ちょ う
所 需</w>
疑 問</w>
推 出</w>
防 御</w>
進 ん</w>
是 以</w>
地 検</w>
高 等</w>
地 方
処 分</w>
自 杀</w>
空 中</w>
落 后</w>
差 し
路 线</w>
影 片</w>
分 かり</w>
除 い</w>
申 告</w>
ポ ール</w>
再 開</w>
间 隔</w>
诊 断</w>
物 質</w>
付 け加え</w>
済 州</w>
拉 致</w>
坐 在</w>
行 车</w>
解 消</w>
飛 び
视 为</w>
を通 して</w>
き っと</w>
書 き</w>
p c</w>
财 团</w>
まる で</w>
旁 边</w>
含 ん</w>
レ イ</w>
民 生</w>
季 节</w>
司 令
平 壌</w>
ジ オ</w>
暗 号</w>
支 持
定 め</w>
足 り</w>
笑 い</w>
開 示</w>
遭 到</w>
警 官</w>
ホーム ページ</w>
ノ ー
なか なか</w>
大 き</w>
朴智 星</w>
古 い</w>
識 別
識別 子</w>
去 世</w>
生 日</w>
次 期</w>
绿 色</w>
含 有</w>
开 発</w>
フ ラン
記 述</w>
もら う</w>
脂 肪</w>
周 囲</w>
ミ ス</w>
现 金</w>
乐 天</w>
ダ ム</w>
謝 罪</w>
普 段</w>
反 复</w>
ディ ー</w>
远 程</w>
同 社</w>
体 験</w>
ち に</w>
コンピュー ター</w>
高 考</w>
检察 官</w>
上 がる</w>
o e
掲 げ</w>
起こ っ</w>
インター フェース</w>
大 半</w>
搜 查</w>
緊 張</w>
常 に</w>
不得 不</w>
研 修</w>
李承 烨</w>
干 渉</w>
业 绩</w>
フ ト</w>
提 问</w>
切 れ</w>
づ い</w>
掲 載</w>
デ ン</w>
地 面</w>
周 末</w>
礼 物</w>
ハード ウェア</w>
ク ス
引 导</w>
1 80</w>
専 用</w>
农 民</w>
西 洋</w>
失 望</w>
それ から</w>
电 影
広 がっ</w>
高 め</w>
火 灾</w>
加 拿
楽 しい</w>
学 期</w>
尼 亚</w>
想 象</w>
后 面</w>
ライ ト</w>
新 型</w>
铃 木</w>
部 品</w>
房 子</w>
复 杂</w>
分 離</w>
ガ ラス</w>
要 性</w>
北 部</w>
ア ウ
複 合</w>
空 気</w>
b o
吃 饭</w>
一 同</w>
篮 球</w>
担 忧</w>
品 牌</w>
区 分</w>
保 証</w>
先 発</w>
不 可能</w>
滞 在</w>
こ の
侵 略</w>
ヵ 所</w>
へ ん</w>
き ち
椅 子</w>
ロ ール</w>
4 0%</w>
销售 额</w>
設 計</w>
ファ イ
自 行车</w>
理 论</w>
笑 っ</w>
物 价</w>
缺 乏</w>
小 泉</w>
主 力</w>
使 用
高 麗</w>
母 さん</w>
予 約</w>
ブ ロー
カナ ダ</w>
接 连</w>
後 半</w>
风 险</w>
視 聴</w>
閾 値</w>
マル チ
早 い</w>
コ ール</w>
a v
自 民党</w>
p 1</w>
広 場</w>
み な
而 言</w>
代表 团</w>
场 景</w>
賞 金</w>
捕 获</w>
球 迷</w>
强 制</w>
勤 務</w>
ボ ン
賛 成</w>
经 营
大韓 民国</w>
オ リ
加拿 大</w>
象 徴</w>
労 働
回 避</w>
きち んと</w>
便 宜</w>
味 道</w>
エン ジン</w>
爆 炸</w>
ピ ン</w>
等 等</w>
超 越</w>
ディ ング</w>
為 替</w>
结 论</w>
わ かり</w>
財 団</w>
是 不是</w>
高 まっ</w>
到 来</w>
爸 爸</w>
并 列</w>
呈 现</w>
読み 出し</w>
お 願い</w>
s c</w>
扩 展</w>
共和 党</w>
カ ラー</w>
達 し</w>
退 休</w>
警察 庁</w>
アン ダー</w>
論 文</w>
持 た</w>
ジ ル</w>
想 起</w>
収 集</w>
慶 尚
予 選</w>
プレ ゼ
流 程</w>
そう いう</w>
先 週</w>
世 宗</w>
黄 金</w>
对 不起</w>
一 周</w>
日 付</w>
ぶ ん</w>
進 歩</w>
nh k</w>
ナ ス</w>
辛 苦</w>
実 力</w>
モ ニ
小 学生</w>
迁 移</w>
法 務</w>
麻 烦</w>
直 前</w>
当 中</w>
延 期</w>
ゲ ート</w>
オー スト
該 当</w>
交 替</w>
天 然</w>
周 り</w>
端 口</w>
打 破</w>
チャン ネル</w>
保 留</w>
走 っ</w>
始 める</w>
we b</w>
货 币</w>
关 键</w>
コン サ
国 税</w>
高 句
正 规</w>
接收 器</w>
ト コ
拡 張</w>
い や</w>
言 える</w>
物 価</w>
降 り</w>
天 才</w>
団 地</w>
象 征</w>
供 应</w>
从 事</w>
よ ろ
诸 如</w>
変 わり</w>
シ ン・
障 碍</w>
忠 清</w>
199 5</w>
開 く</w>
异 常</w>
真 实</w>
建 て</w>
おか げ</w>
职 位</w>
情 绪</w>
メ ニュー</w>
ト ル
8 0%</w>
病 毒</w>
い た
運 用</w>
守 備</w>
決 して</w>
スタ イル</w>
予 備</w>
素 子</w>
ビジ ネス</w>
継 続</w>
ロッ テ</w>
冬 天</w>
学 習</w>
30 6</w>
照 明</w>
中 国
い たし</w>
カウ ント</w>
や ら</w>
拘 捕</w>
一 体</w>
永 远</w>
減 っ</w>
それ で</w>
20 13</w>
飛 行
欲 しい</w>
团 结</w>
预 约</w>
日 成</w>
ヨ ー
コ ピー</w>
限 ら</w>
收 发</w>
寄 せ</w>
非 洲</w>
阿 拉
9 3</w>
事 務所</w>
視 点</w>
ちょう ど</w>
探 索</w>
正 規</w>
対 決</w>
199 4</w>
博物 馆</w>
いっ ぱい</w>
キ シ
イラ ン</w>
ハ ン・
限 于</w>
神 経</w>
加 盟</w>
引 っ
指 责</w>
ロー カル</w>
空 气</w>
ば し</w>
西 亚</w>
然 として</w>
依 然として</w>
什 么样</w>
实 例</w>
做 好</w>
もっ とも</w>
咖 啡</w>
发 售</w>
診 断</w>
缩 小</w>
負 傷</w>
o s</w>
询 问</w>
プ サン</w>
登 山</w>
模 型</w>
利 润</w>
繰り 返し</w>
総 額</w>
现 状</w>
ミ ュー
ミュ ニ
自 体</w>
山 田</w>
用 いる</w>
ー ・
帽 子</w>
债 券</w>
キョンギ ド・
s n
通 讯</w>
国 務</w>
认 可</w>
开 展</w>
线 路</w>
基 礎</w>
ジ ェ</w>
支 給</w>
s i</w>
作 り
本 报</w>
夫 妇</w>
コ ミュニ
睡 觉</w>
メ イン</w>
せ ん</w>
ミ リ</w>
パ ターン</w>
毫 无</w>
2 40</w>
污 染</w>
コー チ</w>
暴 露</w>
如 今</w>
a t</w>
接 到</w>
広 い</w>
视 点</w>
証 明</w>
数 值</w>
大 陆</w>
免 费</w>
抵 达</w>
越 し</w>
ム ン</w>
ワ ールド
好 吃</w>
边 界</w>
概 略</w>
引 入</w>
强 化</w>
园 区</w>
ット ボール</w>
オ ブ
所 在</w>
打 电话</w>
ユ ン・
那 种</w>
伙 伴</w>
q i</w>
回 り</w>
请 你</w>
減 らす</w>
指 揮</w>
ス カ
3 d</w>
1 25</w>
事 先</w>
n o</w>
创 建</w>
199 6</w>
顧 客</w>
消 し</w>
适 应</w>
物 品</w>
動 員</w>
チェ ック</w>
30 1</w>
畿 道</w>
能 否</w>
進 める</w>
京 畿道</w>
ト ゥ
西 海</w>
联 网</w>
分 数</w>
原 本</w>
ハ ウス</w>
餐 厅</w>
审 议</w>
生 涯</w>
7 0%</w>
亮 度</w>
书 馆</w>
チャ ー</w>
お 互い</w>
上 手</w>
成 本</w>
兵 力</w>
本 次</w>
长 的</w>
失 業</w>
ボ ン</w>
事 态</w>
フォーマ ット</w>
难 道</w>
观 光</w>
カ ウン
共 享</w>
目 的
超 级</w>
付 加</w>
面 积</w>
谴 责</w>
き っ
自 由
原 作</w>
次 数</w>
ブラ ジル</w>
踏 み
ポ スト</w>
抱 歉</w>
ロン ドン</w>
ホ ワイ
廃 棄</w>
ダ ウン</w>
消 防</w>
コー ヒ
ユ ・
検 察
プロ トコ
迎 接</w>
民主 化</w>
40 4</w>
每 次</w>
日 期</w>
強 力</w>
太 阳</w>
警察 厅</w>
就 要</w>
待 遇</w>
食べ 物</w>
が ん</w>
判 別</w>
输 送</w>
豊 か</w>
平 衡</w>
损 害</w>
ヵ 国</w>
大使 馆</w>
テ ク
児 童</w>
スト ー
此 后</w>
回 去</w>
例 外</w>
上 班</w>
惊 讶</w>
ポー ネ
oe cd</w>
サ ポート</w>
公 路</w>
買 収</w>
瞬 間</w>
多 次</w>
为 由</w>
绑 架</w>
多 人</w>
コーヒ ー</w>
标 记</w>
身 边</w>
根 拠</w>
あら ゆる</w>
防 守</w>
聞 く</w>
动 摇</w>
大 法院</w>
パ ルス</w>
経 路</w>
亲 自</w>
皇 帝</w>
应 当</w>
融 資</w>
幅 度</w>
分 布</w>
モ ー
短 い</w>
ギ ャ
活 力</w>
ト ・
ce o</w>
槿 恵</w>
を めぐ
をめぐ って</w>
菜 单</w>
目的 地</w>
持 続</w>
决 心</w>
コン ポーネ
担 保</w>
呼 ぶ</w>
返 す</w>
公 職</w>
グ ン</w>
いただ き</w>
連 れ</w>
广 泛</w>
コンポーネ ント</w>
オ フ</w>
专 用</w>
ヒョン デ</w>
之 所以</w>
真 実</w>
セッ ション</w>
間 隔</w>
愉 快</w>
医 師</w>
地下 鉄</w>
た っ
s c
u i</w>
収 益</w>
动 力</w>
o k</w>
朝 野</w>
评 估</w>
生 じ</w>
成 熟</w>
回 忆</w>
コ スト</w>
不 可
ro m</w>
19 80</w>
夫 婦</w>
评 论</w>
ゅ う</w>
取り 上げ</w>
見 解</w>
互 联网</w>
く に</w>
嬉 しい</w>
マ ー</w>
まさ に</w>
バ ン</w>
セン チ</w>
取 ら</w>
あ あ</w>
粮 食</w>
是 的</w>
か え
地 铁</w>
垃 圾</w>
圧 力</w>
y es</w>
カ 月</w>
姿 态</w>
饮 食</w>
事 务所</w>
バ スケ
本 当</w>
労 使</w>
た かっ</w>
不 利</w>
エ リ
20 14</w>
赞 成</w>
書 類</w>
劳动 党</w>
o b</w>
電 圧</w>
大 学院</w>
ク シー</w>
e e
わ れ
言 论</w>
开 赛</w>
捜 索</w>
重 建</w>
よ う
上 行</w>
退 出</w>
总 长</w>
総 会</w>
玻 璃</w>
残 る</w>
支 え</w>
统 合</w>
バ ランス</w>
マ ネ
同 胞</w>
ス コ</w>
転 換</w>
縮 小</w>
損 失</w>
寿 命</w>
両 方</w>
カ リ
有 限</w>
ル ド</w>
売 却</w>
构 造</w>
干 扰</w>
ベ ト
飛行 機</w>
多 重</w>
戻 る</w>
と り</w>
秘书 官</w>
交 通
い れ</w>
住 む</w>
われ われ</w>
お 母さん</w>
ラ ー
核 兵器</w>
こ え</w>
为 此</w>
实 上</w>
事 实上</w>
总 部</w>
差 別</w>
複 雑</w>
伝 える</w>
ジ ー</w>
内 心</w>
c n
合 法</w>
解 雇</w>
dp b</w>
リ セット</w>
プロトコ ル</w>
ト ー
金 妍</w>
脉 冲</w>
独 岛</w>
女 の子</w>
乃 至</w>
p c
公 安</w>
登 上</w>
a g
选 定</w>
通 っ</w>
画 家</w>
座 っ</w>
単 独</w>
フォ ル
q p</w>
离 婚</w>
用 途</w>
ウェ ー
義 務</w>
转 变</w>
物 体</w>
女 子
调 査</w>
セキュ リティ</w>
車 両</w>
家 长</w>
赔 偿</w>
信 赖</w>
1 a</w>
ダ ン</w>
な ら
し ん</w>
有 し</w>
保 证</w>
それ でも</w>
a m</w>
s bs</w>
諸 国</w>
更 好</w>
予 防</w>
分 譲</w>
休 假</w>
誘 致</w>
占 める</w>
伊 朗</w>
森 林</w>
ベト ナム</w>
轻 松</w>
レー ション</w>
战 斗
ス ポ
洛 杉
a d</w>
得 分</w>
切 断</w>
第 四</w>
待 ち</w>
真 っ
摄 像
差 分</w>
前 任</w>
偶 然</w>
中 毒</w>
ra m</w>
2 30</w>
排 列</w>
下 调</w>
c qi</w>
5 02</w>
这 部</w>
ク タ</w>
朝 鮮
押 し</w>
審 議</w>
衝 突</w>
尊 敬</w>
制 造
伦 敦</w>
饰 演</w>
笑 容</w>
洛杉 矶</w>
投资 者</w>
ヤ ー</w>
限 界</w>
冷 静</w>
说 是</w>
バスケ ットボール</w>
风 景</w>
起こ す</w>
互 いに</w>
しか も</w>
电 压</w>
ラン ダ</w>
引 用</w>
定 義</w>
ぼ く</w>
負 け</w>
拍 手</w>
业 者</w>
悪 く</w>
流 し</w>
透 镜</w>
风 格</w>
無 視</w>
流 感</w>
大使 館</w>
じ ゃ
解 散</w>
ア ン・
会 见</w>
ミ ン
にく い</w>
追 跡</w>
面 向</w>
急 剧</w>
言 語</w>
休 暇</w>
ウ イ
g ps</w>
借 り</w>
既 存</w>
手 法</w>
急 速</w>
5 10</w>
1. 5</w>
融 合</w>
分 散</w>
10 0%</w>
無 理</w>
此 时</w>
播 出</w>
地 図</w>
快 速</w>
帰 り</w>
ph y</w>
展 现</w>
始 まり</w>
不 行</w>
浮 上</w>
刷 新</w>
用 品</w>
校 生</w>
朴 赞
黄 色</w>
ミュー ジ
キャ リア</w>
感 覚</w>
单 纯</w>
球 手</w>
助 理</w>
分 かる</w>
国 境</w>
货 物</w>
統 制</w>
建 国</w>
上 调</w>
と る</w>
戻 し</w>
动 员</w>
很 快</w>
受 害者</w>
预 防</w>
过 于</w>
税 率</w>
向か う</w>
貨 物</w>
や く</w>
伟 大</w>
金 正
国 旗</w>
总 会</w>
ス キー</w>
過ご し</w>
照 顾</w>
6 0%</w>
后 来</w>
た っ</w>
韩国 队</w>
説 得</w>
祈 祷</w>
调 节</w>
标 题</w>
感 动</w>
細 書</w>
モ ン</w>
经济 部</w>
広 く</w>
她 们</w>
本 明</w>
会 計</w>
多 年</w>
そ ば</w>
最高 裁</w>
承 認</w>
心 里</w>
学 位</w>
キャ スト</w>
西 部</w>
復 調</w>
野 菜</w>
模 様</w>
頑 張
释 放</w>
俳 優</w>
ッ ズ</w>
阳 子</w>
達 する</w>
込 め</w>
当 作</w>
ra m
ト ロ
読 む</w>
法 务部</w>
优 势</w>
进 展</w>
か わ
カ バー</w>
10 7</w>
撤 回</w>
动 向</w>
ア ル</w>
農 業</w>
思 议</w>
イン チョン</w>
未 満</w>
亡 く
ク ル</w>
か ら
樱 花</w>
秋 天</w>
読 み</w>
戦 い</w>
素 晴
入 国</w>
1 21</w>
上 下</w>
巴 西</w>
之 类</w>
4 a</w>
言 論</w>
8 9</w>
厳 しく</w>
t o</w>
救 助</w>
记 载</w>
行な わ</w>
浪 费</w>
劳 总</w>
姐 姐</w>
主 流</w>
1 200</w>
阳 光</w>
望 む</w>
疑 问</w>
桌 子</w>
増や す</w>
ス チ
外交 部</w>
代表 队</w>
感 受</w>
ワールド カップ</w>
生 产
几 年</w>
先 端</w>
1 70</w>
役 員</w>
下 达</w>
第二 天</w>
内 定</w>
あ げる</w>
a f</w>
増や し</w>
收 取</w>
绍 介</w>
ラン ク</w>
崩 壊</w>
行 方</w>
付 き
1 18</w>
筹 集</w>
就 算</w>
再 度</w>
记 得</w>
推 测</w>
u e
歓 迎</w>
交 往</w>
ッ ション</w>
王 子</w>
农 村</w>
支 部</w>
及ぼ す</w>
动 态</w>
击 球手</w>
之 际</w>
国 税
付 き</w>
や っと</w>
推 薦</w>
擅 长</w>
夏 季</w>
育 て</w>
杀 害</w>
ニ ス</w>
利 息</w>
2 12</w>
10 .
随 后</w>
等 級</w>
强 度</w>
点 数</w>
急 増</w>
代表 性</w>
履 歴</w>
关 闭</w>
寄 付</w>
ビ ー
ま す
フ ロ
大 脑</w>
核 试验</w>
数据 库</w>
き ら
プレ ー
理 学</w>
韩 美军</w>
贝 尔</w>
灾 害</w>
ただ し</w>
频 带</w>
过 分</w>
トラ ック</w>
感 謝</w>
工 人</w>
キム・ デ
いか なる</w>
ぱ り</w>
杀 人</w>
拿 出</w>
下 行</w>
スー パー</w>
熙 燮</w>
長 く</w>
法 庭</w>
业 生</w>
キャ ラ
追 悼</w>
シュ ート</w>
採 択</w>
初 始</w>
伤 害</w>
オ ・
表 し</w>
内 需</w>
チ ップ</w>
购 物</w>
結 論</w>
位 相</w>
スト レス</w>
中 生</w>
もう 一度</w>
弹 劾</w>
放 棄</w>
建 造</w>
両 親</w>
ル エン
整 形</w>
原 子</w>
もた らし</w>
快 门</w>
フィ リ
f 1</w>
故 郷</w>
大 米</w>
ジ ャ</w>
案 内</w>
表 决</w>
葛 藤</w>
気 分</w>
弟 弟</w>
北 方</w>
組み 合わせ</w>
座 標</w>
厅 长</w>
一 带</w>
年 薪</w>
越 南</w>
締 結</w>
聞 き</w>
実 装</w>
遅 く</w>
街 道</w>
承 担</w>
ブ レ
分 类</w>
l t
公 开赛</w>
メ ン</w>
ゴ ン</w>
3 20</w>
脱 离</w>
レ スト
す る
股 东</w>
体育 场</w>
現 金</w>
停 留</w>
捨 て</w>
権 限</w>
朴赞 浩</w>
数 値</w>
投 げ</w>
球 団</w>
歴 代</w>
交 代</w>
ト ナー</w>
m m</w>
c ec</w>
预 先</w>
耦 合</w>
ス ライ
売 り</w>
痛 み</w>
く は</w>
分 之</w>
ス ター
协 调</w>
ゆ っくり</w>
特 許</w>
株 主</w>
合 計</w>
s u
3 50</w>
金 钱</w>
オ フ
たい へん</w>
事 项</w>
高 官</w>
上 半年</w>
上 半期</w>
庶 民</w>
切 る</w>
ウェ イ</w>
インフ ルエン
证 会</w>
士 兵</w>
听 证会</w>
船 舶</w>
ソ ・
付 い</w>
言 及</w>
便 利</w>
害 怕</w>
女 王</w>
对 决</w>
下 周</w>
最 大
キョン サン
l cd</w>
走 る</w>
祭 り</w>
基 本
インフルエン ザ</w>
描 绘</w>
共 和</w>
イ ー
盗 聴</w>
摄像 机</w>
小さ く</w>
直 ちに</w>
明 け</w>
光 源</w>
专 辑</w>
お い
ます ます</w>
解 析</w>
海 軍</w>
路 上</w>
ダ ンス</w>
さ せ</w>
大 衆</w>
出 台</w>
g b</w>
迎 える</w>
定 性</w>
タ ル
やり 方</w>
労働 党</w>
一 只</w>
修 理</w>
決 まっ</w>
内 閣</w>
5 0
就 职</w>
放 置</w>
年 来</w>
出 来る</w>
データ ベース</w>
その もの</w>
f a</w>
进 攻</w>
得 出</w>
动 机</w>
プリ ント</w>
だ れ</w>
検察 庁</w>
半 场</w>
工 作
巻 き
上 る</w>
飲 み</w>
実 務</w>
不 见</w>
朝 日</w>
こ んなに</w>
复 用</w>
低 く</w>
配 合</w>
変 わら</w>
ル ール</w>
中 立</w>
9 000</w>
ティ ア</w>
气 温</w>
弾 劾</w>
编 辑</w>
正 是</w>
のぼ る</w>
投 球</w>
予 め</w>
パ ワー</w>
食 堂</w>
順 位</w>
た ん</w>
地 元</w>
i a
有 望</w>
悲 伤</w>
側 近</w>
お ら</w>
忙 しい</w>
事 項</w>
国税 庁</w>
ラ ジオ</w>
連 邦</w>
喜 び</w>
不 用</w>
確 立</w>
今 季</w>
ひと り</w>
上 周</w>
苹 果</w>
スタ ン
s 1</w>
氛 围</w>
2 2
13 4</w>
着 い</w>
逆 転</w>
i v
武 力</w>
并 非</w>
実 践</w>
し ながら</w>
1 26</w>
论 坛</w>
20 15</w>
学 年</w>
条 款</w>
下 雨</w>
随 时</w>
突 き
含 み</w>
勝 負</w>
资 源
訴 え</w>
开 设</w>
全 身</w>
当 日</w>
ロッ パ</w>
友 情</w>
加 油</w>
庆 典</w>
女 孩</w>
製 作</w>
改 编</w>
売 上</w>
ヘッ ダ</w>
呼 吁</w>
きっ かけ</w>
選 抜</w>
臨 時</w>
申し 訳</w>
場 面</w>
ar q</w>
単 一</w>
以 为</w>
u t
進 行</w>
停 滞</w>
自 殺</w>
面 试</w>
バイ ト</w>
大 厦</w>
不 错</w>
正 月</w>
大 众</w>
传 递</w>
しか しながら</w>
景 色</w>
分 为</w>
サ ブ
貢 献</w>
巴 士</w>
刊 登</w>
論 争</w>
一 郎</w>
交 易
輝 度</w>
啤 酒</w>
ヨー ロッパ</w>
40 6</w>
半 数</w>
パ リ</w>
尸 体</w>
対 処</w>
强 行</w>
走 査</w>
グ ン
さ っ
荷 兰</w>
理 会</w>
フォ ーム</w>
电 池</w>
对 外</w>
夏 休み</w>
一 张</w>
終 わり</w>
相 対</w>
補 助</w>
公 認</w>
复 合</w>
伸 び</w>
か かり</w>
g m</w>
统 治</w>
1 15</w>
小 鸟</w>
リ モ
10 9</w>
总 额</w>
同 士</w>
主 任</w>
ワ ン</w>
基づ く</w>
不 够</w>
優 れ</w>
像 是</w>
蔬 菜</w>
会 合</w>
直 面</w>
シン ガ
キャン プ</w>
窃 听</w>
沿 っ</w>
に かけ
にかけ て</w>
每 月</w>
备 受</w>
印 机</w>
医 者</w>
ひ と</w>
ガ ン
や や</w>
泰 国</w>
打 者</w>
看 来</w>
烦 恼</w>
改 造</w>
资源 部</w>
相 談</w>
抜 け</w>
前 辈</w>
列 车</w>
公 約</w>
下 月</w>
オ ランダ</w>
話 題</w>
特 有</w>
e n</w>
以 便</w>
说 道</w>
勝 ち</w>
命 运</w>
大 丈夫</w>
傘 下</w>
よ かっ</w>
研究 员</w>
脸 上</w>
ち ゃ</w>
列 車</w>
ショ ー</w>
陽 子</w>
が 国</w>
出 せ</w>
イ ス</w>
风 波</w>
f if
近 年</w>
破 产</w>
海 域</w>
伊 斯
継 ぎ</w>
电 站</w>
趣 味</w>
ま ず
いつ か</w>
兵 士</w>
見 つけ</w>
d o
脅 威</w>
終 わる</w>
本 体</w>
数 码</w>
创 作</w>
もた らす</w>
u t</w>
其 是</w>
来 週</w>
实 在</w>
尤 其是</w>
雇 佣</w>
送 ら</w>
行 け</w>
获 胜</w>
小 姐</w>
邮 政</w>
坐 标</w>
较 高</w>
死 刑</w>
懸 案</w>
ま れ</w>
ファ ンド</w>
駆 け
毕 业生</w>
寄 り</w>
边 缘</w>
响 力</w>
施 加</w>
巴 黎</w>
反 驳</w>
前 后</w>
レスト ラン</w>
コ ム</w>
窗 口</w>
陣 営</w>
要 是</w>
强 大</w>
ク ション</w>
is t</w>
安 倍</w>
件 数</w>
ァ ン</w>
そ ろ
神 经</w>
曝 光</w>
感 受到</w>
ど おり</w>
a v</w>
稍 微</w>
秘 書</w>
欲 望</w>
発 揮</w>
の 中</w>
ナ ン
減 らし</w>
官 僚</w>
中 继</w>
h o
温 柔</w>
イス ラ
深 夜</w>
慢 慢</w>
写 入</w>
ビ ール</w>
ま ら</w>
受け 入れる</w>
父 さん</w>
レン ジ</w>
リー ダー</w>
辞 任</w>
入 試</w>
回 复</w>
赤 い</w>
规 制</w>
微 笑</w>
キャラ クター</w>
キム・デ ジュン</w>
そ く</w>
济 州</w>
速 率</w>
智 能</w>
打 ち</w>
安 静</w>
入 口</w>
触 摸</w>
点 评</w>
職 場</w>
暑 假</w>
劳 资</w>
会 场</w>
人 的</w>
ボ ラン
ピ ア
落と し</w>
参 观</w>
債 権</w>
条 約</w>
同 僚</w>
故 乡</w>
三星 電子</w>
近 代</w>
指 挥</w>
别 的</w>
シャ ッター</w>
运 输</w>
暴 行</w>
バ ラ
l e</w>
育 成</w>
人 体</w>
出 馬</w>
ビ ン</w>
dn a</w>
現 行</w>
侵 犯</w>
下 载</w>
气 候</w>
う れ
r s</w>
愿 意</w>
は や</w>
首 发</w>
素晴 らしい</w>
协 力</w>
本 社</w>
性 质</w>
健 全</w>
嫌 疑
仲 裁</w>
主 角</w>
メ ジャー</w>
敦 促</w>
ジョ ブ</w>
書 か</w>
拿 到</w>
不 仅仅</w>
1 13</w>
一 言</w>
之 内</w>
デ パート</w>
a 1</w>
色 彩</w>
用 紙</w>
ソフ ト</w>
镜 头</w>
图 书馆</w>
噪 声</w>
依 次</w>
反 面</w>
令 状</w>
为 主</w>
面 接</w>
重 ね</w>
配 信</w>
无 视</w>
固 体</w>
同 学</w>
平 方
美 容</w>
ボラン ティア</w>
課 長</w>
服 用</w>
不 再</w>
タイム ズ</w>
遊 び</w>
四 个</w>
亚 运会</w>
防 衛</w>
立 てる</w>
东 北</w>
嫌 い</w>
取り 組
牺 牲</w>
比 亚</w>
新 加
进 球</w>
美 術</w>
眼 泪</w>
ー ド
网 球</w>
管 制</w>
新加 坡</w>
政 局</w>
リア ル</w>
效 力</w>
順 序</w>
前 方</w>
贿 赂</w>
多 么</w>
博物 館</w>
ウィ ン
愤 怒</w>
墓 地</w>
オースト ラ
u n</w>
申 报</w>
开 城</w>
1 27</w>
总 线</w>
亲 信</w>
ダ ウン
外 面</w>
ギ ュ</w>
西 方</w>
編 集</w>
加 密</w>
kt f</w>
翌 日</w>
ノ イズ</w>
阿拉 伯</w>
道 理</w>
分 類</w>
m v
k t</w>
电 源</w>
映 射</w>
尝 试</w>
1 23</w>
審 判</w>
軽 く</w>
スト ライ
中 学校</w>
孤 独</w>
d i</w>
下 がっ</w>
1 32</w>
飲 ん</w>
気 温</w>
ナム ド・
那 天</w>
浦 项</w>
供 述</w>
会 计</w>
つなが る</w>
外 出</w>
だ し</w>
艺 术
や め</w>
数据 包</w>
寿 司</w>
o n</w>
専 门</w>
女 士</w>
な さ</w>
違 法</w>
更 换</w>
大 多数</w>
刚 才</w>
现 行</w>
ホ ン
間 違い</w>
空 白</w>
生 じる</w>
退 職</w>
オブ ジェクト</w>
p d</w>
チ ェ</w>
ス パ
而 已</w>
ね る</w>
読み 取り</w>
容 器</w>
花 费</w>
ケ ート</w>
定 着</w>
わ かる</w>
行な う</w>
网 页</w>
間 違っ</w>
自 転
観 察</w>
補 佐</w>
自転 車</w>
激 しく</w>
渡 っ</w>
階 層</w>
抗 議</w>
あ たし</w>
墨 西
物 流</w>
移 植</w>
死 者</w>
後 援</w>
ジョン イル</w>
オーストラ リア</w>
m d</w>
基 盤</w>
隐 藏</w>
财 务</w>
机 器
招 聘</w>
不 久</w>
打 印机</w>
前 景</w>
裁判 官</w>
現 れ</w>
高 級</w>
職 業</w>
暗 示</w>
衝 撃</w>
下 位</w>
一 条</w>
渡 さ</w>
水 原</w>
オ ペ
娱 乐</w>
如 下</w>
シ ル
分 辨
こ と
新 規</w>
b 48</w>
行 列</w>
征 收</w>
富 士</w>
付 近</w>
世 の中</w>
シンガ ポール</w>
故 意</w>
d c</w>
虽 说</w>
原 始</w>
分辨 率</w>
那 时</w>
スタ ッ
すご く</w>
狙 っ</w>
s s</w>
领 土</w>
上 市</w>
所 说</w>
人 類</w>
放 射
大 好き</w>
0 0
黑 暗</w>
演 算</w>
ア リ
p e
t p</w>
自 律</w>
粉 丝</w>
握 手</w>
字 段</w>
分 解</w>
メ キシ
美 术</w>
総 理</w>
是 非</w>
有 的</w>
は じ
年 间</w>
级 别</w>
文 献</w>
30 8</w>
高 中生</w>
学 界</w>
加 算</w>
か さ</w>
m e
選 ぶ</w>
引 い</w>
シ ク</w>
けれ ど</w>
隠 し</w>
プレゼ ント</w>
1 31</w>
青 春</w>
免 除</w>
合わ せる</w>
本 国</w>
选 赛</w>
行 き
火 災</w>
中 东</w>
召 喚</w>
が い</w>
等 于</w>
带 宽</w>
预 选赛</w>
遭 受</w>
確 実</w>
驾 驶</w>
法 的</w>
外 相</w>
mf p
1 28</w>
平 面</w>
人 中</w>
9 0%</w>
飛 行</w>
c j</w>
油 价</w>
個 別</w>
ス キ
手 順</w>
不 振</w>
ロ ビー</w>
安 理会</w>
テ ク</w>
年 俸</w>
ろ う
考え 方</w>
大 门</w>
2 5
完 美</w>
个 性</w>
ワ ン
选 举
望 ん</w>
ニ ック</w>
中 区</w>
过 度</w>
贩 売</w>
为 期</w>
たと え</w>
t 1</w>
原子 力</w>
指 名</w>
否 认</w>
呼 叫</w>
交 涉</w>
选 出</w>
掛 け</w>
度 目</w>
体 现</w>
著 者</w>
ロ ボ
テキ スト</w>
なん と</w>
開 城</w>
気 候</w>
很 少</w>
スタッ フ</w>
シ ナ
ク ー
装 饰</w>
纷 纷</w>
引 退</w>
复 位</w>
体 内</w>
简 称</w>
不 多</w>
ボ ード</w>
牛 病</w>
学 ぶ</w>
変 動</w>
传 播</w>
先 立ち</w>
聴 聞</w>
太 陽</w>
利 害</w>
除 く</w>
チャンピ オン</w>
大 楼</w>
做 到</w>
t 2</w>
机器 人</w>
時 計</w>
っ しゃ
返 事</w>
テ ニス</w>
それ ほど</w>
す ば
co m</w>
条 項</w>
ダ ン
mo s</w>
现 任</w>
夫 妻</w>
变 焦</w>
两 天</w>
1 1.
苦 労</w>
至 る</w>
スピ ー
ジュ ン
グ リーン</w>
政治 家</w>
妹 妹</w>
解 像
関 連
起こ る</w>
流 入</w>
明る い</w>
彼 此</w>
专 利</w>
チョ ル
つ いに</w>
ウイ ルス</w>
も はや</w>
買 い</w>
振り 返
平 安</w>
コ メント</w>
え ず</w>
将 军</w>
メキシ コ</w>
论 是</w>
下 属</w>
通 算</w>
解像 度</w>
报 导</w>
击 败</w>
クリ スマ
i r
d a</w>
隣 接</w>
区 間</w>
通 商
通商 部</w>
小 心</w>
基づ き</w>
b e
農 民</w>
统 一部</w>
下 次</w>
4 20</w>
認 める</w>
失 误</w>
主 教</w>
シ ・
つ か</w>
帰 る</w>
富 士
公 职</w>
スケ ジュール</w>
教 員</w>
一 面</w>
花 子</w>
ケー ブル</w>
199 2</w>
降 っ</w>
自 動</w>
富 裕</w>
前 半</w>
か しい</w>
あ わ
k g</w>
消 化</w>
設 備</w>
持 有</w>
ア タ
s 6
遂 げ</w>
赋 予</w>
突 出</w>
依 赖</w>
じ く</w>
予 以</w>
普 遍</w>
t x</w>
韩国 和</w>
部 材</w>
笑 声</w>
開 け</w>
用 作</w>
影 响力</w>
ム ン
仕 方</w>
事 物</w>
中 部</w>
ティ ティ</w>
三星 队</w>
罚 款</w>
小 区</w>
加 速</w>
优 选</w>
不 如</w>
走 向</w>
ロー ン</w>
p p
著 作</w>
高 校生</w>
調 べる</w>
受け 取る</w>
欧 盟</w>
同 年</w>
m hz</w>
水 面</w>
冲 击</w>
ガ イド</w>
条 约</w>
荷 物</w>
聚 会</w>
主 持</w>
清 算</w>
s l
奥 林
出 入</w>
人 文</w>
く ん</w>
匹 配</w>
やす く</w>
40 1</w>
創 出</w>
する と</w>
替 换</w>
州 市</w>
抑 え</w>
南 方</w>
婴 儿</w>
支持 率</w>
振 る
一 事</w>
先 頭</w>
u m
起 用</w>
不 当</w>
共 同
乘 客</w>
スト ン</w>
摘 発</w>
コ リ
もし くは</w>
楽し む</w>
だ め</w>
凭 借</w>
凌 晨</w>
ト イ
心 臓</w>
原 文</w>
専 攻</w>
通 话</w>
伊斯 兰</w>
る か</w>
ま せん</w>
a y
ミ ョン</w>
コ リア</w>
アン ケート</w>
假 设</w>
2. 5</w>
造 船</w>
眼 前</w>
时 段</w>
打 点</w>
失 分</w>
地 理</w>
道 具</w>
身 高</w>
阵 营</w>
眼 镜</w>
ジ ー
どう いう</w>
两 位</w>
队 长</w>
腐 敗</w>
国务 院</w>
司 机</w>
13 .
済 み</w>
そ んなに</w>
試 み</w>
佐 藤</w>
19 70</w>
顾 问</w>
试 験</w>
レ ース</w>
ろ し</w>
肌 肉</w>
次 いで</w>
框 架</w>
台 风</w>
平 成</w>
ッ ピング</w>
朴 世
替 代</w>
兴 奋</w>
今 週</w>
歩 く</w>
联 邦</w>
支払 い</w>
实 践</w>
リ スク</w>
ソ ー
も ん</w>
贫 困</w>
舞 蹈</w>
ファ ー
アウ ト</w>
救 援</w>
学 ん</w>
各 界</w>
発 電</w>
ね え</w>
2 5%</w>
エ レ
アナ ログ</w>
营 养</w>
打 撃</w>
懇 談</w>
回 し</w>
迷 惑</w>
加 重</w>
気 に
剩 余</w>
スイ ス</w>
オー ディ
视 线</w>
演 说</w>
初 中</w>
インタ フェース</w>
巡 る</w>
一 片</w>
百 货</w>
消 耗</w>
江 户</w>
夺 得</w>
m s
移 行</w>
海 水</w>
约 定</w>
どう ぞ</w>
基 因</w>
出 来
铁 道</w>
紛 争</w>
偿 还</w>
講 義</w>
種 目</w>
le d</w>
触 れ</w>
カ ッ
カ ス</w>
通 报</w>
取り 引き</w>
ファ ン・
バ ル
面 白い</w>
陆 军</w>
演 じ</w>
観 測</w>
覆 盖</w>
当事 者</w>
某 氏</w>
タ クシー</w>
ょ う
か ん</w>
イン ド
興 味</w>
口 号</w>
フォー ラム</w>
i e</w>
各 位</w>
余 地</w>
ak b48</w>
彩 色</w>
ほ ん
k a
览 会</w>
装 備</w>
大 战</w>
道 德</w>
送 到</w>
肚 子</w>
抜 い</w>
役 所</w>
寻 求</w>
入 り
か せ</w>
ハ ッ
回 数</w>
中 央
199 3</w>
振 り</w>
代 价</w>
下 げる</w>
邮 便</w>
当 たる</w>
果た して</w>
戻 り</w>
プ ト</w>
前 天</w>
セ リ</w>
精 密</w>
爆 弾</w>
ストー リー</w>
io c</w>
语 音</w>
パ ス
み な</w>
シン グル</w>
强 硬</w>
争 い</w>
ラ リー</w>
もら え</w>
沉 默</w>
妥 协</w>
测 器</w>
放 大</w>
癌 症</w>
弱 い</w>
东 京都</w>
も なく</w>
拜 托</w>
心 中</w>
守 り</w>
到 处</w>
物 語</w>
2 500</w>
这 时</w>
中 東</w>
治 安</w>
挨 拶</w>
電 源</w>
金 炳
i b
解 码器</w>
看 见</w>
直 交</w>
通 信
条 例</w>
全 般</w>
矩 阵</w>
太 多</w>
ブロー ド
2 4
適 応</w>
大 声</w>
各 々</w>
ム ン・
8 0
中 学生</w>
秘 书</w>
每 周</w>
一 帯</w>
湖 南</w>
浓 度</w>
シー バ</w>
ショ ット</w>
信 念</w>
任 務</w>
鍾 路</w>
谈 话</w>
左 側</w>
在 意</w>
失 点</w>
タ バ
墨西 哥</w>
閣 僚</w>
联 络</w>
商 人</w>
告 白</w>
厉 害</w>
附 图</w>
团 长</w>
右 手</w>
提 到</w>
ホワイ ト
ひど い</w>
ac t
说 服</w>
f l
照 射</w>
文 本</w>
午 后</w>
打 っ</w>
大 地</w>
レ ッ
无 关</w>
書 く</w>
手 伝
不 便</w>
鼓 励</w>
缓 解</w>
人 和</w>
バ イ</w>
ま あ</w>
演 唱
押 下</w>
入 手</w>
ジャ ー
較 的</w>
比 較的</w>
喜 ん</w>
ク レジ
す み
パイ ロット</w>
c g</w>
は るか</w>
収 め</w>
起 動</w>
え え</w>
h t
fif a</w>
d d</w>
住 所</w>
ファ ン
同 じく</w>
ロボ ット</w>
ピョン ヤン</w>
起 亚</w>
残 酷</w>
机 械</w>
値 段</w>
グ ラン
う ん</w>
確 か</w>
放 大
s t</w>
a c</w>
解 体</w>
科 学家</w>
候 选</w>
世界 中</w>
ワ ールド</w>
w .
im f</w>
研究 生</w>
b o</w>
本 书</w>
原 料</w>
n ll</w>
越 える</w>
抱 え</w>
シ ャ</w>
下 り</w>
放 射</w>
人 道</w>
在 所</w>
ファ ッション</w>
布 置</w>
ら ん</w>
お 父さん</w>
药 物</w>
通 用</w>
奥林 匹
ル ト
こう いう</w>
名 古
ギリ ス</w>
3 30</w>
火 山</w>
字 幕</w>
っ ち</w>
投 機</w>
队 伍</w>
身 分</w>
艰 难</w>
天 安</w>
s 5
网 民</w>
解 调</w>
蓝 色</w>
感 想</w>
単 純</w>
峨 山</w>
示 意</w>
幻 想</w>
积 累</w>
書き 込み</w>
上 院</w>
注 入</w>
ウ エ
過 度</w>
直 す</w>
日 曜日</w>
平 民</w>
读 者</w>
公 约</w>
会 面</w>
偏 移</w>
胜 负</w>
化 粧</w>
ww w.
版 本</w>
対 外</w>
描 く</w>
リ オ</w>
あ たる</w>
上 回る</w>
维 护</w>
出 局</w>
对 待</w>
実 績</w>
も と
演唱 会</w>
20 7</w>
函 数</w>
イ ギリス</w>
し ても</w>
債 務</w>
図 面</w>
ヒ ット</w>
喝 酒</w>
缩 短</w>
急 い</w>
卫 队</w>
伦 理</w>
沿 着</w>
望 ましい</w>
志 愿
北 東</w>
理 論</w>
正 交</w>
14 .
遺 伝
遺伝 子</w>
落ち る</w>
次 第</w>
可 決</w>
取 締
つ く
課 程</w>
権 者</w>
有 権者</w>
失 踪</w>
テ ン</w>
日 益</w>
取 れ</w>
会 儿</w>
シ ック</w>
送 金</w>
咖 啡
外 科</w>
入 射</w>
主 办</w>
ベ ルト</w>
形 态</w>
干 净</w>
チ ュー
き ょう</w>
左 手</w>
崩 溃</w>
全 教</w>
e a</w>
固 有</w>
別 途</w>
电 平</w>
安 い</w>
チュン チョン
s f
干 细胞</w>
上 场</w>
クス マン</w>
相 遇</w>
最 悪</w>
换 器</w>
尽 くし</w>
名古 屋</w>
仔 细</w>
余 裕</w>
売 買</w>
妨 碍</w>
领导 层</w>
殺 害</w>
広 げる</w>
スポー クスマン</w>
刚 山</w>
一 行</w>
ホ ン・
部 位</w>
空 军</w>
艺 人</w>
先 日</w>
s a</w>
連 携</w>
月 初</w>
克 斯</w>
2 3
投 机</w>
手 指</w>
並 ん</w>
し も</w>
2 a</w>
同 行</w>
转 会</w>
伴 う</w>
ファ ー</w>
说 明
渡 す</w>
血 管</w>
変 形</w>
决 议</w>
现 代
ゼ ロ</w>
ウ ッズ</w>
婚 姻</w>
促 進</w>
イスラ エル</w>
立 刻</w>
楽し ん</w>
引き 下げ</w>
スキャ ン</w>
陈 述</w>
蚕 室</w>
苦 痛</w>
挑 発</w>
n o
預 金</w>
ポ ジ
ま だ
行 なっ</w>
指 挥
立 た</w>
盛り 込ん</w>
出 かけ</w>
舒 服</w>
乗 り</w>
受 験</w>
使 い
プ ション</w>
s 2</w>
点 儿</w>
发射 机</w>
c t</w>
重 い</w>
悩 み</w>
パ レ
点 検</w>
供 给</w>
コンサ ート</w>
なん か</w>
脱 出</w>
殺 人</w>
原 発</w>
偶 像</w>
グ リ
6 a</w>
发 光</w>
ハン ナラ</w>
较 大</w>
満 た
东 北
收 支</w>
あ きら
聞 こえ</w>
纸 张</w>
次 長</w>
座 位</w>
以 色
クリスマ ス</w>
考 生</w>
演 じる</w>
权 威</w>
亡く なっ</w>
ひど く</w>
泄 露</w>
こ ん</w>
格 兰</w>
以色 列</w>
as e
起 きる</w>
守 护</w>
奥林匹 克</w>
定 为</w>
イ ム・
捐 赠</w>
美 术
核 电站</w>
克 里
ミ ー</w>
虚 拟</w>
現 状</w>
比 如</w>
有 害</w>
感 冒</w>
卫 生</w>
包 装</w>
先 行</w>
主 权</w>
フォ ン</w>
ク ム
组 长</w>
実 態</w>
ギ ョン</w>
30 5</w>
改 めて</w>
右 側</w>
无 论是</w>
伍 兹</w>
面 包</w>
希 腊</w>
送 受信</w>
制 服</w>
グ ランド</w>
クォ ン・
課 税</w>
交通 部</w>
徒 刑</w>
延 世</w>
奶 奶</w>
吸 收</w>
側 面</w>
上 空</w>
观 测</w>
私 人</w>
矢 量</w>
增 强</w>
前 述</w>
军 人</w>
元 素</w>
思 え</w>
尚 未</w>
正 直</w>
新 しく</w>
体 操</w>
オー バー</w>
ヘ リ
もう 少し</w>
強 硬</w>
储 蓄</w>
タバ コ</w>
誤 り</w>
下 半年</w>
ヴ ィ
ド ー
1 5%</w>
波 紋</w>
司令 部</w>
油 田</w>
ar s</w>
梨 花</w>
国 王</w>
东北 亚</w>
私 学</w>
国务 卿</w>
再 会</w>
リー ダー
1 100</w>
温 室</w>
ma p</w>
频 繁</w>
生 气</w>
引 擎</w>
収 支</w>
义 者</w>
通 話</w>
隧 道</w>
重 視</w>
瑞 士</w>
始 终</w>
ヘ ル
租 车</w>
提 升</w>
视 差</w>
预 算
天 使</w>
ビ ジョン</w>
ド リ
構 想</w>
振 兴</w>
関 数</w>
正 しく</w>
勤 め</w>
先 輩</w>
转 让</w>
な る
避 ける</w>
斗 山</w>
ブ ーム</w>
参 赛</w>
ワイ ヤ
ライ バル</w>
ベ ー
足 够</w>
ペ ン
科 长</w>
格 差</w>
思い 出</w>
フィリ ピン</w>
回 収</w>
すみ ません</w>
離 婚</w>
缴 纳</w>
江 戸</w>
3 12</w>
倫 理</w>
某 种</w>
文化 財</w>
テー プ</w>
遺 族</w>
とど まっ</w>
1 17</w>
野 生</w>
リン トン</w>
ウェ ブ
一 例</w>
チ ケット</w>
相 関</w>
懲 役</w>
得 以</w>
巨 额</w>
行 李</w>
签 署</w>
疾 患</w>
怒 り</w>
歩 き</w>
チ ョ</w>
菲 律
方 策</w>
コント ロール</w>
运动 员</w>
i e
a s</w>
2 14</w>
トイ レ</w>
谈 会</w>
菲律 宾</w>
濃 度</w>
沟 通</w>
插 入</w>
戻 す</w>
增 益</w>
古 典</w>
トン ネル</w>
追 究</w>
シ グ
起 床</w>
某 个</w>
強 度</w>
回 收</w>
叫 做</w>
つ ぶ
萎 缩</w>
活 着</w>
宣 伝</w>
东 海</w>
黒 い</w>
脸 部</w>
有 用</w>
循 環</w>
い える</w>
装 备</w>
有 线</w>
金 刚山</w>
纠 正</w>
と おり</w>
硬 盘</w>
振 幅</w>
返 さ</w>
热 潮</w>
保 育</w>
199 1</w>
恶 劣</w>
华 丽</w>
花 样</w>
ヘ ッド</w>
音 频</w>
呼 び</w>
フ ェ</w>
书 籍</w>
阅 读</w>
滤 波</w>
忧 虑</w>
同 事</w>
去 っ</w>
饮 料</w>
大 リーグ</w>
よう やく</w>
大 海</w>
ア シ
と くに</w>
経 っ</w>
ング ン</w>
なく なっ</w>
特 使</w>
有 罪</w>
ア テ
究 明</w>
経 緯</w>
理 所
优 点</w>
汇 款</w>
替 える</w>
得 意</w>
很 久</w>
原 材料</w>
こ ん
点 头</w>
庆 祝</w>
区 别</w>
高 涨</w>
流 れ
完 璧</w>
劇 場</w>
遠 隔</w>
企 业
违 法</w>
怎 么
待 ち
商 务</w>
基本 上</w>
イス ラム</w>
2 16</w>
経 由</w>
昭 和</w>
优 惠</w>
デ ュ
扮 演</w>
依 靠</w>
リーダー シップ</w>
预 备</w>
陸 軍</w>
週 末</w>
手 中</w>
讲 述</w>
相 位</w>
無 料</w>
困 惑</w>
かえ って</w>
妨 害</w>
入 境</w>
電 車</w>
恩 恵</w>
举 例</w>
m b</w>
損 害</w>
3 60</w>
13 5</w>
深 度</w>
次 官
次官 補</w>
プ リ</w>
ガ ソ
登 录</w>
工 学</w>
倒 れ</w>
サ ラ
ら しく</w>
誤 っ</w>
能 量</w>
果 然</w>
復 元</w>
警 備</w>
百 分
阵 容</w>
现 政府</w>
左 侧</w>
淘 汰</w>
放大 器</w>
19 0</w>
陸 上</w>
掌 声</w>
後 ろ</w>
勇 気</w>
中 期</w>
サ ウ
质 问</w>
デ ー</w>
孤 立</w>
入 れ
プ ター</w>
コ ・
たっ た</w>
判 别</w>
道 徳</w>
取り 調べ</w>
会 場</w>
バー ジョン</w>
コミュニ ケーション</w>
疲 劳</w>
尖 端</w>
エ ー
标 志</w>
大 戦</w>
爆 发</w>
新 設</w>
助 于</w>
え れ</w>
葡 萄
王 朝</w>
慰 安</w>
火 星</w>
战 术</w>
出 租车</w>
タ ッチ
スク ール</w>
m c
目指 し</w>
ック ・
置 く</w>
看 法</w>
特 区</w>
上 限</w>
みな さん</w>
とり わけ</w>
え よ</w>
施 工</w>
起 亜</w>
窗 户</w>
トリ ック</w>
す っかり</w>
逃 避</w>
地方 自治体</w>
这 位</w>
15 .
背 后</w>
筋 肉</w>
汚 染</w>
地 帯</w>
阿 富
阿富 汗</w>
理 性</w>
尼 斯</w>
祖 母</w>
植 民</w>
同 紙</w>
置 か</w>
测 定</w>
标 签</w>
最 適</w>
年 人</w>
家 具</w>
m b
豊 富</w>
会 話</w>
進 展</w>
負 債</w>
見 れ</w>
促 し</w>
5 04</w>
権 威</w>
f a
重 叠</w>
自 国</w>
生 きる</w>
有 没有</w>
算 法</w>
锁 定</w>
買 う</w>
失 礼</w>
一 系列</w>
国 语</w>
通 報</w>
吸 収</w>
尽 量</w>
复 制</w>
い ち
路 線</w>
神 秘</w>
决 议案</w>
口 气</w>
发 放</w>
教育 厅</w>
急 激</w>
夺 冠</w>
同 氏</w>
郑 梦
在 家</w>
税 制</w>
教 材</w>
サイ ド</w>
オ フィ
视 图</w>
戦 力</w>
キ ム
連 結</w>
推 算</w>
寂 寞</w>
滑 冰</w>
水 泳</w>
员 国</w>
看 出</w>
在 下</w>
独 占</w>
止 める</w>
u l</w>
ス ウェー
マイ ナス</w>
通 行</w>
苏 联</w>
经济 学</w>
既 然</w>
198 7</w>
ポ リ
な あ</w>
20 20</w>
新 任</w>
休 日</w>
スウェー デン</w>
正 之
正之 风</w>
不 正之风</w>
l 1</w>
星 期</w>
白 宫</w>
バ ート</w>
示 意图</w>
牛 奶</w>
入 院</w>
エ ッジ</w>
早 けれ</w>
部 下</w>
扱 う</w>
o c
调 度</w>
一 覧</w>
ク リントン</w>
198 8</w>
16 .
面 積</w>
徹 底
徹底 的</w>
告 発</w>
違 憲</w>
示 唆</w>
強 行</w>
变 动</w>
主 义者</w>
w s</w>
a b
待 つ</w>
出 産</w>
難 しく</w>
水 分</w>
g 20</w>
间 谍</w>
遠 く</w>
し め</w>
異 常</w>
特 网</w>
因 特网</w>
告 知</w>
抜 け
或 是</w>
同 志</w>
け ん
顺 便</w>
でき る
1 300</w>
第 一
い ら
mf p</w>
賠 償</w>
散 步</w>
复 活</w>
ー ブ</w>
on e</w>
農 村</w>
視 差</w>
問 い
招 生</w>
叫 ん</w>
仮 想</w>
ブ ク
6 02</w>
模 仿</w>
お じ
芯 片</w>
役 立つ</w>
学 历</w>
分 发</w>
反 馈</w>
高 达</w>
ノ ート</w>
シ フト</w>
描 か</w>
勇 气</w>
できる だけ</w>
问 卷</w>
選 出</w>
参 拜</w>
出 会い</w>
ム ード</w>
グ メント</w>
技 能</w>
公 示</w>
粒 子</w>
蜡 烛</w>
满 意</w>
ド ウ</w>
ゴ ン
转 换器</w>
載 せ</w>
草 案</w>
一 句</w>
ン ク</w>
アタ シ</w>
参 謀</w>
重 要性</w>
时 尚</w>
赞 助</w>
挑 衅</w>
周 刊</w>
アル ゴ
食 糧</w>
美 好</w>
ホ ル
10 a</w>
遠 征</w>
构 想</w>
惯 例</w>
宣 告</w>
a e</w>
魔 法</w>
连 载</w>
宽 度</w>
マッ ピング</w>
阶 级</w>
构 筑</w>
伝 達</w>
グ ァン
j r</w>
10 0
嫌疑 人</w>
やっ ぱり</w>
4 50</w>
貧 困</w>
美 女</w>
相 場</w>
分 开</w>
代 理
と う
あ ふ
アルゴ リズム</w>
白 天</w>
すご い</w>
高 かっ</w>
愿 望</w>
为 何</w>
お 茶</w>
药 品</w>
曲 线</w>
届 け</w>
失 业</w>
事 案</w>
一 人</w>
コ ート</w>
c dma</w>
接 待</w>
l a</w>
収 容</w>
ハ リ
ちゃ んと</w>
空 軍</w>
増 幅</w>
ナ ・
選 考</w>
カ ラ
や し</w>
瑞 典</w>
打ち 上げ</w>
特 点</w>
水 果</w>
払 い</w>
共 感</w>
40 8</w>
低 減</w>
14 2</w>
許 し</w>
ソ ク
新 生</w>
単 に</w>
も とも
もとも と</w>
主 管</w>
m i
慈 善</w>
区 间</w>
民 心</w>
速 い</w>
节 约</w>
右 侧</w>
作 出</w>
迫 っ</w>
徐 々
徐々 に</w>
务 省</w>
趣 旨</w>
シャ ル</w>
ば ん</w>
感 動</w>
ブロード キャスト</w>
死 了</w>
日 夜</w>
开 催</w>
修 学</w>
エ ット</w>
意 欲</w>
交 わし</w>
ユ ン
松 本</w>
差 别</w>
位 居</w>
ピ ー
招 い</w>
広 がる</w>
験 生</w>
関 税</w>
录 音</w>
受 験生</w>
乗り 出す</w>
理所 当然</w>
従 業</w>
返 还</w>
疼 痛</w>
巨 人</w>
パー トナー</w>
し 出し</w>
离 散</w>
白 人</w>
一 杯</w>
4 30</w>
集 計</w>
図 書
ユー ロ</w>
更 高</w>
宛 先</w>
スタ ジ
间 违</w>
正 如</w>
バ ス
チャ ン・
語 る</w>
看 板</w>
学 费</w>
出 差</w>
订 单</w>
天 下</w>
商 業</w>
果た す</w>
实 时</w>
支 撑</w>
分 間</w>
充 电</w>
参 加
図書 館</w>
a i</w>
朴世 利</w>
アー ティ
次 々</w>
聞 か</w>
广 濑</w>
争 夺</w>
遺 産</w>
朝 食</w>
ア レ
よろ しく</w>
訪 れる</w>
蓄 積</w>
向 量</w>
1 2.
菓 子</w>
チャンピ オン
阵 列</w>
证 书</w>
主 场</w>
读 书</w>
计 画</w>
諮 問</w>
寒 い</w>
勤 労</w>
切り 替え</w>
ボ ックス</w>
罗 马</w>
訂 正</w>
フィ ック</w>
u s</w>
成 就</w>
创 立</w>
キム・ ヨン
先 立っ</w>
マー ケ
き れ</w>
面 部</w>
自 立</w>
检 测器</w>
明 示</w>
引 く</w>
复 原</w>
召 集</w>
力 于</w>
借 金</w>
ベ ッド</w>
が ら</w>
バ レ
ス リ
サ ス</w>
钢 琴</w>
添 付</w>
誘 導</w>
签 证</w>
突 入</w>
撤 退</w>
出 道</w>
两 者</w>
东 部</w>
わ が</w>
柔 道</w>
び る</w>
留 在</w>
精 度</w>
セ ル
20 16</w>
助 威</w>
简 単</w>
大 陸</w>
陥 っ</w>
对 立</w>
受 灾</w>
保 险
间 接</w>
活 発</w>
电 信</w>
威 力</w>
准 确</w>
つ な
话 说</w>
设 计
祖 父</w>
幼 い</w>
山 本</w>
公 的</w>
光 盘</w>
読 者</w>
テ グ</w>
見 せる</w>
可 见</w>
スケ ート</w>
雅 典</w>
閉 鎖</w>
下 半期</w>
わ ざ
认 定</w>
満 ち</w>
教育 庁</w>
年 底</w>
妍 兒</w>
女 生</w>
候 补</w>
ま とも</w>
致 力于</w>
徹 底</w>
遭 遇</w>
协 议会</w>
サー バー</w>
那 家</w>
問 う</w>
命 名</w>
関連 付け</w>
放 っ</w>
党 代表</w>
收 益</w>
幸 运</w>
大 雨</w>
同 時</w>
アテ ネ</w>
づ く</w>
中 途</w>
违 宪</w>
摄 取</w>
ま しく</w>
结 算</w>
生ま れ
对 抗</w>
个 别</w>
有 助于</w>
16 2</w>
策 略</w>
手 が
乗 客</w>
k e
除 外</w>
纠 纷</w>
究 竟</w>
放 映</w>
半 ば</w>
近 期</w>
耐 え</w>
神 话</w>
栽 培</w>
ピ ーク</w>
こ ろ
遂 行</w>
印 度
プレ イ
en b</w>
科 技</w>
渐 渐</w>
概 要</w>
可 怕</w>
リ スト
r gb</w>
ロ サン
訪 朝</w>
期 望</w>
搭 載</w>
レイ ヤ</w>
づ くり</w>
警 部</w>
团 队</w>
公 立</w>
わ す</w>
r x</w>
15 2</w>
顽 张</w>
都 合</w>
換 え</w>
大 いに</w>
対 抗</w>
問 わ</w>
どう しても</w>
198 9</w>
重 量</w>
進 み</w>
新 宿</w>
摩 擦</w>
e x
李 海</w>
多 大</w>
名 分</w>
キ スタン</w>
政 部</w>
弱 点</w>
め よ</w>
生 み
减 轻</w>
管理 部</w>
漏 れ</w>
气 象
因 而</w>
ト レ
赦 免</w>
聘 用</w>
传 来</w>
ズ ーム</w>
ぜ ひ</w>
种 子</w>
目指 す</w>
流 れる</w>
ご 飯</w>
売り 上げ</w>
使用 者</w>
一 流</w>
ワイヤ レス</w>
y o
锦 涛</w>
或 许</w>
学 术</w>
リ ュ
集 まり</w>
网 关</w>
新 世界</w>
フ ル
台 風</w>
众 多</w>
サイ クル</w>
わ さ</w>
赤 ちゃん</w>
オフ セット</w>
g o</w>
无 效</w>
放 心</w>
巡 回</w>
会 馆</w>
キ ア</w>
频 道</w>
フィ ギュ
ゼ ン
が ち</w>
美 人</w>
称 作</w>
家 伙</w>
复 印</w>
ペ ン</w>
キム・ ジョン
2 70</w>
图 为</w>
ホワイト ハウス</w>
べ く</w>
病 人</w>
捕 捉</w>
ピク セル</w>
l an</w>
飲 む</w>
奇 迹</w>
ハード ディスク</w>
慰 安
慰安 妇</w>
尋 ね</w>
勢 い</w>
全羅 南道</w>
体育 馆</w>
乔 治</w>
一 昨日</w>
ナ ー
航 空
信 心</w>
19 60</w>
薬 品</w>
繁 荣</w>
永 久</w>
投 げ
マイ クロ
n ba</w>
长 大</w>
夕 食</w>
人 均</w>
後 述</w>
大 胆</w>
ディ ア</w>
すば らしい</w>
c l
选 民</w>
厚 生</w>
传 说</w>
2 60</w>
死 去</w>
模 糊</w>
ろう そく</w>
报 社</w>
冲 绳</w>
一 連</w>
教 科</w>
拜 访</w>
こ だ
指 标</w>
ショ ッピング</w>
回 線</w>
わ が国</w>
予 告</w>
稼 動</w>
上 课</w>
お 客</w>
規 則</w>
人 当たり</w>
证 实</w>
志愿 者</w>
名 人</w>
一 会儿</w>
战 士</w>
唱 歌</w>
フ リー</w>
た め
頻 繁</w>
守 ら</w>
玩 具</w>
暑 い</w>
却 是</w>
克 尔</w>
ナ ショ
除 此</w>
转 向</w>
几 点</w>
ピア ノ</w>
出 资</w>
遮 光</w>
辞 退</w>
税 务</w>
シャ ツ</w>
矣 岛</w>
d b</w>
美 味
残 疾
13 6</w>
较 多</w>
賃 貸</w>
完 善</w>
产 党</w>
シ ア
c r
汝 矣岛</w>
ギリ シャ</w>
受 理</w>
每 当</w>
极 端</w>
熟 悉</w>
行 こ</w>
苦 恼</w>
バー ディー</w>
a f
残疾 人</w>
死 ぬ</w>
亲 切</w>
3 40</w>
破 っ</w>
出 荷</w>
スタジ アム</w>
補 完</w>
手 续</w>
高 里</w>
约 束</w>
めぐ り</w>
返 済</w>
第 一位</w>
某 些</w>
克 萨
セ ント</w>
トラ ブル</w>
産 物</w>
清 溪</w>
さ て</w>
眺 め</w>
昼 食</w>
想 定</w>
客 様</w>
即 便</w>
单 词</w>
党 派</w>
スク リーン</w>
な す</w>
お 客様</w>
g e</w>
置 き</w>
分 担</w>
依 据</w>
さ つ</w>
税 收</w>
下 院</w>
创 业</w>
ビ ザ</w>
クラ シック</w>
我 が</w>
あ い</w>
进 去</w>
乐 队</w>
セン サー</w>
s 3</w>
w h
r ds</w>
警察 官</w>
再 編</w>
代 行</w>
やって き</w>
移 籍</w>
局 势</w>
严 厉</w>
防 卫</w>
用 語</w>
平 凡</w>
士 顿</w>
九 州</w>
编 号</w>
妊 娠</w>
勧 告</w>
刚 刚</w>
滞 留</w>
妥 当</w>
冻 结</w>
评 価</w>
真 剣</w>
波 士顿</w>
武 士</w>
払 っ</w>
慣 れ</w>
发 起</w>
炳 賢</w>
火 车</w>
揭 发</w>
講 演</w>
30 3</w>
整 備</w>
放 入</w>
战 后</w>
幸 い</w>
外 语</w>
伯 特</w>
ぽ う</w>
祝 福</w>
作 曲</w>
ビ ッ
鼻 子</w>
や さ
伪 造</w>
オ プション</w>
キャン ペ
食 い
思い 出し</w>
フィ ード
避 难</w>
振 興</w>
诺 贝尔</w>
街 头</w>
正 常
ユ ン</w>
3 a</w>
初 次</w>
主 妇</w>
2 11</w>
非 正式</w>
接 入
百分 点</w>
所 長</w>
宾 馆</w>
ヘリ コ
众 议院</w>
店 铺</w>
売 っ</w>
书 记</w>
一 句
ミ ル
e p
a r</w>
点 半</w>
懲 戒</w>
さ せる</w>
う か
k cc</w>
显 得</w>
受け 取り</w>
いた だけ</w>
逃 げ</w>
确 立</w>
更 为</w>
一句 话</w>
暗 い</w>
慶尚 南道</w>
従 う</w>
ッ ケ
キャンペ ーン</w>
h arq</w>
経 過</w>
矣 島</w>
h an
遺 体</w>
带 有</w>
トル コ</w>
創 造</w>
郑 东
渡 り</w>
早 晨</w>
平 台</w>
ロ ケット</w>
法 廷</w>
末 期</w>
イ ト</w>
商 量</w>
个 子</w>
歌 っ</w>
拉 里</w>
土 耳
19 .
记 念</w>
人 选</w>
ウ ッド</w>
迟 到</w>
箭 头</w>
租 税</w>
助 ける</w>
划 分</w>
気 象
奈 良</w>
圣 诞
向 こう</w>
それ とも</w>
微 妙</w>
圧 迫</w>
午 餐</w>
调查 部</w>
用 地</w>
大 門</w>
ど ん</w>
禹 锡</w>
女子 大</w>
合 せ</w>
s s
超 市</w>
団 長</w>
越 过</w>
竭 尽</w>
最 小
成 し
太 极</w>
国 策</w>
乗 る</w>
黄 禹锡</w>
金 日成</w>
指 標</w>
乐 趣</w>
知 り
ラ ル</w>
プラ ス</w>
图 标</w>
去 过</w>
カウン タ</w>
促 す</w>
企业 家</w>
c mos</w>
進 学</w>
公 団</w>
ット カード</w>
权 限</w>
存 器</w>
壳 体</w>
侵 入</w>
も つ</w>
首 長</w>
遮 断</w>
视 率</w>
收 视率</w>
ク シ
ク エ
ぶ っ</w>
領 土</w>
新 鲜</w>
5 06</w>
节 日</w>
脱 落</w>
租 赁</w>
监 狱</w>
情 景</w>
フラ グ</w>
v o
带 领</w>
呼び かけ</w>
信 仰</w>
ボ ギー</w>
関 わら</w>
目 光</w>
撮 っ</w>
5 20</w>
苦 しい</w>
男 孩</w>
后 续</w>
克 林
プレ ミ
プ ール</w>
ia ea</w>
取り 締
ど んなに</w>
分 かれ</w>
充 電</w>
中 年</w>
上 学</w>
上 去</w>
類 似</w>
记 住</w>
改 憲</w>
抱 い</w>
サ ム</w>
珍 しい</w>
殿 堂</w>
募 金</w>
兴 味</w>
軍 隊</w>
护 士</w>
おい しい</w>
喜 悦</w>
全 然</w>
フィード バック</w>
高句 丽</w>
肥 満</w>
毎 月</w>
日 々</w>
慶尚 北道</w>
心 脏</w>
スライ ド</w>
ある 程度</w>
mv p</w>
镇 压</w>
視 線</w>
崩 れ</w>
勧 め</w>
上 回っ</w>
m ar
说 出</w>
水 中</w>
平 均
s ars</w>
寄 存器</w>
クレジ ットカード</w>
枠 組み</w>
ロサン ゼ
n fc</w>
连 续
匿 名</w>
ノー ベル</w>
デ ート</w>
高句 麗</w>
関 与</w>
投 票
减 肥</w>
遗 传</w>
上 り</w>
ヘリコ プター</w>
実 に</w>
实 体</w>
7 02</w>
时 间
コ メ</w>
克 力</w>
an d</w>
花 火</w>
分 享</w>
ガ ー
ず る</w>
d l</w>
良 かっ</w>
立 て
一 貫</w>
出 生
会 え</w>
雑 誌</w>
定 員</w>
スパ イ</w>
アイ ドル</w>
ア ップ
20 9</w>
阻 碍</w>
单 方面</w>
でき れ</w>
金 剛
洪 水</w>
あきら め</w>
灵 魂</w>
可 用</w>
取締 役</w>
無 い</w>
李 相
掀 起</w>
e l
金剛 山</w>
携 式</w>
便 携式</w>
购 入</w>
晚 饭</w>
提 及</w>
悩 ん</w>
2 22</w>
エ ル
み よ</w>
職 務</w>
李 会
夜 晚</w>
听 取</w>
发 动</w>
仲 間</w>
业 余</w>
c cd</w>
17 .
肥 胖</w>
名 義</w>
c 2</w>
演 习</w>
正 义</w>
明る く</w>
p r
残 さ</w>
巧 克力</w>
存 款</w>
视 觉</w>
毫 米</w>
学 び</w>
加 快</w>
法 定</w>
共 存</w>
マーケ ティング</w>
诗 人</w>
引き 受け</w>
出 于</w>
樹 立</w>
利 子</w>
公 表</w>
運 行</w>
误 差</w>
朴 泰
ア マ
l sp</w>
s ip</w>
参加 者</w>
博 客</w>
打 数</w>
何 时</w>
デ コーダ</w>
ゴ ミ</w>
アク ション</w>
罰 金</w>
尽 可能</w>
出 資</w>
人 群</w>
メ リ
ネ シア</w>
进 化</w>
福 利
泣 い</w>
マル チ</w>
な れる</w>
扣 押</w>
忍 耐</w>
右 派</w>
不 住</w>
2 5.
離 散</w>
经营 者</w>
勝 っ</w>
乐 园</w>
脆 弱</w>
崔 熙燮</w>
就 業</w>
社 内</w>
妇 女</w>
即 ち</w>
q q</w>
見 込み</w>
乗 せ</w>
爷 爷</w>
没 关系</w>
埋 め</w>
分 泌</w>
旅 馆</w>
宿 舍</w>
に か</w>
18 .
幕 府</w>
出来 事</w>
サ イン</w>
n ack</w>
遠 い</w>
胡 锦涛</w>
向 い</w>
p 4</w>
出 版
良 心</w>
姓 名</w>
ク ン
ブ リー
那 边</w>
比 分</w>
エ ジ
泳 三</w>
した がっ</w>
証 言</w>
災 害</w>
包 围</w>
っ ぽ
6 10</w>
欧 米</w>
抜 き</w>
ボ ストン</w>
监 督
待 機</w>
安 保
及 ば</w>
観 点</w>
炸 弹</w>
地 带</w>
书 店</w>
ダウン ロード</w>
ア パート</w>
ご め
航 班</w>
业 率</w>
背 面</w>
特 色</w>
債 券</w>
任 せ</w>
东 方</w>
どう も</w>
讲 座</w>
話し 合う</w>
広 瀬</w>
中 将</w>
もと より</w>
14 4</w>
見 直し</w>
多 媒体</w>
会 館</w>
スマ ート</w>
智 慧</w>
あ ん
豪 州</w>
定 位</w>
本 质</w>
教 徒</w>
リ アル
生 死</w>
理事 会</w>
精 力</w>
笑 顔</w>
必 ず
增 大</w>
ハン ド
田 径</w>
宗 旨</w>
妖 怪</w>
关 税</w>
じゃ あ</w>
克林 顿</w>
握 っ</w>
反 転</w>
ディ ー
か し
t er
计 数</w>
虚 假</w>
矢 印</w>
失 わ</w>
免 疫</w>
ワー ク
トラン シーバ</w>
我 家</w>
以 往</w>
人民 共和国</w>
人 形</w>
適 合</w>
密 切</w>
アン ト
s m</w>
登 板</w>
張 っ</w>
吹 き
局 部</w>
s 8
香 り</w>
最大 限</w>
时 序</w>
国 交</w>
ぶ つ
动 车</w>
属 する</w>
わ しい</w>
r f
7 10</w>
进 而</w>
火 箭</w>
四 川</w>
切 ら</w>
. com</w>
進 化</w>
南 海</w>
充 実</w>
艺术 家</w>
上 方</w>
p 5</w>
覚 悟</w>
灾 难</w>
付 与</w>
それ に</w>
热 烈</w>
民 意</w>
極 めて</w>
太 極</w>
最 善</w>
变 形</w>
ガ ル</w>
海 底</w>
悬 案</w>
前 端</w>
一 斉</w>
騒 ぎ</w>
石 头</w>
性 的</w>
电 流</w>
将 軍</w>
寒 冷</w>
头 部</w>
ビ タ
シェ ア</w>
アラ ブ</w>
にわ たる</w>
た た
连 胜</w>
押 収</w>
浦 項</w>
議 席</w>
典 礼</w>
李会 昌</w>
动 器</w>
返 還</w>
自治 部</w>
约 会</w>
打ち 出し</w>
ブ ログ</w>
词 语</w>
痛 い</w>
削 减</w>
1 b</w>
因 子</w>
いっ たい</w>
发 电</w>
いっ ぽう</w>
葬 礼</w>
久 し
纤 维</w>
得 知</w>
オーディ オ</w>
整 数</w>
別 に</w>
つ ま
滑 雪</w>
契 機</w>
ペ ット</w>
龍 山</w>
柔 軟</w>
复 兴</w>
加 深</w>
一 来</w>
ソ 連</w>
ちゃ っ</w>
磁 気</w>
尤 其</w>
主 役</w>
ホ ー
め で
暴 涨</w>
必 要性</w>
イ エ
申 请
前 来</w>
2 6
通 讯
次 长</w>
復 活</w>
後 輩</w>
困 っ</w>
経 歴</w>
哈 利</w>
升 机</w>
人 为</w>
ウ ク</w>
负 债</w>
聪 明</w>
总 务</w>
债 权</w>
プ ー
カ タ
郑东 泳</w>
直 升机</w>
姿 势</w>
取り 出し</w>
刑 警</w>
ベ ット</w>
子 公司</w>
耳 朵</w>
成 年</w>
基 板</w>
三 维</w>
ミュージ カル</w>
ドライ ブ</w>
福 田</w>
ホーム ラン</w>
选举 法</w>
这 项</w>
検 知</w>
市 道</w>
バー グ</w>
引き 上げる</w>
フォー カス</w>
ク ン</w>
風 景</w>
心 灵</w>
品 质</w>
各 社</w>
金 东
富士 山</w>
連 勝</w>
正 好</w>
出 会っ</w>
メ タ
ピ ョ</w>
激 励</w>
情 勢</w>
周 永</w>
合 约</w>
や つ</w>
黒 字</w>
忠 告</w>
好 几</w>
n sc</w>
配 偶</w>
果 川</w>
図 る</w>
前 例</w>
监 视
グ レ
ア ナ</w>
m e</w>
理 工</w>
无 理</w>
所 长</w>
志 願</w>
学 歴</w>
关 照</w>
レジ スタ</w>
お そ
采 样</w>
录 取</w>
美术 馆</w>
密 码</w>
商 工</w>
监视 器</w>
歇 尔</w>
コ ス
降 る</w>
的 确</w>
果 物</w>
切 手</w>
マネ ー
本 周</w>
あい さつ</w>
r b</w>
2 8
生 态</w>
役 に
不 景气</w>
プラ ット
エ ラー</w>
配 列</w>
秘书 长</w>
平 静</w>
コリ ョ</w>
インド ネシア</w>
驚 く</w>
编 码器</w>
結 ん</w>
社 会
接入 点</w>
失 う</w>
マ トリ
p e</w>
总 之</w>
シ ル</w>
追 踪</w>
習 慣</w>
愛 し</w>
南 亚</w>
冷 却</w>
インフ ラ</w>
夕 方</w>
上 演</w>
そう した</w>
麦 克
女 優</w>
動 的</w>
ト ム</w>
记 本</w>
出 張</w>
元 老</w>
ケ ル</w>
校 長</w>
国 務省</w>
分 歧</w>
パ クト</w>
现 実</w>
改 良</w>
バ ラ</w>
t i</w>
s y
a 2</w>
順 次</w>
構 図</w>
本 土</w>
カリ フォル
まず は</w>
2 7
犯 し</w>
扱 い</w>
堂 々</w>
笔 者</w>
机 密</w>
c e</w>
短 縮</w>
用 来</w>
官 方</w>
土耳 其</w>
別 れ</w>
驱 动器</w>
間 接</w>
軍 人</w>
合 流</w>
ヒ ル</w>
ソ プ</w>
ロサンゼ ルス</w>
法 制</w>
高 于</w>
増 大</w>
后 辈</w>
法 学</w>
上 诉</w>
セ ン</w>
m f</w>
单 个</w>
ア レイ</w>
驚 い</w>
感 性</w>
安保 理</w>
ホ スト</w>
ク レ
s v</w>
ka ist</w>
理事 长</w>
マン チェ
シ ティ</w>
通 道</w>
不 管
正常 化</w>
楽 しく</w>
对 面</w>
北 美</w>
不管 是</w>
フィ ング</w>
自 尊
挿 入</w>
化 身</w>
偏 向</w>
それ では</w>
芝 加
や が
4 12</w>
総 務</w>
s d</w>
5 01</w>
慢 性</w>
家 計</w>
婚 礼</w>
主 権</w>
に かく</w>
と にかく</w>
解 明</w>
広 域</w>
股 市</w>
潮 流</w>
本 紙</w>
共 识</w>
e v
過 ち</w>
訪 ね</w>
泣 き</w>
劝 告</w>
自尊 心</w>
フィギュ ア</w>
気象 庁</w>
无 限</w>
go o
芝加 哥</w>
波 長</w>
前 锋</w>
ビタ ミン</w>
と っ
合 计</w>
ナム ド</w>
教 える</w>
差 不多</w>
后 悔</w>
名 目</w>
受け 付け</w>
人 員</w>
ネ イ
返 り</w>
厕 所</w>
20 .
発 信</w>
汉 江</w>
ダイ エット</w>
び に</w>
沉 重</w>
増 し</w>
出 门</w>
g 1</w>
軽 い</w>
相 邻</w>
テレ コム</w>
4 b</w>
南 京</w>
スト リー
北 朝</w>
ッ ツ</w>
アイ デン
ら え</w>
运 算</w>
豆 腐</w>
沿 岸</w>
キ ロ
財 界</w>
买 卖</w>
唱 片</w>
代理 人</w>
1 19</w>
難 い</w>
由 来</w>
ゴ ール
当 てる</w>
太 子</w>
体 温</w>
也 好</w>
いか が</w>
上 部</w>
つなが っ</w>
缓 和</w>
气 体</w>
co n
浴 び</w>
波 长</w>
检 索</w>
和 国民</w>
偶 尔</w>
マ ッチ</w>
シ カ
ば れ</w>
联 队</w>
时 速</w>
回 顾</w>
m a</w>
調 達</w>
博 览会</w>
轨 道</w>
隊 員</w>
運 命</w>
连 続</w>
許 容</w>
百 万</w>
神 話</w>
ブリー フィング</w>
s w
销 量</w>
重 複</w>
零 件</w>
身 影</w>
统 计
気 象</w>
民 众</w>
悲 しみ</w>
名 牌</w>
同 等</w>
単 語</w>
金正 恩</w>
潜 水</w>
故 人</w>
参 议院</w>
般 的</w>
肩 膀</w>
民 事</w>
いら っしゃ
音 量</w>
辞 典</w>
押 さ</w>
単 なる</w>
人 格</w>
改 为</w>
怎么 办</w>
エ ド
首 场</w>
职 场</w>
東 国</w>
时 机</w>
散 歩</w>
推 理</w>
右 翼</w>
ト ラ</w>
经 费</w>
第 に</w>
次 第に</w>
合 併</w>
区 的</w>
仏 教</w>
串 行</w>
19 50</w>
行 的</w>
梅 雨</w>
拼 命</w>
遷 移</w>
お さ
出 勤</w>
何 人</w>
足 球队</w>
希 拉里</w>
対 戦</w>
只 不过</w>
发射 器</w>
フ ル</w>
必ず しも</w>
デ ア</w>
イン グ</w>
だ い</w>
7 04</w>
遣 い</w>
申 办</w>
大 雪</w>
固 め</w>
共 产党</w>
ル ート</w>
メー ション</w>
デ ル
水 道</w>
ら さ</w>
t er</w>
残 留</w>
歧 视</w>
東 亜
怪 物</w>
初 日</w>
更 改</w>
应 答</w>
宿 泊</w>
品 种</w>
赛 场</w>
短 信</w>
だ り</w>
告 示</w>
一 角</w>
判 明</w>
誤 解</w>
战斗 机</w>
売 れ</w>
连 络</w>
草 薙</w>
绝 対</w>
文 件
差 し</w>
靠 近</w>
電 流</w>
连 接
許 さ</w>
名 为</w>
及 其</w>
ミ ネ
開 設</w>
税 務</w>
吃 惊</w>
协 作</w>
ニ ーズ</w>
鸡 蛋</w>
明 亮</w>
公 主</w>
g e
ミ ニ
讲 话</w>
指 向</w>
カリフォル ニア</w>
姆 斯</w>
可 变</w>
从 小</w>
ヌ リ</w>
かわ いい</w>
目 录</w>
太 阳
十 年</w>
早 点</w>
宿 題</w>
午 饭</w>
プリ ング</w>
运动 会</w>
議 決</w>
分 か
エジ プト</w>
降 り
笔 记本</w>
舞 い</w>
三 角</w>
讨 会</w>
索 引</w>
竟 然</w>
使 え</w>
ショ ック</w>
会 议
自 从</w>
清 水</w>
海 边</w>
東亜 日報</w>
朝 鲜
宣 传
置 換</w>
払 う</w>
b 1</w>
面 目</w>
金 持ち</w>
携 带</w>
国 际
中 午</w>
マルチ メディア</w>
選 管</w>
密 度</w>
好 感</w>
处 分</w>
商 船</w>
参 谋</w>
共 计</w>
中 场</w>
さ っ</w>
万 吨</w>
ム ー
米 波</w>
リモ ート</w>
ゲ ット</w>
证 人</w>
話し 合っ</w>
う な
振 っ</w>
ブ レー
ろ い</w>
盛り 込ま</w>
毫 米波</w>
剧 本</w>
上 传</w>
アク ティブ</w>
ma x</w>
蔓 延</w>
常 常</w>
取り 付け</w>
n c</w>
郵 便</w>
誤 差</w>
在 任</w>
乐 观</w>
犯 行</w>
放 松</w>
座 谈会</w>
か の</w>
詐 欺</w>
プリン タ</w>
行 驶</w>
拯 救</w>
体育 館</w>
两 年</w>
w to</w>
开 车</w>
モニ タ</w>
釈 放</w>
灵 活</w>
偽 造</w>
i f</w>
这 家</w>
財 経</w>
小 于</w>
先 前</w>
ヤ ード</w>
パー ティー</w>
门 户</w>
细 节</w>
マンチェ スター</w>
虐 待</w>
客 観</w>
m p</w>
小 林</w>
40 3</w>
2 b</w>
産 党</w>
演 唱</w>
包 容</w>
共 産党</w>
シ リアル</w>
ど ん
d j</w>
隠 れ</w>
请 问</w>
计 数
计数 器</w>
必 然</w>
オフィ ス</w>
遗 属</w>
疗 法</w>
可 逆</w>
アイ デア</w>
笑 う</w>
敷 地</w>
名 声</w>
偏 差</w>
トラン ジ
お ば
of dma</w>
并 行</w>
チ リ</w>
ギ ル</w>
み れ</w>
p p</w>
2 3.
移 位</w>
国 宝</w>
侦 探</w>
ル ーム</w>
観 覧</w>
养 老
公 益</w>
入り 口</w>
ア ダ
音乐 剧</w>
钢 铁</w>
埃 及</w>
人 际</w>
西 欧</w>
自 卫队</w>
米 歇尔</w>
祝 い</w>
確 率</w>
文 档</w>
摂 取</w>
いただ い</w>
百 姓</w>
引き 分け</w>
16 00</w>
注 射</w>
教 皇</w>
很 强</w>
クァン ジュ</w>
アド バイス</w>
198 6</w>
男 の子</w>
探 す</w>
基 督
右 眼</w>
さっ き</w>
f m</w>
2 2.
走 り</w>
6 0
洗 濯</w>
李 东
三 振</w>
d i
联 想</w>
不 得</w>
ライ ブ</w>
カン ナム</w>
ふ さ
し ば</w>
近 づい</w>
数 十</w>
恐 惧</w>
カ ネ</w>
纪念 日</w>
保 护
プロ ー
ノ ン</w>
警 备</w>
発 掘</w>
やが て</w>
t cp</w>
钥 匙</w>
生 素</w>
率 いる</w>
无 人</w>
店 里</w>
修 订
ブ ック</w>
麻 生</w>
s e</w>
配 备</w>
所 得
好 处</w>
具 合</w>
現 職</w>
南 非</w>
与 否</w>
下 文</w>
釈 明</w>
电影 节</w>
尽 く
列 入</w>
出 入り</w>
ステ ージ</w>
美 術
缓 冲</w>
上 流</w>
ャ ン
连续 剧</w>
多 多</w>
品 目</w>
入 社</w>
丰 田</w>
義 人民共和国</w>
民主 主
民主主 義人民共和国</w>
朝鮮 民主主義人民共和国</w>
久し ぶり</w>
い いえ</w>
河 川</w>
心 から</w>
従 っ</w>
左 眼</w>
悲 剧</w>
参 拝</w>
値 上がり</w>
不 十分</w>
うれ しい</w>
郊 外</w>
外 務省</w>
图 案</w>
in g
編 成</w>
执 行
一 層</w>
だ ん</w>
ap ec</w>
研 讨会</w>
狭 い</w>
横 滨</w>
收 回</w>
作 物</w>
三 天</w>
で す
cn n</w>
an g</w>
赢 得</w>
第 五</w>
点 心</w>
导 入</w>
不 但</w>
ハ リー</w>
キャン セル</w>
宝 石</w>
ロー マ</w>
er s</w>
猶 予</w>
所得 税</w>
好 转</w>
u m</w>
远 远</w>
在 外</w>
土 台</w>
入 場</w>
下 す</w>
又 是</w>
業 績</w>
收 录</w>
感 激</w>
忍 受</w>
化 妆
動 向</w>
住 院</w>
监 察</w>
ワ イ</w>
シ ョン
離 党</w>
殺 し</w>
伸 ばし</w>
东 南亚</w>
キ ス</w>
戦 術</w>
多 样</w>
讲 师</w>
詳 しく</w>
福利 部</w>
番 目</w>
起 源</w>
若 干</w>
最 快</w>
授 业</w>
卵 子</w>
パ ーク</w>
顶 级</w>
派 生</w>
歌 う</w>
排 行
指 す</w>
ノ ル
毫 不</w>
日 记</w>
教育 部</w>
排行 榜</w>
任 何人</w>
ベン チャー</w>
ど ころ
2 7.
ク ァ
いか に</w>
电 台</w>
札 幌</w>
随 机</w>
焼 き</w>
分 ける</w>
レ ント</w>
格 好</w>
チ ン
ジェ ント</w>
竞 技</w>
l l
巨 額</w>
シナ リオ</w>
カン ナム
ア バ
っ たり</w>
多 样
喜 剧</w>
前 回</w>
2 80</w>
解 説</w>
真 理</w>
渔 船</w>
横 領</w>
星 星</w>
io n
行 進</w>
营 销</w>
一 瞬</w>
い き
ゴ ル</w>
16 1</w>
教 职员</w>
外 务省</w>
墜 落</w>
n as
東 アジア</w>
ギュ ン</w>
ウェ ー</w>
しば しば</w>
辅 助</w>
战斗 力</w>
困 境</w>
口 袋</w>
シグ ナ
ア ・
納 得</w>
偉 大</w>
主 婦</w>
カ フェ</w>
い よ</w>
警 报</w>
玩 笑</w>
激 活</w>
乗り 越え</w>
ラン プ</w>
轻 易</w>
路 由</w>
给 出</w>
正 義</w>
安全 法</w>
パ ウ
饭 店</w>
遗 体</w>
构 建</w>
大 于</w>
反 論</w>
輸 送</w>
発 光</w>
財 務</w>
攻 勢</w>
主 机</w>
6 04</w>
订 购</w>
强 有力</w>
圣诞 节</w>
金炳 铉</w>
英 文</w>
滑 动</w>
射 程</w>
家 中</w>
オリ ジ
もら える</w>
き い</w>
监督 院</w>
漢 江</w>
日本 海</w>
常 识</w>
倾 斜</w>
黑 人</w>
流 动</w>
挫 折</w>
不 觉</w>
ク ール</w>
だ い
す す
箱 子</w>
气象 厅</w>
忙 しく</w>
年 纪</w>
が たい</w>
门 前</w>
速 く</w>
精 彩</w>
ホ ・
自 称</w>
チュ ング・
lt e</w>
总 值</w>
审 判
图 解</w>
取り 入れ</w>
面 倒</w>
表 さ</w>
王 国</w>
信 号
ル ー</w>
选 择
结 局</w>
懸 命</w>
大 大</w>
俳 优</w>
高 まる</w>
短 く</w>
疫 苗</w>
成 器</w>
マ マ</w>
都 心</w>
交 互</w>
ロ ス</w>
黒 人</w>
志 向</w>
克萨 斯</w>
一 者</w>
イ ク</w>
お めで
莫 大</w>
立 派</w>
外 貨</w>
英 格兰</w>
罕 见</w>
有 期</w>
悲 しい</w>
大 致</w>
ナ ル
実 用</w>
佛 教</w>
マ グ
ち な
直 接
本 質</w>
大 勢</w>
信 じる</w>
け よ</w>
道 奇</w>
打 率</w>
地 裁</w>
いっ しょ</w>
模 特</w>
土 曜日</w>
ッ キー</w>
d d
财 富</w>
店 舗</w>
译 文</w>
広 州</w>
助 金</w>
食 用</w>
跳 舞</w>
季 節</w>
コン ド
15 1</w>
庁 舎</w>
双 手</w>
ボ ル
ところ で</w>
论 述</w>
洪 明
形 势</w>
尼 西亚</w>
光 电</w>
兆 し</w>
アイ ス
n p
金 浦</w>
死 体</w>
晶 体
晶体 管</w>
投 稿</w>
场 上</w>
丁 克</w>
ロ イ
外交 官</w>
仓 库</w>
上 野</w>
三 国</w>
无 线
幼 儿
幼儿 园</w>
传 真</w>
タ リ
デ ュー
ま さ</w>
随 意</w>
对 比</w>
长 级</w>
入 ら</w>
リ バ
ニ ー
c 1</w>
吸 烟</w>
2 8.
财 政部</w>
敗 北</w>
房 价</w>
s k
远 征</w>
联 带</w>
信 徒</w>
跟 踪</w>
詰 め</w>
第二 个</w>
祈 り</w>
直接 的</w>
游 行</w>
日 前</w>
操 纵</w>
卡 车</w>
丢 失</w>
後 で</w>
プラット フォーム</w>
み に</w>
顧 問</w>
面 的</w>
秘书 室</w>
泡 沫</w>
头 脑</w>
亲 戚</w>
7 20</w>
诚 实</w>
糖 尿</w>
無 効</w>
减 免</w>
使 命</w>
企 图</w>
蛋 糕</w>
侮 辱</w>
增 多</w>
冷 たい</w>
人 质</w>
ウィン ドウ</w>
k di</w>
预 期</w>
途 上</w>
群 众</w>
捐 款</w>
学 術</w>
乐 团</w>
阿 尔
横 浜</w>
まだ まだ</w>
t g</w>
師 団</w>
ワ ク
ベ ート</w>
どころ か</w>
苦 手</w>
歌 词</w>
サ ル</w>
us b</w>
登 载</w>
模 索</w>
输 给</w>
观 光
知ら せる</w>
急 騰</w>
必 需</w>
威 尔</w>
厨 房</w>
た り
c d
株 式
恥 ず
今 朝</w>
恐 ろ
转 发</w>
热 门</w>
捏 造</w>
干 涉</w>
変 数</w>
プリ アン
イ ニング</w>
肥 料</w>
缺 陷</w>
勉 强</w>
ブ ロ
送 り
移 し</w>
ミ ット</w>
珍 惜</w>
坡 州</w>
2 9
麻 薬</w>
缺 点</w>
检察 院</w>
株式 会社</w>
工 程
祖 先</w>
下 方</w>
コ ア</w>
の う</w>
w i
が れ</w>
养老 金</w>
現 役</w>
消 息
希 丁克</w>
人民 币</w>
亏 损</w>
世 話</w>
g b
美術 館</w>
結 び
基督 教</w>
m l</w>
随 時</w>
過 剰</w>
看 不到</w>
无线 电</w>
斯 科</w>
房 屋</w>
复 苏</w>
原子 能</w>
配 慮</w>
要 件</w>
燃 烧</w>
战 时</w>
原 道</w>
l a
靖 国</w>
港 口</w>
投 影</w>
ステ ー
アラ ビア</w>
菲 尔</w>
授 课</w>
原 谅</w>
聊 天</w>
欧 美</w>
怪 我</w>
全 球
ガソ リン</w>
液 体</w>
東 南
无 罪</w>
復 旧</w>
印度 尼西亚</w>
一 大</w>
i r</w>
2 15</w>
膝 盖</w>
没 什么</w>
東南 アジア</w>
怀 孕</w>
占 领</w>
ふ たり</w>
こ ち</w>
2 1.
ダ ック</w>
グ ァン</w>
p ro
阿 根
阿根 廷</w>
萎 縮</w>
江 原道</w>
同 情</w>
わ ら
长 达</w>
付 出</w>
グラ フ</w>
カ イ
5 40</w>
負 っ</w>
統 治</w>
ナ ム・
im s</w>
集 める</w>
農 林</w>
芸 能</w>
圣 诞</w>
遅 い</w>
方 言</w>
セ グメント</w>
づ き</w>
17 1</w>
1 ,
閉 じ</w>
欧 元</w>
患 有</w>
繁 栄</w>
欠 か</w>
修订 案</w>
ゅ う
疯 牛病</w>
o l
高 出</w>
生 长</w>
幾 つ</w>
妥 結</w>
不 了</w>
シカ ゴ</w>
追 查</w>
进 来</w>
线 索</w>
消 极</w>
次 世代</w>
我 慢</w>
成し 遂げ</w>
成 员国</w>
主 动</w>
アイデン ティティ</w>
適 し</w>
見つ かっ</w>
膨 胀</w>
弟 子</w>
セ ヌリ</w>
致 命</w>
细 菌</w>
津 波</w>
受け 止め</w>
下 がり</w>
金 钟
記 号</w>
祝 贺</w>
甘 い</w>
片 段</w>
劳动 部</w>
セン ス</w>
at e</w>
过 多</w>
误 解</w>
规 格</w>
洪明 甫</w>
早 餐</w>
引 人</w>
使 える</w>
好 奇</w>
天 津</w>
イ・ スン
わ ざ</w>
关 东</w>
自 豪</w>
聞 き
日 刊</w>
当 り</w>
ゲ ート
鉴 定</w>
推 动</w>
広 がり</w>
上 場</w>
ア プロー
さ さ
198 2</w>
選 び</w>
寝 る</w>
到 達</w>
会 晤</w>
エ ン</w>
つなが り</w>
郑 某</w>
柏 林</w>
天 然
cpu 40</w>
14 00</w>
长 寿</w>
谈 论</w>
攻 势</w>
実 感</w>
公 用</w>
集 成</w>
调 器</w>
繰り 返さ</w>
ふ う</w>
锻 炼</w>
解 调器</w>
海 啸</w>
喜 爱</w>
千 万</w>
区 別</w>
タ ウン</w>
が ん
衣 装</w>
掃 除</w>
天 国</w>
写 道</w>
ナショ ナル</w>
エー ジェント</w>
アプロー チ</w>
眠 り</w>
創 業</w>
フラ ッシュ</w>
5 a</w>
反 应
アル ゼン
はじ めて</w>
a a</w>
露 光</w>
肉 体</w>
ング ル</w>
た ま
電 話
電話 機</w>
缓 存</w>
直 子</w>
皇 家</w>
物 资</w>
欣 赏</w>
最 早</w>
姑 娘</w>
び っくり</w>
k r</w>
航空 機</w>
比 べる</w>
委 会</w>
下 届</w>
一 気
フォ ード</w>
ジャン プ</w>
bb k</w>
見 守っ</w>
统 领</w>
礼 仪</w>
思 議</w>
当事 人</w>
お れ</w>
盛 开</w>
永 遠</w>
奖 牌</w>
不 透明</w>
三 つ</w>
マン ガ</w>
オー ル
イン スト
アルゼン チン</w>
ら ない</w>
買い 物</w>
砂 糖</w>
目 覚
東 海</w>
両 者</w>
プリアン ブル</w>
ケー キ</w>
为 首</w>
クリ ーム</w>
17 3</w>
讽 刺</w>
简 直</w>
希 尔</w>
呼 声</w>
化 石</w>
分 成</w>
入 居</w>
代 案</w>
丧 失</w>
一気 に</w>
觉 到</w>
概 率</w>
感 觉到</w>
一 種</w>
し ょ
10 b</w>
微 微</w>
奇 妙</w>
去 除</w>
グ ク</w>
h d</w>
戦 時</w>
总 公司</w>
透 明
开 通</w>
実 体</w>
好 み</w>
亚 太</w>
つ くる</w>
ぎ り</w>
5 12</w>
15 4</w>
自動 的</w>
移 交</w>
歌 声</w>
弁 当</w>
一 轮</w>
バ ック
アメ リ
ず い
红 十字</w>
生 育</w>
凍 結</w>
チュ ア</w>
あわ せ</w>
譲 渡</w>
点 击</w>
每 日</w>
时 光</w>
当 社</w>
夏 威
墙 壁</w>
塑 料</w>
回 归</w>
哪 儿</w>
恐 怕</w>
ne ws</w>
改 案</w>
揮 発</w>
修 改案</w>
ずい ぶん</w>
お まえ</w>
问 道</w>
豪 华</w>
外 线</w>
性 别</w>
党 员</w>
さら なる</w>
x x</w>
再 現</w>
イ ム</w>
o p
致 し</w>
深 入</w>
沢 山</w>
实 务</w>
消息 筋</w>
汽 油</w>
日 后</w>
与 其</w>
下 ろし</w>
违 背</w>
翌 年</w>
沈 没</w>
支払 う</w>
慣 行</w>
幕 式</w>
食 欲</w>
算 是</w>
決 断</w>
位 置
ふ る
t bs</w>
沈 黙</w>
東 部</w>
搬 送
拉 开</w>
ウォ ー
h dm
加 える</w>
陆 续</w>
转 交</w>
苦 しん</w>
电 动</w>
往 往</w>
貯 蓄</w>
節 約</w>
無 償</w>
水 上</w>
搬送 波</w>
同 伴</w>
マ リ
お 腹</w>
i g</w>
加 利
典 子</w>
ア カ
选 択</w>
業 種</w>
本 日</w>
ひ っ
难 民</w>
特别 法</w>
屋 顶</w>
和 尚</w>
セ レ
通 货</w>
貸 し</w>
牛 乳</w>
无 数</w>
旅 客</w>
客 观</w>
及ぼ し</w>
ワ イン</w>
マ ス</w>
トランジ スタ</w>
累 计</w>
味 わ
ナ ン</w>
寺 院</w>
似 的</w>
リー マン</w>
ド ク</w>
し ま</w>
e x</w>
黄 海</w>
通信 部</w>
育 てる</w>
灰 度</w>
单 一</w>
両 手</w>
n 1</w>
30 7</w>
講 師</w>
攻 防</w>
强 国</w>
スー パー
運 送</w>
绝 望</w>
望 み</w>
最 强</w>
放 宽</w>
一 瞬间</w>
总 结</w>
スタ ム</w>
イン グランド</w>
l p
18 00</w>
脖 子</w>
取り 戻し</w>
举 报</w>
フェ スティ
ア ッ
に も</w>
c o</w>
4 40</w>
术 语</w>
不 安定</w>
汤 川</w>
汤 姆</w>
査 察</w>
前 导</w>
制造 业</w>
不 论</w>
ベル リン</w>
フィ ン
ちな みに</w>
直 线</w>
シ リア</w>
せ っ
背 中</w>
未 知
最 少</w>
广 州</w>
巻 き</w>
可 否</w>
仿 佛</w>
おめで とう</w>
警察 署</w>
争 点</w>
ポ ケット</w>
バン ク</w>
バ ブル</w>
ショ ップ</w>
アシ スト</w>
社 交</w>
怖 い</w>
动 漫</w>
代 金</w>
交易 所</w>
ド ジャ
イン デ
2 24</w>
补 助金</w>
开 发
光 明</w>
他 国</w>
テキ サス</w>
気 づい</w>
图 形</w>
收 费</w>
思 わ
坚 决</w>
ング ク</w>
ば す</w>
無 事</w>
获 奖</w>
山 下</w>
圧 倒
圧倒 的</w>
回 戦</w>
双 重</w>
不 定</w>
マイ クロ</w>
ス ロー
ア ピ
っ て
纷 争</w>
根 本
单 曲</w>
ブ ス</w>
頑張 っ</w>
走 路</w>
球 場</w>
显 著</w>
入 団</w>
傲 慢</w>
之 下</w>
支 障</w>
国 军</w>
利 得</w>
キ ュー
熱 い</w>
构 图</w>
打 工</w>
基 調</w>
便 利
下 半场</w>
ゆ く</w>
勇 士</w>
制造 商</w>
ガ ニ
糖 尿
糖尿 病</w>
济 州
宠 物</w>
压 迫</w>
13 3</w>
送 给</w>
负 面</w>
清 洁</w>
杀 伤
夏威 夷</w>
ッ ツ
f ft</w>
4 60</w>
加利 福
ネ ズ
r i</w>
k bo</w>
韩 流</w>
面 貌</w>
闻 名</w>
給 料</w>
禁 じ</w>
減 る</w>
攻 击
抑 える</w>
手 册</w>
国 有</w>
下 旬</w>
三 成</w>
民 営</w>
戦 う</w>
黑 客</w>
最 下位</w>
悲 惨</w>
フェスティ バル</w>
m d
预 报</w>
迄 今</w>
虚 偽</w>
本 部长</w>
d e</w>
终 止</w>
欠 陥</w>
本 届</w>
動 力</w>
傾 け</w>
信 令</w>
過ご す</w>
意 愿</w>
ガ イ
イ メー
mp 3</w>
g 2</w>
2 4.
重 み</w>
演 習</w>
射 撃</w>
ク ソン</w>
発 送</w>
泡 菜</w>
家 宝</w>
中 华</w>
レ ータ</w>
hdm i</w>
酸 素</w>
貸 し出し</w>
法 治</w>
奪 わ</w>
ポ ン</w>
车 场</w>
法 器</w>
暫 定</w>
兼 容</w>
万 个</w>
直 径</w>
果 说</w>
实 用</w>
如 果说</w>
议 题</w>
花 粉</w>
平 行</w>
制 品</w>
亿 円</w>
ヒ ディ
ハ ード</w>
c t
页 面</w>
村 上</w>
安 く</w>
コ レ
r c</w>
p 2</w>
集 まる</w>
階 段</w>
決 定
本 能</w>
大 野</w>
历 史
传 闻</w>
称 赞</w>
家 电</w>
实 质
其 次</w>
こ り</w>
198 5</w>
知 恵</w>
ティ ー
老 鼠</w>
u b
設 ける</w>
皇 后</w>
感 知</w>
国 队</w>
ライ ス</w>
利 于</w>
メタ データ</w>
节 奏</w>
昨 夜</w>
收 盘</w>
チョル ラ
n at
炭 素</w>
v s</w>
l in
超 出</w>
申し 上げ</w>
生 態</w>
昇 進</w>
カ ート</w>
に は</w>
3 86</w>
青 い</w>
绝 不</w>
入 住</w>
キョンギ ド</w>
イ・ ジョン
し き</w>
新 兴</w>
妖 魔</w>
勝 ち
ご く</w>
潜 力</w>
未知 数</w>
扫 描
市 中心</w>
寄 与</w>
名 門</w>
同 感</w>
出版 社</w>
先 制</w>
こ える</w>
え て</w>
上 次</w>
ヨン セ</w>
ウィ リア
負 荷</w>
調 節</w>
純 粋</w>
电 器</w>
好 む</w>
サイ バー</w>
いろ んな</w>
w or
14 1</w>
看 作</w>
报 酬</w>
一 口气</w>
ボ ク</w>
ター ゲット</w>
ジャ ン</w>
w in
隐 瞒</w>
返 信</w>
无 聊</w>
交 织</w>
ド キュ
fa x</w>
这 份</w>
最 強</w>
売 る</w>
し む</w>
糟 糕</w>
流 传</w>
国 益</w>
一 人
マ スク</w>
随 之</w>
繰り 広げる</w>
コンサ ル
要 員</w>
テー ション</w>
评 论
志 愿</w>
下 がる</w>
アル コール</w>
皆 様</w>
杀伤 性</w>
文 物</w>
挖 掘</w>
党 員</w>
人 質</w>
上 手
しゃ べ
这 边</w>
常 識</w>
おそ らく</w>
0. 5</w>
银 牌</w>
起こ り</w>
生ま れる</w>
南 米</w>
加 以</w>
不 思議</w>
议 论</w>
职 工</w>
住 宿</w>
総 括</w>
神 奈
用 車</w>
マ レー
マ スター</w>
育 っ</w>
反应 堆</w>
中 村</w>
一 眼</w>
索 伦</w>
後 続</w>
密 集</w>
実 業</w>
d b
登 陆</w>
果 断</w>
春 节</w>
寄 っ</w>
受 害</w>
冰 箱</w>
風 邪</w>
階 級</w>
搭 载</w>
ク リー
逃 し</w>
暴 雨</w>
推 翻</w>
帰 宅</w>
困 扰</w>
占 有
休 憩</w>
ヴ ァ
だ ん
w o
招 呼</w>
扇 区</w>
便 当</w>
下 部</w>
ト ーク</w>
それ だけ</w>
笑 み</w>
打 つ</w>
一 般
一 段
そ り</w>
う つ
2 d</w>
金 品</w>
竣 工</w>
殺 到</w>
改 編</w>
已 知</w>
东 省</w>
コ ロ
カッ プル</w>
8 02</w>
热 闹</w>
山 岳</w>
天 堂</w>
器 官</w>
台 词</w>
s ms</w>
至 于</w>
征 服</w>
建 交</w>
和 服</w>
仮 定</w>
コン テナ</w>
減 り</w>
法 令</w>
平均 值</w>
市 价</w>
ト ヨ
旨 在</w>
惊 人</w>
リー ・
若 手</w>
教 训</w>
抱 き
所 望</w>
ら かの</w>
重 工业</w>
適 当</w>
着 く</w>
学 問</w>
述 べる</w>
種 々</w>
相 差</w>
查 询</w>
巴 基
佛 罗
リアル タイム</w>
ハ ワイ</w>
毒 品</w>
此 事</w>
歌 舞
指 し</w>
巴基 斯坦</w>
四 季</w>
勝 手</w>
エ ンド</w>
wh o</w>
p r</w>
詳 しい</w>
签 约</w>
电 荷</w>
村 子</w>
更 是</w>
整 え</w>
截 至</w>
借 口</w>
規 格</w>
引き 出し</w>
外 表</w>
取 决
取决 于</w>
アピ ール</w>
官 邸</w>
叙 利亚</w>
レ ッド</w>
ジュ ー
っ た
附 属</w>
树 木</w>
打 扫</w>
已 有</w>
如 同</w>
キム チ</w>
高 位</w>
給 与</w>
数 百</w>
テ ジョン</w>
イン パクト</w>
重 返</w>
パ キスタン</w>
调 谐</w>
晋 升</w>
培 育</w>
反 する</w>
今 や</w>
预 测
这 儿</w>
能 人</w>
剧 中</w>
値 する</w>
ヒディ ンク</w>
だ ち</w>
植 え</w>
战 绩</w>
取り締 まり</w>
今 晚</w>
4 14</w>
金 元</w>
破 裂</w>
直 属</w>
最小 限</w>
外 し</w>
反 抗</w>
入 生</w>
v er
马 来
非 核</w>
父 兄</w>
播 放
所 有
ン ズ</w>
6 20</w>
水 产</w>
征 税</w>
外 界</w>
其 余</w>
录 像</w>
スポ ン
面 会</w>
注 意
救 済</w>
c s</w>
導 い</w>
上 程</w>
路 由
路由 器</w>
決 済</w>
新 入生</w>
情 形</w>
减 小</w>
パ フォーマ
8 10</w>
韩 华</w>
連 覇</w>
财 产
红 叶</w>
発 音</w>
时间 段</w>
s m
198 4</w>
暮 らす</w>
応 用</w>
定 例</w>
善 良</w>
召 唤</w>
勇 敢</w>
全羅 北道</w>
男 生</w>
決定 的</w>
汉 语</w>
往 来</w>
同 月</w>
ハ ッシュ</w>
で る</w>
秘 诀</w>
火 事</w>
运 送</w>
普 京</w>
扱 っ</w>
受 付</w>
占有 率</w>
チョン ノ
イ・ ヨン
つ の</w>
阴 影</w>
张 照</w>
助 长</w>
き み</w>
自 然
み せ</w>
选 挙</w>
至 っ</w>
神 様</w>
电 机</w>
外 れ</w>
半 身</w>
務 める</w>
动 性</w>
共 演</w>
マレー シア</w>
ッチ ング</w>
ゲ ン</w>
ら せ</w>
ば っ</w>
i ph
6 b</w>
宴 会</w>
题 目</w>
野 心</w>
责 任
往 返</w>
决 断</w>
踊 り</w>
观 念</w>
电视 机</w>
加 藤</w>
ラー メン</w>
酒 精</w>
眠 っ</w>
开 口</w>
年 中</w>
地 板</w>
メ モ</w>
漢 字</w>
倍 率</w>
バッ グ</w>
砂 漠</w>
暴 跌</w>
终 点</w>
狙 う</w>
法 王</w>
指 南</w>
导 出</w>
发 音</w>
19 79</w>
额 外</w>
自 行</w>
尽 早</w>
可 靠</w>
加 权</w>
オリジ ナル</w>
き 出し</w>
落ち 着い</w>
看 待</w>
最 低
夜 间</w>
下 班</w>
ヒョ ク</w>
ソ レン
れ よ</w>
っ と
g c</w>
5 08</w>
马来 西亚</w>
最 優秀</w>
学 力</w>
大き かっ</w>
名 簿</w>
アマ チュア</w>
つか ん</w>
领 取</w>
血 圧</w>
老 年</w>
紧 密</w>
支 店</w>
忘 了</w>
发 球</w>
プ ル
言 行</w>
答 える</w>
眼 神</w>
机 制</w>
上 っ</w>
レ ン</w>
モ スク
n g</w>
録 音</w>
視 覚</w>
落 选</w>
灰 色</w>
强 力</w>
天 主教</w>
パフォーマ ンス</w>
ソ チョ
3 14</w>
指 針</w>
手 表</w>
岩 石</w>
原 告</w>
占 拠</w>
セ イン</w>
駐 車</w>
o r</w>
高 値</w>
頼 ん</w>
化妆 品</w>
ガニ スタン</w>
a y</w>
记 述</w>
生 成器</w>
星 座</w>
張 り</w>
实 习</w>
変 身</w>
一 季度</w>
メモ リー</w>
ク サ</w>
ア ート</w>
鈴 木</w>
芸 能人</w>
平 日</w>
商 売</w>
s map</w>
震 惊</w>
生 病</w>
次 回</w>
休 ん</w>
こ し</w>
金 山</w>
重 工業</w>
贫 穷</w>
天 后</w>
付 属</w>
ッ ド
麒 麟</w>
瞄 准</w>
招 致</w>
常 务</w>
岁 月</w>
历 届</w>
ソレン スタム</w>
グ ル
让 步</w>
取り組 ん</w>
亲 密</w>
为 准</w>
索 尼</w>
欺 诈</w>
授 予</w>
山 区</w>
取 出</w>
デ フォ
ん 中</w>
発 給</w>
招 牌</w>
封 锁</w>
南 美</w>
不 信</w>
オ イル</w>
わ れる</w>
w bc</w>
飞 行
課 金</w>
装 着</w>
本 物</w>
数 え</w>
レ ギュ
2 18</w>
沙 特</w>
无 偿</w>
劣 ら</w>
モスク ワ</w>
に あたる</w>
文 部</w>
莫 斯科</w>
無 駄</w>
姉 妹</w>
テ ッド</w>
采 纳</w>
社 区</w>
忽 视</w>
反 米</w>
停 车场</w>
低 收入</w>
お 待ち</w>
あ さん</w>
苦 笑</w>
確 信</w>
治 愈</w>
摄 影
捕 虜</w>
同 性
チュ ・
示 板</w>
声 器</w>
フロ ント</w>
ジョ ー
キー ワード</w>
オー ナー</w>
お と
繰り 返す</w>
痕 迹</w>
爱 好</w>
無 し</w>
朴 正
周 知</w>
后 卫</w>
从 未</w>
チ ベット</w>
コ ネ
40 5</w>
14 5</w>
工 科</w>
ラ ム
客 户
勘 案</w>
下 子</w>
ガ ード</w>
カ ット</w>
预 告</w>
走 出</w>
率 先</w>
好 者</w>
pd u</w>
診 療</w>
福 冈</w>
看 護</w>
朴泰 桓</w>
当 たり
任 用</w>
转 动</w>
好 ましい</w>
保 罗</w>
セ ロ
爱 好者</w>
市 厅</w>
壊 れ</w>
周 六</w>
医 薬品</w>
从 来</w>
f e
经营 权</w>
山 口</w>
外 围</w>
トラン ス
香 烟</w>
飲 食</w>
血 压</w>
生 活
時 価</w>
施 设</w>
問い 合わせ</w>
スケ ジュー
エ ア
龙 山</w>
默 认</w>
直 播</w>
目 立つ</w>
教 员</w>
大 厅</w>
判 处</w>
並 み</w>
ミ ック</w>
プライ ベート</w>
ジ ック</w>
あ えず</w>
p m
记 者
曲 線</w>
掲 示板</w>
常 務</w>
古 老</w>
南 アフリカ</w>
ヘ ン</w>
イメー ジ
老 年人</w>
第 三
客户 机</w>
分 手</w>
出 所</w>
音乐 会</w>
红 白</w>
水 産</w>
東 洋</w>
及 时</w>
乾 燥</w>
ジョ ージ</w>
逃 走</w>
見 返り</w>
答 复</w>
ロ グ
セ クタ</w>
飛 ん</w>
負 う</w>
姐 妹</w>
3 500</w>
身 長</w>
気 が
拠 点</w>
屠 杀</w>
反 转</w>
伪 装</w>
不 禁</w>
下 さ</w>
デフォ ルト</w>
ギ ョ
都 内</w>
检 方</w>
其 后</w>
マイ ケル</w>
运 転</w>
美 しく</w>
生 ん</w>
決 心</w>
有 益</w>
文 句</w>
ラ マ</w>
フロ リ
7 50</w>
韩国 语</w>
教 堂</w>
包 ま</w>
サラ リーマン</w>
ち こち</w>
7 5%</w>
妥 協</w>
バ ード</w>
飲 み
外 国语</w>
公 民</w>
不 快</w>
貧 しい</w>
解 说</w>
海 峡</w>
每 人</w>
山 顶</w>
储 备</w>
一 味</w>
驳 回</w>
手 配</w>
情 人</w>
巻き 込ま</w>
出 口
产 地</w>
蛋 白
分 公司</w>
乗 用車</w>
あ く
5 50</w>
3 13</w>
湯 川</w>
弗 雷</w>
及 ぶ</w>
一 端</w>
オ ス</w>
美 し</w>
皮 膚</w>
李 天
弱 者</w>
信 息
ブ ン</w>
ト リー</w>
ズ ・
アル バイト</w>
视 野</w>
浮 现</w>
前 途</w>
乐 器</w>
フ セイン</w>
衛 隊</w>
知り 合い</w>
界 限</w>
录 音
层 面</w>
人 身</w>
ビ ング</w>
とう とう</w>
いっ そう</w>
6 06</w>
线 性</w>
清 除</w>
ど れ
ご み</w>
白 菜</w>
深 化</w>
校 园</w>
李天 秀</w>
晚 餐</w>
リ ティー</w>
マトリ クス</w>
タ ス</w>
スコ ア</w>
どう か</w>
不 停</w>
ワク チン</w>
谎 言</w>
缺 少</w>
物 事</w>
整 顿</w>
定 年</w>
奖 励</w>
贪 污</w>
盲 目</w>
操 縦</w>
射 门</w>
假 名</w>
リ ティ
プラ テン
ツ ール</w>
言い 渡さ</w>
比 喻</w>
奥 斯
中 产</w>
フ ジ
やさ しい</w>
se l</w>
pl ay
l dp
设计 师</w>
目 撃</w>
反 感</w>
中国 語</w>
p er
相 続</w>
刑 法</w>
エン コーダ</w>
た ど
h e
b r
調 子</w>
猛 烈</w>
沙 漠</w>
氧 化
有 無</w>
找 出</w>
扬 声器</w>
动 物
切 替</w>
パ ク</w>
阿 尔</w>
毎 週</w>
ケ リー</w>
3 5%</w>
题 材</w>
満た す</w>
意 気
e bs</w>
終 わら</w>
点 灯</w>
欺 骗</w>
方 々</w>
宝 座</w>
基 带</w>
回 想</w>
吉 田</w>
合 唱</w>
あ ちこち</w>
3 4
経 連</w>
系 人</w>
冒 险</w>
レ ポート</w>
t y
親 戚</w>
注 视</w>
朴 周永</w>
手 里</w>
往 年</w>
庞 大</w>
再 见</w>
用 纸</w>
新 政府</w>
プレ ート</w>
退 役</w>
美味 しい</w>
交 谈</w>
だ ら
讨 论
晴 れ</w>
後 退</w>
卡 拉</w>
佛罗 里
人 種</w>
不 对</w>
ヒ ラリー</w>
インスト ール</w>
监 控</w>
庆 州</w>
一 时</w>
素 敵</w>
曲 子</w>
射 击</w>
大 学
ルー ティング</w>
タン ク</w>
コン ビ
まと める</w>
どれ ほど</w>
2 6.
迹 象</w>
昆 虫</w>
冲 縄</w>
知 的</w>
残 す</w>
核 化</w>
定 值</w>
前 向き</w>
切り 替える</w>
亮 相</w>
亡 命</w>
ブ ラン
フラン シ
バ グ
オペ ラ</w>
制 铁</w>
信 守</w>
g a
蛋白 质</w>
最 长</w>
打 た</w>
恐ろ しい</w>
四 球</w>
农 场</w>
ティ ング
サン プリング</w>
は ん</w>
营 业
平 滑</w>
国 々</w>
克 兰</w>
作 文</w>
一 本</w>
チョ コ
グン ヘ</w>
アフ ガニスタン</w>
这 场</w>
症 候
症候 群</w>
東 北</w>
慶 州</w>
惩 戒</w>
思わ ず</w>
引 継ぎ</w>
亚 州</w>
迎 え
老 化</w>
放 出</w>
多 亏</w>
作 動</w>
ldp c</w>
c ia</w>
穿 过</w>
犹 豫</w>
泄 漏</w>
楽し かっ</w>
开 业</w>
压 倒
压倒 性</w>
もう すぐ</w>
辞 去</w>
称 之
称之 为</w>
率 领</w>
流 量</w>
江 北</w>
有 机</w>
挽 回</w>
傍 晚</w>
一 下子</w>
リ ョン</w>
マ ート</w>
黙 っ</w>
身 元</w>
神 父</w>
焼 け</w>
洞 窟</w>
死 に</w>
た ば
延 伸</w>
大 気</w>
ビ ーム</w>
课 税</w>
试 合</w>
羡 慕</w>
第二 年</w>
背 後</w>
拳 道</w>
チョン ラ
あら か
遇 见</w>
跑 步</w>
揺 れ</w>
助 攻</w>
プレー オフ</w>
そ も</w>
加 わっ</w>
充 实</w>
リ ース</w>
この ほど</w>
空 い</w>
技 法</w>
俘 虏</w>
アーティ スト</w>
そ も
亚 洲
ウォ ル
薄 い</w>
疑 わ</w>
牵 制</w>
折 り
従 い</w>
后 期</w>
そも そも</w>
避 難</w>
帮 忙</w>
危 害</w>
今 夜</w>
マ ク
スタ ンド</w>
2 52</w>
機 密</w>
対 照</w>
奥 さん</w>
告 訴</w>
么 的</w>
萧 条</w>
暖 かい</w>
旅 行
失 业率</w>
器 具</w>
伝 わっ</w>
一 心</w>
ヒ ュー
な う</w>
この 世</w>
あ がっ</w>
送 還</w>
获 悉</w>
奥 会</w>
去 る</w>
動 く</w>
什 么的</w>
4 2.
赌 博</w>
议 席</w>
教 職員</w>
奨 学</w>
商 会</w>
ビデ オ
ハ ングル</w>
つ き
難 民</w>
那 位</w>
记 录
立 証</w>
画 質</w>
戏 剧</w>
德 克萨斯</w>
再 発</w>
ネ チ
願 う</w>
脅 迫</w>
向 前</w>
間 違
破 産</w>
石 川</w>
デ イ
タ レント</w>
f 2</w>
追 及</w>
脸 色</w>
来 源</w>
何 らかの</w>
ピ ュ
イ・ サン
結 ぶ</w>
浮 き
昨 晚</w>
な ぜ
9 10</w>
解 任</w>
見 せ
现 役</w>
ヶ 所</w>
辛 い</w>
编 制</w>
格 达</w>
揭 露</w>
取り 消し</w>
住 居</w>
ミ ラー</w>
テ ラン</w>
て い</w>
真 ん中</w>
攻 入</w>
探 査</w>
地 形</w>
i x</w>
g hz</w>
録 画</w>
跆 拳道</w>
起 点</w>
赤 十字</w>
安全 性</w>
ール ・
グラ ス</w>
2 9.
镜 子</w>
通 訳</w>
購 買</w>
类 别</w>
有 線</w>
广 岛</w>
シェ ル</w>
ザ ・
うか が
词 典</w>
実 家</w>
创 意</w>
不 通</w>
m 1</w>
給 食</w>
散 发</w>
平 坦</w>
大 豆</w>
大 体</w>
坚 强</w>
可 惜</w>
っ ぽ</w>
い さん</w>
t f</w>
sn s</w>
综 合
承 受</w>
字 符</w>
女 孩子</w>
在 地</w>
メ ガ
ジェ ット</w>
なぜ なら</w>
预 想</w>
配 布</w>
收 获</w>
巴 格达</w>
主 题
キャ リ
閣 議</w>
宅 地</w>
上 旬</w>
なく し</w>
bs 2</w>
電 荷</w>
見 つける</w>
ペ ア</w>
ブリ ッジ</w>
6 01</w>
非 正规</w>
步 行</w>
文 艺</w>
囲 ま</w>
东 洋</w>
貴 重</w>
救 出</w>
配 線</w>
济州 岛</w>
屋 根</w>
妖 精</w>
奥 运</w>
下 滑</w>
ク ラ</w>
キャ ッシュ</w>
た ま</w>
平方 米</w>
头 痛</w>
外 線</w>
ジョ ブ
と く</w>
た ぶん</w>
進 入</w>
赠 送</w>
浮か べ</w>
控 器</w>
公 文</w>
プレ ス</w>
讨论 会</w>
締 め
早 就</w>
怒 っ</w>
多 久</w>
叫 び</w>
ど ころ</w>
寂 しい</w>
創 立</w>
习 班</w>
4 22</w>
3 4.
驾 驶
阴 谋</w>
提 琴</w>
ッ タ</w>
19 5</w>
高 喊</w>
金 永
瞩 目</w>
推 移</w>
司 法
牺 牲
客 场</w>
原 価</w>
再 也</w>
あらか じめ</w>
l ut</w>
赛 事</w>
缅 甸</w>
総 連</w>
极 其</w>
吐 露</w>
スペ クトル</w>
関 わっ</w>
角 形</w>
笔 记</w>
司令 官</w>
丝 毫</w>
t h</w>
s 7
ko re
g n
14 8</w>
長 距離</w>
罗 伯特</w>
善 意</w>
产 物</w>
スペ ース</w>
あふ れ</w>
飞 跃</w>
遥 远</w>
自 衛隊</w>
打ち 明け</w>
惩 罚</w>
必 須</w>
当たり 前</w>
当 年</w>
在 宅</w>
割 引</w>
前 身</w>
三 郎</w>
マ ウス</w>
サ ミット</w>
p ar
30 .
15 5</w>
順 調</w>
敗 れ</w>
振り返 っ</w>
不 信任</w>
ノ ー</w>
クロ ス</w>
30 9</w>
疲 労</w>
牙 齿</w>
效 应</w>
援 引</w>
开 花</w>
取 委</w>
共 産</w>
公 取委</w>
プレー ヤー</w>
スロー ガン</w>
やって 来</w>
こう して</w>
q u
c b</w>
时 隙</w>
可 怜</w>
保 健
ブ ン
エ イ
とり あえず</w>
1. 2</w>
配 備</w>
軌 道</w>
莱 坞</w>
好 莱坞</w>
国 力</w>
决 定性</w>
パク・ グンヘ</w>
ウ ラン</w>
ア リ</w>
愛 する</w>
华 尔
创 造
公 团</w>
マー ケット</w>
プロ デュー
あ そこ</w>
本 店</w>
取り組 む</w>
有 事</w>
度 と</w>
寺 庙</w>
協 調</w>
協 約</w>
交 接</w>
二 度と</w>
クエ スト</w>
8 a</w>
被 迫</w>
浪 漫</w>
智 利</w>
急 落</w>
富 川</w>
ヨ イド</w>
パ ット</w>
部 长级</w>
栄 養</w>
応 え</w>
南 韩</w>
钱 包</w>
课 长</w>
肺 炎</w>
明 明</w>
提 供
不 況</w>
三 年</w>
ル ータ</w>
タ ッチ</w>
空 调</w>
日 新聞</w>
开 头</w>
ヤ ン・
カ ロ
n go</w>
i b</w>
轿 车</w>
自 制</w>
発 想</w>
源 泉</w>
年 少</w>
官 房</w>
随 便</w>
运 作</w>
艰 苦</w>
家 宅</w>
チョコ レート</w>
14 6</w>
街 上</w>
私 生活</w>
珍 贵</w>
玄 関</w>
格 付け</w>
未 知</w>
数 料</w>
手 数料</w>
影 子</w>
受 注</w>
举 动</w>
ハリ ウッド</w>
トラ フィック</w>
興 奮</w>
美 的</w>
竹 島</w>
真 面目</w>
根 源</w>
勝 つ</w>
ペ ース</w>
プー チン</w>
ジュ シ</w>
シ ド
けれ ども</w>
うま い</w>
p a</w>
. kr</w>
得 了</w>
バグ ダ
さ あ</w>
絶 えず</w>
生 理</w>
广 域</w>
发 给</w>
リ レー</w>
パク・ クン
ハ ナ</w>
13 8</w>
詩 人</w>
严 肃</w>
サー チ</w>
近 日</w>
歌舞 伎</w>
布 莱
学 问</w>
ホル モン</w>
どん どん</w>
门 口</w>
邪 魔</w>
质 疑</w>
楽し める</w>
未 明</w>
异 议</w>
再 建</w>
仙 台</w>
テレ ビ
あ いつ</w>
w md</w>
题 为</w>
通 勤</w>
従 事</w>
ブ ルー
ドライ バー</w>
き っ</w>
联 系人</w>
明 淑</w>
开 幕式</w>
セ ー
カ トリック</w>
ぷ り</w>
s 5</w>
15 6</w>
统计 厅</w>
盛 ん</w>
現 われ</w>
普 通
时 器</w>
惑 星</w>
交 部</w>
乗 算</w>
つく っ</w>
魔 女</w>
赖 斯</w>
直 升</w>
恶 性</w>
財 源</w>
英 才</w>
着 き</w>
理 科</w>
父 子</w>
深 深
いっ たん</w>
画 质</w>
极 大</w>
未 婚</w>
月 亮</w>
座 席</w>
ソ ニー</w>
アカ デ
nas a</w>
c un</w>
曼 联</w>
容 認</w>
关 西</w>
19 45</w>
逃 げ
美 味</w>
编 程</w>
班 级</w>
当 成</w>
峰 会</w>
一 化</w>
タ ワー</w>
ht tp</w>
民 俗</w>
原 则
パク・クン ヘ</w>
き のう</w>
an d
董 事
届 い</w>
バ ナ
l o</w>
19 78</w>
マ ナー</w>
ベー ス
7 0
颁 奖</w>
顶 点</w>
量 刑</w>
光 景</w>
光 复</w>
ッシ ャ
辐 射</w>
维 生素</w>
穏 やか</w>
支持 者</w>
提 名</w>
出 血</w>
モニ ター</w>
预算 案</w>
美 日</w>
星期 天</w>
内 申</w>
乓 球</w>
乒 乓球</w>
不 一定</w>
隠 さ</w>
告 发</w>
办 理</w>
下 手</w>
プレ クサ</w>
物 理学</w>
導 出</w>
出 面</w>
食 料</w>
败 为
败为 胜</w>
衰 退</w>
衛 生</w>
狂 牛病</w>
安 德
c n</w>
见 解</w>
学 生
両 面</w>
ハ ー</w>
シ ュー
なく なる</w>
链 接</w>
通 り
表 記</w>
小 时候</w>
哀 悼</w>
ポー ランド</w>
ス ル</w>
シグナ リング</w>
沃 卡</w>
宫 崎</w>
实 验
价 值
アニ メーション</w>
n t</w>
龄 化</w>
繁 殖</w>
总 体</w>
叙 述</w>
刑 務所</w>
冒 険</w>
防 疫</w>
追 放</w>
词 汇</w>
舞 わ</w>
無 罪</w>
洗 い</w>
新 闻
卓 球</w>
势 头</w>
万 坪</w>
タ リー</w>
激 动</w>
月 内</w>
応 募</w>
モン ゴル</w>
ド ロ
オ ク</w>
补 助</w>
楽 器</w>
想 着</w>
家 畜</w>
地 狱</w>
全 党</w>
ゆ え</w>
邻 居</w>
財 閥</w>
白 く</w>
报 复</w>
幅 器</w>
増 幅器</w>
なら びに</w>
その うち</w>
か き
街 頭</w>
考 察</w>
終 える</w>
按 压</w>
ツ イ
ット ・
s 11</w>
移 住</w>
接 管</w>
後 任</w>
尼 亚州</w>
哈 佛</w>
光 圈</w>
イ ナー</w>
け ん</w>
s l</w>
3 b</w>
新 西
平 常</w>
干 线</w>
参 り</w>
ト リ</w>
高 価</w>
物 理
い ま
饺 子</w>
简 化</w>
李 荣
描 き</w>
哪 些</w>
プロデュー サー</w>
フェ チャン</w>
キ リスト</w>
づ か</w>
踏 ん</w>
程 式</w>
春 季</w>
台 数</w>
チャンピオン シップ</w>
コー ナー</w>
さ す
き ゃ</w>
迎 合</w>
观光 部</w>
沉 没</w>
服 从</w>
干 燥</w>
变 为</w>
医 学部</w>
上 垒</w>
オ ル
だん だん</w>
高 温</w>
脚 本</w>
平方 メートル</w>
仲 介</w>
rf id</w>
着 る</w>
弊 社</w>
好 適</w>
選 任</w>
波 束</w>
检 验</w>
政 务</w>
培 训</w>
国 軍</w>
商 標</w>
列 举</w>
便利 店</w>
仕 様</w>
ブラ ック</w>
ゲート ウェイ</w>
高 原</w>
頂 上</w>
营 化</w>
回 应</w>
反 向</w>
マ スター
ポジ ション</w>
3 1.
通 る</w>
輝 い</w>
调 制
调制 器</w>
見つ め</w>
种 植</w>
社 团</w>
电 気</w>
方 位</w>
征 兆</w>
保 つ</w>
リン ク
ジェ リア</w>
ま わり</w>
处 在</w>
修 复</w>
ユ ナイ
モ ア</w>
l 0</w>
b i</w>
農 家</w>
诱 惑</w>
聚 焦</w>
決 まる</w>
奇 跡</w>
回 事</w>
づ ける</w>
on u</w>
c r</w>
80 2.
願 っ</w>
货 店</w>
譲 歩</w>
电 波</w>
上 级</w>
カン ウォン
赴 任</w>
生 前</w>
大韓 航空</w>
场 地</w>
名 列</w>
二 十</w>
につ れ</w>
っ ち
j o
6 50</w>
20 a</w>
选择 性</w>
封 信</w>
周 日</w>
上 任</w>
フジ テレビ</w>
チャ ー
z h
问 候</w>
荣 誉</w>
皇 太子</w>
犯 下</w>
护 照</w>
ブル ク</w>
タ グ</w>
キャン パス</w>
198 3</w>
読 書</w>
要 点</w>
沖 縄</w>
正 案</w>
政 務</w>
味 方</w>
修 正案</w>
ヒ ロ
重 く</w>
蒙 古</w>
組 合せ</w>
渡 る</w>
2 13</w>
10 02</w>
異 例</w>
游 说</w>
斯 特
抱 怨</w>
技 巧</w>
性 向</w>
契 约</w>
倾 听</w>
ウ ィ</w>
s of
配 分</w>
超 過</w>
狮 子</w>
漏 洞</w>
拉 面</w>
全 米</w>
セ ミ
高 まり</w>
警 卫</w>
禽 流感</w>
拉 姆</w>
加 班</w>
データ 通信</w>
鲜 明</w>
迪 拜</w>
脚 步</w>
电 缆</w>
熊 猫</w>
勋 章</w>
l c</w>
ap i</w>
逆 光</w>
走 廊</w>
満 たし</w>
播放 器</w>
患 上</w>
ット ル</w>
さ る</w>
s 4</w>
私 有</w>
相 違</w>
服 役</w>
攻 略</w>
庭 院</w>
メー ル
ウォ ル</w>
け が</w>
远 离</w>
续 费</w>
推 測</w>
手 续费</w>
名 刺</w>
体 格</w>
r a</w>
4 500</w>
电 话
生 物
查 出</w>
奪 っ</w>
ナ ルド</w>
ジ ニア</w>
キ ン</w>
いき なり</w>
骨 折</w>
現 れる</w>
失 い</w>
dn s</w>
駐 在</w>
矩 形</w>
田 先生</w>
な ぁ</w>
误 会</w>
装 箱</w>
束 缚</w>
戦 士</w>
恋 愛</w>
回 信</w>
一 对</w>
ユナイ テッド</w>
うな ず
い ら</w>
s f</w>
骄 傲</w>
隔 离</w>
近 平</w>
賄 賂</w>
视 聴</w>
落 下</w>
結 成</w>
税 法</w>
田 舎</w>
激 光</w>
動 い</w>
シャ ル
目 立っ</w>
滥 用</w>
基 文</w>
回 头</w>
万 一</w>
一 线</w>
テ ム</w>
観 衆</w>
习 近平</w>
認 定</w>
行 贿</w>
构 件</w>
噪 音</w>
カンウォン ド・
エ ピ
演 奏
数 々</w>
恶 意</w>
哥 伦
が け</w>
ro m
av c</w>
确 信</w>
準 決勝</w>
弹 性</w>
代 换</w>
中 核</w>
や ろ</w>
や す</w>
お もし
い じめ</w>
8 50</w>
过 激</w>
至 此</w>
民 政</w>
様 相</w>
松 下</w>
授 受</w>
少 な
大 法官</w>
メ ル
チュ ン</w>
i k
d 1</w>
3. 5</w>
酸 化</w>
用 水</w>
歌 剧</w>
村 庄</w>
新西 兰</w>
国 道</w>
制 止</w>
こ ぼ
眼 鏡</w>
木 村</w>
朝 向</w>
なる ほど</w>
e s
談 話</w>
疲 惫</w>
撮 り</w>
主 持
身 穿</w>
着 物</w>
招 く</w>
急 性</w>
並 べ</w>
限 っ</w>
近 隣</w>
太 平</w>
升 级</w>
pd a</w>
b bc</w>
顺 差</w>
溢 れ</w>
正 浩</w>
情 熱</w>
ざ し</w>
か っ
民 营化</w>
恵 まれ</w>
境 内</w>
バグダ ッド</w>
海 兵</w>
新 婚</w>
收 益
役 者</w>
工 夫</w>
喫 煙</w>
レ コード</w>
ショ ート
アド フォ
鉄 鋼</w>
転 落</w>
秉 烈</w>
生 效</w>
早 饭</w>
文件 夹</w>
家 電</w>
亚 军</w>
三 大</w>
チョン・ ドン
アカデ ミー</w>
だら け</w>
en t</w>
漁 船</w>
有 意思</w>
平 息</w>
プロ ファイル</w>
クライ アント
肌 肤</w>
最 为</w>
很 小</w>
大 桥</w>
リー ブ</w>
リ ットル</w>
ダイ ヤ
お 知らせ</w>
3 5.
視 野</w>
经 纪
狙 い</w>
没 想到</w>
找 回</w>
当 たっ</w>
入 出力</w>
主 页</w>
不 久
ase an</w>
3 2.
17 00</w>
近 所</w>
运 命</w>
贵 重</w>
誠 実</w>
物 資</w>
巩 固</w>
展 示
名 片</w>
保 安
交 战</w>
ドキュ メン
グラン プリ</w>
ウィ ー</w>
lo v
3 7.
跟 着</w>
财 经
西 藏</w>
楽 し</w>
指挥 权</w>
抱 有</w>
外 務</w>
共同 体</w>
主持 人</w>
イン スタ
cpu 11</w>
奔 跑</w>
南 极</w>
エン ティティ</w>
9 -
逆 转</w>
軽 減</w>
論 述</w>
答 应</w>
楽 観</w>
左 翼</w>
他 方</w>
野 外</w>
航 线</w>
经纪 人</w>
电影 院</w>
方 程式</w>
打 败</w>
并 未</w>
ニューヨ ー
クリ ップ</w>
8 04</w>
高 騰</w>
未 成年</w>
手伝 っ</w>
出 頭</w>
つ め</w>
f o
纯 一郎</w>
泉 纯一郎</w>
小 泉纯一郎</w>
士 官</w>
化 妆</w>
帷 幕</w>
好 意</w>
即 可</w>
ポー タル
ニュー ジー
ろ う</w>
ら っ</w>
退 休
积 分</w>
多 元</w>
万 能</w>
の ぞ
按 摩</w>
富 有</w>
好 评</w>
何 种</w>
一 夜</w>
ニュージー ランド</w>
明 朗</w>
手 持</w>
开 玩笑</w>
含 量</w>
加 速度</w>
伸 出</w>
价值 观</w>
上手 く</w>
遺 憾</w>
諦 め</w>
极 为</w>
小 麦</w>
天 地</w>
公 告</w>
ほん の</w>
たば こ</w>
h y
閲 覧</w>
長 年</w>
異 なり</w>
奉 仕</w>
地 名</w>
原 定</w>
便 携</w>
付 く</w>
クリ ック</w>
ad d
転 じ</w>
立 案</w>
没 收</w>
毀 損</w>
悉 尼</w>
待 机</w>
付き 合い</w>
ウル サン</w>
p 9</w>
19 1</w>
遗 症</w>
潘 基文</w>
ハ イ</w>
グラ ウンド</w>
な きゃ</w>
韩 亚</w>
遥 控器</w>
被 捕</w>
皮 切り</w>
法 律
常 规</w>
富 豪</w>
全 域</w>
ール ズ</w>
バッ テ
ド バイ</w>
シド ニー</w>
2 42</w>
零 下</w>
贩 卖</w>
萝 卜</w>
控 訴</w>
受け 継
友 だち</w>
リ クエスト</w>
まっ すぐ</w>
辩 论</w>
贵 族</w>
补 习班</w>
拍 卖</w>
差 点</w>
争 取</w>
ミル ク</w>
身 材</w>
絶 え</w>
称 号</w>
生 計</w>
流 さ</w>
明る み</w>
开 拓</w>
人 家</w>
シ ュ</w>
エ ク
う そ</w>
3 6.
金 星</w>
繊 維</w>
窓 口</w>
称 呼</w>
树 立</w>
决 胜</w>
一 块</w>
ビ ュー
な い
自 社</w>
月 刊</w>
救 急</w>
在 日</w>
国 营</w>
シ ウム</w>
苦 しみ</w>
興 味
経 費</w>
生 意</w>
库 存</w>
年 寄り</w>
古 く</w>
迈 克尔</w>
敌 对</w>
キュー バ</w>
2 56</w>
视 察</w>
眼 光</w>
歌 唱</w>
外 資</w>
キ ュー</w>
絞 り</w>
牧 師</w>
很 棒</w>
含 める</w>
党 政</w>
信号 线</w>
バ レー
s v
p si</w>
on u
1 /
来 年度</w>
外 观</w>
アイ コ</w>
sn r</w>
198 1</w>
駆 け</w>
金 曜日</w>
撤 去</w>
战 线</w>
悪 魔</w>
同 点</w>
侧 面</w>
パレ スチ
面 谈</w>
農 場</w>
累 積</w>
怀 念</w>
s d
金 氏</w>
试 听</w>
読み 出す</w>
玫 瑰</w>
单 一化</w>
ポ ルト
パー セント</w>
牧 师</w>
波 及</w>
有 意</w>
无 疑</w>
意 義</w>
协 同</w>
华尔 街</w>
农 林</w>
サブ システム</w>
避 开</w>
欠 点</w>
市 立</w>
sh o
it y</w>
i o</w>
19 00</w>
率 直</w>
急 が</w>
延 坪</w>
全 局</w>
ベ テラン</w>
シ ミュ
7 06</w>
義 務
缩 减</w>
石 神</w>
来 临</w>
朴正 熙</w>
做 成</w>
ウ ソク</w>
あん た</w>
mb ps</w>
ig h
議 題</w>
爱 国</w>
波 兰</w>
歌 い</w>
悲 劇</w>
ロ バート</w>
靖 国
靖国 神社</w>
这 座</w>
登 っ</w>
复 数</w>
代 わっ</w>
フ ー
ソ ード</w>
だ から
素 数</w>
特 例</w>
杭 州</w>
换 成</w>
幹 事</w>
安 置</w>
品 物</w>
发 货</w>
乱 れ</w>
临 床</w>
リ リース</w>
ヨ ル</w>
院 子</w>
見 学</w>
日 出</w>
无 能</w>
效 性</w>
愛 情</w>
学 金</w>
发 动机</w>
プ ラン</w>
9 5%</w>
2 32</w>
那 儿</w>
自 民</w>
尔 斯</w>
将 兵</w>
宝 贵</w>
大 都市</w>
制 作
並 列</w>
一 座</w>
ニ ール</w>
関 西</w>
訪 韓</w>
舒 适</w>
眠 れ</w>
执 着</w>
前 進</w>
パレスチ ナ</w>
ネット ワーク
ストライ キ</w>
コー ディング</w>
缓 慢</w>
恰 当</w>
ピ ョン</w>
ビ ン
ス ケー
ジ アラビア</w>
サウ ジアラビア</w>
コ ロン
め い</w>
饮 酒</w>
当 面</w>
受 贿</w>
リン グ
メリ ット</w>
キム・ ソン
が し</w>
新 作</w>
役 目</w>
加 热</w>
一 口</w>
そ ろ</w>
西 南</w>
纯 粹</w>
率 い</w>
明 本</w>
早 已</w>
提 携</w>
天然 气</w>
垄 断</w>
交 付</w>
じ ゅう</w>
13 7</w>
集 装箱</w>
薬 物</w>
突 发</w>
疎 通</w>
共 产</w>
お 菓子</w>
t v
鑑 賞</w>
過 激</w>
现 地</w>
弥 补</w>
家 事</w>
员 会</w>
保 全</w>
从 中</w>
下 车</w>
身 为</w>
等 しい</w>
消 防
改 进</w>
抗 日</w>
手が かり</w>
尽く す</w>
产 量</w>
エリ ート</w>
ば ら</w>
っぽ い</w>
栅 极</w>
心 理学</w>
堆 积</w>
国 产</w>
哈 哈</w>
入 场
テ ル
ne is</w>
l s</w>
a bc</w>
4 16</w>
韩 语</w>
遊 ん</w>
触 发</w>
经 典</w>
所 在地</w>
存 じ</w>
大 城市</w>
ト マ
风 俗</w>
献 身</w>
文 中</w>
拉 斯</w>
手 帳</w>
圣 火</w>
不 着</w>
ポルト ガル</w>
サン フランシ
た か</w>
い ち</w>
事 堂</w>
上 台</w>
幅 広い</w>
巧 妙</w>
出 战</w>
会议 室</w>
ブレー キ</w>
ア ム
设 定值</w>
宣 判</w>
全 程</w>
フェ イス</w>
パン ダ</w>
c m
语 法</w>
断 面</w>
参 戦</w>
分 析
ラ ブ
サンフランシ スコ</w>
イ・ フェチャン</w>
だ ら</w>
す り</w>
さす が</w>
u f
旧 金山</w>
整 合</w>
支払 っ</w>
大 多</w>
休 闲</w>
パス ワード</w>
l u</w>
調 和</w>
老 家</w>
物理 层</w>
手 动</w>
响 起</w>
マッ チ
と ら</w>
じ っと</w>
3 18</w>
走 进</w>
有 利于</w>
审 理</w>
入 札</w>
スピー カ</w>
go p</w>
转 达</w>
脱 し</w>
现代 化</w>
季 后
季后 赛</w>
女子 高</w>
同 一个</w>
克 斯坦</w>
ブ リ</w>
ナ ビ
く じ</w>
5 30</w>
関 節</w>
逃 れ</w>
月 曜日</w>
得 票</w>
幼 稚
光 ディスク</w>
人民 元</w>
中 介</w>
アバ タ</w>
ぼ う</w>
げ よ</w>
goo g
追い 込ま</w>
果 敢</w>
ヒ ー
ハ ル
ま もなく</w>
その 間</w>
t l</w>
浪 費</w>
必 死</w>
大 々
大々 的</w>
半 径</w>
修 行</w>
不 及</w>
ポ ン
デジ タル
し り</w>
連 休</w>
業 生</w>
授 权</w>
得 主</w>
卒 業生</w>
パ ッケ
パッケ ージ</w>
ド ル
海 拔</w>
普通 人</w>
在 庫</w>
司 会</w>
古 巴</w>
原 点</w>
下 流</w>
ユ ダ
ジャン ル</w>
u ae</w>
规 范</w>
衬 衫</w>
男 朋友</w>
明 細</w>
奖 杯</w>
リ ス</w>
テ ウ</w>
阪 神</w>
长 崎</w>
老 虎</w>
放射 性</w>
探 测</w>
拍 照</w>
担 う</w>
弁 護</w>
イ チ
アク セ
み える</w>
i co
速 やか</w>
落と す</w>
纸 币</w>
票 房</w>
申请 书</w>
无 核化</w>
敬 意</w>
大 奖</w>
外 来</w>
困 る</w>
バレー ボール</w>
速 滑</w>
自 在</w>
止 まり</w>
木 材</w>
摩 托
叔 叔</w>
借 り
ミ キ
カ オ</w>
ま つ
自 責</w>
睡 着</w>
構 え</w>
柯 南</w>
カンナム グ・
アイ テム</w>
銀 メダル</w>
遅 刻</w>
评论 家</w>
流れ 図</w>
市 役所</w>
安 慰</w>
孔 子</w>
动物 园</w>
创 新</w>
其 说</w>
ポータル サイト</w>
プライ ド</w>
セ ジョン
た て</w>
iv e</w>
解 开</w>
收 藏</w>
报 头</w>
恶 魔</w>
同 名</w>
プ タ</w>
フ ード</w>
ち がい</w>
马 斯</w>
大 和</w>
半 个</w>
与 其说</w>
ヴ ェ
ジ ング</w>
ウェブ サイト</w>
猴 子</w>
后 遗症</w>
北 米</w>
オー バー
路 口</w>
行 星</w>
盛 大</w>
教 学</w>
婚 式</w>
ユダ ヤ</w>
pp m</w>
言い 渡し</w>
维 新</w>
浮か ん</w>
殴 打</w>
受 光</w>
上 文</w>
ウエ ア</w>
r e</w>
通 う</w>
瀑 布</w>
渋 谷</w>
李 光
机 能</w>
届 け
奖 学金</w>
全球 化</w>
飛 ばし</w>
適 正</w>
落 实</w>
排 球</w>
幼 児</w>
吹 き</w>
向 かい</w>
可 谓</w>
セミ ナー</w>
団 結</w>
同 調</w>
不 必</w>
モ ール</w>
デザ イナー</w>
チェ ーン</w>
かし ら</w>
iph one</w>
迫 る</w>
看 上去</w>
最 先</w>
星期 五</w>
散 布</w>
押 さえ</w>
引き 継ぎ</w>
将 要</w>
ウェ ート</w>
ウ リ
2 400</w>
頂 点</w>
運 ん</w>
聞 こえる</w>
発 効</w>
感 光</w>
巴 勒
学 系</w>
国 债</w>
参 与
原 案</w>
半 决赛</w>
全 都</w>
上 来</w>
フ リー
ズ ボン</w>
インデ ックス</w>
i i</w>
面 談</w>
野 田</w>
配 器</w>
膨 ら
李荣 杓</w>
主 宰</w>
ド ーム</w>
テク ノ
スト レ
と こ</w>
だ す</w>
すす め</w>
こん に
a 4</w>
航 海</w>
結 婚式</w>
演 劇</w>
巡 り</w>
从 前</w>
ジュ ニア</w>
駆け つけ</w>
截 然</w>
废 弃</w>
宝 物</w>
否 则</w>
前 期</w>
e l</w>
立ち 上がっ</w>
日 光</w>
基 调</w>
假 期</w>
不 敢</w>
ミ ャン
ギ ター</w>
3 5
3 16</w>
飾 っ</w>
辞 呈</w>
爆 撃</w>
步 伐</w>
数 千</w>
愚 蠢</w>
く ら</w>
t un</w>
6 30</w>
最 有</w>
展 出</w>
动 产</w>
トヨ タ</w>
ツ リー</w>
エピ ソード</w>
駐 留</w>
该 报</w>
褒 め</w>
汉 阳</w>
拳 击</w>
左 边</w>
一 生
貴 方</w>
言 うま
言うま で
扫 除</w>
干 劲</w>
已 故</w>
封 建</w>
字 节</w>
レ ンス</w>
ヨ プ</w>
ミャン マー</w>
ク ロー
领 袖</w>
取り 戻す</w>
切 実</w>
克 隆</w>
ニ ズム</w>
ぜ ん</w>
15 3</w>
银 座</w>
鑑 定</w>
金 銭</w>
消 す</w>
气 息</w>
明 る</w>
打 进</w>
墙 上</w>
同 居</w>
te d</w>
落ち 込ん</w>
小 小
学生 会</w>
体 会</w>
世界 级</w>
ニ ン
キロ メートル</w>
オール スター</w>
话 语</w>
話 せ</w>
礼 貌</w>
用 语</w>
誇 る</w>
烟 花</w>
壁 画</w>
助 言</w>
偿 金</w>
ド メイン</w>
ダ メ</w>
17 2</w>
警 報</w>
小小 的</w>
報 酬</w>
制 約</w>
传 球</w>
为 难</w>
リ ビア</w>
ゼ ネ
3 3.
大 气</w>
只 好</w>
光 荣</w>
ポー ズ</w>
パク・ チ
ニ ックス</w>
逃 跑</w>
色 々</w>
抛 弃</w>
巴勒 斯坦</w>
坚 定</w>
内 科</w>
主 題</w>
辞 め</w>
诚 意</w>
認 可</w>
消 える</w>
断 言</w>
小 孩</w>
凶 器</w>
侨 胞</w>
予 報</w>
・ ヨン
ま じめ</w>
3 80</w>
越 是</w>
装 载</w>
精 通</w>
精 英</w>
环 保</w>
民 衆</w>
摩托 车</w>
引き 起こし</w>
助 手</w>
知 名</w>
渠 道</w>
摇 滚</w>
按 键</w>
割り 当てる</w>
上 半场</w>
ペ イ</w>
フロリ ダ</w>
く っ</w>
连 带</w>
身 赛</w>
膨 大</w>
総 省</w>
継 承</w>
热 身赛</w>
审判 员</w>
完 工</w>
大 王</w>
ジェ ン
オ ール</w>
なる べく</w>
退 党</w>
軍 部</w>
話し 合い</w>
煽 动</w>
次 郎</w>
数 多く</w>
揺 さ
奖 赛</w>
大 奖赛</w>
冬 奥会</w>
モ ノ</w>
ホワイ ト</w>
に ぎ
お け</w>
留 意</w>
声 优</w>
合 物</w>
剪 辑</w>
业 化</w>
飞行 员</w>
缺 席</w>
最 中</w>
文 稿</w>
尚 武</w>
創 設</w>
会 える</w>
ア ッ</w>
り 物</w>
en t
进 程</w>
军 官</w>
流 行
存储 卡</w>
塔 利
塔利 班</w>
告 别</w>
东 大</w>
バレ ル</w>
テ コンド
テコンド ー</w>
近 づく</w>
肖 像</w>
缘 故</w>
教 訓</w>
持 分</w>
巴 塞
屈 服</w>
世 間</w>
ブク ド・
ニ コ
ア ス</w>
g s</w>
3 9.
関 わる</w>
暴 力
光 栄</w>
修 生</w>
ダイ オ
1 2%</w>
靖 子</w>
早 め</w>
整 天</w>
利 点</w>
チャ ム
スカ ート</w>
键 盘</w>
种 族</w>
交 际</w>
二 维</w>
プ ラン
チェ ン
の 毛</w>
界 线</w>
孙 子</w>
元 和</w>
スー ツ</w>
高 龄</w>
賭 博</w>
知 人</w>
湿 度</w>
极 化</w>
バイ オ</w>
ひと まず</w>
支 票</w>
执行 官</w>
国防 総省</w>
倒 塌</w>
ペ ー
め れ</w>
200 9-
穿 上</w>
登 り</w>
样 品</w>
果 实</w>
最高 值</w>
曼 联队</w>
斯 特</w>
幼稚 園</w>
一般 人</w>
高 山</w>
間違 え</w>
配 件</w>
转 播</w>
持ち 主</w>
外 援</w>
双 龙</w>
p sk</w>
c ch</w>
骑 士</w>
调 味</w>
親 切</w>
習 近</w>
点 亮</w>
混 ぜ</w>
此 类</w>
検 疫</w>
時 速</w>
対 称</w>
夸 张</w>
你 好</w>
争 う</w>
驻 扎</w>
金 泰</w>
运 河</w>
行 长</w>
船 只</w>
界 面</w>
情 报
君 たち</w>
农 林
ヘ ン
か な</w>
い て
6 40</w>
離 れる</w>
遺 症</w>
抖 动</w>
後 遺症</w>
利 己</w>
充 当</w>
フィル ム</w>
フ ィ</w>
チャ レンジ</w>
わざ わざ</w>
よろ しい</w>
ふ り</w>
に 従い</w>
返 っ</w>
詹 姆斯</w>
被 災</w>
极 限</w>
数 理</w>
可 愛
卷 入</w>
と き
い こ</w>
風 呂</w>
铜 牌</w>
辞 書</w>
毎 朝</w>
忠 実</w>
夜 景</w>
動 機</w>
ボー ナス</w>
フィ ア</w>
グ ー
の り</w>
i l</w>
10 10</w>
适 于</w>
轻 轻</w>
自 転</w>
発 達</w>
港 湾</w>
暗 く</w>
成 り
威 特</w>
坠 落</w>
地 価</w>
反 败为胜</w>
厚 い</w>
举 起</w>
ビッ グ</w>
水 域</w>
新 干线</w>
揺 る
抗 争</w>
供 应
世界 一</w>
ポ ピュ
パ ネル
自 慢</w>
发 型</w>
勲 章</w>
代 議員</w>
カラ オ
い よ
m c</w>
b 3</w>
日 記</w>
军 团</w>
リン ゴ</w>
タイ ン</w>
スケジュー リング</w>
エ ース</w>
2 21</w>
過 ぎる</w>
财经 部</w>
着 陸</w>
控 股</w>
式 典</w>
占 有</w>
中 堅</w>
モン スター</w>
柔 软</w>
归 属</w>
40 .
19 72</w>
満 点</w>
比 べ
憧 憬</w>
弾 圧</w>
合 致</w>
収 賄</w>
ミ シェル</w>
ドゥ ン
経 常</w>
熱 心</w>
烈 士</w>
或 いは</w>
想 吃</w>
引っ 越し</w>
定 める</w>
埋 葬</w>
专 科</w>
チェ ジュ</w>
オ ル</w>
辞 表</w>
見 舞わ</w>
血 糖</w>
给 定</w>
星期 六</w>
悠 闲</w>
当 性</w>
座 り
嘴 唇</w>
不 揮発</w>
2 36</w>
0. 5%</w>
海 面</w>
北 側</w>
使い 方</w>
モ ンド</w>
メ ス</w>
ファ ーム
ド ラ</w>
th e</w>
船 员</w>
相次 ぐ</w>
排 队</w>
总 数</w>
发 生
发 布
リ ョ
ディ エ
スティ ー
と れ</w>
た つ</w>
断 定</w>
改 组</w>
招 請</w>
受 講</w>
偵 察</w>
ボン フレ
12 a</w>
陛 下</w>
旋 律</w>
扣 留</w>
廊 下</w>
序 盤</w>
就 此</w>
国 庫</w>
一 等</w>
i 0</w>
龙 仁</w>
高 建</w>
阳 市</w>
说 起</w>
经济 界</w>
張 る</w>
冠 军
全 額</w>
倒 し</w>
预算 处</w>
财产 税</w>
華 やか</w>
興 行</w>
泳 ぎ</w>
決 算</w>
挙 げる</w>
投 じ</w>
戦 後</w>
强 迫</w>
一 路</w>
いよ いよ</w>
ur l</w>
極 端</w>
払 わ</w>
大 师</w>
光 纤</w>
临 近</w>
不 负</w>
スキャ ナ</w>
シ ート</w>
こんに ち
p n</w>
瘫 痪</w>
取 れる</w>
伴 っ</w>
せ れ</w>
h p</w>
3 11</w>
2 64</w>
言い 方</w>
芬 兰</w>
比 利
是 否
是否 是</w>
ミ ング
ボンフレ ール</w>
ケ ン
ア イン
驱 逐</w>
近 接</w>
彼 氏</w>
处 以</w>
励 まし</w>
制 し</w>
シ ム・
と め</w>
鼓 舞</w>
运 营
招 き</w>
容 忍</w>
吉 他</w>
卓 越</w>
农林 部</w>
井 上</w>
プレミ ア</w>
にわ たり</w>
b l
金 泳三</w>
蔵 庫</w>
职 权</w>
置 き
绘 画</w>
经济 人</w>
楼 梯</w>
恐 慌</w>
巡 っ</w>
地 主</w>
图 书</w>
フォル ダ</w>
誇 り</w>
好 象</w>
奥 委会</w>
固 件</w>
向 导</w>
亲 近</w>
レギュ ラー</w>
o l</w>
3 8.
2 90</w>
剥 夺</w>
先 物</w>
レ ス
プリン ター</w>
イン ター</w>
駆 使</w>
谈 到</w>
真 心</w>
朝 着</w>
时 事</w>
拥 抱</w>
博 覧</w>
单 身</w>
共 鸣</w>
住 房</w>
人 命</w>
プロ グラ
キャ ピ
イメージ センサ</w>
14 3</w>
边 境</w>
起 因</w>
答 弁</w>
履 历</w>
反 復</w>
任 せる</w>
ツ ー
アリ ゾ
お 祝い</w>
あ ら</w>
通 じる</w>
浮 出</w>
旺 盛</w>
支 える</w>
戦 線</w>
少 量</w>
三 菱</w>
万 博</w>
ドジャ ース</w>
わら ず</w>
5 b</w>
19 74</w>
飲 酒</w>
接 し</w>
崔 某</w>
好 久</w>
和 国际</w>
ヒ ト</w>
こ め</w>
d f</w>
第 六</w>
画 期
画期 的</w>
引き 起こす</w>
店 员</w>
升 值</w>
农 产品</w>
リ ディア</w>
スポ ット</w>
こ っち</w>
铃 声</w>
金 善
财 阀</w>
看 过</w>
尽 力</w>
ング ァン</w>
ポリ シー</w>
コ メディ
か しく</w>
おか しい</w>
退休 金</w>
警 護</w>
纪念 馆</w>
積 ん</w>
種 別</w>
牺牲 者</w>
検 挙</w>
在 籍</w>
ラ ・
メ カ
ド ク
じ み</w>
ad c</w>
19 73</w>
踏 上</w>
电 梯</w>
何 とか</w>
ケ ソン</w>
bb b</w>
最大 值</w>
新 村</w>
损 伤</w>
小 中</w>
報 復</w>
優 しい</w>
一 次
ボ ム</w>
ド レス</w>
b is</w>
运 转</w>
認 知</w>
抽 象</w>
出 境</w>
人 情</w>
ラ ップ</w>
イ ェ
アドフォ カート</w>
邻 近</w>
死 亡
握 る</w>
排 斥</w>
录 用</w>
ッシャ ー</w>
と なく</w>
おじ いさん</w>
w it
19 75</w>
0. 0
頑張 り</w>
负 载</w>
校 内</w>
敵 対</w>
揃 え</w>
捉 え</w>
卡 尔</w>
冷 战</w>
冷 え
农 协</w>
何 より</w>
体 化</w>
ドライ バ</w>
じ っ</w>
cc u
随 行</w>
異 なっ</w>
構 わ</w>
承 知</w>
彫 り</w>
大 幅度</w>
多 国</w>
スチ ック</w>
ウ ド</w>
な ろ</w>
つ いで</w>
s n</w>
n r</w>
読み 出さ</w>
複 製</w>
対 比</w>
实质 性</w>
女 神</w>
公 判</w>
业 性</w>
万 元</w>
ピ ン
タイ マ</w>
エ ア</w>
ウィ ン</w>
な き</w>
おば あさん</w>
b d</w>
16 5</w>
谦 虚</w>
解 说
朝鮮 半島</w>
撤 廃</w>
外 さ</w>
图 表</w>
人 前</w>
く も</w>
l 2</w>
4 11</w>
3 8
考え れ</w>
欢 呼</w>
押 す</w>
完 整</w>
堵 塞</w>
不可 欠</w>
クォ ーター</w>
9 02</w>
頻 度</w>
米 饭</w>
炎 症</w>
感 度</w>
向 ける</w>
上 帝</w>
り 出し</w>
l d</w>
14 %</w>
週 刊</w>
相 逢</w>
独 身</w>
气 象</w>
扩 张</w>
器 件</w>
否 决</w>
偏 见</w>
谅 解</w>
見 込ん</w>
清 掃</w>
正 解</w>
後 悔</w>
力 士</w>
レー ン</w>
模 範</w>
技 术
待 た</w>
历 代</w>
免 税</w>
優 位</w>
书 面</w>
万 里</w>
一 侧</w>
レ クト
セ ラー</w>
にお い</w>
髪 の毛</w>
訊 い</w>
漂 流</w>
期 货</w>
多 彩</w>
厳 格</w>
ファーム ウェア</w>
オースト リア</w>
たっ ぷり</w>
i ee
2 51</w>
高 桥</w>
迫 切</w>
结 成</w>
女 朋友</w>
天 安
夜 間</w>
同 然</w>
ひ き
李 健
局 限</w>
大 西洋</w>
右 目</w>
原则 上</w>
其 他人</w>
不 上</w>
ば ら
し の
賛 否</w>
荒 唐</w>
方 框图</w>
总 共</w>
发 掘</w>
区 役所</w>
个 体</w>
严 峻</w>
ヨ ンス</w>
し ょう
p uc
集 積</w>
长 安</w>
長 男</w>
赤 く</w>
环 境
曖 昧</w>
左 目</w>
占 領</w>
伤 口</w>
ブレ ット</w>
ニ ン</w>
こんにち は</w>
水 素</w>
抜 く</w>
快 点</w>
出 題</w>
冗 談</w>
フィン ランド</w>
ゴ ー
2 ,
驚 き</w>
順 番</w>
露 骨</w>
逆 差</w>
英 寸</w>
相 继</w>
渋 滞</w>
新 興</w>
收 拾</w>
德 里
ピ ース</w>
パ パ</w>
コンサル ティング</w>
tr a</w>
b da</w>
车 道</w>
诸 多</w>
规 划</w>
組 ん</w>
疑 似</w>
王 室</w>
游 泳
李 钟
同 性</w>
つ らい</w>
せ つ</w>
10 000</w>
规 章</w>
済 む</w>
冷 戦</w>
プロ バイ
プラ スチック</w>
ネ ス
ギャ ラリー</w>
イ・ ジェ
の ち</w>
解说 员</w>
西 瓜</w>
緊 密</w>
石 炭</w>
知 名
知名 度</w>
比利 时</w>
旋 风</w>
席 位</w>
一生 懸命</w>
マイ ク</w>
ヘ リ</w>
々 しい</w>
dv i</w>
3 7
戒 指</w>
德 里</w>
十 字
割 れ</w>
修 復</w>
ロ ジー</w>
コンビ ニ</w>
bs r</w>
设 有</w>
腹 部</w>
终 了</w>
日 中</w>
我 が国</w>
情 侣</w>
上 年</w>
わざ と</w>
t ft</w>
on g</w>
n a</w>
親 善</w>
美 子</w>
申し 込み</w>
比 尔</w>
条 纹</w>
思い 出す</w>
处 长</w>
受 像</w>
内 蔵</w>
亲 属</w>
东 盟</w>
ラ ク
パー ソ
ステ ーション</w>
サ ル
さ し</w>
通讯 部</w>
覚 える</w>
端 的</w>
便 是</w>
さ ら</w>
買い 入れ</w>
微 软</w>
多 达</w>
共同 点</w>
一 级</w>
ゴ ム</w>
カ ギ</w>
そろ そろ</w>
t b</w>
研 修生</w>
电 气</w>
激 化</w>
智 子</w>
打 席</w>
再 送</w>
免 許</w>
优 胜</w>
アッ プル</w>
あ て</w>
碰 撞</w>
无 力</w>
战 场</w>
小 屋</w>
商 标</w>
兼 ね</w>
ごめ ん
論 評</w>
虐 殺</w>
葡 萄</w>
美 洲</w>
生 かし</w>
浴 衣</w>
新 鮮</w>
新 入</w>
对 峙</w>
図 っ</w>
前 夕</w>
人 件</w>
主 旨</w>
う わさ</w>
8 01</w>
生活 费</w>
热 带</w>
手 当て</w>
延 世
岭 南</w>
友 谊</w>
利 用
ヤン キ
マスター ズ</w>
セ ックス</w>
いち ばん</w>
20 30</w>
重 子</w>
适 配器</w>
跳 躍</w>
流 血</w>
気に 入っ</w>
延世 大</w>
定 向</w>
安 贞
子 会社</w>
オ ス
き わ
聴 い</w>
積 み
示 范</w>
疏 忽</w>
町 村</w>
清 廉</w>
換 える</w>
奖 项</w>
变 量</w>
不 必要</w>
サー ジ</w>
だ か</w>
p 8</w>
移 す</w>
火 焰</w>
抜 擢</w>
吹 い</w>
中 身</w>
丑 闻</w>
く ら
電 動</w>
李 斋</w>
塔 尔</w>
タン パ
キム・ ビョン
わ い
ね ぇ</w>
重 力</w>
规 律</w>
臭 い</w>
筷 子</w>
療 法</w>
李健 熙</w>
有 機</w>
延 续</w>
局 所</w>
导 航</w>
上 陸</w>
一 审</w>
マ ド
g sm</w>
d h
足 以</w>
証 人</w>
星期 一</w>
養 成</w>
解 剖</w>
突 っ
玻 璃
法 則</w>
柔 ら
宇 航
坦 白</w>
哥伦 比亚</w>
力 学</w>
パイ プ</w>
カ プ
19 68</w>
美 联
异 性</w>
小 野</w>
天 候</w>
地 雷</w>
中 方</w>
チョン・ドン ヨン</w>
スト ラ</w>
面 具</w>
手 当</w>
ゲ イン</w>
ア イ</w>
ひ そ
h i
2 55</w>
馆 长</w>
贝 克</w>
策 划</w>
最高 峰</w>
ベル ギー</w>
s 14</w>
进 口
计 时器</w>
正 午</w>
斡 旋</w>
得 不到</w>
录音 带</w>
小 売</w>
实验 室</w>
委 任</w>
デン マーク</w>
キャ ラ</w>
d is
第二 位</w>
科 威特</w>
営 利</w>
主 办
一 律</w>
パス ポート</w>
て ん</w>
g 8</w>
舜 臣</w>
精 油</w>
点 点</w>
施 压</w>
奴 隷</w>
国 営</w>
叫 ぶ</w>
不 大</w>
一 環</w>
mfp 300</w>
通 路</w>
离 子</w>
指 纹</w>
先 后</w>
傷 つけ</w>
偶 数</w>
伝 説</w>
下 游</w>
チャ イ
集 群</w>
说 服
翅 膀</w>
理事 国</w>
特 権</w>
特 权</w>
源 于</w>
新 罗</w>
役に 立つ</w>
亚 利
上 級</w>
セ ジョン</w>
クライ ナ</w>
アン プ</w>
ぴ ったり</w>
说 谎</w>
日 内
日内 瓦</w>
封 闭</w>
不 已</w>
た さ</w>
鲍 威尔</w>
食 材</w>
非 公式</w>
長 所</w>
配 送</w>
市 庁</w>
冷 蔵庫</w>
乌 克兰</w>
ハ ム
ウ クライナ</w>
15 8</w>
说服 力</w>
注 重</w>
情 感</w>
养 育</w>
パク・ チャン
あ んな</w>
连 任</w>
移 っ</w>
旗 帜</w>
总 罢工</w>
後 方</w>
匂 い</w>
公 然</w>
例 年</w>
休 息
一 応</w>
スー プ</w>
コン ディ
ため 息</w>
顔 色</w>
贈 り物</w>
議 院</w>
申 し</w>
注 释</w>
挽 救</w>
加 大</w>
全 景</w>
マッ サージ</w>
チュンチョン ナムド・
オ ロ
co 2</w>
as ic</w>
追 わ</w>
検 定</w>
无 事</w>
开 朗</w>
就 读</w>
安 企
安企 部</w>
坦 克</w>
分 化</w>
元 々</w>
一 刻</w>
リスト ラ</w>
ト ーン</w>
ト ウ
ソ ング</w>
す ぐ
し に</w>
r an
轮 廓</w>
解 答</w>
見 守る</w>
死 因</w>
控 除</w>
意 料</w>
地 利</w>
営 业</w>
可 疑</w>
共 振</w>
一 月</w>
st a</w>
s 15</w>
b 2</w>
隠 す</w>
生 え</w>
気 配</w>
処 方</w>
一 首</w>
れ て</w>
预 览</w>
阻 挡</w>
群 岛</w>
流 す</w>
注 い</w>
星期 日</w>
幸 運</w>
小 切手</w>
人 目</w>
中 等</w>
リ ック</w>
ごめん なさい</w>
win do
m ic
郁 症</w>
過 半数</w>
管理 者</w>
憧 れ</w>
开 会</w>
テ ロ
カ リ</w>
み ず
ic c</w>
6 08</w>
预测 值</w>
頼 り</w>
神奈 川</w>
查 找</w>
是 正</w>
幽 灵</w>
多样 性</w>
出生 率</w>
セロ ナ</w>
スペ シャル</w>
ジェ ーン</w>
キャピ タル</w>
金 融
营 造</w>
罗 那</w>
温 かい</w>
授 賞</w>
戏 剧
巴塞 罗那</w>
加 害</w>
办 公</w>
假 定</w>
ブ ク</w>
につ れて</w>
こ い</w>
3 22</w>
深 处</w>
河 南</w>
止 まる</w>
时 计</w>
大 阪
多 発</w>
原子 弹</w>
公 认</w>
ご 覧</w>
霍 温</w>
竞 赛</w>
搬 运</w>
往 復</w>
受 赏</w>
下 記</w>
シミュ レーション</w>
カラオ ケ</w>
い り</w>
p re
goog le</w>
2 34</w>
麦克 风</w>
高 价</w>
起 初</w>
生 む</w>
是 日</w>
探 讨</w>
常 见</w>
将 校</w>
クシ ング</w>
オ レ</w>
ア ス
や れ</w>
か た</w>
退 任</w>
累 积</w>
狭 窄</w>
水 位</w>
松 田</w>
平 方</w>
尺 度</w>
リバ ウンド</w>
ミ ニ</w>
プレ ビュー</w>
コ ナン</w>
fl o</w>
4 8
遺 跡</w>
訴 える</w>
被 疑</w>
胳 膊</w>
眼 中</w>
生 息</w>
幼 稚</w>
埋 め
千 里</w>
何 况</w>
低 价</w>
伯 爵</w>
ハ ク
遗 迹</w>
进 出</w>
路 易
调 色</w>
覆 わ</w>
横 断</w>
態 勢</w>
心 地</w>
厂 商</w>
公 募</w>
信 托</w>
丹 麦</w>
ク ウェート</w>
いらっしゃ い</w>
j pe
隊 長</w>
诊 疗</w>
英 超</w>
广 阔</w>
峰 值</w>
展 览</w>
対 面</w>
实 物</w>
关 节</w>
亚利 桑
五 个</w>
下 一代</w>
イル ソン</w>
行 人</w>
素 直</w>
変 長</w>
合 格
可 変長</w>
再 婚</w>
人 造</w>
二 十
ネ ク
ぶ る</w>
ちゃ う</w>
身 心</w>
贯 彻</w>
昂 贵</w>
年 収</w>
幕 后</w>
少な から</w>
ヒロ イン</w>
バル セロナ</w>
す れ
眺 望</w>
無 関係</w>
消 去</w>
浮き 彫り</w>
微 生物</w>
ペ ク・
ち ま
電 波</w>
読み 取る</w>
硕 士</w>
着 陆</w>
明 智</w>
放 下</w>
周 五</w>
ル ズ</w>
大 震</w>
ログ イン</w>
マ ウンド</w>
ネ ーム</w>
キ ッ
まさ か</w>
お も
青 色</w>
吸 い
台 北</w>
ー プ</w>
ジェ ーム
ア プリ</w>
1 1%</w>
约 翰
神 戸</w>
照 らし</w>
把 手</w>
安贞 桓</w>
好 事</w>
売 ら</w>
ファ クト</w>
セキュ リティ
セ ウォル</w>
5 7.
高 额</w>
韩 元和</w>
铅 笔</w>
請 託</w>
范 囲</w>
相 変
相変 わらず</w>
明 かし</w>
悠 久</w>
属 し</w>
努 め</w>
初 代</w>
做 饭</w>
せっ かく</w>
a w
8 -
讲 课</w>
计 划
葬 儀</w>
萨 达
营 口</w>
李东 国</w>
指 针</w>
夺 走</w>
パウ エル</w>
あふ れる</w>
諸 島</w>
消 極</w>
最 年少</w>
一 括</w>
セ ーブ</w>
しか け</w>
s 6</w>
香 水</w>
金 英
舰 队</w>
管 辖</w>
真 似</w>
忘 れる</w>
循 环
开 启</w>
定 员</w>
地 步</w>
功 能性</w>
军 部</w>
主题 曲</w>
リ ゾ
ド ナルド</w>
ク ローン</w>
ふ と</w>
か ん
途 径</w>
译 码</w>
流 動</w>
李 凤
断 开</w>
情 況</w>
发布 会</w>
剧 增</w>
公 交
ポ スター</w>
タリ バン</w>
jpe g</w>
葡萄 牙</w>
殆 ど</w>
搬 家</w>
工程 师</w>
仲 良く</w>
スト ロ
2 25</w>
难 度</w>
灰 尘</w>
注 釈</w>
コ ラム</w>
t 3</w>
7 12</w>
频 流</w>
走 上</w>
解 放
视 频流</w>
萨达 姆</w>
桐 原</w>
忍 者</w>
参 见</w>
初 頭</w>
减 税</w>
二 氧化
げ ん</w>
s 12</w>
6 12</w>
邮 报</w>
调查 组</w>
補 欠</w>
稼 い</w>
着 用</w>
手伝 い</w>
德 尔</w>
大 力</w>
在 场</w>
可 乐</w>
公交 车</w>
兄 さん</w>
假 日</w>
两 极化</w>
一次 性</w>
议 书</w>
草 原</w>
育 児</w>
聘 请</w>
用 事</w>
市 政府</w>
何 故</w>
位置 づけ</w>
中 道</w>
か め</w>
难 得</w>
银 河</w>
铜 像</w>
興味 深い</w>
美 化</w>
爆 破</w>
气 势</w>
查 看</w>
撤 収</w>
心 境</w>
岛 屿</w>
周 一</w>
バイ オ
チ ン・
1 29</w>
难 题</w>
递 交</w>
连接 器</w>
赚 钱</w>
東 京
改 名</w>
国 語</w>
出 せる</w>
レッ スン</w>
わ せ</w>
やり 取り</w>
se t</w>
ic h</w>
3 6
間 もなく</w>
酒 吧</w>
連 立</w>
较 的</w>
負 わ</w>
说明 会</w>
茶 道</w>
摔 跤</w>
屋 外</w>
尼 尔</w>
夜 空</w>
壊 し</w>
右 边</w>
分か ち</w>
タ スク</w>
ジュ ヨン</w>
カロ リー</w>
退 陣</w>
这 笔</w>
较 少</w>
终 结</w>
糾 弾</w>
欠 け</w>
新 华
戦 っ</w>
奥 地利</w>
大 乱</w>
動 揺</w>
加 剧</w>
冗 長</w>
不 適切</w>
sc o</w>
b p</w>
16 %</w>
认 知</w>
特 产</w>
有 时候</w>
封 面</w>
天 井</w>
嘲 笑</w>
克 利</w>
コミュニ ティ</w>
除 き</w>
金 大
背 叛</w>
温 和</w>
母 乳</w>
暮 れ</w>
抬 起</w>
想 想</w>
弹 道</w>
好 調</w>
医 疗
ヨン サン</w>
节 省</w>
破 格</w>
灭 绝</w>
派 对</w>
廉 价</w>
否 認</w>
取 景</w>
上 游</w>
バ レン
ガン サン</w>
エ キ
とん でも</w>
あ う</w>
st e
5 03</w>
过 滤</w>
说 家</w>
機 嫌</w>
搭 乗</w>
弾 道</w>
年 会</w>
宿 舎</w>
フラ イ</w>
ビ リ</w>
イン チ</w>
陆 地</w>
酱 油</w>
记 事</w>
満 期</w>
海 南</w>
彩 票</w>
山 上</w>
充 足</w>
ボ クシング</w>
もし も</w>
骨 头</w>
说 不定</w>
数 字
救 济</w>
停 战</w>
作り 出し</w>
c a</w>
还 给</w>
近 郊</w>
赤 色</w>
濃 縮</w>
性 感</w>
司法 部</w>
区 内</w>
ニューヨー ク・
も ち</w>
cc u</w>
逃 亡</w>
裤 子</w>
福 山</w>
熟 练</w>
歩 行</w>
打 倒</w>
富 翁</w>
各 部</w>
中 秋</w>
ロ ナ
np t</w>
a 3</w>
開 会</w>
球 赛</w>
呼び 出し</w>
ファー スト</w>
ステー タス</w>
ア トラン
じ ん</w>
co ex</w>
青 山</w>
近 来</w>
暂 定</w>
数 十
情 节</w>
出 かける</w>
入 场</w>
修 订</w>
人 称</w>
ス ロット</w>
なら では</w>
4. 5</w>
这 点</w>
気に 入り</w>
復 興</w>
届 く</w>
寒 く</w>
ミ ー
ト ップ
ディ ング
黒 文字</w>
长 子</w>
角 落</w>
观 赏</w>
線 形</w>
策 定</w>
本 田</w>
明 け
支 柱</w>
千 叶</w>
借 给</w>
個 々</w>
人 心</w>
ビ ック
エレ ベ
预 料</w>
時 々</w>
快 要</w>
届 时</w>
咖啡 店</w>
加 纳</w>
人 种</w>
並 行</w>
不 小</w>
イ ク
し ん
重 启</w>
熙 正</w>
消 灭</w>
殺 さ</w>
ッシ ュ
3 70</w>
郑梦 准</w>
疯 狂</w>
忙 碌</w>
建 成</w>
外 资</w>
国 库</w>
事 务
三 重</w>
ボ ス</w>
ブル ー</w>
ハ ラ</w>
キョン ギ</w>
と い
お ろ
お か</w>
th e
k ia</w>
3. 5%</w>
2 46</w>
19 77</w>
農 産物</w>
起こ さ</w>
谨 慎</w>
知 能</w>
拆 除</w>
付き 合っ</w>
メカ ニズム</w>
s 21</w>
p 3</w>
40 9</w>
1. 3</w>
重 なっ</w>
読 売</w>
若 く</w>
皇 室</w>
犹 太
法 务</w>
手 助け</w>
導 く</w>
圆 形</w>
入场 券</w>
ぶつ かっ</w>
遗 址</w>
画 廊</w>
残 疾</w>
极 度</w>
朝 日新聞</w>
引 领</w>
対 応
創 作</w>
s 202</w>
o am</w>
dm z</w>
a b</w>
頭 取</w>
非 公開</w>
行き 来</w>
水 曜日</w>
晴 天</w>
埃 因
埃因 霍温</w>
为 人</w>
る い</w>
采 集</w>
財 布</w>
誘 惑</w>
玉 米</w>
排 他</w>
あい だ</w>
遅 れる</w>
発 議</w>
杀 死</w>
制 药</w>
事 后</w>
争 っ</w>
三 十</w>
ぶ ら
自 覚</w>
脑 海</w>
磁 盘</w>
盛 り</w>
歳 月</w>
接 种</w>
採 決</w>
思 える</w>
屋 子</w>
安 倍
パ ブリ
ドキュメン タリー</w>
シン プル</w>
シ ング</w>
カウ ト</w>
过 后</w>
発 し</w>
热 心</w>
无 可</w>
抱 か</w>
収 監</w>
ビ ット
ただ ちに</w>
か ぶっ</w>
财 源</w>
贈 与</w>
自 民
极 管</w>
方 形</w>
専 念</w>
ボ ート</w>
ベ スト
ダイオ ード</w>
な わ</w>
お お
足 联</w>
破 り</w>
痛 く</w>
电 极</w>
环境 部</w>
熟 人</w>
满 贯</w>
循环 赛</w>
娯 楽</w>
ポ スコ</w>
パー ト
キ ック</w>
エ ッ
た び
おもし ろい</w>
cpu 30</w>
19 48</w>
身 姿</w>
自民 联</w>
稼 ぎ</w>
滋 病</w>
扩 充</w>
广 告
付 款</w>
二 极管</w>
ネチ ズン</w>
s 13</w>
打 招呼</w>
スタ ジオ</w>
どう やら</w>
c ap
麻 痹</w>
祈 っ</w>
相 处</w>
直 さ</w>
撞 击</w>
挑 选</w>
当 分</w>
幼 儿</w>
头 上</w>
地 价</w>
セ マ
高 地</w>
電 池</w>
銅 メダル</w>
絵 画</w>
断 っ</w>
境 地</w>
叶 子</w>
利 比亚</w>
军 方</w>
人 参</w>
シ リ
な にか</w>
高 峰</w>
维 亚</w>
祭 祀</w>
洗 っ</w>
悪 影響</w>
封 鎖</w>
坚 固</w>
カ テ
エン ター
ぐ る
t ra
飞 往</w>
董 事</w>
电 信号</w>
狂 热</w>
点 燃</w>
法 语</w>
最 短</w>
居 住
传 出</w>
ルー チン</w>
ヨン ドゥン
い ざ</w>
行 走</w>
权 重</w>
无 条件</w>
悪 口</w>
尼 日
客 气</w>
加 油
i m</w>
0. 2
通 告</w>
逃 税</w>
見 事</w>
毎 回</w>
持ち 株</w>
容 纳</w>
和 谐</w>
君 主</w>
入 选</w>
ナン バー</w>
チ ック</w>
スタン プ</w>
ス キャン
クム ガンサン</w>
ウ ・
た え</w>
か せる</w>
雑 音</w>
雅 图</w>
跨 越</w>
見 直す</w>
西 雅图</w>
渔 业</w>
清 晰</w>
歩 道</w>
周 波</w>
东 山</w>
ム ズ</w>
コンディ ション</w>
アイ ル
a u
陥 る</w>
突 破
熟 知</w>
拡 充</w>
一 任</w>
ケ ータ</w>
ar t</w>
说明 书</w>
生物 学</w>
特 兰
热 爱</w>
澳 门</w>
海 关</w>
流 失</w>
摇 头</w>
帯 び</w>
和 歌</w>
働 き
不 说</w>
门 票</w>
評 論</w>
尽 情</w>
尔 兰</w>
大 满贯</w>
四 大</w>
分 断</w>
三 角形</w>
マ ニア</w>
パク・ ヨン
バ カ</w>
ど り</w>
m m
罪 行</w>
游 戏
残 忍</w>
损 坏</w>
念 頭</w>
客 机</w>
リー ナ</w>
ベ ン</w>
シン グ
って いう</w>
19 2</w>
进 度</w>
祝 う</w>
很 深</w>
开 来</w>
宽 带</w>
学 业</w>
光 芒</w>
亚 特兰
五 月</w>
了 不起</w>
一 一</w>
ニ ウム</w>
アリゾ ナ</w>
かわ い
重 なる</w>
挪 威</w>
届け 出</w>
听 力</w>
业 主</w>
プ ク
パ ル
チョンノ グ・
ど き</w>
う ら
s 104</w>
饥 饿</w>
迷 っ</w>
诈 骗</w>
耐 克</w>
紫 色</w>
秋 季</w>
爱 尔兰</w>
海 里</w>
未 满</w>
早 起</w>
弱 く</w>
幽 霊</w>
大 江</w>
哭 泣</w>
出 名</w>
依 照</w>
ハ ・
け い</w>
in ter
表 れ</w>
芝 居</w>
綺 麗</w>
梗 塞</w>
成 都</w>
密 接</w>
叹 息</w>
十 二
前 科</w>
冷 冻</w>
兑 换</w>
克 里</w>
レ オ</w>
オ レンジ</w>
l si</w>
马 克</w>
金 升
月 底</w>
提 醒</w>
布 鲁
地方 裁判所</w>
値 上げ</w>
チャ ・
アフ ガン</w>
う る
记者 会</w>
誘 発</w>
终 身</w>
着 急</w>
法 学院</w>
取り 組み</w>
劳动 力</w>
交 纳</w>
f rb</w>
ac e</w>
4 6.
频 器</w>
金 色</w>
裙 子</w>
旅 客
小 高</w>
公 館</w>
バン クー
ダ ブル</w>
ズ ル</w>
v re
n ic
h dd</w>
颤 抖</w>
言い 訳</w>
表 格</w>
監 察</w>
申 智</w>
格 局</w>
果 て</w>
排 放</w>
出 会う</w>
スト ア</w>
n t
運 河</w>
賦 課</w>
没 落</w>
棄 却</w>
服 務</w>
後 継</w>
引き 出す</w>
モ ータ</w>
お っしゃ
u p</w>
pd cch</w>
連 行</w>
行 ない</w>
臨 む</w>
编 集</w>
浓 厚</w>
保险 费</w>
传 输
ピ ッツ
タイム ス</w>
コン バート</w>
f w</w>
百 货店</w>
灯 光</w>
火 力</w>
大 河</w>
均 等</w>
嘴 里</w>
冷 淡</w>
内 政</w>
养 成</w>
フィ ー</w>
タッチ パネル</w>
ず ら</w>
p 13</w>
4 5%</w>
2 100</w>
19 76</w>
19 65</w>
调查 团</w>
课 外</w>
触 れる</w>
花 钱</w>
自由 泳</w>
現 況</w>
無 責任</w>
早 日</w>
双 面</w>
保 守
ネズ ミ</w>
テ リア</w>
も しか</w>
つ かっ</w>
p sv</w>
訴 追</w>
紧 紧</w>
徘 徊</w>
增 进</w>
友 彦</w>
マ イル</w>
パ ノ
テクノ ロジー</w>
よ し</w>
s un
ar d</w>
閉 じ
走 行</w>
证 言</w>
百 科</w>
照 会</w>
晋 三</w>
安倍 晋三</w>
几 十</w>
位 数</w>
中 華</w>
ジ ム</w>
po c</w>
id e
8 06</w>
2. 5%</w>
闪 存</w>
語 り</w>
自治 区</w>
放 学</w>
争 夺
ポピュ リズム</w>
フィ ラ
さら さ</w>
bs e</w>
9 0
講 じ</w>
誇 示</w>
要 する</w>
画 片</w>
满 分</w>
望 ましく</w>
天 文</w>
固 态</w>
句 子</w>
决 策</w>
バ リ
セ リ
か から</w>
m w</w>
飞 船</w>
队 列</w>
远 镜</w>
这 天</w>
第三 者</w>
救 護</w>
救 う</w>
姉 さん</w>
交 响</w>
q os</w>
19 69</w>
高 額</w>
错 过</w>
负 荷</w>
警 惕</w>
精 巧</w>
税 収</w>
称 する</w>
手 腕</w>
強 豪</w>
実 効</w>
外 観</w>
后 方</w>
原 创</w>
减 弱</w>
中 坚</w>
下 ろ
ラン ダム</w>
マルチ プレクサ</w>
に く</w>
17 %</w>
紫 外线</w>
布 局</w>
小 王</w>
シ ード</w>
2 26</w>
透 過</w>
检 疫</w>
大 卒</w>
ブ ー
パネル ディスプレイ</w>
ダ ム
ジャー ナル</w>
キ ング
の ん
t e</w>
s h</w>
載 っ</w>
跳 跃</w>
親 子</w>
装 甲
臓 器</w>
灭 亡</w>
毒 性</w>
宋 斗</w>
大 都会</w>
南 山</w>
共 用</w>
モ ク
ダ イ</w>
ス リー
イン ジ
ase m</w>
2 300</w>
鎮 圧</w>
聴 取</w>
稍 后</w>
映 っ</w>
改 定</w>
导 向</w>
大 将</w>
千 年</w>
イ デ
もち ゃ</w>
香 味</w>
迎え 入れ</w>
蓝 图</w>
组 装</w>
無 限</w>
实 况</w>
地 上
図 書</w>
品 尝</w>
劇 的</w>
人 選</w>
ベ ーション</w>
c k</w>
開 通</w>
辈 子</w>
禁 烟</w>
破 棄</w>
沙 良</w>
決 意</w>
商 社</w>
参 入</w>
动 画片</w>
从 此</w>
プレ ッシャー</w>
タ オル</w>
顶 峰</w>
目覚 め</w>
病 情</w>
搞 活</w>
愛 国</w>
保 育
亚特兰 大</w>
身 近</w>
训 练
管 轄</w>
立 体
短 暂</w>
満た さ</w>
機 動</w>
打 来</w>
戸 惑
奴 隶</w>
地 道</w>
回 生</w>
借 用</w>
任 一</w>
主 意</w>
トマ ト</w>
よ って</w>
お もちゃ</w>
s a
退 学</w>
視 察</w>
艾 滋病</w>
罪 名</w>
授 与</w>
据 点</w>
捨 てる</w>
战 队</w>
弯 曲</w>
対 し</w>
地上 波</w>
収 拾</w>
動 かし</w>
こ なし</w>
脱 税</w>
生 计</w>
打 扮</w>
急 忙</w>
不 变</w>
ダ リング</w>
タッチ パネルディスプレイ</w>
ス ム
エ イズ</w>
选 中</w>
衷 心</w>
発 注</w>
电 线</w>
猪 肉</w>
早 急</w>
新 人
接 する</w>
徒 歩</w>
家 乡</w>
书 信</w>
ty pe</w>
o f</w>
al l</w>
追 いつ
農 協</w>
泰 愚</w>
搭 配</w>
打 球</w>
干 事</w>
外 壳</w>
売 上げ</w>
伴 い</w>
ナイ ジェリア</w>
ふさ わしい</w>
ar c</w>
邮 局</w>
选 项</w>
薄 く</w>
监 听</w>
日 ごろ</w>
布 団</w>
婦 人</w>
原 型</w>
ック ス
コス ダック</w>
キー ボード</w>
イン ・
19 20</w>
除 け</w>
钓 鱼</w>
谢 罪</w>
被 っ</w>
着 実</w>
年 收入</w>
安 貞</w>
存 取</w>
到 期</w>
ジャ イ
アン ダー
r tp</w>
b t</w>
4 18</w>
遺 伝</w>
美 貌</w>
组 建</w>
特 派</w>
旧 暦</w>
地 亚
割 当</w>
人 性</w>
メ ラ
バンクー バー</w>
セキュ ア</w>
高 潮</w>
肯 尼亚</w>
留 言</w>
暴 落</w>
施 す</w>
応 じる</w>
常 用</w>
医 科</w>
ハン ガン</w>
っ 子</w>
く せ</w>
s in
運 ば</w>
温 哥
海 报</w>
果 汁</w>
摔 倒</w>
拥 挤</w>
化 合物</w>
催 促</w>
修 宪</w>
イン セン
香 蕉</w>
支払 わ</w>
対応 付け</w>
失 真</w>
交 叉</w>
ハッ キング</w>
カテ ゴ
そ ちら</w>
く り
13 %</w>
集 训</w>
运 气</w>
突破 口</w>
演 绎</w>
渴 望</w>
派 系</w>
气 压</w>
推 行</w>
展 览会</w>
尼日 利亚</w>
印 刷
割 っ</w>
下 定</w>
ラ ッチ</w>
スポン サー</w>
蒸 気</w>
母 校</w>
松 懈</w>
手 臂</w>
倉 庫</w>
事 由</w>
ス カウト</w>
イ ノ
も って</w>
脅 かす</w>
混 频器</w>
浸 透</w>
日本 队</w>
小 孩子</w>
分 科</w>
体 調</w>
レー ザ</w>
コ ク</w>
キャリ ッジ</w>
アダ プタ</w>
れ ん</w>
か す
观 众
狐 狸</w>
支 承</w>
捧 げ</w>
妄 想</w>
募 捐</w>
公 営</w>
公 会</w>
倒 産</w>
バ レー</w>
トラン プ</w>
カ ・
40 7</w>
穀 物</w>
税 関</w>
百 分之</w>
李 宪
文 芸</w>
拖 延</w>
外 貌</w>
休 む</w>
仮 名</w>
主 导
一 線</w>
ライ ブ
ハ ク</w>
ひ た
つ け加え</w>
あ えて</w>
震 源</w>
運 ぶ</w>
話 せる</w>
破 る</w>
気 圧</w>
委 託</w>
多 余</w>
决 不</w>
伝 染</w>
マ ニュ
mp e
4 4.
20 17</w>
起 始</w>
等 候</w>
漫 长</w>
機 卿</w>
横 行</w>
枢 機卿</w>
李凤 柱</w>
惨 事</w>
展示 会</w>
大 街</w>
外 长</w>
四 周</w>
决 权</w>
再 選</w>
元 前</w>
乱 数</w>
レー ダー</w>
モ ーター</w>
ブラ ウ
ノル ウェー</w>
お 話</w>
8 14</w>
黄 色
贫 富</w>
谷 歌</w>
诱 导</w>
抬 头</w>
引き 継
ファ ックス</w>
ッ キング</w>
タイ ヤ</w>
クト ・
アーティ ファクト</w>
お すすめ</w>
f il
18 2</w>
航 行</w>
种 种</w>
添 え</w>
気 味</w>
掩 盖</w>
德 格</w>
山 形</w>
奋 斗</w>
圆 满</w>
危 险
切 符</w>
偽 装</w>
亚 于</w>
ソ ロ</w>
な お
つか み</w>
g ui</w>
4 5
骚 扰</w>
長 期間</w>
跳 ね
要 说</w>
苦 情</w>
温哥 华</w>
板 球</w>
山 林</w>
声 称</w>
回 放</w>
化 为</w>
三 人</w>
フォ ト</w>
こ む</w>
ol t</w>
mfp 10</w>
2 23</w>
道 的</w>
达 州</w>
汉 堡</w>
毛 巾</w>
抑 圧</w>
寄 贈</w>
大 自然</w>
増 進</w>
人 道的</w>
チ ーズ</w>
アイル ランド</w>
か た
跳 び</w>
特 技</w>
战 国</w>
慌 て</w>
内 在</w>
メガ ネ</w>
マッチ ング</w>
マ カオ</w>
ジェ ネ
ア シ</w>
こ っ
重 油</w>
用 心</w>
沿 い</w>
止 まら</w>
招 集</w>
専 務</w>
代 谢</w>
ハ ム</w>
ジュ ース</w>
す い</w>
龙 山区</w>
機 種</w>
树 枝</w>
医 药品</w>
剧 院</w>
コー ド
て は
u st
onu 20</w>
nat o</w>
起 动</w>
葡萄 酒</w>
盛 期</w>
独 立
方 框</w>
探 求</w>
在 職</w>
キョンサン ナムド・
のぼ っ</w>
おじ さん</w>
1 202</w>
読 出し</w>
维 修</w>
环 节</w>
書 籍</w>
推 し
徴 収</w>
强 风</w>
实 地</w>
在 学</w>
在 住</w>
受け 付ける</w>
双 向</w>
両 極</w>
一 点点</w>
ジャー ナ
エア コン</w>
zh en</w>
16 7</w>
长 野</w>
運 航</w>
蝴 蝶</w>
曹 溪</w>
小 提琴</w>
封 筒</w>
威 廉</w>
前 線</w>
一 贯</w>
ブロー カー</w>
ジョン ソン</w>
n s</w>
4 ,
締 め</w>
法律 界</w>
次 序</w>
家 务</w>
国 産</w>
口 头</w>
公 馆</w>
世 上</w>
メ ロ
マ ケ
ディ ズ
や む
7 a</w>
邮 票</w>
遵 循</w>
行 进</w>
纪 录
神 户</w>
生み 出し</w>
没 问题</w>
掛 け
当 今</w>
実 情</w>
半 月</w>
医 药</w>
传 言</w>
亚洲 杯</w>
ごめ ん</w>
f p</w>
da um</w>
8 5
3 2
致 死</w>
異 議</w>
暖 房</w>
天 生</w>
バイ ク</w>
なく なり</w>
く から</w>
v 6</w>
透明 性</w>
罪 犯</w>
然 と</w>
旗 下</w>
居 然</w>
出 乎</w>
フ ン
バナ ナ</w>
じ り</w>
r l</w>
r 1</w>
老 板</w>
纪录 片</w>
納 め</w>
渗 透</w>
泣 く</w>
名 作</w>
マド リード</w>
チェ ジュ
エン トロ
w s
of f</w>
o lt
e d</w>
调 动</w>
观众 席</w>
減 税</w>
洗 澡</w>
报 考</w>
心 事</w>
城 县</w>
南 極</w>
ゲ ー
つ くり</w>
补 选</w>
欠 席</w>
振り返 る</w>
形 容</w>
当 たら</w>
对 准</w>
守 護</w>
味 わっ</w>
反 恐</w>
克里 斯</w>
リ ハ
エレベ ーター</w>
わ が
ら う</w>
に関 し</w>
つな ぐ</w>
さ り</w>
v s
麦 当
迷 你</w>
職 権</w>
等 到</w>
浴 室</w>
机 动</w>
暗 杀</w>
想 い</w>
年 均</w>
反 击</w>
d ct</w>
频 谱</w>
頑 丘</w>
维 斯</w>
砲 撃</w>
朴智 元</w>
先 送り</w>
ルー ツ</w>
18 %</w>
返 答</w>
舰 艇</w>
盗 ん</w>
毁 灭</w>
梦 幻</w>
格 外</w>
断 固</w>
接 種</w>
往 常</w>
且 つ</w>
シア トル</w>
サー ビ
オー ケ
s 102</w>
20 b</w>
首 要</w>
慰 め</w>
バー ガー</w>
d ram</w>
8 20</w>
3 9
着 信</w>
洋 服</w>
无 需</w>
放 ち</w>
徳 川</w>
劣 化</w>
個 性</w>
世界 性</w>
1. 5%</w>
開 拓</w>
赶 上</w>
製 薬</w>
没 事</w>
染 色</w>
很 远</w>
开 放
帐 篷</w>
喪 失</w>
再 起</w>
マネ ー</w>
コロン ビア</w>
イ ケ
す き</w>
しゃべ り</w>
s10 0
配 当</w>
送 往</w>
精 神
津 贴</w>
宣 称</w>
一 阵</w>
パ ール</w>
お こ
不 服</w>
ッシ ョン
ソ ヘ</w>
エ コ
d sp</w>
4 80</w>
1. 8</w>
跑 道</w>
評 議</w>
视 角</w>
蜂 窝</w>
示 范
犹太 人</w>
烛 光</w>
水 力</w>
正 正</w>
年 下</w>
反 正</w>
包 裹</w>
出 动</w>
ロ ジック</w>
ベ ス</w>
is s</w>
踏 板</w>
请 愿</w>
要 员</w>
船 上</w>
缓 期</w>
祈 る</w>
景 点</w>
整 っ</w>
复 出</w>
堂 堂
合 器</w>
取 調べ</w>
体 型</w>
まず い</w>
6 5%</w>
资 格
评 选</w>
编 入</w>
棒 球场</w>
指 甲</w>
实 质</w>
同性 恋</w>
倒 闭</w>
ボ ルト</w>
か え</w>
踏 む</w>
自 古</w>
福 島</w>
短 道</w>
用 力</w>
点 差</w>
派 手</w>
水 路</w>
曲 折</w>
景 象</w>
接 通</w>
小 李</w>
堂堂 正正</w>
元 旦</w>
ラ ックス</w>
ファイ バ</w>
トラ フィ
テ ント</w>
ケ ニア</w>
い たる</w>
あ っ
j e
4 8.
14 7</w>
隔 壁</w>
性 質</w>
広 島</w>
失 业者</w>
卫 生
南 側</w>
别 墅</w>
バ ット</w>
オロ ギー</w>
ま して</w>
ほん とう</w>
ご はん</w>
u p
離 し</w>
落 選</w>
無 条件</w>
活 気</w>
格 別</w>
李 仁
広 まっ</w>
在 职</w>
动 议案</w>
加油 站</w>
信 託</w>
传 染
优 雅</w>
リゾ ート</w>
ファ ミ
タ リング</w>
ち ら
s 101</w>
2 44</w>
骚 动</w>
駐 韓</w>
邻 国</w>
记录 器</w>
記 入</w>
苦 しむ</w>
新 建</w>
想 象
态 势</w>
天 体</w>
发生 器</w>
先 祖</w>
レ ット</w>
イデ オロギー</w>
u l
飲 ま</w>
金 美
里 子</w>
罗 德</w>
海 盗</w>
机 票</w>
日 頃</w>
不 能
キ リスト
802. 11</w>
风 雨</w>
胸 部</w>
箇 所</w>
捜 し</w>
拥 有
投 影
帰 還</w>
宝 宝</w>
嬉 しかっ</w>
品 格</w>
发 性</w>
収 穫</w>
专 业性</w>
11 a</w>
量 産</w>
路易 斯</w>
走 去</w>
贵 方</w>
谐 振</w>
浮か ぶ</w>
母 子</w>
座 り</w>
售 价</w>
参 战</w>
出 現</w>
停 下</w>
ト ー</w>
ゼネ スト</w>
サ ン・
ぶ れ</w>
なく す</w>
か ま
4 24</w>
绿 茶</w>
移 除</w>
磨 き</w>
汗 水</w>
新 娘</w>
想象 力</w>
怒 ら</w>
パノ ラマ</w>
ツイ ッター</w>
コネ クタ</w>
インセン ティブ</w>
順 に</w>
纳 米</w>
日 増
日増 しに</w>
干 脆</w>
安 価</w>
内 存</w>
一 堂</w>
レ バ
h 1
13 9</w>
随 机
阐 明</w>
重 量
起 飞</w>
競 合</w>
李宪 宰</w>
搞 笑</w>
抛 售</w>
問 い</w>
内 面</w>
ビ ニール</w>
ディ ジ
ほ ら</w>
お 昼</w>
h a</w>
觉 悟</w>
納 税</w>
歓 声</w>
来 往</w>
拷 問</w>
投 げる</w>
戦 国</w>
国 民党</w>
初 回</w>
仅 有</w>
p at
g pp</w>
観 戦</w>
納 品</w>
生 地</w>
未 遂</w>
既 得</w>
山 脉</w>
売 れ
別 々</w>
信 标</w>
リ ム</w>
バー スト</w>
ガイ ド
カ レー</w>
w tr
震 え</w>
白 紙</w>
明 知</w>
攀 登</w>
应 有</w>
崔 秉烈</w>
寄 せる</w>
商 谈</w>
不 堪</w>
いつ の
金 鲜</w>
荣 获</w>
生き 残る</w>
渡 辺</w>
放 つ</w>
师 团</w>
チョン ロ
チェ ル
ザ ード</w>
ウォ ール
r 2</w>
l ist</w>
阅 览</w>
気 づか</w>
武 将</w>
悬 崖</w>
エ ネ</w>
4 7.
马 里</w>
野 蛮</w>
読 ま</w>
被 告
死 神</w>
扫描 器</w>
岛 县</w>
宝 くじ</w>
女 主角</w>
回 す</w>
党 首</w>
信 者</w>
代 価</w>
不 理</w>
ファ イン
ウリ ィ</w>
アトラン タ</w>
あ れ
u dp</w>
p dp</w>
h1 n1</w>
行 ける</w>
群 体</w>
意 气</w>
二氧化 碳</w>
不能 不</w>
プレゼ ン
アン ド
アイ ス</w>
重 畳</w>
送 入</w>
诽 谤</w>
細 菌</w>
携 手</w>
損 傷</w>
担 っ</w>
吸 っ</w>
労働 省</w>
利用 者</w>
保健 所</w>
中 古</w>
並 び</w>
プレイ リスト</w>
8 5%</w>
1. 6</w>
陰 謀</w>
胜 地</w>
特 集</w>
泉 水</w>
斜 視</w>
中 山</w>
チャム シル</w>
その うえ</w>
いわ ば</w>
ib m</w>
金美 贤</w>
解 く</w>
考 验</w>
美联 社</w>
树 林</w>
更 何况</w>
搭 档</w>
布 朗</w>
少 々</w>
封 印</w>
双 子</w>
贤 振</w>
至 上</w>
炎 热</w>
東 西</w>
暴力 団</w>
制 成</w>
テク ニック</w>
チョン・ モン
イ・ ヘ
s 103</w>
音 调</w>
降 雨</w>
遺 骨</w>
臨 床</w>
深 圳</w>
换 算</w>
室 外</w>
博 尔</w>
低 かっ</w>
之 地</w>
专 职</w>
一 目</w>
そろ え</w>
17 4</w>
随机 数</w>
水 泥</w>
概 括</w>
春 秋</w>
心 态</w>
奥斯 卡</w>
回 报</w>
命 じ</w>
取り 除く</w>
写 信</w>
ウォ ーター</w>
tr an
ne t</w>
頼 み</w>
鞋 子</w>
連 敗</w>
西 区</w>
线 缆</w>
簡 略</w>
根本 上</w>
柳 贤振</w>
机 体</w>
施 し</w>
带 到</w>
填 写</w>
前 者</w>
修 士</w>
不 惜</w>
モ ル
ハン ファ</w>
み なし</w>
つま らない</w>
お ぼ
s r</w>
飛 ぶ</w>
逐 步</w>
講 座</w>
袋 子</w>
表 彰</w>
放射 線</w>
抚 养</w>
大 物</w>
僧 侶</w>
エンター テ
は ず
赵 某</w>
资 质</w>
码 头</w>
派 閥</w>
强 奸</w>
康 复</w>
何 れ</w>
ベン チ</w>
トゥ サン</w>
ダイ ナ
連 日</w>
観 念</w>
戏剧 性</w>
建 てる</w>
加利福 尼亚州</w>
聖 堂</w>
泣 き
一 族</w>
わい せつ</w>
それ なり</w>
こ もっ</w>
5 5.
鸡 肉</w>
離 脱</w>
队 友</w>
记 号</w>
虚 构</w>
移 る</w>
特 捜</w>
沿 海</w>
树 脂</w>
李光 宰</w>
实 业</w>
元 年</w>
傍 受</w>
中 共</w>
シャ ン
ギ ョ</w>
び り</w>
ば く</w>
西 斯</w>
薛 琦
薛琦 铉</w>
胞 胎</w>
绑 架
振る わ</w>
成 田</w>
子 弹</w>
大 した</w>
ラ イ</w>
デ ・
スピー チ</w>
つ れ</w>
h s
0. 3
轮 胎</w>
识 别
深 受</w>
民 法</w>
放 量</w>
抱 く</w>
报 名</w>
店 内</w>
小 熊</w>
宽 容</w>
如 说</w>
填 补</w>
列 岛</w>
仕 組み</w>
ロナ ウド</w>
く る
j p</w>
cc tv</w>
稼 働</w>
秘 訣</w>
流 逝</w>
正 体</w>
強 要</w>
強 盗</w>
射 线</w>
取り 調べる</w>
厳 重</w>
储 存</w>
会 费</w>
マ シン</w>
n a
黎 巴
黎巴 嫩</w>
进 修</w>
赤 外線</w>
私 的</w>
相 连</w>
浏 览
柔 和</w>
放 进</w>
引き 下げる</w>
传输 线</w>
什 麽</w>
み 付け</w>
集 約</w>
遭 っ</w>
連 想</w>
融 化</w>
色 素</w>
盈 利</w>
殖 民</w>
所 周知</w>
众 所周知</w>
ちょ う</w>
f l</w>
鼓 掌</w>
頂 き</w>
配 達</w>
濃 い</w>
孙 鹤
大 方</w>
多 哈</w>
多 分</w>
創 意</w>
久 违</w>
ヤンキ ース</w>
たい てい</w>
p ap
dm b</w>
5 14</w>
郑梦 九</w>
责任 感</w>
科 学院</w>
監 院</w>
政 略</w>
伝 わる</w>
チェ コ</w>
ソフト ウエア</w>
シャ ン</w>
s rs</w>
采 购</w>
遥 か</w>
造 型</w>
絶 滅</w>
物 件</w>
無 く
川 县</w>
尔 蒙</w>
媒 介</w>
奈 美</w>
奇 数</w>
力 以
力以 赴</w>
分 支</w>
全 力以赴</w>
不 亚于</w>
ブラ ック
ビー コン</w>
m i</w>
h dd
18 1</w>
雕 刻</w>
誉 为</w>
荷 尔蒙</w>
自 力</w>
绳 子</w>
枪 击</w>
排 放量</w>
弊 害</w>
冰 上</w>
中国 共産党</w>
や い</w>
ご ま
4 15</w>
2 200</w>
16 4</w>
転 写</w>
省 エネ</w>
热 量</w>
忧 郁</w>
天 文学</w>
复 雑</w>
売 春</w>
名 所</w>
ジ メント</w>
カー テン</w>
どう せ</w>
p m</w>
8 12</w>
难 免</w>
里 斯</w>
終 始</w>
篮 板球</w>
理 查
洗 衣
显 然</w>
新 生
撮 る</w>
圣 地亚
同 席</w>
不 动</w>
ミ ナル</w>
ら せる</w>
h d
2 85</w>
远 处</w>
脱 退</w>
歴 訪</w>
推 杆</w>
护 理</w>
感 染
强 队</w>
帝 王</w>
叩 い</w>
双 边</w>
兼 任</w>
做 完</w>
メッ ツ</w>
パ ッ
ニューヨーク・ タイムズ</w>
サ イ</w>
问 到</w>
豪 雨</w>
相 扑</w>
振る 舞い</w>
宇 宙
佛罗里 达</w>
一 山</w>
キ ン
2. 4</w>
饲 养</w>
酷 暑</w>
自 発</w>
断 然</w>
大 成</w>
吵 架</w>
台 所</w>
厌 恶</w>
击 中</w>
元 首</w>
保险 金</w>
トリ ガ</w>
です から</w>
s 204</w>
o k
k b</w>
露 天</w>
长 城</w>
西 海岸</w>
知 性</w>
用 处</w>
特 意</w>
汇 报</w>
文 人</w>
放 し</w>
掲 载</w>
延 ばし</w>
害 羞</w>
告 げ</w>
克里 斯
今 年度</w>
レバ ノン</w>
ノ ミ
や る
5 0.
4 21</w>
19 53</w>
高 性能</w>
電 算</w>
脚 下</w>
幽 默</w>
守 旧</w>
学 士</w>
太 っ</w>
作り 出す</w>
休 戦</w>
ボ ク
ノ ン
ウォ ン・
ウェー ブレット</w>
ば り</w>
養 子</w>
銅 像</w>
视 场</w>
荞 麦</w>
考 上</w>
绑架 者</w>
滑 雪
様 式</w>
末 端</w>
支 払</w>
悪 用</w>
坡 区</w>
圣地亚 哥</w>
僵 硬</w>
プライ バ
it al</w>
f n</w>
f bi</w>
韩 文</w>
迷 路</w>
絶 望</w>
科 罗
示范 性</w>
玛 丽</w>
添 麻烦</w>
模 板</w>
新 潟</w>
手 足</w>
手 套</w>
壮 大</w>
堕 落</w>
专 务</w>
マ ニ
ウィ ルス</w>
っ ぱ
装 有</w>
经 合</w>
殖 民
日 の
尔 德</w>
出口 额</w>
公 害</w>
交 货</w>
交 戦</w>
中 盤</w>
丝 绸</w>
ロー ラー</w>
トラ スト</w>
ショ ート</w>
お 陰</w>
s 7</w>
龙 马</w>
難 航</w>
行 政
研究 室</w>
惨 败</w>
夜 中</w>
和 ら
十 五</w>
予 约</w>
不 渡り</w>
フェ ルド</w>
クライアント デバイス</w>
うつ 病</w>
碰 到</w>
浏览 器</w>
明 星
总 计</w>
好 奇
好奇 心</w>
大 名</w>
収 録</w>
偏 見</w>
信 封</w>
传 到</w>
わ い</w>
m pl
f d</w>
f al
5 5%</w>
重 症</w>
英 里</w>
看 书</w>
活 动
日 军</w>
既 知</w>
ブラ ウン</w>
ブ ライ
ダ ブ
タ ール</w>
スキャ ナー</w>
コ エリ
ク・ オバマ</w>
もた れ</w>
い まだ
8 b</w>
骑 警</w>
育 儿</w>
物 种</w>
海 水
河 野</w>
文 法</w>
持ち 出し</w>
屈 辱</w>
将 近</w>
争夺 战</w>
中 秋
ユニ ーク</w>
ャ ン</w>
グラ フィ
ば い</w>
こと ば</w>
いただ く</w>
m ba</w>
k o</w>
2 28</w>
过 热</w>
象 征
蜘 蛛</w>
肝 臓</w>
眺 める</w>
沙 滩</w>
根 除</w>
所有 者</w>
後 日</w>
宫 殿</w>
亨 利</w>
中秋 节</w>
中 型</w>
万 全</w>
ア カウント</w>
は た
そ っと</w>
いまだ に</w>
i z
过 失</w>
费 者</w>
納 付</w>
真 空</w>
混 雑</w>
毒 素</w>
松 山</w>
描 画</w>
拷 问</w>
小 规模</w>
宁 边</w>
北 京
冷 や
借 助</w>
不久 前</w>
コー ラ</w>
ア セ
だ けど</w>
お 気に入り</w>
: 00</w>
韩 明淑</w>
陌 生</w>
長 時間</w>
重 み付け</w>
遺 物</w>
選 択
選択 肢</w>
病 床</w>
极 性</w>
有 空</w>
映 る</w>
抱 える</w>
力 度</w>
划 部</w>
仮 面</w>
ボー イ</w>
し き
进 出口</w>
我 方</w>
建 議</w>
前 作</w>
他 用</w>
チョン ドン</w>
p us
電 極</w>
评 为</w>
煤 气</w>
泪 水</w>
每 桶</w>
文 学
叠 加</w>
人 权
不 前</w>
ラム ズ
エ ラ</w>
かか わっ</w>
s 106</w>
gb r</w>
风 吕</w>
迂 回</w>
石 原</w>
生み 出す</w>
模 样</w>
斯 顿</w>
招 募</w>
前 线</w>
作 弊</w>
ス ウォン</w>
イン ク</w>
ア サン</w>
4 5.
3 15</w>
神 经
水 准</w>
可 読</w>
可 変</w>
出 土</w>
バラ ク・オバマ</w>
チュン チョン</w>
コ ップ</w>
クラ スタ</w>
け っ
ma n</w>
追 う</w>
较 量</w>
軽 水
軽水 炉</w>
英 赛</w>
胡 子</w>
精 英赛</w>
祝 日</w>
欺 负</w>
教 导</w>
放 火</w>
掛 かっ</w>
回 さ</w>
マ リア</w>
プ ス</w>
デ コード</w>
チョ ソン</w>
シェ ー
dp f
d ba</w>
遥 控</w>
盘 子</w>
生产 线</w>
护 人</w>
后 退</w>
各 党</w>
双 胞胎</w>
农 家</w>
ラ ベル</w>
フ ライ
ス ラ
mp u
1 110</w>
貸 出</w>
解 読</w>
蛋 白</w>
花 束</w>
纳 入</w>
直 線</w>
登 る</w>
总 理
ミュージ ック</w>
プライバ シー</w>
アイ コン</w>
ん やり</w>
り ん
や み</w>
す く
y u
on e
j ap
af p</w>
比べ れ</w>
天 上</w>
喉 咙</w>
咲 い</w>
压 制</w>
加 载</w>
冲 动</w>
公 言</w>
ハ ート</w>
ニ クス</w>
アー キ
にく く</w>
い ける</w>
麗 水</w>
脏 病</w>
旋 转
抜け 出し</w>
嵌 入</w>
夢 中</w>
听 听</w>
变 数</w>
人权 委</w>
上 着</w>
ディジ タル</w>
9 20</w>
没 错</w>
橄 榄
开 创</w>
后 者</w>
原 先</w>
供 奉</w>
一 览</w>
ue fa</w>
6 500</w>
行 踪</w>
熾 烈</w>
桥 梁</w>
期 性</w>
弃 物</w>
害 人</w>
合 戦</w>
スイ カ</w>
19 64</w>
本 家</w>
收 据</w>
开 端</w>
安 部</w>
大 连</w>
国 心</w>
四 つ</w>
向 着</w>
医 师</w>
レ ジャー</w>
ト ロ</w>
シン ポジ
ん じ</w>
to e
or i</w>
骨 子</w>
预 赛</w>
電 撃</w>
金 成
誰 か</w>
胚 胎</w>
群 れ</w>
美 食</w>
综合 症</w>
燃 え</w>
浮 気</w>
流 下</w>
核 查</w>
最 棒</w>
小 規模</w>
坚 守</w>
分 岐</w>
リハ ビリ</w>
パク・チャン ホ</w>
ソ リ</w>
ス メ
5 3
追 赶</w>
見 出し</w>
罢 免</w>
生 命
开 销</w>
小 说家</w>
声 援</w>
可 靠
剽 窃</w>
今 晩</w>
下 雪</w>
ピ ンク</w>
アクセ サ
s 110</w>
s 105</w>
c i</w>
长 久</w>
身 份
身份 证</w>
货 车</w>
致 使</w>
紙 幣</w>
社 外</w>
坦 率</w>
可靠 性</w>
刻 ま</w>
关 门</w>
入 隊</w>
免 れ</w>
仕 上げ</w>
五 年</w>
一 道</w>
ル ソン</w>
ピ ル</w>
チャンピオン ズ</w>
コン クール</w>
キ ョ
閉 幕</w>
身 柄</w>
负 于</w>
私 营</w>
监 测</w>
海 运</w>
榜 首</w>
日 立</w>
方 向
指 派</w>
強 国</w>
安 哲
以 南</w>
不 分</w>
シンポジ ウム</w>
グー グル</w>
なん とか</w>
st f</w>
7 30</w>
走 过</w>
该 片</w>
维 尔</w>
編 入</w>
浅 田</w>
抜 ける</w>
抑 止</w>
恥ず かしい</w>
忽 略</w>
微 弱</w>
尾 巴</w>
对 本</w>
丢 弃</w>
下 山</w>
ブロ ック
ヒョン ・
风 味</w>
雷 斯</w>
誇 張</w>
見 かけ</w>
相 投</w>
好 転</w>
处 境</w>
処 置</w>
付 か</w>
チェ リー</w>
ソン ドン</w>
クリ ート</w>
カタ ール</w>
な め</w>
ざ り</w>
1 102</w>
音乐 家</w>
问 问</w>
逗 留</w>
消费 税</w>
浙 江</w>
洗 浄</w>
日 报社</w>
所 持</w>
勤 勉</w>
做 为</w>
住 み</w>
中 间
两 只</w>
イチ ロー</w>
西 北</w>
補 強</w>
背 负</w>
筹 备</w>
海 贼</w>
染 み</w>
情 緒</w>
名 叫</w>
受 給</w>
全 盛期</w>
优 化</w>
ファン タ
に 当たる</w>
f t
10 80</w>
隣 人</w>
鋭 い</w>
选 区</w>
緑 色</w>
根 絶</w>
杀 人
星期 三</w>
愚 か</w>
大 正</w>
会 堂</w>
交 差点</w>
あ た
2 8%</w>
辞 職</w>
载 荷</w>
独 り
灵 活性</w>
法 规</w>
政 变</w>
戦 死</w>
太 空</w>
善 于</w>
吹 く</w>
北 区</w>
剧 团</w>
写 下</w>
倒 下</w>
保护 法</w>
企 划部</w>
ドー ハ</w>
ガソ リン
アーキ テク
3 7%</w>
17 5</w>
踏 まえ</w>
読 め</w>
祉 垠</w>
盗 窃</w>
潜 入</w>
消 毒</w>
宣传 处</w>
四 月</w>
合 宿</w>
入 球</w>
一 点儿</w>
一 把</w>
インスタ ンス</w>
とも かく</w>
くだ さっ</w>
as ic
2 7%</w>
0. 1</w>
降 到</w>
逝 世</w>
解 け</w>
見 込ま</w>
气 球</w>
时 分</w>
总 统
工 业
ギ ル
カ フェ
ウィリア ム</w>
ん 坊</w>
き 出す</w>
い な
um p</w>
皮 肉</w>
注 視</w>
沃 尔
敦 子</w>
很 早</w>
年 上</w>
幕 战</w>
四 国</w>
卡 塔尔</w>
代 わる</w>
d 2</w>
cc d
6 4
鼠 标</w>
近 似</w>
襲 っ</w>
筹 措</w>
殖民 地</w>
新 星</w>
教 练
庆 熙</w>
取 胜</w>
使 途</w>
万 台</w>
ブ レ</w>
テ ヨン</w>
ジュ ネ
ウィ ーク</w>
ひ ょ
し める</w>
5 6.
送 付</w>
踏 み</w>
色 情</w>
痛 快</w>
無 能</w>
无 比</w>
写 上</w>
一 辈子</w>
一 支</w>
メ イ
チ ー
の め
n ic</w>
a ad</w>
麻 痺</w>
間 に
金 南
遂 げる</w>
转 印</w>
走 り
语 学</w>
親 日</w>
老 奶奶</w>
用 说</w>
無 所属</w>
揭 幕战</w>
制 片
不 用说</w>
ロ コ
ラムズ フェルド</w>
マニュ アル</w>
ファ レンス</w>
コエリ ョ</w>
2 54</w>
麦当 劳</w>
遊 説</w>
誠 意</w>
西 側</w>
获 奖
習 っ</w>
牽 制</w>
派 出</w>
沉 浸</w>
有 料</w>
对 称</w>
子 孫</w>
嫌疑 犯</w>
奉 献</w>
取 代</w>
历史 性</w>
リ ラックス</w>
プ ルト
ア ジ
と ら
おさ め</w>
c ds</w>
2 3%</w>
魔 术</w>
说 完</w>
空 闲</w>
暑 く</w>
教 工</w>
捷 克</w>
宇航 员</w>
城 堡</w>
听 见</w>
加 わる</w>
削 弱</w>
偏 っ</w>
五 十</w>
ラ ス
た しか
え っ</w>
いま や</w>
风 邪</w>
阿 里
蚊 子</w>
胜 者</w>
红 茶</w>
架 构</w>
本 队</w>
数 百万</w>
摸 索</w>
排 序</w>
学 業</w>
因 果</w>
及 第</w>
入れ 替え</w>
中 高
世 博
メディ ア
プルト ニウム</w>
フ ・
りん ご</w>
やる 気</w>
け た</w>
m ers</w>
i q</w>
f or
马 达</w>
计 费</w>
著 書</w>
科罗 拉
盟 国</w>
汽 車</w>
折 磨</w>
忠 实</w>
名 词</w>
円 滑</w>
タ ク</w>
スキ ル</w>
ガ リー</w>
エド ガー</w>
な のに</w>
とっ ても</w>
たび たび</w>
r n</w>
7 40</w>
色 调</w>
秋 田</w>
研究 组</w>
相 加</w>
本 音</w>
时 说</w>
早 朝</w>
右 图</w>
何 で</w>
中 枢</w>
上 层</w>
一段 と</w>
パク・ ジ
ダ ル
ジ ョ</w>
も ど
が っかり</w>
7 500</w>
4 9.
1. 8%</w>
預 け</w>
过 剩</w>
訴 願</w>
大 道</w>
伤 心</w>
世 人</w>
フェ ム
フィ ン</w>
コロ ラ
2 31</w>
18 5</w>
陆 战队</w>
秋 叶</w>
法 则</w>
气 味</w>
捕 手</w>
挑 む</w>
执 教</w>
干 什么</w>
合格 者</w>
入 党</w>
マネー ジャー</w>
ケ ネ
かか わる</w>
m in</w>
j u</w>
5 1%</w>
飾 り</w>
誓 っ</w>
試 し</w>
艦 隊</w>
系 統</w>
球 速</w>
工 艺</w>
子 化</w>
好 ましく</w>
出 動</w>
再 三</w>
具 現</w>
关 键
主 犯</w>
专 栏</w>
下 台</w>
チョン・ ジョン
ウェ ル
t dma</w>
m u
9 04</w>
角 逐</w>
苦 しく</w>
细 致</w>
片 方</w>
最低 值</w>
屋 里</w>
层 次</w>
実 名</w>
参与 者</w>
全羅 道</w>
伴 随着</w>
乡 村</w>
三星 グループ</w>
メ ディ</w>
スキ ーム</w>
オーケ ストラ</w>
id e</w>
dv r</w>
4 1%</w>
阐 述</w>
逃 离</w>
贬 值</w>
河 流</w>
水 晶</w>
大 橋</w>
化 物</w>
傾 ける</w>
健 在</w>
ソ ックス</w>
ジャ ズ</w>
サン ス</w>
い も</w>
m o</w>
0. 1%</w>
谋 求</w>
精 子</w>
等 しく</w>
海 湾</w>
杯 子</w>
探 知</w>
承 载</w>
悲 哀</w>
匹 兹
匹兹 堡</w>
出 願</w>
决 意</w>
ヒ スト
スム ーズ</w>
駄 目</w>
防 灾</w>
農 地</w>
脱 い</w>
笑 い
查 尔斯</w>
朝鲜 人</w>
望 远镜</w>
悩 む</w>
对 照</w>
地 被</w>
向 き
出 品</w>
チョン シ</w>
ジョン ・
ジェーム ズ</w>
だい たい</w>
5 6
4 4%</w>
领 养</w>
隣 国</w>
通 す</w>
豚 肉</w>
粉 飾</w>
築 い</w>
礼 儀</w>
益 于</w>
既 是</w>
寧 辺</w>
学 長</w>
基 准
固 守</w>
さ く</w>
お の
it e</w>
h i</w>
f 3</w>
20 18</w>
2 2%</w>
长 年</w>
移 さ</w>
無 力</w>
溢 出</w>
更 迭</w>
尊 厳</w>
審 理</w>
古 今</w>
友 谊
卖 场</w>
出 示</w>
冷 酷</w>
传 单</w>
タイ ガー</w>
クォ ン</w>
w 1</w>
s 10</w>
kore a</w>
輪 郭</w>
设 想</w>
被告 人</w>
純 一郎</w>
湿 地</w>
收 容</w>
扶 持</w>
屋 上</w>
作 废</w>
不 容</w>
上 网</w>
ミ ックス</w>
ケ ア</w>
カル シウム</w>
カ レン
s 16</w>
19 66</w>
長 打</w>
遣 送</w>
見つ から</w>
星期 二</w>
尊 严</w>
学 到</w>
出 入境</w>
リョ ル</w>
ライブ ビュー</w>
ナイ フ</w>
々 木</w>
軍 団</w>
老 婆</w>
搬 迁</w>
拿 下</w>
心 脏病</w>
張 り
射 箭</w>
執 筆</w>
出 题</w>
借 款</w>
体 感</w>
リ チャ
リ オ
グ ン・
食 品
頼 ま</w>
醒 来</w>
追 随</w>
赞 同</w>
认 同感</w>
調 停</w>
西 装</w>
融 入</w>
祝 賀</w>
献 血</w>
漢 方</w>
早 くから</w>
旅 程</w>
影 集</w>
开 学</w>
宫 城</w>
即 時</w>
出生 于</w>
凶 手</w>
チョン ジュ</w>
せ い
p k</w>
p 12</w>
3 3
頭 山</w>
酸 化
読 出</w>
物 语</w>
明 かり</w>
日 式</w>
接 合</w>
家 屋</w>
外 信</w>
动 用</w>
レー ザー</w>
フル コース</w>
フラン ス
ザ ー
kt x</w>
頼 っ</w>
減 免</w>
歌 迷</w>
嫉 妒</w>
外 人</w>
再 说</w>
全 州</w>
以 北</w>
マ ンス</w>
at a</w>
7 08</w>
钻 石</w>
轻 视</w>
身 后</w>
盛 行</w>
災 難</w>
欲 求</w>
曼 谷</w>
曲 げ</w>
当 代</w>
座 る</w>
宏 观</w>
太 陽
咖 喱</w>
动 荡</w>
セ ク
クラ スメ
ク リーン</w>
り の</w>
ひた すら</w>
言 语</w>
覆 っ</w>
爱 心</w>
深 め</w>
振 る</w>
切 尔
上 衣</w>
ニ ー・
インジ ケータ</w>
な じみ</w>
pap r</w>
ic e</w>
4. 5%</w>
3 600</w>
19 63</w>
16 6</w>
1. 2%</w>
麻 浦</w>
綿 密</w>
白 頭山</w>
気 力</w>
否 決</w>
光 通信</w>
享 年</w>
世博 会</w>
テレビ 局</w>
あ んなに</w>
黄色 い</w>
选 票</w>
转 为</w>
败 北</w>
肿 瘤</w>
猩 猩</w>
温 家宝</w>
带 动</w>
多 功能</w>
作 れ</w>
ジュ アル</w>
ジ ノ</w>
し て
en b
9 9
6. 25</w>
1. 4</w>
辨 别</w>
短 期間</w>
洗 う</w>
排 水</w>
幅 広く</w>
处 方</w>
作り 上げ</w>
伊 藤</w>
ミキ サ</w>
ビ ョン</w>
バン ド
イケ メン</w>
のぼ り</w>
ど っち</w>
ac e
轻 水</w>
着 工</w>
歓 呼</w>
来 日</w>
无 前例</w>
新华 社</w>
摇 晃</w>
扱 わ</w>
手が け</w>
志 望</w>
平 原</w>
太阳 能</w>
塞 尔</w>
史 无前例</w>
可愛 い</w>
勾 结</w>
内 置</w>
会 员国</w>
不 自由</w>
三 月</w>
メ ガ</w>
ホ ップ</w>
トレ ード</w>
エン ジニア</w>
play list</w>
p rom</w>
igh t</w>
8 08</w>
3 6%</w>
3 2%</w>
金 庫</w>
过 渡</w>
花 瓶</w>
芝 生</w>
纠 错</w>
手 上</w>
悬 命</w>
廃 合</w>
岛 上</w>
山 羊</w>
基 金
商 讨</w>
六 个</w>
传染 病</w>
ザ イ
サン ディエ
ag c</w>
选 者</w>
给 与</w>
整 える</w>
抽 烟</w>
巻 い</w>
口 罩</w>
効 力</w>
倒 数</w>
メ イク</w>
ソン ナム
ゴル ファー</w>
し ょう</w>
证 词</w>
警察 局</w>
紧 缩</w>
第一 歩</w>
熱 気</w>
江 西</w>
核 保有</w>
日 数</w>
斗 煥</w>
戸 籍</w>
恐 龙</w>
巴 拉克</w>
小 沢</w>
定 居</w>
人 手</w>
亲 眼</w>
デ スク</w>
キ ル
3. 3%</w>
19 67</w>
马 路</w>
较 小</w>
躲 避</w>
西 大门</w>
自 営業</w>
热 水</w>
点 火</w>
渔 民</w>
忙 于</w>
强 盗</w>
字 母</w>
刺 し</w>
セ クシー</w>
ストライ プ</w>
ア リング</w>
ア セット</w>
so c</w>
5 05</w>
3 26</w>
, 000</w>
追い かけ</w>
調 理</w>
焼 き
境 遇</w>
叩 き</w>
全 额</w>
优 美</w>
ポ ロ
チャ ールズ</w>
クリ ス</w>
イ ファ</w>
も ない</w>
mp 4</w>
韩 方</w>
路 程</w>
赞 助
経 つ</w>
皮 书</w>
発 動</w>
栄 光</w>
文 科</w>
手 前</w>
固 たる</w>
バッ ファ
デ ター</w>
ジュネ ーブ</w>
サ ッ
キム・ ヒョン
と い</w>
t a
s 8</w>
1. 1</w>
防 水</w>
過 熱</w>
连 锁</w>
警 视
警视 厅</w>
脚 石</w>
脑 子</w>
继 承
禹 錫</w>
沸 腾</w>
小 麦
多样 化</w>
会 期</w>
一段 落</w>
リー ン
アイン ト
や せ</w>
け ない</w>
p id</w>
釣 り</w>
逸 脱</w>
辞 意</w>
赞 扬</w>
色 度</w>
结 构图</w>
算 定</w>
疗 养</w>
疏 远</w>
生产 性</w>
异 国</w>
名 额</w>
出 そ</w>
党 籍</w>
先 例</w>
ヒ ン
ぶ ら</w>
ちょ っと
すれ ば</w>
sf n</w>
f in
5 2.
4 8%</w>
韩 中日</w>
轰 炸</w>
空 虚</w>
直 方
白 血
淇 淋</w>
浴 场</w>
民 情</w>
小 偷</w>
塗 り
冰 淇淋</w>
入 金</w>
一 身</w>
一 意</w>
ハイ ブリ
ド ゥ</w>
っ け</w>
19 30</w>
采 访
邪 恶</w>
选 任</w>
迫 害</w>
辩 解</w>
資 質</w>
视 力</w>
自 衛</w>
组 赛</w>
明 细</w>
德 川</w>
对 等</w>
实 战</w>
厚 度</w>
余 额</w>
ポ ル
ヒ マラ
バン コク</w>
ニ ング
スケ ール</w>
ショート トラック</w>
ガソリン スタンド</w>
のん びり</w>
お 礼</w>
あ げ
wit ter</w>
7 01</w>
院 生</w>
言 之</w>
裸 体</w>
衣 類</w>
打 扰</w>
总 店</w>
店 主</w>
基金 会</w>
后 代</w>
卢 前</w>
半 天</w>
傾 き</w>
伝 播</w>
キム・ ジン
j ump</w>
h a
艦 艇</w>
義 士</w>
管 道</w>
用 法</w>
済 ませ</w>
浸 水</w>
水 库</w>
本 屋</w>
日 韩</w>
思 维</w>
体 質</w>
上 下文</w>
ユー モア</w>
ちょっと した</w>
が す</w>
y s</w>
t r</w>
o ut</w>
n ix</w>
b l</w>
领 带</w>
豪 華</w>
競 売</w>
現 代
根本 性</w>
本 気</w>
擅 自</w>
所 未
叫 声</w>
去 り</w>
協 同</w>
信 件</w>
ホ ール
そろ っ</w>
h u
身 子</w>
自 家</w>
眉 头</w>
现 政权</w>
漆 黑</w>
斗 志</w>
恐 竜</w>
张 某</w>
土 壤</w>
喜 ぶ</w>
同 好</w>
反 し</w>
内 侧</w>
何 事</w>
伴 奏</w>
乗り 越える</w>
ハ ブ</w>
ナ メント</w>
ドリ ーム</w>
サー クル</w>
ず さん</w>
静 态</w>
轻 轻
联 酋</w>
缔 结</w>
礼 遇</w>
琼 斯</w>
玩 耍</w>
海水 浴</w>
水 量</w>
本 名</w>
朝鲜 族</w>
时 点</w>
政 派</w>
总理 室</w>
当 局
当局 者</w>
咳 嗽</w>
双 方向</w>
友谊 赛</w>
创造 性</w>
凯 利</w>
优 良</w>
ネ スコ</w>
チ ーム
酵 素</w>
送 出</w>
达 克</w>
花 园</w>
狩 り</w>
楽 曲</w>
未 定</w>
旅行 社</w>
指 紋</w>
拇 指</w>
思 惑</w>
峡 谷</w>
小 组赛</w>
北 上</w>
兰 克
シ エ
サ ギ</w>
た ん
この ごろ</w>
al l
4 13</w>
200 8-
馬 鹿</w>
頷 い</w>
阿 联酋</w>
足 首</w>
补 贴</w>
苦 心</w>
美 方</w>
箱 根</w>
禁 煙</w>
画 画</w>
現 時点</w>
清 州</w>
时 局</w>
总 算</w>
思い 切っ</w>
学 园</w>
喜 好</w>
功 劳</w>
初 恋</w>
保 っ</w>
グ レー</w>
カウン ター</w>
は ね</w>
醤 油</w>
车 内</w>
要 望</w>
終 盤</w>
深 深</w>
時 には</w>
彫 刻</w>
升 学</w>
制 性</w>
凝 视</w>
共 生</w>
事 柄</w>
プロ ジェ
プレゼン テーション</w>
ニ ョン</w>
ゴ ールド</w>
雷 达</w>
组 织
碎 片</w>
波 特</w>
沙 子</w>
无 形</w>
工 作者</w>
失 恋</w>
加利福 尼亚</w>
关 上</w>
倍 数</w>
交 わす</w>
之 上</w>
ルー プ
カ ム
エ ンス</w>
アイント ホー
つか む</w>
お 寺</w>
t witter</w>
t im
r lc</w>
领 事
退 い</w>
轨 迹</w>
胜 手</w>
直 系</w>
生 子</w>
班 族</w>
溶 け</w>
流 向</w>
気 持ち
思 念</w>
孙鹤 圭</w>
危险 性</w>
光 雄</w>
伴 随</w>
优 质</w>
上 班族</w>
ゾ ーン</w>
コン セ
コメディ ー</w>
キャ プ
たしか に</w>
か き</w>
s 108</w>
pl p</w>
3. 1%</w>
遊 ぶ</w>
退 屈</w>
获奖 者</w>
粗 糙</w>
理查 德</w>
現代 グループ</w>
牵 连</w>
提供 商</w>
広 東</w>
工作 室</w>
医 大</w>
功 臣</w>
伤 者</w>
人 事
乱 用</w>
フランス 語</w>
あま りの</w>
s 22</w>
3. 7%</w>
阶 段
阶段 性</w>
薪 水</w>
爱 德
混 沌</w>
早 速</w>
托 盘</w>
扔 掉</w>
リ ・
ナ ノ</w>
4 3%</w>
3 32</w>
非 政府</w>
软 弱</w>
走 私</w>
萨 德</w>
百 合</w>
波 导</w>
柬 埔
柬埔 寨</w>
教 養</w>
打 造</w>
嬉 しく</w>
名 言</w>
北 欧</w>
動 かす</w>
光 辉</w>
上 将</w>
ミョン ドン</w>
パブリ ック</w>
カン ボ
アル ・
り と</w>
い と</w>
龙 星</w>
騒 音</w>
血 型</w>
积 蓄</w>
浑 身</w>
毕 竟</w>
档 案</w>
更 正</w>
感 慨</w>
密 か</w>
多 方面</w>
均 匀</w>
制 覇</w>
伯 格</w>
ロイ ヤ
ヒスト グラム</w>
ゆ う</w>
pus ch</w>
c is</w>
b m</w>
锦 实</w>
転 向</w>
费 城</w>
統 廃合</w>
直 人</w>
盗 用</w>
昼 夜</w>
探 し
官 吏</w>
助 長</w>
农 地</w>
優 遇</w>
代 弁</w>
ユ ネスコ</w>
フェ ン
けん か</w>
3. 6%</w>
2 1a</w>
运动 场</w>
自 愿</w>
相 応</w>
百 年</w>
申 氏</w>
東 大門</w>
李 基
押し 寄せ</w>
手 動</w>
売り 場</w>
史 蒂
内 乱</w>
乘 车</w>
东 欧</w>
ユニ バー
フ ト
インター ナショナル</w>
ne t
试 行</w>
留 保</w>
球 杆</w>
珍 しく</w>
激 增</w>
检察 长</w>
引き 受ける</w>
屈 指</w>
原 有</w>
专 注</w>
ベ リア</w>
アーキテク チャ</w>
アメリ カン</w>
6 5
5 9.
音 机</w>
講 じる</w>
行 程</w>
結 構</w>
称 さ</w>
换 言之</w>
广 大</w>
封 装</w>
奨 励</w>
反 过来</w>
光 线</w>
ッ キ</w>
エ ール</w>
なん で</w>
i st
2. 3</w>
自 来
甲 型</w>
泥 棒</w>
歩 み</w>
次 男</w>
昭 夫</w>
持 久</w>
愛 さ</w>
悲 痛</w>
内 衣</w>
任 职</w>
シャ ー</w>
ko tra</w>
7. 5</w>
面 白く</w>
雨 水</w>
酸化 炭素</w>
董事 长</w>
舞 踊</w>
耻 辱</w>
混 血</w>
有 钱</w>
巻き 起こし</w>
増 す</w>
国际 化</w>
和 平
二 酸化炭素</w>
一 丝</w>
リン ズ</w>
ポ ドン</w>
バス ケット</w>
ドゥ リ</w>
ト レイ</w>
シャ ワー</w>
th aad</w>
fal se</w>
b lo
2 17</w>
14 9</w>
雨 量</w>
间 関</w>
调 用</w>
耶 稣</w>
练 习
祭 典</w>
点 点头</w>
満 た</w>
書 簡</w>
投票 率</w>
当 做</w>
实 性</w>
像 素数</w>
スカ イ</w>
こっ そり</w>
闪 闪</w>
結 集</w>
生 动</w>
文 名</w>
採 取</w>
座り 込み</w>
小麦 粉</w>
卖 出</w>
十 足</w>
ユニ ホーム</w>
エン トリー</w>
v ob</w>
hy nix</w>
高 血压</w>
遗 忘</w>
课 堂</w>
製 鉄</w>
硬 币</w>
真 诚</w>
明 信
明信 片</w>
悩 まさ</w>
制片 人</w>
パ ズル</w>
ズ ベ
カンボ ジア</w>
p f</w>
5 8
饭 菜</w>
闭 幕</w>
汉 城市</w>
收 音机</w>
指 輪</w>
弁 論</w>
外 形</w>
体 能</w>
ラ ク</w>
プレイ ヤー</w>
ネク タイ</w>
ソ ル</w>
スイ ッチング</w>
かっ こ
mpl s</w>
韓 火</w>
重 组</w>
跨 国</w>
童 话</w>
決 まり</w>
桌 上</w>
折 れ</w>
宇宙 船</w>
存 知</w>
奏 曲</w>
地 表</w>
在 野</w>
加 わり</w>
分 別</w>
全 新</w>
何 と</w>
ヒ ジョン</w>
ス マ</w>
ぼ んやり</w>
つ ない</w>
っ しり</w>
g 7</w>
10 04</w>
続 々</w>
泊 まっ</w>
时 效</w>
悲 観</w>
属 实</w>
四 年</w>
卡 特</w>
公 聴</w>
伸 張</w>
上 周末</w>
カー ブ</w>
エ コ</w>
零 部件</w>
身 亡</w>
薄 弱</w>
绅 士</w>
演 艺</w>
游戏 机</w>
此 举</w>
暖 和</w>
时 半</w>
引 け</w>
康 锦实</w>
届 か</w>
和 合</w>
偷 偷</w>
中国 队</w>
ロコ シ</w>
モ ロコシ</w>
とっ くに</w>
6 14</w>
电 路
洞 穴</w>
更 快</w>
救 命</w>
接 任</w>
挪 用</w>
想 见</w>
忘 录</w>
少 なかっ</w>
备 忘录</w>
声 道</w>
四 方</w>
勝 者</w>
出 自</w>
依 赖
メ イド</w>
ミ ラン</w>
バラ エ
ジャーナ リスト</w>
ア ーム</w>
もた らさ</w>
そ っくり</w>
t c</w>
4 9
開 ける</w>
走 者</w>
著 しく</w>
纳 税</w>
空 洞</w>
直方 图</w>
産 地</w>
水 质</w>
收益 率</w>
微 笑
小 平</w>
后 天</w>
厨 师</w>
原 爆</w>
凉 爽</w>
冠军 赛</w>
亲 手</w>
世 袭</w>
ファ ムン</w>
チ ュ</w>
スティ ング</w>
h s</w>
0. 2%</w>
销售 量</w>
金 斗</w>
証 書</w>
西 安</w>
肯 尼
笑 脸</w>
福 音</w>
次 ぐ</w>
极 力</w>
参 选</w>
压 倒</w>
博 し</w>
一 台</w>
コン トラスト</w>
キャ スト
イ・ヘ チャン</w>
sof a</w>
bo ok</w>
4 2%</w>
重 置</w>
重 なり</w>
試 みる</w>
永 吉</w>
次 い</w>
擁 護</w>
引っ 張っ</w>
州 立</w>
寻 常</w>
好 ん</w>
坏 事</w>
启 用</w>
口 実</w>
主 将</w>
ヶ 国</w>
プラン ト</w>
パク・チ ソン</w>
トウ モロコシ</w>
か ご</w>
of f
3 3%</w>
19 49</w>
閉 め</w>
著 作
著作 权</w>
留 任</w>
温 水</w>
注 ぐ</w>
托 马斯</w>
慈 悲</w>
一 号</w>
チョン・ ヨン
サイ バー
おば さん</w>
s 201</w>
1. 7</w>
語 学</w>
绮 丽</w>
破 綻</w>
监 禁</w>
水 源</w>
扣 除</w>
我 军</w>
想 不</w>
急 于</w>
徒 步</w>
国 債</w>
发 烧</w>
リモ ート
メ ダ
バ ク・
ダ メージ</w>
ス ミス</w>
あわ て</w>
餐 馆</w>
聖 火</w>
死亡 率</w>
当 场</w>
ヒー ロー</w>
パ シ
ディ レクト
し ゅう</w>
t m
8 6
鳴 っ</w>
飲 料</w>
长 远</w>
重 伤</w>
苏 格兰</w>
育 ち</w>
目 睹</w>
燃 やし</w>
波 浪</w>
时 常</w>
教 养</w>
拍 車</w>
发 病</w>
厳 正</w>
制作 人</w>
公 务</w>
何 処</w>
伺 い</w>
仮 処分</w>
ボ ール
ズ ーム
シ アム</w>
コン ビ</w>
7 21</w>
19 55</w>
肯尼 迪</w>
置 之
神 圣</w>
申し 立て</w>
有 无</w>
守 门
同 比</w>
史 密
写 作</w>
休 止</w>
今 枝</w>
ビ ラ</w>
え ん</w>
w ti</w>
o sd</w>
9 06</w>
驾驶 员</w>
零 售</w>
自然 而
自然而 然</w>
罗 恩</w>
暗 殺</w>
急 ぐ</w>
太 太</w>
地 獄</w>
告 终</w>
不 成</w>
ブラウ ザ</w>
サー ブ</w>
ゲ ル</w>
イ・ チョン
p g</w>
ic t
西 江</w>
自来 水</w>
終 結</w>
本 選</w>
成 し</w>
彼 得</w>
埼 玉</w>
周 前</w>
台 阶</w>
内 戦</w>
フェ ンス</w>
デ ムン</w>
チュー ナ</w>
ガ ム</w>
ば か</w>
うなず い</w>
16 3</w>
饰 品</w>
象征 性</w>
短 篇</w>
危 ない</w>
协 议书</w>
劳 务</w>
加 減</w>
不 利益</w>
ロ マン
フラ グメント</w>
ハイブリ ッド</w>
ジャ ック</w>
うら や
r pl
魅 了</w>
越 大</w>
計 測</w>
苦 难</w>
老 鹰</w>
海 辺</w>
斯 坦
持ち 上げ</w>
成 年人</w>
年 次</w>
导 者</w>
女 史</w>
増 税</w>
固 然</w>
前 田</w>
全 权</w>
休 眠</w>
人 行
书 法</w>
ラン ナー</w>
マイ ナー</w>
トー ナメント</w>
タ ・
コ ミック</w>
クァ ク・
か わり</w>
x i
购 买
离 家</w>
無 人</w>
悲 观</w>
外 見</w>
听 众</w>
反 乱</w>
全 员</w>
中 队</w>
ほ う
ご とく</w>
iee e</w>
闯 入</w>
评 分</w>
让 给</w>
留 め</w>
晋 级</w>
所 要</w>
惨 案</w>
小 朋友</w>
実 例</w>
取り 上げる</w>
内 战</w>
不 一致</w>
ディレクト リ</w>
ダ ード</w>
ウェ ブ</w>
m n</w>
米 ドル</w>
生き 物</w>
沙 发</w>
机 型</w>
挥 舞</w>
怪 兽</w>
大 体
多 哥</w>
咲 く</w>
反 战</w>
动 词</w>
克 制</w>
マク ドナルド</w>
n av
c y
4 4
题 歌</w>
难 者</w>
足 元</w>
订 户</w>
議 事堂</w>
狭 く</w>
物 量</w>
微 小</w>
待ち 時間</w>
実 戦</w>
减 去</w>
人 影</w>
レー ター</w>
ピ ア</w>
しゃ れ</w>
sp n</w>
3 21</w>
19 62</w>
18 3</w>
褐 色</w>
舞 台
本当 は</w>
揚 げ</w>
感 叹</w>
大体 上</w>
周 期性</w>
口 味</w>
停 车</w>
任 性</w>
亚利桑 那</w>
下 回っ</w>
ペ ルー</w>
パ ック</w>
ッ グ</w>
がん ばっ</w>
n m</w>
細 部</w>
盗 ま</w>
渤 海</w>
清 洗</w>
模 范</w>
早 早</w>
妨 げ</w>
哎 呀</w>
司 祭</w>
人 次</w>
ステ ル</w>
スコ ット
アウ ト
も み
6 9.
17 6</w>
進 ま</w>
転 ん</w>
意 想</w>
急 ぎ</w>
引 か</w>
布 拉
婆 婆</w>
威 廉
大 象</w>
が かり</w>
19 71</w>
计 时</w>
聚 合</w>
第 七</w>
王 者</w>
构 思</w>
月 日</w>
懂 得</w>
师 范</w>
实 话</w>
圧 倒</w>
叔 父</w>
化 球</w>
公 使</w>
む ろん</w>
9 a</w>
长 江</w>
辉 煌</w>
船 长</w>
积 雪</w>
牽 引</w>
清 爽</w>
沦 落</w>
握 り</w>
接 戦</w>
手 脚</w>
小 声</w>
察 觉</w>
夺 取</w>
大 抵</w>
史 料</w>
出 回っ</w>
不 和</w>
ラ イン
ブ ・
ゴール デン</w>
ク リア</w>
それ なら</w>
あ け</w>
o p</w>
h f</w>
g k</w>
e v</w>
顽 固</w>
过 敏</w>
越 多</w>
表 わし</w>
茶 色</w>
施 さ</w>
年 制</w>
封 切り</w>
宮 殿</w>
守门 员</w>
增 至</w>
匈 牙
俳 句</w>
作 曲
リモ コン</w>
ミ ッシ
フェ ル
ジェ イン</w>
1. 4%</w>
錦 涛</w>
談 合</w>
茶 店</w>
胡 錦涛</w>
职 责</w>
素 质</w>
用 以</w>
梦 中</w>
李 秀
无 知</w>
好 投</w>
人 间</w>
一 举</w>
リ サーチ</w>
カ ブス</w>
イン ディ
し ゅ
さ と</w>
か み
か ばん</w>
q am</w>
1 c</w>
赤 ん坊</w>
減 算</w>
正 す</w>
朴 英
持 て</w>
投 标</w>
工 藤</w>
就 い</w>
圣 地</w>
咲 き</w>
前 所未
処 刑</w>
公 権力</w>
ロ ケーション</w>
リ ラ</w>
ライ フ</w>
ライ ター</w>
モ ノ
ヒマラ ヤ</w>
ップ ス</w>
チョン アン</w>
ター ミナル</w>
く わ
5 4
鲁 迅</w>
额 头</w>
題 し</w>
运 输
至 ら</w>
眠 る</w>
暧 昧</w>
时 装</w>
専 従</w>
大 腿</w>
多 长</w>
吊 唁</w>
千 叶
トー ゴ</w>
スキャン ダル</w>
アナ ウン
こ く</w>
か れる</w>
ur e</w>
3 52</w>
踊 る</w>
赚 取</w>
见 方</w>
空 き</w>
磋 商</w>
现代 史</w>
炮 击</w>
大 金</w>
ラ ッ
メッセ ー
ピッツ バーグ</w>
ネ ー
スライ ス</w>
だ に</w>
たま に</w>
mo u</w>
in t</w>
跟 随</w>
草 坪</w>
曹 界</w>
政 争</w>
怀 着</w>
ブ ラ</w>
ピ ッチ</w>
セリ フ</w>
スコット ランド</w>
w dm</w>
9. 11</w>
3 28</w>
顕 著</w>
美 国队</w>
球 门</w>
流 域</w>
泳 い</w>
格 子</w>
月 球</w>
振 动</w>
抽 签</w>
喫 し</w>
东 区</w>
一 说</w>
ポイン タ</w>
ポ グ・
ベ イ</w>
ブク ド</w>
た す</w>
あ お
cpu 300</w>
4 7
食 い</w>
遗 骸</w>
礼 节</w>
熱 狂</w>
海 運</w>
此 处</w>
本 剧</w>
日 差し</w>
提 倡</w>
批 发</w>
手 の
巡 访</w>
少 子化</w>
埋 める</w>
依 旧</w>
ラ ル
ゲ スト</w>
ad f</w>
鱼 类</w>
飢 え</w>
颁 发</w>
資 材</w>
訪 米</w>
要 人</w>
获 得
获得 者</w>
玄 关</w>
氧 气</w>
殺 す</w>
晩 餐</w>
文化 部</w>
对 阵</w>
増 員</w>
城 镇</w>
兔 子</w>
ング ム</w>
ワ ット</w>
コン タ
ク ルー
あ ちら</w>
sy nc</w>
饼 干</w>
闪 耀</w>
試 算</w>
裁 者</w>
緻 密</w>
細 かく</w>
第 一年</w>
滤 器</w>
没 法</w>
捕 まえ</w>
戻 さ</w>
总 书记</w>
弄 错</w>
宣 誓</w>
头 山</w>
大 岛</w>
国 歌</w>
哨 戒</w>
含 义</w>
只 顾</w>
专 心</w>
カ ーン</w>
ne x
領 有</w>
近 傍</w>
补 正</w>
棒 球队</w>
掲 げる</w>
容 所</w>
古 都</w>
匈牙 利</w>
会 わ</w>
イ オン</w>
は っ</w>
s 20</w>
金 基
科罗拉 多</w>
确 切</w>
环 球</w>
漁 業</w>
活 字</w>
死 守</w>
府 県</w>
平 澤</w>
安 藤</w>
吉 林</w>
余 力</w>
オー ト
2. 0</w>
黄 砂</w>
领 事</w>
陳 述</w>
立ち 上がり</w>
田 真</w>
法 曹界</w>
沈 ん</w>
抵 押</w>
技 量</w>
托 架</w>
卡 片</w>
出 入国</w>
冷 え</w>
传 授</w>
书 写</w>
グ ム
カ ール</w>
ふ り
ず み</w>
う つ</w>
m v</w>
14 a</w>
隙 間</w>
语 气</w>
笨 蛋</w>
熱 く</w>
未 经</w>
新 郎</w>
战 役</w>
山 脈</w>
域 中</w>
共 犯</w>
伤 亡</w>
不 然</w>
リュ ・
マ イ</w>
ポ ハン</w>
ナ ッツ</w>
ク ル
キー プ</w>
い す</w>
m 2</w>
9 30</w>
降り る</w>
阳 台</w>
防 ぎ</w>
讲 演</w>
海 豚</w>
惜 しま</w>
性 別</w>
开 馆</w>
广 东</w>
平 沢</w>
夜 叉</w>
单 打</w>
出 世</w>
一 日</w>
モ ラル</w>
ハン ガリー</w>
り ん</w>
po n</w>
en d
19 8</w>
风 情</w>
音 響</w>
開 閉</w>
道 德
远 方</w>
营业 额</w>
竞 技
硬 化</w>
案 例</w>
据 此</w>
当 ては
印 加</w>
制 约</w>
下 着</w>
6 05</w>
3. 8%</w>
高 阳市</w>
青 龙</w>
航 天</w>
脑 袋</w>
潜 艇</w>
歩 ん</w>
收 容所</w>
执 导</w>
戦 車</w>
字 典</w>
升 入</w>
供 电</w>
乳 房</w>
ご 存知</w>
9 50</w>
高 呼</w>
酒 井</w>
透 社</w>
路 透社</w>
越 す</w>
财 界</w>
脂 肪
皱 纹</w>
求 职</w>
格 斗</w>
日本 テレビ</w>
总 成绩</w>
忠 诚</w>
強 烈</w>
対 峙</w>
地 里</w>
善 戦</w>
優 勢</w>
メダ リスト</w>
チョン・ ウン
チョ ウ</w>
なん だか</w>
m y
18 6</w>
解 密</w>
表 演
背 任</w>
立 たさ</w>
满 意
渔 村</w>
浓 缩</w>
泛 滥</w>
水 池</w>
权 益</w>
有 毒</w>
无 党派</w>
悪 循環</w>
恨 み</w>
复 杂
和 田</w>
十 几</w>
十 二</w>
刹 车</w>
划 时代</w>
传 开</w>
交 際</w>
リ ュー
グ ッズ</w>
首 映</w>
頼 る</w>
配 給</w>
羽 毛
红 酒</w>
激 素</w>
曲 がっ</w>
少 将</w>
同 校</w>
ヨン サム</w>
ハ ウ</w>
ゼ ル</w>
ス ロ
グ アイ</w>
やむ を
す っ</w>
5 32</w>
連 載</w>
迁 都</w>
稼 ぐ</w>
発 刊</w>
法 学部</w>
沈 阳</w>
棉 花</w>
无 情</w>
情报 局</w>
凯 恩</w>
優 しく</w>
份 额</w>
ミネ ラル</w>
プ ン
セレ クタ</w>
グ ク
クー デター</w>
キョンサン ナムド</w>
イ・ ビョン
ふ た</w>
こと に</w>
mpe g</w>
2. 2</w>
2 72</w>
金融 界</w>
迈 出</w>
赛 车</w>
珍 珠</w>
深深 的</w>
提 拔</w>
所 信</w>
後 藤</w>
定 影</w>
大 卫</w>
基准 值</w>
升 起</w>
ノ イ</w>
ub e</w>
or t</w>
践 踏</w>
落ち 着
聴 く</w>
聴 き</w>
義務 付け</w>
残 高</w>
旅 游
教 士</w>
总 量</w>
录 制</w>
布 斯</w>
导 游</w>
安 山</w>
大 林</w>
可 視</w>
严 惩</w>
一 幕</w>
ビ ル
ド ラム</w>
ス ラム</w>
コン クリート</w>
キョン ジュ</w>
こ ま</w>
苦 戦</w>
苦 しめ</w>
耦 合器</w>
绊 脚石</w>
積 み</w>
确 定性</w>
求 婚</w>
每 场</w>
春 日</w>
无 意</w>
断 ち
届 き</w>
土 豆</w>
博 物</w>
刺 身</w>
兆 候</w>
停 电</w>
侦 察</w>
介 意</w>
主办 方</w>
ニ ック
ナイ キ
デ ス</w>
チュン アン</w>
とい って</w>
i u</w>
c k
6 6
19 61</w>
马 车</w>
進 捗</w>
负 伤</w>
硬 直</w>
煤 炭</w>
流 动性</w>
斯 蒂
拉 圭</w>
悔 し</w>
常 時</w>
崩 し</w>
子 系统</w>
土 壌</w>
听 课</w>
公 正
便 秘</w>
仮 に</w>
予 期</w>
ポ ンド</w>
フレ ンド</w>
テレ ビジョン</w>
グレ ード</w>
や める</w>
er o</w>
3. 9%</w>
2 6%</w>
长 篇</w>
言 動</w>
能 用</w>
犯 规</w>
枚 数</w>
朴 素</w>
时 变</w>
持ち 分</w>
帳 簿</w>
作曲 家</w>
人 当り</w>
き ん</w>
お ろし</w>
wo ori</w>
頼 む</w>
门 店</w>
金 荣
酒 后</w>
追 っ</w>
过 滤器</w>
身 の
白 皮书</w>
片 付け</w>
烧 毁</w>
杰 作</w>
救 っ</w>
客 厅</w>
垃 圾
商 用</w>
及 ん</w>
分 店</w>
决 算</w>
公正 性</w>
佐 官</w>
ライ オン</w>
ホ ッケ
プ ・
インター ネット
き が</w>
m mc
m in
17 8</w>
12 10</w>
置之 不理</w>
福 岡</w>
短 距離</w>
水 手</w>
教科 文</w>
抗 生</w>
懐 疑</w>
患 っ</w>
延 べ</w>
可 持续</w>
反 戦</w>
分 权</w>
下 场</w>
ダブ ルス</w>
アナウン サー</w>
ア ラ</w>
r st</w>
5 5
鈍 化</w>
裏 面</w>
藤 原</w>
老 龄化</w>
繰り 上げ</w>
経 済
窒 息</w>
空 母</w>
收 视</w>
換 算</w>
揃 っ</w>
巨 匠</w>
左 上</w>
分 集</w>
ー ス
と らえ</w>
cap ital</w>
震 度</w>
隔 離</w>
调 和</w>
見 積
礼 服</w>
磁 带</w>
瓦 解</w>
犯 罪
混 入</w>
柴 油</w>
柜 台</w>
无 料</w>
必 定</w>
康 夫</w>
工 芸</w>
安 値</w>
大 举</w>
哪 怕</w>
内 側</w>
ボ トル</w>
む こ</w>
ひ ざ</w>
っ こ</w>
ぐ る</w>
いただ ける</w>
ra n</w>
100 a</w>
0. 6%</w>
高 裁</w>
震 災</w>
难 关</w>
金炳 贤</w>
通讯 社</w>
认 同</w>
謙 虚</w>
衡 量</w>
背 上</w>
答 辩</w>
离 别</w>
研究 会</w>
白 头山</w>
最 良</w>
敗 戦</w>
抱 き</w>
幹 線</w>
席 巻</w>
岩 手</w>
如 实</w>
大 根</w>
動 か</w>
兽 医</w>
具 備</w>
乐 俊</w>
东 南</w>
ネ パール</w>
テ ファン</w>
ジャ パン</w>
キム・ ジェ
オ ク
よ っ</w>
だから といって</w>
16 a</w>
鮮 明</w>
难 过</w>
防 犯</w>
葬 式</w>
素 朴</w>
推 广</w>
延 び</w>
年 糕</w>
山 路</w>
尖 锐</w>
少 见</w>
土 木</w>
务 必</w>
傾 斜</w>
举 出</w>
両 側</w>
下 述</w>
ダイ バー</w>
り ゃ</w>
ぜ ん
し ゃ</w>
々 しく</w>
m r</w>
g w</w>
魏 圣</w>
附 带</w>
苏 省</w>
署 長</w>
潜 水
扇 動</w>
強 み</w>
差 额</w>
对 焦</w>
存 分</w>
借り る</w>
亲 子</w>
下ろ す</w>
デ レ
ッ タ
スト ップ</w>
コン テキスト</w>
カ ジノ</w>
じ つ
3 4%</w>
飼 っ</w>
衆 国</w>
荡 器</w>
総 統</w>
破 損</w>
畅 销</w>
求 職</w>
支 社</w>
据 え</w>
振 荡器</w>
安 熙正</w>
外 套</w>
合 衆国</w>
住 址</w>
低 温</w>
义 州</w>
ライ フ
ホッケ ー</w>
ディ ・
ジャ ケット</w>
ガ ル
エキ ス
エ チ
ら れれ</w>
つ う</w>
bs 6</w>
5 500</w>
15 7</w>
闘 技</w>
要 领</w>
真 人</w>
眉 毛</w>
相 手
桥 本</w>
月 光</w>
数字 化</w>
提 訴</w>
振り 回さ</w>
开 工</w>
废 弃物</w>
判 例</w>
中 野</w>
ビー チ</w>
ソン パ
ゲ ーム
t dd</w>
防 战</w>
路 里</w>
生产 量</w>
生き 方</w>
深深 地</w>
攻 防战</w>
拾 っ</w>
战 败</w>
应 付</w>
干 し</w>
安 全部</w>
外 侧</w>
域 网</w>
咱 们</w>
吐 い</w>
合 法
卡 路里</w>
亲 人</w>
クァン ファムン</w>
し たら</w>
ag e</w>
2 600</w>
長 寿</w>
辅 导</w>
船 体</w>
組み 込ま</w>
管理 员</w>
汇 总</w>
最 長</w>
手 渡し</w>
忙 しかっ</w>
従 业</w>
安 易</w>
大 会堂</w>
土 産</w>
印 字</w>
医 学院</w>
关键 词</w>
事 业
ムン・ ジェイン</w>
ベスト セラー</w>
ヒ ュ
テロ リスト</w>
カテゴ リ</w>
アー チェリー</w>
ep rom</w>
韩 熙</w>
间 隙</w>
轮 椅</w>
笼 罩</w>
盖 茨</w>
烧 酒</w>
漫 画家</w>
本 金</w>
掩 饰</w>
报 警</w>
快 感</w>
巻 く</w>
中 産</w>
ハ ッカー</w>
ソ ングン</w>
インフ レ</w>
アレ ル
p b</w>
if ft</w>
4. 6%</w>
驚 か</w>
食品 部</w>
金 秉
郑 云
邻 接</w>
运 営</w>
车 上</w>
誓 い</w>
虚 线</w>
耐 性</w>
红 外线</w>
深 める</w>
末 尾</w>
斯 塔</w>
学 分</w>
勤 める</w>
デ マ</w>
キリスト 教</w>
インター リーブ</w>
イエ ス</w>
さっ ぱり</w>
おと な
t n</w>
s 112</w>
5 7%</w>
5 22</w>
频 度</w>
酔 っ</w>
泊 尔</w>
样 式</w>
本 性</w>
斜 め</w>
扭 曲</w>
度 合い</w>
尼 泊尔</w>
外 側</w>
体 质</w>
两 侧</w>
n c
2 27</w>
19 10</w>
鹿 儿
飞 翔</w>
那 条</w>
送 来</w>
超 人</w>
西 村</w>
薬 局</w>
紧 迫</w>
称 賛</w>
标 榜</w>
放 到</w>
去 向</w>
兹 别
乌 兹别
ピ ーター</w>
ナイ ト</w>
シング ルス</w>
アイ ディア</w>
k at</w>
运 费</w>
辩 护</w>
警 视</w>
言うまで もない</w>
液 化</w>
正 当性</w>
更 生</w>
時 事</w>
广 东省</w>
山 谷</w>
尽 头</w>
宫 崎
バ ド
ダ ウム</w>
コ リ</w>
ウ ズベ
め った
めった に</w>
麦 克</w>
邂 逅</w>
適 宜</w>
遗 漏</w>
送 電</w>
起 業</w>
福 特</w>
洗衣 机</w>
汚 れ</w>
棄 権</w>
格 闘技</w>
杀 手</w>
帰 ら</w>
妨 げる</w>
執 着</w>
合 同
勝 目</w>
分 権</w>
モー ター
モ ニー</w>
ヒ ル
め き</w>
す こし</w>
あい まい</w>
u r</w>
s 208</w>
pl l</w>
逆 行</w>
社 稷</w>
眼 科</w>
痩 せ</w>
猛 暑</w>
灵 敏
新 春</w>
展 覧</w>
尘 暴</w>
审 视</w>
外 郭</w>
只 需</w>
南 省</w>
创 始
切 实</w>
保安 法</w>
事 後</w>
上 升
一 个
コ ス</w>
きわ めて</w>
あい にく</w>
v r</w>
隶 属</w>
说明 性</w>
自 負</w>
空 前</w>
火 曜日</w>
減 速</w>
校 准</w>
来 讲</w>
増 強</w>
围 墙</w>
发 来</w>
反 对
コンセ プト</w>
けん 制</w>
mmc o</w>
h o</w>
2 800</w>
领事 馆</w>
绝 对
笑 话</w>
硬 派</w>
沙 尘暴</w>
歉 意</w>
新 义州</w>
弾 力</w>
布 线</w>
小 额</w>
塑 料
场 外</w>
利 き</w>
内 向</w>
关 怀</w>
公 众</w>
事务 局</w>
ニ ョ
ら め</w>
s 17</w>
a aa</w>
5 8.
2 1%</w>
赌 场</w>
航 路</w>
稻 田</w>
福 建</w>
漂 浮</w>
淹 没</w>
揭 示</w>
户 籍</w>
弾 性</w>
呈 し</w>
北 川</w>
バイオ リン</w>
チョ・ ヨン
チェ・ ヒ
が た</w>
i po
40 a</w>
4. 3%</w>
3 25</w>
19 51</w>
除 名</w>
買 え</w>
舞 う</w>
灵敏 度</w>
火 花</w>
断 绝</w>
実 物</w>
三 明治</w>
パ ン・
チョン・ セ
スポー ツ
ギ ムン</w>
ウズベ キスタン</w>
l d
3. 2%</w>
鸠 山</w>
電 位</w>
金 振</w>
观 察
西 服</w>
肝 炎</w>
监 察
水 灾</w>
每 秒</w>
残 業</w>
手 形</w>
帅 哥</w>
富士 通</w>
复 仇</w>
四 川
受 损</w>
力 气</w>
出 发
上 半身</w>
マッ カー
フ ー</w>
ダ ・
オ ート</w>
アイス クリーム</w>
べ た</w>
き か</w>
ar a</w>
2 4%</w>
2 33</w>
高 龄化</w>
面 孔</w>
難 しかっ</w>
進 路</w>
脾 气</w>
羽毛 球</w>
空 袭</w>
清 扫</w>
治 理</w>
望 ま</w>
有 名人</w>
时 域</w>
操 業</w>
快 挙</w>
外 电</w>
井 戸</w>
リチャ ード</w>
パート ナー
の ど</w>
しき りに</w>
いた ずら</w>
mi b</w>
6 60</w>
5 16</w>
重 心</w>
进 步
肝 心</w>
浏 览</w>
派 出所</w>
死 後</w>
日 焼け</w>
日 曜</w>
政治 局</w>
得 益于</w>
川 崎</w>
动 脉</w>
中央 会</w>
リー フ</w>
ミン トン</w>
マイクロ プロセッサ</w>
ブ サン</w>
ハイ ニックス</w>
デ リ
ツ バ
ォ ン</w>
お しゃべり</w>
is o</w>
1 104</w>
遗 物</w>
迎 战</w>
该 项</w>
竞技 场</w>
瑞 拉</w>
無 断</w>
渎 职</w>
決 着</w>
木 浦</w>
悪 意</w>
山 村</w>
家 康</w>
委 内
委内 瑞拉</w>
兼 职</w>
全 校</w>
ミ ン・
フ リ
パ ナ
トリ プル</w>
チャ ット</w>
ゲ イ
ちま ち</w>
かえ っ</w>
re 10000</w>
j i</w>
ee z</w>
a ig</w>
6 6.
5 3%</w>
3 24</w>
1 20
静 静
附 件</w>
连 日</w>
辅 佐官</w>
窗 帘</w>
気 軽</w>
村 里</w>
方 块</w>
房 租</w>
布 尔</w>
实 权</w>
奥 队</w>
奢 侈</w>
国 奥队</w>
取り 入れる</w>
侵 攻</w>
但 し</w>
レ スト</w>
イー グル</w>
r m</w>
m g</w>
ht ml</w>
co st
1. 6%</w>
集 い</w>
険 しい</w>
阻 害</w>
銃 撃</w>
道德 性</w>
识别 符</w>
補 間</w>
绝 食</w>
突 き</w>
登 校</w>
池 田</w>
探 る</w>
征 用</w>
寝 室</w>
夢 見</w>
促 使</w>
产 权</w>
云 台</w>
ム ーン</w>
バー コード</w>
ネズ エラ</w>
ズーム レンズ</w>
サンディエ ゴ</w>
い や
ur i</w>
f 0</w>
谷 川</w>
置 换</w>
绝 妙</w>
替 补</w>
新人 王</w>
掛 ける</w>
技术 部</w>
憎 恨</w>
奥 尔
夢 見る</w>
伏 せ</w>
レイ アウト</w>
モデ ム</w>
バッテ リ</w>
ハ ウ
クリー ブランド</w>
革 命
补 习</w>
耳 机</w>
精 确</w>
开 辟</w>
平 安
带 走</w>
巧 み</w>
巡 演</w>
姜 正浩</w>
发 誓</w>
亲 身</w>
パ ッチ</w>
コロラ ド</w>
し くも</w>
が き</w>
え もん</w>
0. 3%</w>
輸 出入</w>
灵 感</w>
威 士
原 動力</w>
公 訴</w>
企 业界</w>
世 俗</w>
下 任</w>
上升 率</w>
一 整天</w>
ミ リ
アイ アン</w>
め ん</w>
l an
& a</w>
魔 鬼</w>
転 職</w>
脅 し</w>
结 实</w>
突 起</w>
稳 定性</w>
生 存
独 裁者</w>
特 急</w>
滑雪 场</w>
星期 四</w>
放 任</w>
收 看</w>
尚 道</w>
寄 生</w>
好 球</w>
多 方</w>
周 三</w>
冷 凍</w>
做 梦</w>
低 速</w>
交 流
一 世</w>
モニ タリング</w>
モ ー</w>
ベ ネズエラ</w>
ビデオ カメラ</w>
ウォ ンド</w>
と ん</w>
え い</w>
b er
风 土</w>
陪 同</w>
钓 鱼
輩 出</w>
诅 咒</w>
研 发</w>
疎 外</w>
服务 业</w>
月 頃</w>
拥 护</w>
御 社</w>
崛 起</w>
从 不</w>
プラ グ</w>
r sa</w>
jap an</w>
轻轻 地</w>
请 假</w>
蕾 舞</w>
芭 蕾舞</w>
结 晶</w>
签 字</w>
生 体</w>
狂 っ</w>
漂 っ</w>
気 付い</w>
既 定</w>
改 め</w>
拉 斯
弃 权</w>
大 挙</w>
増 設</w>
器 材</w>
劣 悪</w>
パートナー シップ</w>
5 60</w>
降 落
降落 伞</w>
金升 渊</w>
賢 明</w>
短 所</w>
登 頂</w>
物 产</w>
条 形
条形 码</w>
明星 赛</w>
打 線</w>
強 め</w>
広 大</w>
年 幼</w>
公 报</w>
丁 寧</w>
パク・ ジョン
ドラ えもん</w>
チェル シー</w>
シ ティー</w>
ま でも</w>
つ ぎ
あく までも</w>
s 25</w>
rpl r</w>
1. 7%</w>
1 101</w>
飛び 込ん</w>
終 戦</w>
筆 頭</w>
看 似</w>
武 田</w>
标 本</w>
染 め</w>
木 曜日</w>
旅客 機</w>
履 い</w>
史密 斯</w>
取 景
人 偶</w>
交 差</w>
中 美</w>
ロー マ
チョン・ ドゥ
チュ ング</w>
ご す</w>
いらっしゃ る</w>
飲み 物</w>
飛び 出し</w>
退 場</w>
较 为</w>
谈 谈</w>
課 後</w>
疑 わしい</w>
电 费</w>
独 断</w>
涨 率</w>
极 点</w>
書 面</w>
敌 军</w>
放 課後</w>
推 奨</w>
振 動</w>
弹 头</w>
坡 州市</w>
口 中</w>
取景 器</w>
上 涨率</w>
ファンタ ジー</w>
トー マス</w>
チェ・ ギョン
ギャ ップ</w>
ガイド ライン</w>
ウィ ジェット</w>
に 従う</w>
とど まる</w>
し わ</w>
か ぎり</w>
x i</w>
s 41</w>
16 8</w>
郑 大
肤 色</w>
秘 め</w>
生 殖</w>
法 兰克
法兰克 福</w>
此 项</w>
月 下</w>
暖 かく</w>
晚 年</w>
悪 かっ</w>
天 下り</w>
公 報</w>
乌兹别 克斯坦</w>
中 和</w>
バ ータ</w>
ト ス</w>
カン ウォンド</w>
みな さ</w>
き ゅう</w>
お 手
c ar
2 c</w>
10 01</w>
耕 作</w>
群 山</w>
細 かい</w>
数 万</w>
投 降</w>
总 和</w>
彗 星</w>
强 者</w>
年 始</w>
小 国</w>
完 走</w>
假 如</w>
信 任
人 世</w>
万 事</w>
ライ センス</w>
チョンロ グ・
ストレ ージ</w>
k i</w>
9 01</w>
限 性</w>
车 厢</w>
米 尔</w>
木 の
後 れ</w>
当 事</w>
强 硬派</w>
弱 体</w>
引 力</w>
布莱 尔</w>
千叶 县</w>
勘 違い</w>
前 列</w>
ラン チ</w>
ラ シ</w>
パー ティ</w>
バス ケ</w>
ゲ ノ
ケ ン</w>
エレ メント</w>
エレ クト
ウェ イ
お しゃれ</w>
_ 1</w>
6 8
1 204</w>
金南 一</w>
解 读</w>
罢 了</w>
终 场</w>
真っ 赤</w>
王 牌</w>
気が つい</w>
树 上</w>
有 点儿</w>
景 観</w>
所有 权</w>
戏 原</w>
城 北</w>
フラン ク
ジョ ー</w>
ば あ
ばあ ちゃん</w>
お 目
po sco</w>
9 9%</w>
7 7
3. 1</w>
19 %</w>
马 丁</w>
隐 形</w>
舌 头</w>
続 出</w>
秀 吉</w>
波 动</w>
気 づき</w>
旅 館</w>
新 華
执 笔</w>
成 形</w>
山 大</w>
基本 法</w>
围 棋</w>
周 密</w>
光 轴</w>
儿 童
便 于</w>
世界 化</w>
ロ ック
オ チョ
と ある</w>
p er</w>
4 26</w>
退 院</w>
輝 く</w>
礼 拜</w>
灿 烂</w>
榜 样</w>
感 心</w>
审 问</w>
切 れる</w>
ボ ム
ジ ラ</w>
カ ザ
お う</w>
5 18</w>
20 50</w>
風 俗</w>
酒 屋</w>
说 来</w>
華 麗</w>
脱 色</w>
維 新</w>
直 球</w>
毎 晩</w>
板 橋</w>
归 来</w>
小 型
尋 ねる</w>
口 調</w>
何 ら</w>
书 类</w>
乐 曲</w>
义 线</w>
セ メント</w>
ア ロ
た ろ</w>
お かけ</w>
m t
in e</w>
d on
bs i</w>
b ch</w>
6 03</w>
责 备</w>
質 疑</w>
袜 子</w>
纵 向</w>
王 様</w>
热 血</w>
没 頭</w>
歯 科</w>
期 末</w>
朝 廷</w>
打ち 合わせ</w>
打 折</w>
大 山</w>
士 气</w>
场 内</w>
万 物</w>
ヘッ ド
ブレ ア</w>
バ ックス</w>
お なか</w>
う け</w>
s er
s 206</w>
4 7%</w>
19 6</w>
高 空</w>
陪 审
込 める</w>
纽 约
确 実</w>
溢 れる</w>
气 质</w>
拉 夫</w>
工作 制</w>
加 州</w>
リ サイクル</w>
ス イング</w>
コン テスト</w>
ま ぶ
く れれ</w>
s1 14</w>
3 700</w>
12 b</w>
1. 3%</w>
驍 宗</w>
頭 脳</w>
遇 难</w>
白 山</w>
烹 饪</w>
村 民</w>
暴 动</w>
尔 顿</w>
北京 市</w>
军 舰</w>
仪 表</w>
レン タル</w>
フィル ター</w>
コー チ
イン トラ</w>
ま き</w>
です ね</w>
で ん</w>
かま わ</w>
部 落</w>
衰 减</w>
背 光</w>
漱 石</w>
死 傷</w>
李 容
時 限</w>
昼 間</w>
强 占</w>
局 限性</w>
取り 扱う</w>
参 赛
参 谋
冷 水</w>
例 え</w>
京 义线</w>
不 愧</w>
フィラ デル
チ ア</w>
ス パイ
カ 所</w>
ウ ソ</w>
みず から</w>
せ き</w>
nav er</w>
lin e</w>
6 5.
顽 强</w>
配 っ</w>
道 而
道 府県</w>
辣 椒</w>
覆 し</w>
耕 地</w>
磨 练</w>
知 县</w>
白血 病</w>
流 利</w>
正 值</w>
明 中</w>
抑 留</w>
手 口</w>
崇 高</w>
屁 股</w>
客 室</w>
堤 防</w>
名 胜</w>
卑 劣</w>
刺 さ</w>
出 租</w>
仅 限于</w>
万 分</w>
マケ イン</w>
ジャ クソン</w>
n y
f dma</w>
3. 3</w>
青 蛙</w>
远 东</w>
诸 国</w>
補 修</w>
裁 决</w>
蜜 蜂</w>
置 信</w>
简 易</w>
移 居</w>
消 さ</w>
活 かし</w>
新 曲</w>
拾 取</w>
強 風</w>
府 县</w>
平 野</w>
対 価</w>
外 為</w>
公 营</w>
バレ エ</w>
ハー ドル</w>
セク ハラ</w>
グリ コ</w>
グ ァ
けん 引</w>
ac t</w>
4 9%</w>
頭 痛</w>
青 森</w>
錯 誤</w>
積 分</w>
書き 込ん</w>
景 观</w>
散 ら
搭 乘</w>
挣 扎</w>
心 意</w>
広 範囲</w>
平 気</w>
山 东</w>
小 幅</w>
威 尔
参 议员</w>
切尔 西</w>
争 議</w>
不 无</w>
リ ムー
プ レ</w>
ナ ンス</w>
サイ エンス</w>
t pp</w>
6 11</w>
1. 9%</w>
通 往</w>
足 球赛</w>
荒 れ</w>
脂肪 酸</w>
栄 養
无 辜</w>
払 い
定 量</w>
女 的</w>
奥 行き</w>
加 拉
伝 搬</w>
主导 权</w>
マン ハッ
バ ター</w>
ソチョ グ・
イ・ ド
1. 1%</w>
駐 屯</w>
赛 中</w>
答 者</w>
有 功</w>
尼 奥</w>
尋 問</w>
夸 大</w>
外 す</w>
坟 墓</w>
回 答者</w>
云 々</w>
ダ ニ
エン トリ</w>
アリ ラン</w>
ア リー</w>
こだ わり</w>
w 2</w>
雅 虎</w>
蹄 疫</w>
窃 盗</w>
皮 肉
発 覚</w>
物 議</w>
濡 れ</w>
无 名</w>
思 いつ
強 まっ</w>
废 墟</w>
口 蹄疫</w>
加 熱</w>
入 侵</w>
倾 注</w>
丽 水</w>
メ ード</w>
ボ ディ</w>
ニ ョ</w>
クリ スト
いて は</w>
at m</w>
5 11</w>
腫 瘍</w>
美 学</w>
现代 人</w>
母 国</w>
杰 克</w>
掠 夺</w>
忠 誠</w>
心 跳</w>
对 比
包 ん</w>
创始 人</w>
分 け
冲 击
公 明
ポー ター</w>
フェ デ
ファ ッション
エ クス
インター ン</w>
にぎ やか</w>
とど まり</w>
かす か</w>
o ob</w>
ak b</w>
3 8%</w>
金 字
金字 塔</w>
記 し</w>
补 偿金</w>
犹 如</w>
永 住</w>
撤 销</w>
提供 者</w>
年 长</w>
塞 尔
中 川</w>
下 回る</w>
リ ハー
リハー サル</w>
ユ ース</w>
ク サン
in e
2 38</w>
10 20</w>
默 默</w>
阿里 郎</w>
関 心事</w>
開 口</w>
誹 謗</w>
维 他
维他 命</w>
社 債</w>
田 地</w>
演 变</w>
淡 水</w>
法 国队</w>
楽 団</w>
板 桥</w>
战 犯</w>
年 頃</w>
小 川</w>
各 处</w>
ボ ケ</w>
パ ト
セ フ</w>
シ ュー</w>
コ ル
ガ プ</w>
エ ル・
ご らん</w>
to p
sin r</w>
3. 4%</w>
追 击</w>
裏 付ける</w>
祖 父母</w>
漏 らし</w>
流 泪</w>
思い やり</w>
幻 灯
宽 广</w>
官 制</w>
品 種</w>
合 弁</w>
円 満</w>
克 逊</w>
低 头</w>
休 ま</w>
世 襲</w>
マンハッ タン</w>
バ ウ
キム・ビョン ヒョン</w>
あげ く</w>
mo n</w>
1 :
金 桂
試 練</w>
纯 洁</w>
細 い</w>
発 令</w>
水 资源</w>
有 效性</w>
星 球</w>
日 食</w>
并 用</w>
差 益</w>
宪 政</w>
威士 忌</w>
办公 楼</w>
冷 蔵</w>
入 者</w>
侯 赛
世 间</w>
上 京</w>
ロ ング</w>
ハン バーガー</w>
ナイキ ゴルフ</w>
ドラ フト</w>
チョ コ</w>
セジョン ノ</w>
キ シ</w>
m at
5 7
麦 凯恩</w>
高 血圧</w>
通 帳</w>
这 辆</w>
発 振
発振 器</w>
板 门店</w>
杰 克逊</w>
李 大
期 日</w>
持ち 上がっ</w>
常 駐</w>
信息 化</w>
上 等</w>
ビジ ネス
バ ク
ハ ンド</w>
っち ゅう</w>
す り
け ら</w>
s 23</w>
ic a</w>
面 上</w>
邀 请
過 ぎ
这 块</w>
自由 形</w>
洗 い
时 差</w>
无 用</w>
性 骚扰</w>
心 身</w>
客 席</w>
大 人気</w>
侯赛 因</w>
主 観</w>
マイクロ ソフト</w>
マ ヒ</w>
シン ク</w>
アナ リスト</w>
す っきり</w>
wtr u</w>
6 7
铭 记</w>
逃 げる</w>
自 觉</w>
群 组</w>
缘 分</w>
突き 止め</w>
畜 産</w>
無 く</w>
江 陵</w>
怖 く</w>
天 文
堅 固</w>
召 還</w>
功 夫</w>
保 ち</w>
价 钱</w>
ネ コ</w>
シン セ
オチョ ア</w>
あ ざ
9 9.
6 7.
6 3%</w>
6 2.
鱼 片</w>
谷 物</w>
泳 ぐ</w>
気 楽</w>
打 动</w>
悬 念</w>
心 がけ</w>
录 像
幻灯 片</w>
对比 度</w>
安 逸</w>
安 娜</w>
四 十</w>
告 げる</w>
台 上</w>
制 订</w>
主 審</w>
一 員</w>
マ ル</w>
ゲノ ム</w>
キム・ジョン ウン</w>
イン メント</w>
お 盆</w>
あ がる</w>
dh cp</w>
ac k
齿 轮</w>
駅 前</w>
食 卓</w>
門 店</w>
钱 财</w>
里 克</w>
蒸 し
绝 大</w>
滑 走</w>
板 門店</w>
撰 写</w>
弱 势</w>
交易 法</w>
亀 梨</w>
一 百</w>
レ ル</w>
ストライ カー</w>
4. 7%</w>
19 46</w>
連 中</w>
退 く</w>
解放 军</w>
蒸 汽</w>
茫 然</w>
繁 忙</w>
突 風</w>
福 岛县</w>
眼 里</w>
滑 稽</w>
曼 哈
明 記</w>
文 书</w>
撤 离</w>
打 入</w>
恒 星</w>
先 導</w>
付 し</w>
乘 务员</w>
マ ックス</w>
ブ ー</w>
ネ ガ
カレン ダー</w>
k at
6 7%</w>
鲜 艳</w>
芽 衣</w>
発 する</w>
湾 岸</w>
槿 泰</w>
最小 化</w>
暴 风雨</w>
无 駄</w>
扳 平</w>
延 滞</w>
尤 为</w>
嫉 妬</w>
夕 阳</w>
君 子</w>
同 人</w>
化 し</w>
人 大</w>
ダイヤ モンド</w>
アン ド</w>
そう ですね</w>
m an
g en
f dd</w>
b u
a fc</w>
19 58</w>
1 150</w>
高 架</w>
非 凡</w>
都 道府県</w>
近 藤</w>
親 しい</w>
西 红
西红 柿</w>
累 加</w>
电 位</w>
演 讲
有 能</w>
有 数</w>
日 時</w>
強 かっ</w>
定 時</w>
存 続</w>
始 末</w>
向 下</w>
同性 愛</w>
受け 持っ</w>
助 け
内 陆</w>
公 诉</w>
傻 瓜</w>
人 化</w>
不得 已</w>
一 昨年</w>
ディス プレー</w>
チャイ ナ</w>
セ イ</w>
ケネ ディ</w>
カイ ダ</w>
か み</w>
ありが たい</w>
windo ws</w>
t ro
st 1</w>
s 203</w>
il l
金 荣</w>
资格 证</w>
质 的</w>
苏 州</w>
脱 する</w>
紅 葉</w>
灾 区</w>
極 東</w>
栄 誉</w>
果 岭</w>
最 先端</w>
曼哈 顿</w>
日 剧</w>
教练 组</w>
慣 例</w>
恐 れる</w>
寄 り
安哲 秀</w>
取締 り</w>
勧 める</w>
分か れる</w>
中 でも</w>
ミュ ン
ファミ リー</w>
テン ポ</w>
ス ロー</w>
クレジ ット</w>
mar k</w>
cost as</w>
9 12</w>
食 生活</w>
隔 たり</w>
軽 油</w>
覆 い</w>
蒙 特
给 料</w>
線 路</w>
生 かす</w>
望 月</w>
放射 能</w>
抢 劫</w>
手 袋</w>
従 わ</w>
强 势</w>
寂 し</w>
威 信</w>
前所未 有</w>
催 し</w>
ロ ウソク</w>
マ リ</w>
トラ ヒ
スティ ック</w>
ス カ</w>
ま な
い まだ</w>
n ec</w>
ion s</w>
2 700</w>
马 林
重 性</w>
议 事</w>
美 容
立 方
歌 詞</w>
平 板</w>
実 刑</w>
在 乎</w>
回 顧</w>
唱 え</w>
分 辨</w>
借 此</w>
佐 々木</w>
ル ン
ハ ザード</w>
お お</w>
x 1</w>
4 800</w>
頂 い</w>
震 动</w>
開 館</w>
足 协</w>
貯 金</w>
访 华</w>
詰 まっ</w>
襲 撃</w>
董事 会</w>
膨 らん</w>
移 送</w>
牡 丹</w>
熄 灭</w>
焦 躁</w>
槿 惠</w>
小 便</w>
寄 生
堅 持</w>
国 史</w>
劳 工</w>
出发 点</w>
低 廉</w>
メー ター</w>
ピ ング
チョ・ ソン
サン シ</w>
ア ミ
か に</w>
so n</w>
2 9%</w>
转 嫁</w>
转 化</w>
贫 困
贤 洙</w>
自由 化</w>
章 鱼</w>
瓶 子</w>
爱 上</w>
满意 度</w>
水 質</w>
気 づく</w>
柱 子</w>
柠 檬</w>
暴 走</w>
文件 名</w>
控 え
憤 り</w>
天 花
功 労</w>
使用 费</w>
佛罗里 达州</w>
一 共</w>
ラ ブ</w>
ピ コ</w>
バイ アス</w>
4 6
鉛 筆</w>
金永 南</w>
适 切</w>
責 務</w>
要 紧</w>
纪 末</w>
竹 子</w>
立 件</w>
火 影</w>
演 艺
漁 村</w>
満 了</w>
渊 源</w>
款 待</w>
板 娘</w>
松 宮</w>
断 行</w>
带 给</w>
岳 山</w>
大 差</w>
夜 明け</w>
命 中</w>
不 远</w>
やり とり</w>
つぶ し</w>
v er</w>
s 33</w>
r o</w>
k lpga</w>
ch an
bb bo</w>
30 a</w>
2 41</w>
闘 い</w>
重 现</w>
若 是</w>
結 び</w>
系 列
特 纳</w>
東 欧</w>
景 品</w>
日 志</w>
攻击 性</w>
性 命</w>
建 设
巡 礼</w>
停 业</w>
会议 所</w>
代表 部</w>
並 ぶ</w>
两 条</w>
三 国
ロ ケ</w>
ゲ ーション</w>
あ や
s da
g u
ar f</w>
9 11</w>
黄 油</w>
预 订</w>
頂 け</w>
青 岛</w>
透 过</w>
起 立</w>
贸 易
贵 社</w>
訪 中</w>
红 衣</w>
焼 い</w>
检 查
栏 目</w>
新 築</w>
挟 ん</w>
彩 虹</w>
归 还</w>
左 腕</w>
寄生 虫</w>
好 多</w>
太 白</w>
向 往</w>
中 長期</w>
バ ン・
ジェ フ</w>
クリ ニック</w>
エ ス
つ づけ</w>
13 a</w>
饲 料</w>
銘 柄</w>
遮 蔽</w>
轻 微</w>
起こ ら</w>
立 地</w>
知ら ず</w>
疎 か</w>
生まれ つき</w>
片 手</w>
炮 弹</w>
消 滅</w>
治 疗
治 好</w>
水 害</w>
正 門</w>
拠 地</w>
执 事</w>
戦 場</w>
徹 夜</w>
山 水</w>
夜 里</w>
呼 応</w>
一 蹴</w>
ヤ マ
ヒョン デ・
ケ イ
アメリ カ
か 月</w>
yo ut
p _
3 65</w>
高 科技</w>
金 库</w>
那 场</w>
転 地</w>
苦 战</w>
脸 颊</w>
精 灵</w>
粘 性</w>
简 历</w>
立 足</w>
着 替え</w>
烟 雾</w>
烙 印</w>
海 賊</w>
浴 びる</w>
次 于</w>
書き 込ま</w>
开 门</w>
小 泽</w>
女 中</w>
天花 板</w>
同 窓
切 除</w>
中间 人</w>
一 色</w>
ロー プ</w>
トリ ノ</w>
オーディ ション</w>
ま ん
こだ わる</w>
かっこ いい</w>
pc s</w>
ic s</w>
5 4%</w>
饱 和</w>
転 嫁</w>
走 ら</w>
清 朝</w>
永 哲</w>
恐 らく</w>
平 线</w>
北 大</w>
修 剪</w>
伸 ばす</w>
任 天堂</w>
亡 くし</w>
举 办
ラ ミ
ブラ シ</w>
ハン ヤン</w>
ニ ク</w>
また ま</w>
た またま</w>
お 祈り</w>
う え
f r
风 气</w>
音 色</w>
陶 器</w>
遗 书</w>
老 板娘</w>
纪 律</w>
的 卡</w>
炫 耀</w>
暴 言</w>
四 处</w>
侦 察
似 合う</w>
ミッシ ェ
スト レート</w>
コー ディ
せ ん
じ れ</w>
3 200</w>
领导 者</w>
起 伏</w>
论 者</w>
見 出す</w>
苦 難</w>
结 尾</w>
登 記</w>
男 的</w>
焼 酎</w>
捐 献</w>
応 急</w>
弔 問</w>
山 東</w>
四川 省</w>
台 板</w>
プリン ト
ハー フ</w>
ジャ ーズ</w>
そう して</w>
読 売
終 われ</w>
神 奇</w>
灾 地</w>
改 写</w>
扰 乱</w>
大 吃
国 際
厳 密</w>
公 推</w>
作 れる</w>
书 架</w>
バッテ リー</w>
ナ タ</w>
オペ レー
イ・スン ヨプ</w>
わ き
な おさ
なおさ ら</w>
たま らない</w>
さ し
う ん
遠 ざ
辺 り</w>
直 至</w>
疑 っ</w>
甲 状
甲状 腺</w>
班 主任</w>
泰 安</w>
河 北</w>
抽 選</w>
商 场</w>
チー フ</w>
チ ・
ター ・
ゴ ロ</w>
ひ いては</w>
n k</w>
音 楽
面 白</w>
遏 制</w>
进步 党</w>
访 问
議 事</w>
読売 新聞</w>
読み 取っ</w>
要 領</w>
船 員</w>
胃 癌</w>
算 术</w>
移 譲</w>
直 感</w>
注意 力</w>
汎 用</w>
東 方</w>
来 回</w>
带 头</w>
崇 拜</w>
寛 容</w>
奔 走</w>
大 作</w>
净 化</w>
为 时</w>
ゲ ージ</w>
ま ね</w>
て ん
s 30
s 205</w>
oc r</w>
ce f</w>
19 36</w>
14 b</w>
0. 2</w>
鲸 鱼</w>
需 給</w>
节 能</w>
自治 县</w>
股 指</w>
禁 忌</w>
生 鱼片</w>
献 花</w>
清 醒</w>
浴 び
换 乘</w>
承 蒙</w>
底 下</w>
大 屠杀</w>
大 关</w>
南 端</w>
凤 凰</w>
伯 利亚</w>
交 错</w>
パク・ チョン
ノ ール</w>
ゾ ン</w>
シグ ナル</w>
y a
s 24</w>
han a</w>
4. 8%</w>
靴 下</w>
随 笔</w>
进 歩</w>
谣 言</w>
自 首</w>
水 槽</w>
権 益</w>
检 讨</w>
拓 哉</w>
悩 ま</w>
怎么 会</w>
帰 省</w>
审 核</w>
吸 う</w>
包 み</w>
傾 い</w>
リ ボン</w>
ト ランス</w>
チェジュ ド</w>
タ ップ</w>
に あたり</w>
それ なのに</w>
sho t</w>
赞助 商</w>
胸 前</w>
津 江</w>
波 罗</w>
松 井</w>
斜 坡</w>
怪 盗</w>
底 部</w>
安 东
固 醇</w>
和 也</w>
味 噌</w>
否 决权</w>
参 考
千 葉</w>
前 月</w>
全 场</w>
例 行</w>
亡く なり</w>
买 进</w>
ベ リ
バー ランド</w>
オ オ
アクセサ リー</w>
は め</w>
n al</w>
5 6%</w>
酔 い</w>
电 报</w>
民 营</w>
査 定</w>
探 险</w>
役 職</w>
弊 端</w>
席 卷</w>
取り 出す</w>
厌 烦</w>
南 西</w>
伸 展</w>
中 风</w>
中 性</w>
世界 观</w>
上 がら</w>
パ ッド</w>
バド ミントン</w>
スト ・
エ ベ
に あ
s 31</w>
add r</w>
0. 4%</w>
足 跡</w>
纪 夫</w>
粉 末</w>
相 关
法 理</w>
李相 洙</w>
攻 め</w>
忽 然</w>
延 ばす</w>
山 里</w>
山 峰</w>
将 士</w>
圣 经</w>
历 经</w>
初 级</w>
写 っ</w>
公 衆</w>
事 宜</w>
ヨン サン
モ テ</w>
ポ ップ</w>
ド ット
シャ トル</w>
サービ ス
サム ソンドン</w>
コン ソー
コ リア
カメ ラ
草 地</w>
狭 小</w>
牧 场</w>
煙 草</w>
点 钟</w>
海 戦</w>
河 里</w>
打ち 立て</w>
幼 年</w>
客 车</w>
奪 い</w>
天安 门</w>
大 麻</w>
二 分</w>
一 体化</w>
メール ゲートウェイ</w>
ファー ベ
トラヒ ック</w>
ッシ ング</w>
ジェ イ
も て
x 2</w>
s 302</w>
音 响</w>
陷 阱</w>
配 り</w>
软 盘</w>
胡 同</w>
耐 力</w>
空 腹</w>
浪 人</w>
橡 胶</w>
柔ら かい</w>
期 化</w>
時 効</w>
文学 奖</w>
插 件</w>
折 扣</w>
批 評</w>
恳 谈会</w>
岛 県</w>
天 真</w>
大 蒜</w>
复 习</w>
前 缀</w>
刻 画</w>
出 任</w>
不 止</w>
下 级</w>
三 清</w>
ミ ステ
ピ アニ
ま いり</w>
しょ っちゅう</w>
s b</w>
長 崎</w>
追 い</w>
草 莓</w>
约翰 逊</w>
留 所</w>
球 星</w>
班 子</w>
牙 科</w>
灵 通</w>
思い 出さ</w>
前 もって</w>
レ シーバ</w>
ポー タル</w>
ゆ き</w>
う し</w>
xi ang</w>
m t</w>
c rs</w>
a g</w>
6 8.
衷 于</w>
羽 毛</w>
移 り</w>
登 顶</w>
痴 呆</w>
热 衷于</w>
日 系</w>
尼 克</w>
威 尼斯</w>
大 賞</w>
变 频</w>
优 越</w>
产 部</w>
中 海</w>
ピアニ スト</w>
ナ ルト</w>
データ ファイル</w>
か える</w>
p v</w>
l or
f ace
4 3
隐 私</w>
金 宇</w>
部 数</w>
補 足</w>
纳 尔
直 結</w>
登 山
留 守</w>
片 面</w>
減 衰</w>
水 印</w>
模 擬</w>
抚 摸</w>
必 不可
庆 幸</w>
对 战</w>
寸 法</w>
完 毕</w>
奶 酪</w>
優 梨</w>
义 士</w>
スン ヒョン</w>
アル カイダ</w>
すぐ れ</w>
お 笑い</w>
yout ube</w>
m &a</w>
2. 7</w>
2 98</w>
19 59</w>
領 事</w>
金 相</w>
課 す</w>
見 極
立て 直し</w>
演奏 家</w>
油 断</w>
染 色
昨 今</w>
宝 贝</w>
囲 ん</w>
和平 奖</w>
元 化</w>
倒 是</w>
不 由</w>
ホ ット</w>
ペ ル
パ イ</w>
ソ ル
コ ラ
から には</w>
か な
お の</w>
st b</w>
s 402</w>
n d</w>
m l
ch o
马 克
関 わり</w>
金 景
辅 佐</w>
路 边</w>
缝 隙</w>
窗 外</w>
直 通</w>
李 康
時 局</w>
忧 郁症</w>
弾 頭</w>
崔 成
塗 り</w>
嘴 巴</w>
名 次</w>
受け 取ら</w>
勃 発</w>
入 伍</w>
ル イス</w>
フランク フ
タンパ ク
クロ ード</w>
ギリ シア</w>
イン プリ
の せ</w>
al m</w>
静 坐</w>
训练 场</w>
行 性</w>
羞 耻</w>
真 好</w>
氧 化</w>
朴 成
挥 手</w>
持 株</w>
得 失</w>
巴 斯</w>
崭 新</w>
孕 妇</w>
同 声</w>
入 浴</w>
传 入</w>
万 金</w>
たど り
し な</w>
v pn</w>
v ide
r c
r &
9 08</w>
. co
饿 死</w>
青 空</w>
限 期</w>
週 休</w>
要 ら</w>
纳 税
深 层</w>
泽 东</w>
射 频</w>
医 薬</w>
互 助</w>
下 端</w>
ディ ック</w>
タンパク 質</w>
り ょう</w>
だい ぶ</w>
お 話し</w>
お 正月</w>
k hz</w>
e c
d 3</w>
高 音</w>
驻 留</w>
野 兽</w>
重 用</w>
蜂 蜜</w>
自 白</w>
电 容器</w>
激 情</w>
浓 缩
梦 见</w>
朴 仁
易 懂</w>
大吃 一
大吃一 惊</w>
大 衣</w>
味わ い</w>
向 く</w>
受け継 い</w>
加 賀</w>
军 用</w>
一 成</w>
ウィ ー
やって くる</w>
an ce</w>
7 5
0. 8%</w>
钱 人</w>
連 動</w>
踊 っ</w>
貸 し
貨 幣</w>
貧 富</w>
调查 官</w>
表 決</w>
花 纹</w>
現 われる</w>
爆 炸
激 突</w>
準 々</w>
毛 泽东</w>
有 钱人</w>
探 検</w>
拘 泥</w>
戒 烟</w>
学 术
哲 学家</w>
后 果</w>
名 将</w>
光 灯</w>
レ ール</w>
フランクフ ルト</w>
パレ ード</w>
ナ ク
シン・ ジ
サン ドイ
サ プライ
エベ レスト</w>
て き</w>
mo bis</w>
19 47</w>
饱 受</w>
面 子</w>
降 ら</w>
错 觉</w>
造 り</w>
该 图</w>
裏 付け</w>
脅 かし</w>
直 ぐ</w>
田 村</w>
江 省</w>
水 产部</w>
正 統</w>
標 的</w>
手 工</w>
悄 悄</w>
忘 年会</w>
執 務</w>
催 眠</w>
人 柄</w>
マー シャル</w>
ヘ ア</w>
グ リーン
イラ スト</w>
なん となく</w>
く っ
p t</w>
l i</w>
7 22</w>
鶏 肉</w>
领 海</w>
遗 伝</w>
赵 成
覚 書</w>
糖 分</w>
男 子
海 市</w>
流 星</w>
格 林</w>
染色 体</w>
李 正
揺 れる</w>
插 图</w>
拓 扑</w>
手 枪</w>
所 蔵</w>
地 中海</w>
器 用</w>
反 响</w>
分 明</w>
並 びに</w>
ロー ズ</w>
トリ ミング</w>
スピー カー</w>
スク ラン
シ ス</w>
コ マン
カ ム</w>
よ そ</w>
ust r</w>
h eu</w>
f 4</w>
5 8%</w>
香 气</w>
调 理</w>
讲 义</w>
裁 员</w>
绝对 值</w>
破 れ</w>
疑 念</w>
王 妃</w>
整 整</w>
拍 子</w>
悪 材料</w>
急 変</w>
寂 しく</w>
子 孙</w>
奪 う</w>
喝 醉</w>
喜 ば</w>
味わ う</w>
可 口</w>
入 港</w>
レ バー</w>
ベ ッ
スタ ック</w>
ザ ン</w>
サム ソン</w>
コンソー シアム</w>
コス ピ</w>
カタ ログ</w>
だから こそ</w>
こ み</w>
う どん</w>
x xx</w>
4 -
3 9%</w>
马 德里</w>
贬 低</w>
講 堂</w>
記 さ</w>
装 订</w>
落ち 着き</w>
纳 粹</w>
種 子</w>
掘 り
山 洞</w>
ヒュ ン
わ しく</w>
や いな
やいな や</w>
ほ のめ
ぱ ら</w>
逆 境</w>
诉 讼
究 極</w>
水 深</w>
殴 ら</w>
武 术</w>
李 炳
撒 谎</w>
拳 头</w>
抜 群</w>
意 外
意外 と</w>
尼 古
報 知</w>
喜 马拉
反 撃</w>
印 章</w>
メール アドレス</w>
ボ イ
ノ ウ
ダイ ア
ザ ン
サイ ダー</w>
グン テ</w>
ぶ つけ</w>
ひ ら</w>
いか ん</w>
あり え</w>
t g
r g
m or
b an
10 08</w>
高 频</w>
需 品</w>
陪 審</w>
长 女</w>
赔 偿金</w>
资 政</w>
西 伯利亚</w>
美 亚</w>
磁 波</w>
消费 量</w>
所 与</w>
実 写</w>
即 座</w>
即 位</w>
働き かけ</w>
作 法</w>
不 平</w>
テン プレート</w>
ス ナ
お び
olt 10</w>
6. 5</w>
4 23</w>
鲁 尼</w>
飼 育</w>
闪 烁</w>
证 金</w>
空 き
移 管</w>
献 金</w>
炼 油</w>
毛 衣</w>
歌 謡</w>
標 本</w>
杰 夫</w>
既 成</w>
斯 科
思 想
开 播</w>
审 査</w>
子 育て</w>
之 急</w>
エコ ノミ
にあ たって</w>
なか ろ</w>
お 送り</w>
s 100</w>
8 500</w>
鳗 鱼</w>
高 層</w>
生まれ 変わる</w>
爱德 华</w>
爱 知</w>
法 曹</w>
污 水</w>
検察 官</w>
李 亨
有 形</w>
旦 那</w>
救 护
接 吻</w>
投げ かけ</w>
承 諾</w>
後 ろ
双 打</w>
別 個</w>
出 院</w>
做 事</w>
予 测</w>
不可 避</w>
不 合</w>
ラン ニング</w>
ペー パー</w>
スチ ル
オペ レーション</w>
も も</w>
が く</w>
かけ 離れ</w>
s ch</w>
ee prom</w>
ccu 33</w>
5 24</w>
需 求
长 期化</w>
赛 后</w>
老 爷爷</w>
相 殺</w>
电话 机</w>
玩 儿</w>
深 海</w>
根 深
搜 集</w>
抵 制</w>
懐 かしい</w>
孩 儿</w>
太 鼓</w>
乌 鸦</w>
丰 收</w>
东 芝</w>
不 该</w>
不 下</w>
一 无
モ ーション</w>
その うえ
いつの 間
音 波</w>
障 壁</w>
速 器</w>
追 撃</w>
说 实话</w>
蒂 固</w>
腹 痛</w>
离 职</w>
相 撞</w>
盒 子</w>
点 下</w>
火 葬</w>
氷 点下</w>
根深 蒂固</w>
栅 栏</w>
枕 头</w>
无 奈</w>
戦 犯</w>
快 递</w>
寄 稿</w>
天 天</w>
大学 院生</w>
劳 资政</w>
判 决
公 文書</w>
優 良</w>
停 泊</w>
伸 びる</w>
亚 历
チョ ルス</w>
セ ーター</w>
ら ず</w>
ない し</w>
こん ど</w>
s 210</w>
2 45</w>
魔 力</w>
重 根</w>
警 署</w>
胜 诉</w>
耐 心</w>
票 据</w>
着 想</w>
癌 细胞</w>
没 用</w>
朝 興</w>
文 字
単 価</w>
人行 道</w>
リ エ</w>
コンテン ツ
まと まっ</w>
っ とり</w>
wi max</w>
马林 鱼</w>
連 鎖</w>
迎 撃</w>
见 书</w>
職 位</w>
继承 人</w>
线 图</w>
无 所谓</w>
扶 安</w>
想 必</w>
惨 状</w>
強 固</w>
大 哥</w>
壁 垒</w>
光 洙</w>
ピ ザ</w>
パン ツ</w>
トロ フィー</w>
トランス ポート</w>
スチル カメラ</w>
す え</w>
th 1</w>
5 9
10 50</w>
静静 地</w>
降 水</w>
讲 谈</w>
记 忆
要 約</w>
荣 幸</w>
统 性</w>
票 数</w>
牌 子</w>
整 备</w>
广 播
巨 头</w>
州 长</w>
寛 大</w>
存 折</w>
十 九</w>
三国 志</w>
セマ ングム</w>
ゲ イ</w>
キ リ</w>
ゆ う
ち が
そう いった</w>
す ん</w>
あ した</w>
l and</w>
in v
co r
6. 5%</w>
5. 5</w>
赶 紧</w>
貼 り</w>
詰 め
老 将</w>
羞 愧</w>
現 し</w>
海 战</w>
浮 揚</w>
浓缩 铀</w>
沉 迷</w>
欠 ける</w>
标 值</w>
显 眼</w>
损 失
憲 政</w>
工 商</w>
対 向</w>
密 輸</w>
关 岛</w>
公明 党</w>
偏 振</w>
伍 德</w>
亚历 山大</w>
上 回り</w>
上 げ
ドラ ゴン</w>
ツ ァ
ギ ング</w>
アレル ギー</w>
puc i</w>
cr c</w>
7 9.
5 70</w>
4. 3</w>
2 99</w>
11 b</w>
痊 愈</w>
照 合</w>
書き 込む</w>
暂 停</w>
日 文</w>
投 下</w>
引き 渡し</w>
射 殺</w>
埋 蔵</w>
各 项</w>
单 价</w>
半 夜</w>
切 身</w>
出 众</w>
予 感</w>
中 世</w>
下 水</w>
下 巴</w>
ファン・ ウソク</w>
ティ ン</w>
チョン・モン ジュン</w>
エントロ ピー</w>
ア ウェー</w>
じ い</w>
あ ん</w>
u x</w>
s at</w>
m ent</w>
m ac
賢 い</w>
被 子</w>
至 急</w>
社会 性</w>
电 子
生き 生き</w>
洛 斯</w>
洗 钱</w>
时 空</w>
早 起き</w>
敞 开</w>
密 封</w>
出 走</w>
出 展</w>
八 月</w>
全 年</w>
作 ろ</w>
ダ ブル
サンドイ ッチ</w>
も れ</w>
t 5</w>
g p</w>
2. 1</w>
19 57</w>
15 9</w>
1 206</w>
1 103</w>
道 知事</w>
蒙 受</w>
肉 类</w>
結 束</w>
简 洁</w>
科 科</w>
相 応
爽 快</w>
救 い</w>
改 成</w>
携 わっ</w>
広 帯域</w>
干 事
常 勤</w>
巴 尔
固 く</w>
品 位</w>
发 行
勘 定</w>
割 り</w>
丹 尼尔</w>
不 尽</w>
ポロ ジ</w>
ポ リ</w>
ペ イ
ハイ テク</w>
アク ティ
そのうえ で</w>
さ き</w>
4 70</w>
雇 い</w>
集 结</w>
都 灵</w>
郑云 灿</w>
深 厚</w>
朴 钟
曲 目</w>
手 下</w>
意 见书</w>
归 档</w>
引 上げ</w>
小 児</w>
备 用</w>
初 夏</w>
冠 岳</w>
二 楼</w>
ル ック
リー ガー</w>
マネー ジャ</w>
つ け
s 401</w>
10 11</w>
0. 3</w>
轮 流</w>
足 かせ</w>
話 さ</w>
解 禁</w>
花 朵</w>
耀 眼</w>
编 写</w>
着 け</w>
独立 性</w>
流 布</w>
搁 置</w>
恩 惠</w>
年 龄
姓 氏</w>
头 顶</w>
售 出</w>
取り 付ける</w>
动 化</w>
判决 书</w>
刚 好</w>
光 临</w>
举 重</w>
主 食</w>
下 限</w>
ソン ヨン</w>
カ ナ</w>
カ チ</w>
r rc</w>
7 b</w>
2. 2%</w>
陥 り</w>
逃 脱</w>
设 在</w>
表 わす</w>
秒 钟</w>
理 论
班 人</w>
正 社員</w>
旁 观</w>
投 掷</w>
手 首</w>
川 市</w>
天文 台</w>
地 人</w>
变 身</w>
原 地</w>
南 大門</w>
再 審</w>
克 莱
保 密</w>
仲 裁
付 け
一 家人</w>
一 书</w>
ハンド ヘル
ド ット</w>
デジタル スチルカメラ</w>
カ バン</w>
ア セン
m ed
_ 2</w>
黒 く</w>
魔 王</w>
配 角</w>
迷 宫</w>
見 物</w>
自 传</w>
肥 大</w>
聴 覚</w>
耶 鲁</w>
老 い</w>
癒 着</w>
李 美
搬 出</w>
惜 しくも</w>
急 需</w>
山 地</w>
对 付</w>
変 革</w>
基 因
噩 梦</w>
参 看</w>
华 侨</w>
勝 て</w>
何 者</w>
世界 銀行</w>
一 头</w>
サ ウンド</w>
ギ ン</w>
やさ しく</w>
もう け</w>
ふ たつ</w>
ぬ ぐ
じ ょう
か く
お 伝え</w>
い し</w>
风 潮</w>
该 书</w>
老 後</w>
空 席</w>
稍 稍</w>
盛り 上がっ</w>
特 尔</w>
汉 姆</w>
正 门</w>
欠 缺</w>
果 実</w>
悲 しく</w>
必不可 少</w>
当 选者</w>
屋 内</w>
太 い</w>
坚 信</w>
吞 吐
吉 野</w>
创 伤</w>
冈 山</w>
仰 望</w>
两 岸</w>
デ ム
うかが える</w>
あれ これ</w>
hi v</w>
7 8.
3 c</w>
默 默
鸟 类</w>
阿 瑟</w>
貸 付</w>
衰 弱</w>
线 上</w>
縛 ら</w>
白 書</w>
疑 う</w>
炭 水
炭水 化物</w>
毛 皮</w>
标准 化</w>
最高 検</w>
推 断</w>
接 班人</w>
心 底</w>
异 物</w>
射 手</w>
固 執</w>
同 盟国</w>
力 説</w>
刊 载</w>
冲 绳
五 つ</w>
パラ ダイ
ド レ
ド ウ
サル コ
サ ハ
ば さ</w>
c l</w>
韩 美日</w>
読み 取ら</w>
襲 わ</w>
粉 色</w>
相 识</w>
混 ぜ
消 え
流 用</w>
推 卸</w>
拖 欠</w>
执 照</w>
户 主</w>
弗 兰
学 費</w>
吸 入</w>
口 腔</w>
卧 室</w>
剧 烈</w>
创 刊</w>
出 入口</w>
偏 离</w>
値 下げ</w>
休息 日</w>
リ コール</w>
ネ タ</w>
ジョン ス</w>
お こ</w>
sm ps</w>
s cm</w>
8 30</w>
6 ,
4 6%</w>
1 130</w>
隠 せ</w>
開 票</w>
长 长的</w>
赤 裸
象 棋</w>
見 よ</w>
租 借</w>
真 央</w>
盖 子</w>
海 抜</w>
横 た
杯 赛</w>
捕 鱼</w>
定 数</w>
告 別</w>
名 付け</w>
半 端</w>
勝 敗</w>
内 野</w>
保 卫</w>
仅 次于</w>
二 流</w>
ポ ケ
ア ブ
g r
e t</w>
金 寅
運 び</w>
許 す</w>
薄 膜</w>
著 しい</w>
物 産</w>
渡 り
步 入</w>
来 れ</w>
晚 会</w>
搬 入</w>
拉 拉
成 す</w>
小 路</w>
容 许</w>
多 角</w>
哈 尔
友 邦</w>
十 六</w>
光 陽</w>
先 ず</w>
モー ニング</w>
ス ワ
シュ タイン</w>
うれ しく</w>
8 8
4 200</w>
25. 7</w>
22 a</w>
騒 が
震 灾</w>
通 い</w>
退 社</w>
诗 歌</w>
見 上げ</w>
网 格</w>
発 症</w>
潜 伏</w>
清 新</w>
旧 態</w>
折 り</w>
大学 队</w>
六 月</w>
全 集</w>
传 染</w>
亲 友</w>
中 长期</w>
ホ ット
ダウン リンク
さ え
k ed
d n</w>
4 17</w>
2. 7%</w>
防 災</w>
関 東</w>
虫 子</w>
真っ 先</w>
焦 急</w>
暗 黙</w>
手 元</w>
巴 西
别 说</w>
偽 り</w>
会 计
・ヨン ジュン</w>
ニ ッ
カプ セル</w>
う た</w>
p ico
0. 7%</w>
酸 性</w>
道而 驰</w>
補 充</w>
菊 池</w>
船 長</w>
背 道而驰</w>
老 是</w>
约 瑟
総 体</w>
納 入</w>
簡 易</w>
游泳 池</w>
泥 土</w>
架 子</w>
書 店</w>
敬 礼</w>
执行 部</w>
平 準</w>
好 ま</w>
国际 法</w>
哈 萨
吉 祥
吉 亚</w>
及 格</w>
原 产地</w>
伤 痕</w>
交 响
七 夕</w>
ワン ピース</w>
レ オン</w>
メッセー ジ
ビ リ
バラ ード</w>
ソ ナタ</w>
シャ ープ</w>
ウィ ーン</w>
い とこ</w>
あ す</w>
w n</w>
lp cm</w>
e t
4. 4%</w>
龙 川</w>
运动 服</w>
要 し</w>
蛍 光</w>
积 极性</w>
気 流</w>
条 目</w>
摄影 师</w>
抽 屉</w>
手 作り</w>
年龄 段</w>
姜 某</w>
写 到</w>
ワ ル
ロー ル
ミー ティング</w>
ブ ロッ
フレ ーズ</w>
スケー リング</w>
シル クロード</w>
む ね</w>
こ なす</w>
y x</w>
lp g</w>
im t</w>
f re
ac l</w>
齐 心</w>
餐 桌</w>
飲 め</w>
调查 局</w>
许 可
覆 す</w>
自 主
経 ち</w>
燃 える</w>
滚 动</w>
游 览</w>
渡 过</w>
次 子</w>
松 树</w>
松 子</w>
晴 朗</w>
掲 示</w>
护 者</w>
寄 宿</w>
始 于</w>
动 手</w>
人 名</w>
一 万</w>
フェ ン</w>
ニック ネーム</w>
テキ サ
ジ ヨン</w>
ガ ール
む ず
ま り
la g</w>
3 91</w>
19 05</w>
黑 白</w>
館 長</w>
陆 上</w>
阻 抗</w>
選 別</w>
连 合</w>
过 半</w>
车 票</w>
花 旗</w>
耐 える</w>
縮 め</w>
福 德</w>
石 田</w>
点 球</w>
河 水</w>
欠 場</w>
枪 支</w>
小 岛</w>
坚 实</w>
名 门</w>
危 う
分 界线</w>
冲 撃</w>
公 告
促 销</w>
主 观</w>
一 期</w>
ヤ ク
マ ジック</w>
ウ ー
の まま</w>
ね ん</w>
つ づ
3. 7</w>
11 60</w>
10 6a</w>
10 06</w>
鲜 花</w>
騒 動</w>
风 速</w>
赠 品</w>
貴 族</w>
田 中
決 裂</w>
暴 動</w>
新 幹線</w>
合 金</w>
去 留</w>
出 れ</w>
准 则</w>
付き 合う</w>
シ ベリア</w>
ク ラン
エレクト ロ
イン ピー
こう む
v d</w>
6 4%</w>
誘 拐</w>
社 民党</w>
牛 仔
氷 河</w>
步 兵
平 素</w>
小 公</w>
好 人</w>
基 亚</w>
合 算</w>
使 者</w>
享 有</w>
ルック アップ
ヨル ダン</w>
ミ ッション</w>
プラテン カバー</w>
ファイ ア</w>
テ ック</w>
スン ヨン</w>
サン タ
ケ ル
キャ スティング</w>
め く</w>
お は
t 4</w>
es g</w>
风 力</w>
预 备
负 有</w>
节 制</w>
缺 省</w>
维 奇</w>
约瑟 夫</w>
盛り 上げ</w>
甲 级</w>
気に 入ら</w>
歴 任</w>
数十 亿</w>
批 量</w>
手 軽</w>
悲 鳴</w>
応 える</w>
宫 城县</w>
安 纳</w>
基因 组</w>
只 想</w>
包 囲</w>
別 荘</w>
万 岁</w>
ティ ション</w>
シンセ ゲ</w>
オ タク</w>
ゆ る
み せる</w>
た れ</w>
し な
5 09</w>
19 54</w>
黄 河</w>
鳴 らし</w>
马 尔
除 か</w>
里 兰
邦 交</w>
行 本</w>
署 长</w>
示 威
磁 器</w>
真 珠</w>
熱 烈</w>
無 駄
災 い</w>
源 地</w>
振 荡</w>
払 拭</w>
战 略
届 ける</w>
大 批</w>
外 食</w>
化 肥</w>
余 儀
众 人</w>
亲 生</w>
产 经</w>
プラテン ガラス</w>
フラン ク</w>
ネ ーション</w>
キッ チン</w>
イ・ ゴン
おか ず</w>
lov e</w>
7 11</w>
3 800</w>
食 器</w>
霸 权</w>
钢 琴
道 のり</w>
过 高</w>
苦 悩</w>
聖 書</w>
毛 线</w>
死 な</w>
正 反対</w>
标 语</w>
朴 相
徽 章</w>
取り 込み</w>
卖 掉</w>
千 米</w>
北 西</w>
分 娩</w>
兄 妹</w>
人 為</w>
人 意</w>
不 动产</w>
下 半身</w>
ミュン ヘン</w>
ミ ズ
ゴ ク
キム・ グンテ</w>
で た
でた らめ</w>
さ ほど</w>
sv c</w>
l cd
cpu 201</w>
_ i</w>
5 80</w>
隠 蔽</w>
重 逢</w>
部 活</w>
遇 难者</w>
踪 者</w>
課 せ</w>
組み 立て</w>
第 八</w>
真 偽</w>
申し 出</w>
熱 帯</w>
海 警</w>
浮 动</w>
搅 拌</w>
拉拉 队</w>
工 艺
妥 善</w>
向か い
名 づけ</w>
变 革</w>
南 下</w>
位 移</w>
东 源</w>
上 書き</w>
一 新</w>
モ ス</w>
ミ サ</w>
プロ ポーズ</w>
ヒュー ストン</w>
バ リ</w>
ネガ ティブ</w>
と に</w>
s 50</w>
p ict
4 42</w>
预 言</w>
降 下</w>
郑大 哲</w>
范 畴</w>
立ち 向かう</w>
祝 愿</w>
示威 者</w>
理 发
牛仔 裤</w>
日 历</w>
意気 込み</w>
心 者</w>
干事 长</w>
尴 尬</w>
失 踪者</w>
吞吐 量</w>
口 頭</w>
前 年度</w>
初 心者</w>
全球 性</w>
中 排</w>
リー ダ</w>
ファイ ナル</w>
バス 停</w>
ハンド ボール</w>
ナビ ゲーション</w>
コ メディ</w>
わ り
そ か</w>
いつの間 にか</w>
l ed
ic bm</w>
face book</w>
黎 明</w>
零 售
难 受</w>
踢 球</w>
路 易</w>
裕 福</w>
落 札</w>
素 人</w>
精神 病</w>
穆 朗
申し 込ん</w>
珠 穆朗
溶 液</w>
李 舜臣</w>
敷 い</w>
投资 额</w>
怒 る</w>
市 区</w>
居 酒屋</w>
地方 区</w>
后 半期</w>
厚 く</w>
写 出</w>
住 宅
中 时</w>
万 が
万が 一</w>
ラ ジ
フレ ッシュ</w>
ヌ ード</w>
セ クション</w>
コンピュー ティング
イノ ベーション</w>
アン ス</w>
yo u</w>
s 18</w>
n p</w>
g re
饮 用</w>
鉴 于</w>
邮 箱</w>
避 暑</w>
起 见</w>
败 给</w>
言うまで もなく</w>
覚 め</w>
肉 食</w>
石 器</w>
発 病</w>
电 容</w>
産 ん</w>
海 滩</w>
河 内</w>
沉 着</w>
架 空</w>
明 言</w>
掛け 声</w>
抱き しめ</w>
扎 根</w>
惨 敗</w>
往 复</w>
年 々</w>
多 于</w>
公 款</w>
公 审</w>
余 震</w>
严 重性</w>
ノウ ハウ</w>
クリスト ファー</w>
さ わ
おか しく</w>
あり のまま</w>
c bs</w>
2 48</w>
0. 9%</w>
黄 昏</w>
逆 变</w>
退 还</w>
诉 说</w>
蓝 牙</w>
致 辞</w>
腕 時計</w>
而 易
的 中</w>
特 级</w>
燃 焼</w>
沐 浴</w>
格 鲁
救护 车</w>
所 为</w>
心 血</w>
庭 園</w>
应 试</w>
崔 泰
大 笑</w>
启 发</w>
去 年末</w>
北 海</w>
利 広</w>
余儀 なく</w>
一 封</w>
ティ ・
セ ラ
ス ループ
ジョ ギング</w>
シャ ル・
アン ト・
t ar
s 310</w>
6 3
4 32</w>
风 暴</w>
适 度</w>
请 教</w>
绘 制</w>
総 数</w>
甘 く</w>
熊 本</w>
打 開</w>
恶 心</w>
急 務</w>
山 城</w>
実 在</w>
太平 洋
壮 士</w>
卖 店</w>
則 っ</w>
内 海</w>
ポ ッター</w>
ダニ エル</w>
キ ュ</w>
ウ プ</w>
ウ サギ</w>
は あ</w>
つ り</w>
5 31</w>
高 低</w>
領 事
領事 館</w>
金寅 植</w>
选 拔
运营 商</w>
親 友</w>
烤 肉</w>
流 畅</w>
月 給</w>
惊 喜</w>
心 痛</w>
好 消息</w>
天安 門</w>
发 制
发制 人</w>
共同 通信</w>
ベ ート
トレ ンド</w>
チェン ジ</w>
スタン ダード</w>
カリ スマ</w>
カウン ト
イ・チョン ス</w>
イ ヤ</w>
ろ く</w>
じ っくり</w>
t ti</w>
4 25</w>
顺 调</w>
金 斯</w>
贝 克
解 い</w>
菊 花</w>
自 语</w>
膨ら ま</w>
等 式</w>
称 え</w>
明 尼
数 亿</w>
挤 满</w>
拦 截</w>
忘 れ
学 旅行</w>
固 い</w>
决 战</w>
修 学旅行</w>
侦察 机</w>
伝 わり</w>
优 待</w>
バー ディ</w>
イル カ</w>
しま え</w>
こだ わっ</w>
st r
c a
8 03</w>
金 孝
重 审</w>
连接 线</w>
讲 究</w>
覇 権</w>
落ち着 か</w>
肝 脏</w>
社会 党</w>
瀬 戸
清 秀</w>
浮か び
斯 州</w>
惜 しい</w>
急 救</w>
後 端</w>
就 业率</w>
嫌 悪</w>
坏 话</w>
围 巾</w>
受 領</w>
发 电站</w>
卢 泰愚</w>
分 校</w>
不 适</w>
パッ ティング</w>
ッ ジ
ス リー</w>
ガー ナ</w>
s 9</w>
s 51</w>
puc ch</w>
g l
f f
b t
2. 3%</w>
19 4</w>
見 合わせ</w>
芸 人</w>
紧 随</w>
神奈 川县</w>
石 碑</w>
疲 れ
浄 化</w>
洗 礼</w>
歯 止め</w>
樱 井</w>
時 分</w>
新 车</w>
整 齐</w>
当 务
当务 之急</w>
开发 院</w>
就 业者</w>
威 嚇</w>
如 山</w>
可 数</w>
光 泽</w>
保 证金</w>
京 都
为 题</w>
ハン ドル</w>
ザイ トゥ
コン バータ</w>
カ・ ソレンスタム</w>
ほ こり</w>
せ めて</w>
あ がり</w>
々 と</w>
. or
黄 长
鲁 甲</w>
飓 风</w>
绽 放</w>
细 微</w>
粗 暴</w>
短 短</w>
知り 合っ</w>
甲 板</w>
田 空港</w>
混 凝
混凝 土</w>
根 基</w>
条 旗</w>
星 条旗</w>
政治 性</w>
抄 袭</w>
好 看</w>
可 取</w>
原 野</w>
即 时</w>
使用 量</w>
不 由
メ ド
ボー カル</w>
プ クト・
ト ン・
シ フト
エ スカ
に じ
あ ご</w>
pl ay</w>
bs 10</w>
4 c</w>
19 9</w>
诊 所</w>
行 える</w>
苏 丹</w>
等 々
等々 力</w>
立体 图</w>
病 房</w>
电 量</w>
玛 峰</w>
燃 え
新闻 网</w>
放 假</w>
投 篮</w>
手 球</w>
悪 夢</w>
巡 逻</w>
寒 暄</w>
哪 种</w>
吉 尔</w>
刊 行</w>
个 数</w>
不 全</w>
モ リ</w>
トップ クラス</w>
セ イ
コ ツ</w>
グラ フィック</w>
il e</w>
5 ,
3. 6</w>
郑梦 宪</w>
裁 量</w>
纵 横</w>
疾 走</w>
現 物</w>
殴 っ</w>
格鲁 吉亚</w>
旅 団</w>
接 点</w>
娱 乐
地 毯</w>
兴 奋
公 務</w>
乗 組</w>
上 がれ</w>
ホン ダ</w>
ティ ング・
チョン ゲ
スループ ット</w>
ゴ ー</w>
オ ブ</w>
ひ い</w>
つ ぎ</w>
だ の</w>
く ま</w>
く さい</w>
き つい</w>
cpu 106</w>
br id
7. 5%</w>
3. 2</w>
黄长 烨</w>
马克 思</w>
随 即</w>
降 落</w>
連 れ
自 信心</w>
相次 ぎ</w>
発 振</w>
特 里</w>
火 炬</w>
消 耗
水 田</w>
招 か</w>
市 面</w>
工 学部</w>
威廉 姆斯</w>
喷 发</w>
呼 唤</w>
吸 烟
双 眼</w>
分 行</w>
仮 称</w>
両 社</w>
ニュー タウン</w>
シン ハン</w>
シ ム</w>
コン ・
gn i</w>
an a</w>
4. 1%</w>
18 4</w>
议 事堂</w>
神 宫</w>
真 に</w>
献 给</w>
特 惠</w>
深 思</w>
接 球</w>
探 偵</w>
应 聘</w>
年 明け</w>
婆 さん</w>
原 价</w>
出 家</w>
冰 岛</w>
保守 派</w>
二 战</w>
不 符</w>
上 品</w>
プレミ アム</w>
パ クト
チュンチョン ナムド</w>
セル ビア</w>
グ ッド</w>
キョン ヒ</w>
ほん とに</w>
黄 善
高 手</w>
豪 感</w>
自 豪感</w>
紫 外線</w>
空 想</w>
神 殿</w>
眼 球</w>
真 伪</w>
相 等</w>
珠穆朗 玛峰</w>
湖 水</w>
泊 まり</w>
歩 き
日 方</w>
挙 がっ</w>
房 产</w>
恭 喜</w>
子 集</w>
大 洋</w>
固 める</w>
可 行</w>
力 強く</w>
兴奋 剂</w>
以 防</w>
一人 暮らし</w>
フ スタン</w>
サラ ダ</w>
ゴン ドン</w>
カザ フスタン</w>
イ・ヨン ピョ</w>
ほ ん</w>
な に
うん ざり</w>
7 8
雪 橇</w>
防 空</w>
進 退</w>
管 弦</w>
现 出</w>
爱 人</w>
激 怒</w>
激 光
母 语</w>
晚 宴</w>
日 经</w>
无 意识</w>
忘 却</w>
微笑 ん</w>
库 县</w>
平 年</w>
工 地</w>
変 質</w>
堕 胎</w>
吨 级</w>
区 段</w>
劣 势</w>
刹 那</w>
兵 库县</w>
克 拉</w>
先 发制人</w>
傷 つける</w>
不 看</w>
ルックアップ テーブル</w>
ボ イス</w>
ファーベ ーク</w>
フ ルーツ</w>
チョルラ ナムド・
ソン ギュ
セジョン ロ</w>
スリ ム</w>
ジュ ングン</w>
ゴ ールド
エド ワード</w>
ま ことに</w>
た たい</w>
さ っと</w>
to k
sp i</w>
p a
h ar
b ig
6 1%</w>
2. 8</w>
黑 猩猩</w>
鮮 やか</w>
阿 里</w>
適 格</w>
足 り
详 情</w>
议 决</w>
草 食</w>
管理 局</w>
筆 者</w>
爵 士
流 行っ</w>
枪 鱼</w>
未 だに</w>
振 ら</w>
指挥 官</w>
手 掌</w>
寄 る</w>
安德 森</w>
女 婿</w>
八 点</w>
交 锋</w>
乗 務</w>
ヨ ナ</w>
ホ イ
ベ ク</w>
チ ス</w>
コ・ ゴン</w>
お 疲れ
wi i</w>
uc c</w>
18 8</w>
1 10
驱 逐
被 害者</w>
虐 杀</w>
租 金</w>
爆 料</w>
榻 米</w>
榻 榻米</w>
検 診</w>
日 来</w>
放 开</w>
支 配
徴 用</w>
復 讐</w>
家 賃</w>
害 する</w>
嬉 し</w>
哺 乳</w>
力 強い</w>
净 利润</w>
养 殖</w>
八 重子</w>
人民 军</w>
乡 下</w>
丸 く</w>
ユニ フォーム</w>
マトリ ックス</w>
フェ ア</w>
ビ ッド</w>
バー ジニア</w>
び ら</w>
の 間</w>
ぐ ん</w>
お ご
い ん</w>
u ne
np o</w>
j av
3 1%</w>
盧 武</w>
願 書</w>
附 加
闭 合</w>
鉱 物</w>
通 宵</w>
肌 色</w>
维 也
维也 纳</w>
理 工科</w>
猜 测</w>
活 泼</w>
民 兵</w>
比 如说</w>
残 骸</w>
楽し ま</w>
悼 念</w>
容 赦</w>
天 海</w>
場 外</w>
味 儿</w>
吸 取</w>
収 束</w>
勿 論</w>
分 红</w>
了 承</w>
举 止</w>
不由 得</w>
三 浦</w>
ロイ ター
メン バ</w>
テ ージ</w>
ジ ク</w>
グラン ド・
や ん</w>
か さ
x ml</w>
4. 8</w>
阿 姆
阿姆 斯特
裁 减</w>
行 え</w>
脊 椎</w>
老 实</w>
米 兰</w>
浮か べる</w>
李 明
旅 途</w>
数 え
散 っ</w>
挑 战
抗 生素</w>
投 射</w>
常 有</w>
岛 市</w>
孙 基
奔 驰</w>
取 付</w>
出 没</w>
休 学</w>
争 先
ング ラ
ライ ト
ラ テン
プログラ ミング</w>
タ ント</w>
ストライ ク</w>
サルコ ジ</w>
グロー ブ</w>
グル ジア</w>
ひ ら
v id</w>
s 301</w>
r& d</w>
9 40</w>
面 对面</w>
钢 笔</w>
金 枪鱼</w>
遠 鏡</w>
迷 信</w>
迷 い</w>
转 身</w>
车 両</w>
请 看</w>
细 心</w>
病 状</w>
游 击
毛 利</w>
望 遠鏡</w>
月 薪</w>
散 文</w>
教 界</w>
插 曲</w>
多 数
増 殖</w>
嘱 咐</w>
合 体</w>
信用 度</w>
供应 商</w>
使用 率</w>
両 替</w>
一 批</w>
レ モン</w>
ただ しい</w>
g ro
3 300</w>
重 构</w>
过 早</w>
身 着</w>
胡 萝卜</w>
経 理</w>
穷 人</w>
清 源</w>
清 单</w>
沪 江</w>
時 差</w>
思 索</w>
富 人</w>
审 定</w>
实质 上</w>
塗 っ</w>
却 说</w>
减 速</w>
佛 像</w>
五 郎</w>
一 千</w>
ヨ ハ
ハ プ
ネイ バー</w>
コー ダー</w>
ぶつ かり</w>
じゃ ん</w>
き ら</w>
あく まで</w>
7 2%</w>
退 避</w>
调查 权</w>
苦 境</w>
爵士 乐</w>
深 呼吸</w>
正 要</w>
振る っ</w>
従 軍</w>
库 尔德</w>
师 傅</w>
大 分</w>
坐 下</w>
囲 碁</w>
团 体
名 品</w>
到 访</w>
分 区</w>
儒 教</w>
プロ ダ
コー ロン</w>
エコノミ スト</w>
もら お</w>
まつ わる</w>
ほのめ かし</w>
は まっ</w>
あん まり</w>
d re
6. 15</w>
6 16</w>
4. 2%</w>
親 しく</w>
肺 癌</w>
职 能</w>
立 候補</w>
清 潔</w>
流 派</w>
洋 溢</w>
注意 深く</w>
梅 花</w>
控 える</w>
慰 问</w>
悬 挂</w>
实 效性</w>
回 过</w>
反 射
勝 訴</w>
力 不足</w>
农 作物</w>
償 還</w>
保 住</w>
久 しい</w>
ロマン チック</w>
プロバイ ダ</w>
バッファ リング</w>
mfp 101</w>
mc s</w>
19 56</w>
预 感</w>
音楽 家</w>
韩 佳</w>
闷 热</w>
贯 性</w>
谚 语</w>
見 当たら</w>
落 叶</w>
纳 得</w>
素 早く</w>
競 走</w>
着 目</w>
相 符</w>
清 道</w>
民 浩</w>
替 わる</w>
暂 且</w>
时 限</w>
持ち 込ん</w>
役 人</w>
尔 特</w>
土 星</w>
咨 询
反 日</w>
加 速器</w>
佩 戴</w>
低 谷</w>
人 工
下 り
ロイター 通信</w>
チョン・ デ
ウィリア ムズ</w>
インピー ダンス</w>
は かる</w>
つ いて
ぜ い
p an
m it</w>
k s</w>
i ps</w>
i 16</w>
4. 9%</w>
2. 6%</w>
驱逐 舰</w>
逐 年</w>
芳 香</w>
肉 眼</w>
穿 越</w>
県 内</w>
电 动机</w>
水 族
横 向</w>
故 国</w>
收 缩</w>
打ち 出す</w>
恐 后</w>
容 貌</w>
实 用
定 番</w>
奥 行</w>
坏 人</w>
哈萨 克斯坦</w>
名 詞</w>
初 年度</w>
偽 物</w>
交 響</w>
争先 恐后</w>
レ スポ
レスポ ンス</w>
チュ ソク</w>
め ど</w>
に ら
こ ま
s10 7</w>
cpu 112</w>
预测 性</w>
非 典</w>
零 食</w>
配 线</w>
透 かし</w>
読 书</w>
英 镑</w>
育 つ</w>
習 い</w>
絶 た</w>
灯 笼</w>
断 り</w>
截 面</w>
感 触</w>
容 姿</w>
商 家</w>
呕 吐</w>
同 班</w>
召 回</w>
剥 奪</w>
個 数</w>
争 吵</w>
ング ン・
ラ グ
チョン・ サン
ステ ン
イ・ゴン ヒ</w>
し よう</w>
4. 2</w>
10 21</w>
重 点
身 价</w>
观 者</w>
要 塞</w>
花 嫁</w>
紧 接着</w>
理 应</w>
漁 民</w>
満 塁</w>
洞 察</w>
李 成
晩 年</w>
接 纳</w>
接 地</w>
损失 额</w>
抗 体</w>
张 开</w>
家 用</w>
取り 込ま</w>
停 電</w>
仪 器</w>
从 属</w>
リ ップ</w>
トリ ウム</w>
ス ノー
イン トラ
b i
黄善 洪</w>
阵 线</w>
重 ねる</w>
螺 旋</w>
脱 却</w>
綱 紀</w>
版 权</w>
照 度</w>
溶 解</w>
步 枪</w>
旅 人</w>
排 行</w>
择 优</w>
扫描 仪</w>
後 期</w>
張 ら</w>
市 販</w>
孤 儿</w>
圆 周</w>
吸 い</w>
古 来</w>
主 として</w>
ブ レイ
アニ カ・ソレンスタム</w>
もっ たい
む い</w>
さ くら</w>
いか にも</w>
t y</w>
k bs
金 光
親 指</w>
蚂 蚁</w>
莱 斯</w>
花 瓣</w>
舞台 剧</w>
羽 田</w>
纵 火</w>
纪念 碑</w>
精 细</w>
真 夏</w>
無駄 遣い</w>
測 位</w>
最 古</w>
文 库</w>
揭 开</w>
崩 れる</w>
孤 児</w>
加 入者</w>
初 中生</w>
共 済</w>
公 元前</w>
代 え</w>
不 祥
ファ クシ
ド デバイス</w>
セ ール</w>
ウェブ ページ</w>
ア キュ
っ ぱ</w>
p i</w>
b a
2 62</w>
麻 雀</w>
降 临</w>
阁 僚</w>
银 色</w>
話し 合わ</w>
規 範</w>
立ち 上がる</w>
私 設</w>
磁 性</w>
直 視</w>
猛 增</w>
照 亮</w>
楽し め</w>
極 点</w>
最 上</w>
斯 基</w>
探 测器</w>
工艺 品</w>
岩 木</w>
均 一</w>
团体 赛</w>
公 顷</w>
入 門</w>
中 隊</w>
ダイナ ミック</w>
クライ アント・
おは よう</w>
n am
開 校</w>
長 手</w>
金 海</w>
里 根</w>
腎 臓</w>
秘 鲁</w>
珊 瑚</w>
爱 知县</w>
無 知</w>
橙 色</w>
概 して</w>
检察 员</w>
格 上げ</w>
数 次</w>
教 区</w>
效 益</w>
捕 捞</w>
押し 上げ</w>
感染 者</w>
恥ず かしく</w>
开放 型</w>
富 山</w>
地 球
只 见</w>
只 用</w>
功 績</w>
停 戦</w>
体 性</w>
主 上</w>
上 下班</w>
スタ ント</w>
シャ ッタ</w>
はた して</w>
す ま</w>
お 湯</w>
s ec</w>
s 32</w>
40 0
3 g</w>
2 43</w>
韓 煕
试 试</w>
评 判</w>
規 律</w>
築 く</w>
直 觉</w>
皮 肤
無 理
栖 息</w>
未 熟</w>
朗 读</w>
意気 込ん</w>
快 適</w>
密 室</w>
复 帰</w>
基 督</w>
土 曜</w>
出 し
三 井</w>
ワーク ショップ</w>
ミ ラ
プレミ ア
パク・ ジュヨン</w>
ハン カチ</w>
チュー ブ</w>
コ イル</w>
ア グ
ほ か
g r</w>
as s</w>
鳴 動</w>
鍛 え</w>
運 搬</w>
迪 斯
这 会</w>
轰 炸
轰炸 机</w>
转 折
載 せる</w>
足 らず</w>
证 拠</w>
行 政部</w>
航 母</w>
立ち 直
独 り</w>
深 まる</w>
極 度</w>
日 経</w>
撤 军</w>
持 てる</w>
戴 国</w>
并 排</w>
官 室</w>
存 亡</w>
嫌 う</w>
大 雄</w>
周 四</w>
变 小</w>
假 币</w>
你 家</w>
ニン ニク</w>
ドジャ ーズ</w>
テ レ</w>
アイス ランド</w>
ゆ み</w>
钢琴 家</w>
通 缉</w>
选 手
躍 進</w>
蓝 天</w>
自 救</w>
自 卫
罗 南</w>
精 心</w>
畅 销
男 孩子</w>
电路 图</w>
獅 子</w>
橄榄 球</w>
捧 げる</w>
扶 養</w>
总 管</w>
快 餐</w>
左 足</w>
右 腕</w>
収 める</w>
勝ち 取っ</w>
功 绩</w>
前 夜</w>
修 了</w>
习 俗</w>
不 妊</w>
ロー スクール</w>
レス リング</w>
タイ マー</w>
ソ ゴンドン</w>
ジ ス</w>
ギ ア</w>
ま ん</w>
ふ く</w>
dpf 1a</w>
c s
雄 大</w>
附 着</w>
阳 川</w>
軽 量</w>
覆 う</w>
裁 定</w>
競 泳</w>
百 亿</w>
田 川</w>
林 省</w>
朗 読</w>
服 饰</w>
推 举</w>
振 れ</w>
戻 ら</w>
彼 得
平 地</w>
帰 化</w>
头 衔</w>
埋 没</w>
嘉 宾</w>
去 掉</w>
产 业
ヨン チョル</w>
デ トロ
チョン・ドゥ ファン</w>
ジェネ レータ</w>
グ アム</w>
た まっ</w>
8 22</w>
马 拉</w>
類 型</w>
阵 地</w>
重 任</w>
转折 点</w>
譲 っ</w>
請 約</w>
真っ 向</w>
玩 家</w>
特 典</w>
游 击</w>
浮 い</w>
池 塘</w>
枯 れ</w>
机 种</w>
时 而</w>
收 纳</w>
岛 第</w>
在 来</w>
其 间</w>
中 世纪</w>
ダン サー</w>
アン ツ</w>
や や
だ まさ</w>
ご 存じ</w>
6 200</w>
3 34</w>
3 ,
19 52</w>
1. 0</w>
逐 一</w>
选手 村</w>
败 者</w>
装甲 车</w>
腰 部</w>
经 受</w>
硫 酸</w>
盗 作</w>
电 算</w>
本 意</w>
明尼 苏
明 快</w>
斯 洛
政 厅</w>
征 求</w>
度 假</w>
履 修</w>
局 内</w>
孙基 祯</w>
妄 言</w>
大 局</w>
塞尔 维亚</w>
在 校生</w>
周 到</w>
变 迁</w>
发 酵</w>
到 场</w>
创 出</w>
做 菜</w>
互 换</w>
云 龙</w>
乙 女</w>
不 败</w>
一 滴</w>
ム ソン</w>
ミネ ソ
ヌ ー
トラフィ ック
ジュ シ・
シン ク
ク ィ
エリ ザ
アセン ブリ</w>
お ど
t 0</w>
sl ate</w>
r d</w>
f b</w>
d o</w>
8 9
鉱 山</w>
赶 到</w>
触 っ</w>
義 理</w>
看 护</w>
洋 葱</w>
欺 凌</w>
底 力</w>
序 号</w>
小 山</w>
専 担</w>
宽 松</w>
大 火</w>
墨 水</w>
合 え</w>
内 审</w>
共 同社</w>
人 脈</w>
ヴ ォ
ヨン ナム</w>
ホ ラー</w>
プレ フィ
チョン・セ ギュン</w>
た ず
お 世話</w>
c f</w>
2 71</w>
金 周</w>
那 次</w>
过 头</w>
账 单</w>
落と さ</w>
绰 号</w>
流 产</w>
权 力
斗 士</w>
托 付</w>
悔 しい</w>
弗 吉
名 教授</w>
厌 倦</w>
击 打</w>
偏 振
付 着</w>
予 言</w>
不 倫</w>
一 旁</w>
ロッ テ
ミ シ
ヒュン ダイ</w>
チ ー</w>
ソ ガン</w>
キ ラー</w>
ほ ど
び く</w>
な り
pico flo</w>
pd n</w>
id s</w>
19 3</w>
韓 明淑</w>
金 城</w>
見つ け
补 给</w>
蔷 薇</w>
而 代
而代 之</w>
罪 恶</w>
濒 临</w>
歩 兵</w>
文 具</w>
收 藏
指 着</w>
寻 呼</w>
套 装</w>
取 而代之</w>
原 色</w>
原 画</w>
利 尔</w>
准 确
不 肯</w>
不 平等</w>
ペ ・
パク・チョン ヒ</w>
パク・ ソン
ツ ェ
ス ヨン</w>
ケー タイ</w>
オ ハイ
ほか なら</w>
に まつわる</w>
たい した</w>
ざ た</w>
長 城</w>
野 山</w>
通 称</w>
買 わ</w>
虚 弱</w>
祈 求</w>
矫 正</w>
烟 火</w>
深 セン</w>
来 访</w>
服务 员</w>
市 政厅</w>
屋 敷</w>
尔 文</w>
守 れ</w>
売 れる</w>
塑 造</w>
域 内</w>
参 院</w>
动 工</w>
到 手</w>
全 美</w>
代表 作</w>
不 难</w>
レン ダリング</w>
ポン プ</w>
バン カー</w>
ハンドヘル ドデバイス</w>
ネ イル</w>
ヌ ル</w>
ディ ン</w>
チョン・ ソン
ス メ</w>
コレ クション</w>
カ ラム</w>
アメリカ 合衆国</w>
is u</w>
重点 的</w>
配 音</w>
贯 穿</w>
試 験
舍 弃</w>
老 百姓</w>
皇 族</w>
畅销 书</w>
男 児</w>
湖 畔</w>
最 大手</w>
数十 万</w>
慕 尼
思想 家</w>
德 语</w>
巴 巴</w>
尽 全力</w>
嫌 わ</w>
妥 当性</w>
地 質</w>
副 本</w>
依赖 性</w>
不 具合</w>
チェ ン</w>
ス ルー</w>
ま える</w>
とら われ</w>
しか た</w>
we f</w>
tran slate</w>
su per
l v
4 52</w>
3 54</w>
11 21</w>
随 身</w>
金 容
赶 快</w>
診 察</w>
联 军</w>
痛 め</w>
留 给</w>
电影 界</w>
生 田</w>
生 後</w>
燕 岐</w>
無 名</w>
汕 子</w>
桃 子</w>
早 苗</w>
建 て
套 餐</w>
受 害人</w>
凶 悪</w>
全 方位</w>
儀 式</w>
丸 い</w>
ル ド
リ ビング</w>
ポー リング</w>
チェ・ ビョン
ソンギュ ングァン</w>
ク ジラ</w>
キム・ ミ
み ち</w>
づ らい</w>
t t</w>
5. 2%</w>
4 62</w>
阿尔 及
金 汉
重量 挙げ</w>
遠 慮</w>
話 しかけ</w>
見 なし</w>
衣 裙</w>
肾 脏</w>
総 力</w>
確 かめ</w>
知 情
特 律</w>
流 浪</w>
洛 克</w>
沙 汰</w>
求 人</w>
梅 西</w>
根 县</w>
柔ら かく</w>
机 遇</w>
斯坦 福</w>
抜け 出す</w>
开 票</w>
底 特律</w>
岛 根县</w>
小 船</w>
寄 予</w>
大 队</w>
培 養</w>
图 画</w>
喧 嘩</w>
吴 世
叛 乱</w>
劣 る</w>
出 迎え</w>
冷 め</w>
内 陸</w>
入れ よ</w>
倍 増</w>
他 家</w>
不 时</w>
ゲイ ツ</w>
カ メ</w>
オハイ オ</w>
みな す</w>
さっ そく</w>
w fp</w>
vs ig
po w
餐 具</w>
適 時</w>
造 假</w>
连 衣裙</w>
相 应
相应 地</w>
無 縁</w>
根 幹</w>
果た せ</w>
抱 住</w>
実 習</w>
実 利</w>
外 籍</w>
后 援</w>
右 足</w>
受け 止める</w>
即 刻</w>
切 ない</w>
全 文</w>
全 教会</w>
余 りに</w>
不 懈</w>
ム レータ</w>
マッカー サー</w>
ペ ク
ファクシ ミリ</w>
チョン・ ジェ
ソ ル・
シン・ジ エ</w>
アキュ ムレータ</w>
も かも</w>
なか でも</w>
ぎ っ</w>
pm i</w>
ked o</w>
i an</w>
2 74</w>
音 速</w>
青 木</w>
金 振
迪斯 尼</w>
跳 槽</w>
趋 于</w>
蒙特 利尔</w>
范 根</w>
礼 拝</w>
欢 呼声</w>
格 雷</w>
树 叶</w>
搾 取</w>
扭 转</w>
户 外</w>
怨 恨</w>
定 律</w>
字 体</w>
大 震災</w>
大 叔</w>
受 不了</w>
光 彩</w>
任 さ</w>
不祥 事</w>
ベ イ
ヒョ ウ</w>
パ ロ
ナ トリウム</w>
チョン・ジョン ベ</w>
サ モ</w>
エンターテ インメント</w>
イスラ ム
アレ クサン
あきら める</w>
h ig
b psk</w>
b b</w>
4 34</w>
遗 留</w>
这 不</w>
虚 伪</w>
能 为</w>
聴 衆</w>
职 者</w>
罗 讷</w>
漂 う</w>
校 验</w>
書 込み</w>
显 微
显微 镜</w>
抜 本</w>
戦 績</w>
性 欲</w>
平 衡
层 级</w>
名 曲</w>
交 换
专 机</w>
バ ングラ
シン デレ
カ ラス</w>
イラ ー</w>
r s
n bc</w>
kat -
bs 14</w>
5. 5%</w>
2 35</w>
预 选</w>
青 写真</w>
起 草</w>
贴 上</w>
請 願</w>
营 养
脱 水</w>
肥 皂</w>
美 妙</w>
機 体</w>
栄 え</w>
未 だ</w>
断 る</w>
必 需品</w>
巴西 队</w>
就 达</w>
将 棋</w>
审判 长</w>
埠 頭</w>
口 语</w>
卡 洛斯</w>
决 定
人 与
人与 人</w>
ラ ッシュ</w>
ス マー
ジャ ム</w>
遗 弃</w>
通 学</w>
近 づき</w>
課 外</w>
衆 議院</w>
色 あ
等 価</w>
物 語っ</w>
爵 士</w>
炭 酸</w>
河 口</w>
極 大</w>
枯 竭</w>
招 标</w>
憎 悪</w>
引き ず
开 张</w>
在 哪</w>
嗜 好</w>
冷 たく</w>
冰 冷</w>
余 分</w>
专 卖店</w>
ワイ ド</w>
メ ッシュ</w>
バ ナー
ト ニー</w>
テキサ ス・
る ま</w>
w b</w>
s10 9</w>
s di</w>
s 30</w>
3 400</w>
3 35</w>
2. 6</w>
餐 饮
野 营</w>
车 子</w>
論 じ</w>
算 了</w>
环 路</w>
特 殊
準 拠</w>
正 道</w>
春 川</w>
成 る</w>
後 押し</w>
店 員</w>
市 政</w>
山 崎</w>
小 事</w>
密 着</w>
学术 界</w>
光 谱</w>
健 身</w>
マルチ キャスト
ペ ナル
ト ク
ディズ ニー</w>
む だ</w>
こと し</w>
sy ste
23 a</w>
15 a</w>
黄 某</w>
駆 逐</w>
長 野</w>
迪 士
覗 き</w>
表 扬</w>
网 络
総 量</w>
研究 者</w>
目 击</w>
浅 い</w>
泽 民</w>
有 意识</w>
有 史
有史 以来</w>
有 り</w>
改 革
小 指</w>
宋 某</w>
大 隊</w>
外 务</w>
図 り</w>
四 强</w>
古 川</w>
反 動</w>
利 か</w>
冲 走</w>
ラブ ストーリー</w>
チェ・ヒ ソプ</w>
ストリー ミング</w>
ほ ほ
kat- tun</w>
in 1</w>
2 58</w>
16 9</w>
鸭 子</w>
马 山</w>
难 忘</w>
迪士 尼</w>
跳 过</w>
记者 团</w>
蘑 菇</w>
约 旦</w>
直 撃</w>
皮肉 っ</w>
火 山
明 瞭</w>
措 辞</w>
採 点</w>
振り返 り</w>
惋 惜</w>
引き 離し</w>
布 鲁</w>
姜 锦
大 佐</w>
回 升</w>
受 精</w>
冬 休み</w>
免 疫
产 科</w>
中 指</w>
中 傷</w>
两 点</w>
両 端</w>
ジュ ・
サン タ</w>
イスラム 教</w>
アップ リンク
む け</w>
と める</w>
し っ</w>
うる さい</w>
あ たっ</w>
pl e</w>
p 17</w>
l ive</w>
l h</w>
k in
an t
8 18</w>
8 05</w>
7 8%</w>
3. 8</w>
黑 社会</w>
離 陸</w>
金秉 准</w>
道 谷</w>
迟 钝</w>
起 码</w>
豊 作</w>
若 年</w>
臨 ん</w>
聞 け</w>
痛 む</w>
根 性</w>
日 照</w>
成 功率</w>
得 上</w>
後 進</w>
就 让</w>
实 名</w>
完 胜</w>
处 罚
喷 出</w>
和 睦</w>
司令 塔</w>
俄 亥
乾 い</w>
一 様</w>
リモート コマン
リア ・
マ ダム</w>
フー リエ</w>
セ ール
ステ ル
イ・ ギ
とき どき</w>
た けれ</w>
c ts</w>
7 05</w>
6 70</w>
2 82</w>
零 細</w>
雪 花</w>
降 雨量</w>
重 庆</w>
踏み 出し</w>
站 台</w>
立て 直す</w>
痴 呆
灾 民</w>
法 規</w>
散 る</w>
接 力</w>
探 究</w>
市 中</w>
山 道</w>
専 任</w>
富 含</w>
姜锦 远</w>
占 卜</w>
供 与</w>
互 补</w>
中 途
レ ガ
フィ ル</w>
ト ングク</w>
タ ブー</w>
ソ ウル
ま く</w>
おの おの</w>
q psk</w>
m on
6 6%</w>
4 700</w>
默默 地</w>
麦克 阿瑟</w>
讲 台</w>
西 ドイツ</w>
被 动</w>
被 る</w>
自 发</w>
考 査</w>
組 立</w>
紳 士</w>
納 める</w>
白 雪</w>
灯 火</w>
歪 み</w>
概 ね</w>
机 关
春 树</w>
散 落</w>
德 洙</w>
延 びる</w>
实 感</w>
宛 て</w>
大 河
大 意</w>
型 号</w>
垂 れ
卫生 间</w>
出 轨</w>
健 全
乏 しい</w>
パーソ ナル</w>
ド クター</w>
ド キ
クラスメ ート</w>
ね ー</w>
sk y
s 26</w>
s 19</w>
d sc
食い 止める</w>
陶 瓷</w>
過 言</w>
贫 乏</w>
貨 店</w>
評 し</w>
視 力</w>
被 盗</w>
肮 脏</w>
细 腻</w>
空 缺</w>
百 貨店</w>
文 彦</w>
整 列</w>
操 作
提 唱</w>
打 捞</w>
悲 し</w>
恰 好</w>
当 期</w>
女 友</w>
天 性</w>
大 都</w>
半 面</w>
公 論</w>
信 度</w>
体育 会</w>
企 鹅</w>
中途 半端</w>
ベ アラ</w>
プ クト</w>
フィラデル フィア</w>
ス ランプ</w>
の け</w>
po p</w>
髪 型</w>
骚 乱</w>
顾 虑</w>
露 营</w>
进 国</w>
蓄 积</w>
落 败</w>
羁 绊</w>
粉 红色</w>
离 任</w>
礼 堂</w>
知情 权</w>
瓦 尔</w>
特 勒</w>
权 者</w>
数 える</w>
平 穏</w>
处罚 法</w>
增 设</w>
取り 込む</w>
参 観</w>
单 人</w>
务 性</w>
写 し</w>
六 点</w>
休 業</w>
伊 丽
伊丽 莎
レ ム</w>
モン トリ
ホ スト
ド ー</w>
オピ ア</w>
エチ オピア</w>
しょう が</w>
6 9
造 就</w>
转 录</w>
脈 絡</w>
纲 领</w>
立ち 寄っ</w>
称 霸</w>
短 大</w>
痴呆 症</w>
生 人</w>
深 まっ</w>
最高 级</w>
新闻 社</w>
持 参</w>
恶 作
恶作 剧</w>
开 枪</w>
带 上</w>
墓 参り</w>
发 育</w>
分析 器</w>
互 換</w>
一 再</w>
バック アップ</w>
ニ スト</w>
ジャイ アンツ</w>
mo on</w>
dp a</w>
青 龍</w>
露 呈</w>
附 上</w>
闭 症</w>
重 演</w>
车 型</w>
補 填</w>
脑 筋</w>
纪念 品</w>
相手 取っ</w>
环 绕</w>
満 喫</w>
法 师</w>
歩 む</w>
欠 い</w>
林 肯</w>
李亨 泽</w>
李 京
本 願</w>
本 木</w>
書 け</w>
智 久</w>
明 暗</w>
掌 管</w>
指 尖</w>
抑 郁症</w>
徐 清源</w>
師 匠</w>
小 狗</w>
塞 俄
塞俄 比亚</w>
堵 住</w>
埃 塞俄比亚</w>
农 户</w>
係 わる</w>
ユー ザ
メロ ディー</w>
ハイ レベル</w>
コンサル タント</w>
エ バーランド</w>
や ま</w>
お 子
st l</w>
s 120</w>
pc 100</w>
in de
2. 1%</w>
鳴 り
震 撼</w>
连 队</w>
赛 马</w>
读 完</w>
特 曼</w>
混 じっ</w>
江 泽民</w>
李 氏</w>
最低 限</w>
智 力</w>
星 空</w>
时 会</w>
新 泽
扇 子</w>
弥 撒</w>
引 渡</w>
年 月</w>
工作 组</w>
山 梨</w>
展 会</w>
受 益</w>
北 极</w>
别 名</w>
冲绳 县</w>
二 大</w>
九 月</w>
不 健全</w>
下 水道</w>
一 見</w>
一 并</w>
リ アン</w>
ネット ワー
タ ブ</w>
ソ ー</w>
キョンサン ブクド・
な で</w>
5 07</w>
19 40</w>
长 征</w>
遵 从</w>
逝 去</w>
転 倒</w>
負 い</w>
誠 に</w>
营 利</w>
自 省</w>
统 治
线 条</w>
看 成</w>
的 心</w>
本 番</w>
救 世
支 路</w>
摆 放</w>
握 住</w>
指 先</w>
後 者</w>
彷 徨</w>
失 利</w>
呼び かける</w>
同 局</w>
卞 良</w>
出 征</w>
全 う</w>
僧 侣</w>
他 社</w>
レッ ド
ル ネ
ブ ール</w>
ヒ ント</w>
ティング システム</w>
ウ ド
と たん</w>
おか しな</w>
v ie
s 53</w>
da c</w>
as e</w>
面 粉</w>
長 身</w>
银 行
追 って</w>
评 议</w>
细 小</w>
目 の
生 み</w>
灰 姑娘</w>
洲 际</w>
洗 手
泰 山</w>
汚 職</w>
次 ぎ</w>
根 強い</w>
时 任</w>
断 絶</w>
換 えれ</w>
总 局</w>
怀 抱</w>
役 所
帰 れ</w>
家 出</w>
字 符
头 球</w>
取り 扱い</w>
勤 劳</w>
劝 说</w>
修 道</w>
你 的心</w>
人 赛</w>
亲 笔</w>
乗 れ</w>
丹 东</w>
メ ル</w>
フォ ーク</w>
ティ ック</w>
コ ウ
クォン・ オ
もら わ</w>
っ こり</w>
そ っぽ</w>
v a</w>
ipo d</w>
8 4%</w>
7 6.
7 14</w>
風 土</w>
防 线</w>
辛 格</w>
踏み 切っ</w>
解 き
裏 金</w>
菲 利
绘 图</w>
终 的</w>
結び つけ</w>
睫 毛</w>
男 士</w>
犯罪 者</w>
概 念
格 言</w>
杂 草</w>
机 感</w>
暴 风</w>
揺る がす</w>
按 时</w>
投 身</w>
手 入れ</w>
悲 壮</w>
外 景</w>
壊 す</w>
困 ら</w>
原 産地</w>
危 机感</w>
加 斯</w>
创造 力</w>
出 港</w>
决 裂</w>
傷 つい</w>
体 外</w>
不 参加</w>
レジ スト
ヤン シ</w>
ッ ピング
ス プ
ジ ・
カ ト
よ ら</w>
ひっ くり
s 404</w>
5 2%</w>
3 45</w>
3 43</w>
17 7</w>
. go
鬱 陵</w>
预备 役</w>
転 覆</w>
起 义</w>
综 艺</w>
砂 浜</w>
相 亲</w>
監 獄</w>
清 理</w>
洗 面</w>
李容 勋</w>
排 泄</w>
怎 麽</w>
往 前</w>
強 姦</w>
市 議会</w>
夏 目</w>
増 額</w>
唤 醒</w>
名 副
名副 其实</w>
取り ざた</w>
千 亿</w>
北 極</w>
初 戦</w>
切 尼</w>
克萨 斯州</w>
光 是</w>
假 装</w>
作 词</w>
仮 説</w>
乾 杯</w>
乗り 換え</w>
ボ ブ</w>
ステ レオ</w>
スタン フォード</w>
グラン ド
み そ</w>
ま みれ</w>
ぶ し</w>
この 間</w>
h ss</w>
ap p
8 40</w>
4 41</w>
11 25</w>
1 120</w>
金 世
躍 り
賞 賛</w>
評 判</w>
表 紙</w>
螃 蟹</w>
药 店</w>
第三 方</w>
短 編</w>
看 点</w>
推 向</w>
外 泄</w>
喇 嘛</w>
周 二</w>
升 高</w>
出 社</w>
体 细胞</w>
仁 川市</w>
主 務</w>
与 会
ラ フ</w>
ホン ジェ</w>
ド キ</w>
ッ カ</w>
ゼ ン</w>
ス リ</w>
シンク タンク</w>
イ・ ソン
も る</w>
は ずれ</w>
つ けよ</w>
こ もり</w>
おお むね</w>
w an</w>
t ft
s 403</w>
s 209</w>
ip v6</w>
f 14</w>
12 50</w>
鲜 血</w>
飼 料</w>
閉じ 込め</w>
門 医</w>
钉 子</w>
近 づけ</w>
辛 辛
読 める</w>
索 马里</w>
白 石</w>
理 屈</w>
王 位</w>
清 澈</w>
洪 锡
机 上</w>
术 师</w>
日 产</w>
攻击 力</w>
拉 大</w>
手 榴
张 民浩</w>
尽 き</w>
専 門医</w>
大 运河</w>
十 月</w>
努 める</w>
中 意</w>
ケー ション
イ カ</w>
ね っ</w>
4 28</w>
2 75</w>
高 橋</w>
隔 阂</w>
阴 暗</w>
閉 じる</w>
読 取り</w>
衝 動</w>
菩 萨</w>
莲 花</w>
精 华</w>
磁 场</w>
真 意</w>
相 见</w>
痛 感</w>
甲 子</w>
深 感</w>
注 册
毅 然</w>
步兵 师</w>
染 まっ</w>
政治 犯</w>
志 士</w>
微 量</w>
引 越し</w>
庇 护</w>
定 制</w>
发 源地</w>
反 ばく</w>
公告 栏</w>
事 典</w>
中 锋</w>
レン ジャーズ</w>
ティー ショット</w>
チュ ード</w>
ゴール デン
ク ルド</w>
ふ つう</w>
な ので</w>
し けれ</w>
げ さ</w>
あた かも</w>
f ss</w>
b ro
適 法</w>
過 失</w>
追い 上げ</w>
迫 ら</w>
诱 发</w>
缩 略</w>
研 制</w>
相 性</w>
百 忙</w>
無 形</w>
标 明</w>
服 刑</w>
应 急</w>
帅 气</w>
守 ろ</w>
姜 祯</w>
奶 粉</w>
囚 犯</w>
商 议</w>
呐 喊</w>
出 射</w>
兼 ね
体 检</w>
产 业化</w>
ミョン ・
マ ン・
ヘン リー</w>
スペ クト</w>
ウォール ストリー
ら しかっ</w>
さわ やか</w>
こ いつ</w>
う っかり</w>
se ar
1 208</w>
飛 び</w>
颜 料</w>
隐 退</w>
部 将</w>
被 爆</w>
节 炎</w>
纹 身</w>
繋 がっ</w>
糾 明</w>
皮 鞋</w>
激光 器</w>
波 斯
正 视</w>
撮 ら</w>
扫 墓</w>
役に 立た</w>
头 疼</w>
可 不</w>
厳 し</w>
切 に</w>
乗り 込ん</w>
中 南米</w>
两 用</w>
ー ー</w>
モ ナ
ポー ト
ブ タ</w>
ビョン ・
ネ ック</w>
スティ ッキー</w>
ザイトゥ ーン</w>
クァ チョン</w>
キ レイ</w>
じ き</w>
さ よ
けれ ば</w>
ぐ れ</w>
v ip</w>
s w</w>
a k</w>
高 尚</w>
金 成</w>
辞 さ</w>
跳ね 上がっ</w>
起 っ</w>
詫 び</w>
要 么</w>
茶 碗</w>
良 し</w>
生まれ 変わっ</w>
熟 練</w>
滞 納</w>
渓 谷</w>
流 露</w>
沈 み</w>
死 角</w>
检 举</w>
斯 林</w>
报 刊</w>
投影 仪</w>
投 与</w>
年 月日</w>
対 等</w>
寒 假</w>
学 ば</w>
娃 娃</w>
夏 日</w>
塗り 替え</w>
回 帰</w>
囚 人</w>
变 态</w>
協 商</w>
信 奉</w>
估 算</w>
七 月</w>
ビッ グ
っぽ く</w>
p l</w>
e spn</w>
b y</w>
7 1%</w>
6 24</w>
1 302</w>
1 30
赠 与</w>
负 增长</w>
药 师</w>
维 基</w>
結 ば</w>
異 変</w>
流 亡</w>
江 东</w>
暮 し</w>
早 稻田</w>
文 喜</w>
教 諭</w>
救 护</w>
抜 き
意 地</w>
惠 子</w>
悪 性</w>
忌 避</w>
尹 光雄</w>
字符 串</w>
大 騒ぎ</w>
卸 任</w>
十 万</w>
前 列
前列 腺</w>
人 知</w>
争 斗</w>
下 一步</w>
ミッシェ ル・
キム・ ウン
カ ミ</w>
さよ なら</w>
え と</w>
s an</w>
n y</w>
[...]
